{
  "version": "1.0",
  "truncation": null,
  "padding": null,
  "added_tokens": [
    {
      "id": 0,
      "content": "<pad>",
      "single_word": false,
      "lstrip": false,
      "rstrip": false,
      "normalized": false,
      "special": true
    },
    {
      "id": 1,
      "content": "<unk>",
      "single_word": false,
      "lstrip": false,
      "rstrip": false,
      "normalized": false,
      "special": true
    },
    {
      "id": 2,
      "content": "<bos>",
      "single_word": false,
      "lstrip": false,
      "rstrip": false,
      "normalized": false,
      "special": true
    },
    {
      "id": 3,
      "content": "<eos>",
      "single_word": false,
      "lstrip": false,
      "rstrip": false,
      "normalized": false,
      "special": true
    },
    {
      "id": 4,
      "content": "<|user|>",
      "single_word": false,
      "lstrip": false,
      "rstrip": false,
      "normalized": false,
      "special": true
    },
    {
      "id": 5,
      "content": "<|assistant|>",
      "single_word": false,
      "lstrip": false,
      "rstrip": false,
      "normalized": false,
      "special": true
    },
    {
      "id": 6,
      "content": "<|system|>",
      "single_word": false,
      "lstrip": false,
      "rstrip": false,
      "normalized": false,
      "special": true
    },
    {
      "id": 7,
      "content": "<|eot|>",
      "single_word": false,
      "lstrip": false,
      "rstrip": false,
      "normalized": false,
      "special": true
    },
    {
      "id": 8,
      "content": "<|dialogue|>",
      "single_word": false,
      "lstrip": false,
      "rstrip": false,
      "normalized": false,
      "special": true
    },
    {
      "id": 9,
      "content": "<|philosophy|>",
      "single_word": false,
      "lstrip": false,
      "rstrip": false,
      "normalized": false,
      "special": true
    }
  ],
  "normalizer": {
    "type": "Sequence",
    "normalizers": [
      {
        "type": "Replace",
        "pattern": {
          "String": "“"
        },
        "content": "\""
      },
      {
        "type": "Replace",
        "pattern": {
          "String": "”"
        },
        "content": "\""
      },
      {
        "type": "Replace",
        "pattern": {
          "String": "‘"
        },
        "content": "'"
      },
      {
        "type": "Replace",
        "pattern": {
          "String": "’"
        },
        "content": "'"
      },
      {
        "type": "Replace",
        "pattern": {
          "String": "—"
        },
        "content": "-"
      },
      {
        "type": "Replace",
        "pattern": {
          "String": "–"
        },
        "content": "-"
      },
      {
        "type": "Replace",
        "pattern": {
          "String": "…"
        },
        "content": "..."
      },
      {
        "type": "NFKC"
      }
    ]
  },
  "pre_tokenizer": {
    "type": "ByteLevel",
    "add_prefix_space": true,
    "trim_offsets": true,
    "use_regex": true
  },
  "post_processor": {
    "type": "TemplateProcessing",
    "single": [
      {
        "SpecialToken": {
          "id": "<bos>",
          "type_id": 0
        }
      },
      {
        "Sequence": {
          "id": "A",
          "type_id": 0
        }
      },
      {
        "SpecialToken": {
          "id": "<eos>",
          "type_id": 0
        }
      }
    ],
    "pair": [
      {
        "SpecialToken": {
          "id": "<bos>",
          "type_id": 0
        }
      },
      {
        "Sequence": {
          "id": "A",
          "type_id": 0
        }
      },
      {
        "SpecialToken": {
          "id": "<eos>",
          "type_id": 0
        }
      },
      {
        "SpecialToken": {
          "id": "<bos>",
          "type_id": 0
        }
      },
      {
        "Sequence": {
          "id": "B",
          "type_id": 1
        }
      },
      {
        "SpecialToken": {
          "id": "<eos>",
          "type_id": 1
        }
      }
    ],
    "special_tokens": {
      "<bos>": {
        "id": "<bos>",
        "ids": [
          2
        ],
        "tokens": [
          "<bos>"
        ]
      },
      "<eos>": {
        "id": "<eos>",
        "ids": [
          3
        ],
        "tokens": [
          "<eos>"
        ]
      }
    }
  },
  "decoder": {
    "type": "ByteLevel",
    "add_prefix_space": true,
    "trim_offsets": true,
    "use_regex": true
  },
  "model": {
    "type": "BPE",
    "dropout": null,
    "unk_token": "<unk>",
    "continuing_subword_prefix": null,
    "end_of_word_suffix": null,
    "fuse_unk": false,
    "byte_fallback": false,
    "ignore_merges": false,
    "vocab": {
      "<pad>": 0,
      "<unk>": 1,
      "<bos>": 2,
      "<eos>": 3,
      "<|user|>": 4,
      "<|assistant|>": 5,
      "<|system|>": 6,
      "<|eot|>": 7,
      "<|dialogue|>": 8,
      "<|philosophy|>": 9,
      "!": 10,
      "\"": 11,
      "#": 12,
      "$": 13,
      "%": 14,
      "&": 15,
      "'": 16,
      "(": 17,
      ")": 18,
      "*": 19,
      "+": 20,
      ",": 21,
      "-": 22,
      ".": 23,
      "/": 24,
      "0": 25,
      "1": 26,
      "2": 27,
      "3": 28,
      "4": 29,
      "5": 30,
      "6": 31,
      "7": 32,
      "8": 33,
      "9": 34,
      ":": 35,
      ";": 36,
      "<": 37,
      "=": 38,
      ">": 39,
      "?": 40,
      "@": 41,
      "A": 42,
      "B": 43,
      "C": 44,
      "D": 45,
      "E": 46,
      "F": 47,
      "G": 48,
      "H": 49,
      "I": 50,
      "J": 51,
      "K": 52,
      "L": 53,
      "M": 54,
      "N": 55,
      "O": 56,
      "P": 57,
      "Q": 58,
      "R": 59,
      "S": 60,
      "T": 61,
      "U": 62,
      "V": 63,
      "W": 64,
      "X": 65,
      "Y": 66,
      "Z": 67,
      "[": 68,
      "\\": 69,
      "]": 70,
      "^": 71,
      "_": 72,
      "`": 73,
      "a": 74,
      "b": 75,
      "c": 76,
      "d": 77,
      "e": 78,
      "f": 79,
      "g": 80,
      "h": 81,
      "i": 82,
      "j": 83,
      "k": 84,
      "l": 85,
      "m": 86,
      "n": 87,
      "o": 88,
      "p": 89,
      "q": 90,
      "r": 91,
      "s": 92,
      "t": 93,
      "u": 94,
      "v": 95,
      "w": 96,
      "x": 97,
      "y": 98,
      "z": 99,
      "{": 100,
      "|": 101,
      "}": 102,
      "~": 103,
      "¡": 104,
      "¢": 105,
      "£": 106,
      "¤": 107,
      "¥": 108,
      "¦": 109,
      "§": 110,
      "¨": 111,
      "©": 112,
      "ª": 113,
      "«": 114,
      "¬": 115,
      "®": 116,
      "¯": 117,
      "°": 118,
      "±": 119,
      "²": 120,
      "³": 121,
      "´": 122,
      "µ": 123,
      "¶": 124,
      "·": 125,
      "¸": 126,
      "¹": 127,
      "º": 128,
      "»": 129,
      "¼": 130,
      "½": 131,
      "¾": 132,
      "¿": 133,
      "Â": 134,
      "Ã": 135,
      "Ä": 136,
      "Å": 137,
      "Æ": 138,
      "Ç": 139,
      "È": 140,
      "É": 141,
      "Ê": 142,
      "Ë": 143,
      "Ì": 144,
      "Í": 145,
      "Î": 146,
      "Ï": 147,
      "Ð": 148,
      "Ñ": 149,
      "Ò": 150,
      "Ô": 151,
      "Õ": 152,
      "Ö": 153,
      "×": 154,
      "Ø": 155,
      "Ù": 156,
      "Ú": 157,
      "Û": 158,
      "Ü": 159,
      "à": 160,
      "á": 161,
      "â": 162,
      "ã": 163,
      "ä": 164,
      "å": 165,
      "æ": 166,
      "ç": 167,
      "è": 168,
      "é": 169,
      "ê": 170,
      "ë": 171,
      "ì": 172,
      "í": 173,
      "ï": 174,
      "ð": 175,
      "ó": 176,
      "Ā": 177,
      "ă": 178,
      "Ĉ": 179,
      "ĉ": 180,
      "Ċ": 181,
      "č": 182,
      "đ": 183,
      "ē": 184,
      "ę": 185,
      "Ě": 186,
      "ě": 187,
      "Ġ": 188,
      "Ģ": 189,
      "ģ": 190,
      "Ĥ": 191,
      "ĥ": 192,
      "Ħ": 193,
      "ħ": 194,
      "Ĩ": 195,
      "ĩ": 196,
      "Ī": 197,
      "ī": 198,
      "Ĭ": 199,
      "ĭ": 200,
      "Į": 201,
      "į": 202,
      "İ": 203,
      "ı": 204,
      "Ĳ": 205,
      "ĳ": 206,
      "Ĵ": 207,
      "ĵ": 208,
      "Ķ": 209,
      "ķ": 210,
      "ĸ": 211,
      "Ĺ": 212,
      "ĺ": 213,
      "Ļ": 214,
      "ļ": 215,
      "Ľ": 216,
      "ľ": 217,
      "Ŀ": 218,
      "ŀ": 219,
      "Ł": 220,
      "ł": 221,
      "Ń": 222,
      "Ġt": 223,
      "Ġa": 224,
      "in": 225,
      "he": 226,
      "re": 227,
      "on": 228,
      "er": 229,
      "Ġs": 230,
      "Ġthe": 231,
      "at": 232,
      "Ġc": 233,
      "nd": 234,
      "Ġo": 235,
      "es": 236,
      "en": 237,
      "it": 238,
      "Ġw": 239,
      "or": 240,
      "an": 241,
      "ou": 242,
      "Ġp": 243,
      "ing": 244,
      "Ġand": 245,
      "is": 246,
      "Ġf": 247,
      "Ġm": 248,
      "al": 249,
      "Ġto": 250,
      "Ġb": 251,
      "Ġin": 252,
      "ed": 253,
      "ion": 254,
      "Ġof": 255,
      "Ġd": 256,
      "ar": 257,
      "ic": 258,
      "le": 259,
      "om": 260,
      "Ġh": 261,
      "as": 262,
      "Ġe": 263,
      "ent": 264,
      "Ġth": 265,
      "ro": 266,
      "ve": 267,
      "Ġre": 268,
      "us": 269,
      "ct": 270,
      "il": 271,
      "Ġl": 272,
      "Ġy": 273,
      "ĠT": 274,
      "Ġyou": 275,
      "et": 276,
      "ation": 277,
      "Ġg": 278,
      "Ġn": 279,
      "ĠA": 280,
      "ow": 281,
      "id": 282,
      "ĠC": 283,
      "Ġfor": 284,
      "ers": 285,
      "ce": 286,
      "im": 287,
      "ra": 288,
      "ut": 289,
      "ĠI": 290,
      "ch": 291,
      "el": 292,
      "Ġthat": 293,
      "ol": 294,
      "Ġon": 295,
      "Ġst": 296,
      "ot": 297,
      "ig": 298,
      "ur": 299,
      "Ġbe": 300,
      "ly": 301,
      "Ġis": 302,
      "os": 303,
      "ith": 304,
      "ir": 305,
      "Ġhe": 306,
      "Ġpro": 307,
      "ist": 308,
      "Ġwith": 309,
      "am": 310,
      "if": 311,
      "ant": 312,
      "ĠS": 313,
      "ĠĠ": 314,
      "ul": 315,
      "Ġor": 316,
      "ĠThe": 317,
      "ay": 318,
      "ĠU": 319,
      "ad": 320,
      "Ġsu": 321,
      "ess": 322,
      "Ġit": 323,
      "ver": 324,
      "Ġex": 325,
      "Ġcon": 326,
      "st": 327,
      "ss": 328,
      "Ġan": 329,
      "Ġcan": 330,
      "ore": 331,
      "un": 332,
      "Ġwh": 333,
      "Ġal": 334,
      "ate": 335,
      "ure": 336,
      "Ġare": 337,
      "ĠUs": 338,
      "ke": 339,
      "ag": 340,
      "Ġas": 341,
      "ment": 342,
      "Ġv": 343,
      "pp": 344,
      "ive": 345,
      "ab": 346,
      "Ġus": 347,
      "Ġcom": 348,
      "'s": 349,
      "her": 350,
      "qu": 351,
      "ld": 352,
      "pe": 353,
      "ies": 354,
      "ere": 355,
      "ĠUser": 356,
      "se": 357,
      "od": 358,
      "Ġde": 359,
      "iv": 360,
      "ity": 361,
      "est": 362,
      "Ġyour": 363,
      "Ġha": 364,
      "ĠH": 365,
      "ter": 366,
      "Ġch": 367,
      "ome": 368,
      "ain": 369,
      "ill": 370,
      "ort": 371,
      "ud": 372,
      "em": 373,
      "ac": 374,
      "ĠM": 375,
      "ĠP": 376,
      "oc": 377,
      "Ġad": 378,
      "ĠB": 379,
      "Ġse": 380,
      "ide": 381,
      "Ġ1": 382,
      "Ġtheir": 383,
      "Ġen": 384,
      "igh": 385,
      "ust": 386,
      "out": 387,
      "ĠW": 388,
      "ri": 389,
      "Ġsh": 390,
      "ould": 391,
      "op": 392,
      "ect": 393,
      "ions": 394,
      "Ġmore": 395,
      "rom": 396,
      "Ġim": 397,
      "Ġ-": 398,
      "Ġne": 399,
      "ssist": 400,
      "um": 401,
      "pl": 402,
      "Ġle": 403,
      "th": 404,
      "Ġab": 405,
      "ial": 406,
      "ssistant": 407,
      "ĠAssistant": 408,
      "all": 409,
      "ĠTh": 410,
      "nt": 411,
      "##": 412,
      "Ġhave": 413,
      "Ġr": 414,
      "pt": 415,
      "iz": 416,
      "ĠD": 417,
      "Ġinc": 418,
      "Ġme": 419,
      "Ġby": 420,
      "ĠF": 421,
      "ĠĊ": 422,
      "our": 423,
      "Ġwor": 424,
      "Ġpl": 425,
      "art": 426,
      "Ġsome": 427,
      "Ġint": 428,
      "Ġte": 429,
      "ak": 430,
      "and": 431,
      "for": 432,
      "Ġ2": 433,
      "per": 434,
      "rou": 435,
      "ight": 436,
      "ĠR": 437,
      "act": 438,
      "age": 439,
      "Ġwas": 440,
      "Ġimp": 441,
      "reat": 442,
      "Ġat": 443,
      "ip": 444,
      "Ġfrom": 445,
      "ther": 446,
      "ich": 447,
      "ĠE": 448,
      "Ġwe": 449,
      "du": 450,
      "ff": 451,
      "Ġu": 452,
      "ake": 453,
      "ge": 454,
      "ie": 455,
      "ĠO": 456,
      "ast": 457,
      "Ġprov": 458,
      "Ġhow": 459,
      "ine": 460,
      "Ġfe": 461,
      "able": 462,
      "ĠG": 463,
      "ell": 464,
      "cc": 465,
      "form": 466,
      "og": 467,
      "are": 468,
      "gh": 469,
      "ĠCan": 470,
      "Ġhel": 471,
      "ations": 472,
      "Ġcomp": 473,
      "Ġhelp": 474,
      "ign": 475,
      "Ġadd": 476,
      "ance": 477,
      "so": 478,
      "Ġabout": 479,
      "ok": 480,
      "ĠL": 481,
      "Ġun": 482,
      "ind": 483,
      "Ġnot": 484,
      "Ġ\"": 485,
      "ru": 486,
      "Ġcont": 487,
      "ence": 488,
      "ous": 489,
      "ĠĠĠĠ": 490,
      "ĠThis": 491,
      "ally": 492,
      "ard": 493,
      "Ġj": 494,
      "Ġwhich": 495,
      "ail": 496,
      "Ġk": 497,
      "Ġthey": 498,
      "ry": 499,
      "ĠCon": 500,
      "Ġpre": 501,
      "Ġhas": 502,
      "ition": 503,
      "ult": 504,
      "Ġother": 505,
      "av": 506,
      "Ġthem": 507,
      "Ġall": 508,
      "ific": 509,
      "vers": 510,
      "ĠIn": 511,
      "Ġthis": 512,
      "ach": 513,
      "Ġapp": 514,
      "Ġalso": 515,
      "ase": 516,
      "Ġ3": 517,
      "Ġman": 518,
      "ost": 519,
      "lud": 520,
      "ire": 521,
      "ice": 522,
      "ook": 523,
      "Ġspe": 524,
      "ks": 525,
      "Ġany": 526,
      "ces": 527,
      "ood": 528,
      "Ġres": 529,
      "Ġqu": 530,
      "Ġdis": 531,
      "Ġtra": 532,
      "ite": 533,
      "vel": 534,
      "ĠN": 535,
      "ep": 536,
      "ans": 537,
      "Ġar": 538,
      "ib": 539,
      "Ġcl": 540,
      "Ġwill": 541,
      "Ġinclud": 542,
      "Ġsuch": 543,
      "ents": 544,
      "Ġdes": 545,
      "Ġwhe": 546,
      "Ġ(": 547,
      "ated": 548,
      "Ġrec": 549,
      "end": 550,
      "Ġsp": 551,
      "ical": 552,
      "Ġ<": 553,
      "Ġbut": 554,
      "ong": 555,
      "ĠY": 556,
      "Ġprovide": 557,
      "ack": 558,
      "ace": 559,
      "Ġso": 560,
      "versation": 561,
      "ime": 562,
      "ful": 563,
      "Ġem": 564,
      "ĠIt": 565,
      "Ġev": 566,
      "Ġli": 567,
      "ory": 568,
      "eos": 569,
      "Ġ##": 570,
      "ĠConversation": 571,
      "Ġ###": 572,
      "ction": 573,
      "Ġ4": 574,
      "fere": 575,
      "ors": 576,
      "Ġuse": 577,
      "Ġsc": 578,
      "Ġout": 579,
      "Ġexam": 580,
      "ass": 581,
      "Ġup": 582,
      "ress": 583,
      "ile": 584,
      "Ġher": 585,
      "Ġwho": 586,
      "ap": 587,
      "ings": 588,
      "les": 589,
      "Ġcomm": 590,
      "Ġacc": 591,
      "Ġmy": 592,
      "Ġhis": 593,
      "ater": 594,
      "ark": 595,
      "Ġits": 596,
      "Ġdif": 597,
      "Ġspec": 598,
      "Ġwork": 599,
      "ang": 600,
      "ue": 601,
      "als": 602,
      "ove": 603,
      "Ġinform": 604,
      "Ġpe": 605,
      "Ġper": 606,
      "ary": 607,
      "ound": 608,
      "Ġover": 609,
      "ia": 610,
      "get": 611,
      "Ġ5": 612,
      "one": 613,
      "Ġcre": 614,
      "Ġlike": 615,
      "Ġdo": 616,
      "ose": 617,
      "Ġro": 618,
      "Ġmake": 619,
      "ities": 620,
      "now": 621,
      "Ġind": 622,
      "Ġfl": 623,
      "Ġthese": 624,
      "erv": 625,
      "ram": 626,
      "ments": 627,
      "ĠJ": 628,
      "Ġcol": 629,
      "Ġoff": 630,
      "ert": 631,
      "ne": 632,
      "Ġeff": 633,
      "ame": 634,
      "rough": 635,
      "ature": 636,
      "lic": 637,
      "ience": 638,
      "Ġthere": 639,
      "ious": 640,
      "Ġpart": 641,
      "Ġexper": 642,
      "ount": 643,
      "gg": 644,
      "Ġinformation": 645,
      "Ġinto": 646,
      "bs": 647,
      "ens": 648,
      "Ġdet": 649,
      "Ġtime": 650,
      "ber": 651,
      "Ġnew": 652,
      "Ġprodu": 653,
      "ays": 654,
      "ild": 655,
      "Ġone": 656,
      "ract": 657,
      "ck": 658,
      "ord": 659,
      "Ġgreat": 660,
      "oy": 661,
      "Ġdiffere": 662,
      "xt": 663,
      "pport": 664,
      "Ġhad": 665,
      "Ġsa": 666,
      "Ġshould": 667,
      "Ġif": 668,
      "ric": 669,
      "Ġgo": 670,
      "ree": 671,
      "very": 672,
      "Ġwould": 673,
      "Ġpers": 674,
      "chn": 675,
      "Ġrel": 676,
      "ples": 677,
      "ely": 678,
      "ĠSt": 679,
      "ear": 680,
      "ject": 681,
      "Ġsy": 682,
      "int": 683,
      "Ġknow": 684,
      "aking": 685,
      "Ġwere": 686,
      "Ġthrough": 687,
      "Ġtr": 688,
      "alth": 689,
      "Ġmay": 690,
      "ness": 691,
      "Ġcould": 692,
      "velop": 693,
      "Ġour": 694,
      "ick": 695,
      "ips": 696,
      "ish": 697,
      "Ġprog": 698,
      "Ġcons": 699,
      "we": 700,
      "ating": 701,
      "ll": 702,
      "Ġam": 703,
      "Ġmed": 704,
      "Ġtechn": 705,
      "row": 706,
      "uring": 707,
      "te": 708,
      "red": 709,
      "ple": 710,
      "ices": 711,
      "ĠCh": 712,
      "iqu": 713,
      "ular": 714,
      "ns": 715,
      "ility": 716,
      "elf": 717,
      "ife": 718,
      "rit": 719,
      "Ġused": 720,
      "Ġund": 721,
      "Ġco": 722,
      "Ġdifferent": 723,
      "ĠĠĠ": 724,
      "cess": 725,
      "ĠAd": 726,
      "ond": 727,
      "Ġstr": 728,
      "ĠV": 729,
      "ize": 730,
      "Ġspecific": 731,
      "ning": 732,
      "ub": 733,
      "Ġwell": 734,
      "Ġsm": 735,
      "dition": 736,
      "olog": 737,
      "round": 738,
      "res": 739,
      "ual": 740,
      "Ġexamples": 741,
      "čĊ": 742,
      "Ġart": 743,
      "ower": 744,
      "Ġwhat": 745,
      "ade": 746,
      "ates": 747,
      "Ġact": 748,
      "Ġneed": 749,
      "Ġbet": 750,
      "ative": 751,
      "ustom": 752,
      "Ġbeen": 753,
      "Ġdevelop": 754,
      "Ġusing": 755,
      "Ġpo": 756,
      "Ġhealth": 757,
      "ough": 758,
      "gan": 759,
      "Ġperson": 760,
      "lect": 761,
      "ise": 762,
      "oth": 763,
      "ov": 764,
      "ph": 765,
      "ural": 766,
      "ĠK": 767,
      "ient": 768,
      "Ġinv": 769,
      "Ġinter": 770,
      "Ġpos": 771,
      "Ġpr": 772,
      "ased": 773,
      "ink": 774,
      "Ġcreate": 775,
      "Ġsoc": 776,
      "Ġcreat": 777,
      "its": 778,
      "Ġdetail": 779,
      "Ġserv": 780,
      "omm": 781,
      "Ġvar": 782,
      "erg": 783,
      "Ġcustom": 784,
      "Ġke": 785,
      "hes": 786,
      "ef": 787,
      "Ġprogram": 788,
      "low": 789,
      "Ġinst": 790,
      "ob": 791,
      "Ġshe": 792,
      "Ġcommun": 793,
      "ange": 794,
      "Ġag": 795,
      "Ġstud": 796,
      "Ġloc": 797,
      "Ġwhen": 798,
      "ics": 799,
      "ced": 800,
      "iet": 801,
      "Ġph": 802,
      "Ġsk": 803,
      "Ġreg": 804,
      "Ġmus": 805,
      "ian": 806,
      "ĠHere": 807,
      "Ġeach": 808,
      "ting": 809,
      "Ġdesign": 810,
      "ĠHow": 811,
      "00": 812,
      "Ġrem": 813,
      "Ġhigh": 814,
      "arket": 815,
      "Ġatt": 816,
      "arch": 817,
      "old": 818,
      "ons": 819,
      "rib": 820,
      "Ġsign": 821,
      "ft": 822,
      "Ġopt": 823,
      "'t": 824,
      "Ġbl": 825,
      "Ġvis": 826,
      "Ġprovid": 827,
      "ys": 828,
      "Ġincluding": 829,
      "Ġeffect": 830,
      "Ġsupport": 831,
      "Ġimpact": 832,
      "Ġbu": 833,
      "Ġve": 834,
      "up": 835,
      "Ġproduct": 836,
      "Ġimpro": 837,
      "Ġrep": 838,
      "iness": 839,
      "fore": 840,
      "stem": 841,
      "Ġchar": 842,
      "Ġche": 843,
      "Ġbec": 844,
      "ible": 845,
      "Ã©": 846,
      "Ġexpl": 847,
      "Ġlife": 848,
      "Ġmany": 849,
      "wn": 850,
      "ures": 851,
      "ily": 852,
      "Ġlear": 853,
      "ener": 854,
      "Ġway": 855,
      "ential": 856,
      "lease": 857,
      "ople": 858,
      "Ġform": 859,
      "ĠHe": 860,
      "Ġeng": 861,
      "Ġfind": 862,
      "ata": 863,
      "Ġtrans": 864,
      "ertain": 865,
      "Ġwhere": 866,
      "Ġ6": 867,
      "aus": 868,
      "Ġinf": 869,
      "Ġmin": 870,
      "eng": 871,
      "Ġworld": 872,
      "ĠThese": 873,
      "ĠFor": 874,
      "ized": 875,
      "ten": 876,
      "ĠWh": 877,
      "ts": 878,
      "ren": 879,
      "Ġav": 880,
      "Ġra": 881,
      "ality": 882,
      "Ġredu": 883,
      "Ġins": 884,
      "Ġpract": 885,
      "hed": 886,
      "pect": 887,
      "Ġset": 888,
      "Ġpeople": 889,
      "Ġmarket": 890,
      "Ġthan": 891,
      "ggest": 892,
      "Ġno": 893,
      "ruct": 894,
      "Ġsuggest": 895,
      "Ġsocial": 896,
      "ĠThey": 897,
      "Ġgu": 898,
      "Ġwhile": 899,
      "Ġpot": 900,
      "Ġfeel": 901,
      "ĠYou": 902,
      "Ġplay": 903,
      "Ġcult": 904,
      "Ġinclude": 905,
      "Ġty": 906,
      "Ġcle": 907,
      "Ġla": 908,
      "ien": 909,
      "eth": 910,
      "Ġbus": 911,
      "Ġsystem": 912,
      "ĠUse": 913,
      "Ġmod": 914,
      "Ġsee": 915,
      "ives": 916,
      "Ġduring": 917,
      "Ġwater": 918,
      "erest": 919,
      "ique": 920,
      "Ġmade": 921,
      "ever": 922,
      "iew": 923,
      "ĠAs": 924,
      "Ġprom": 925,
      "ivid": 926,
      "Ġsal": 927,
      "Ġmost": 928,
      "ward": 929,
      "Ġval": 930,
      "ues": 931,
      "Ġsur": 932,
      "Ġjust": 933,
      "own": 934,
      "erm": 935,
      "iss": 936,
      "Ġfeature": 937,
      "Ġexperience": 938,
      "Ġfun": 939,
      "Ġnum": 940,
      "Ġbr": 941,
      "ense": 942,
      "Ġfew": 943,
      "Ġdec": 944,
      "riend": 945,
      "Ġallow": 946,
      "Ġdata": 947,
      "uc": 948,
      "Ġ`": 949,
      "Ġdisc": 950,
      "ath": 951,
      "erst": 952,
      "Ġide": 953,
      "Ġtw": 954,
      "arm": 955,
      "Ġeven": 956,
      "Ġcomple": 957,
      "Ġinterest": 958,
      "Ġexp": 959,
      "Ġprocess": 960,
      "Ġtips": 961,
      "ines": 962,
      "Ġaut": 963,
      "Ġstory": 964,
      "Ġevery": 965,
      "Ġeas": 966,
      "Ġadv": 967,
      "Ġimport": 968,
      "ology": 969,
      "cy": 970,
      "ional": 971,
      "Ġown": 972,
      "Ġtext": 973,
      "irst": 974,
      "Ġread": 975,
      "Ġlead": 976,
      "Ġwant": 977,
      "ergy": 978,
      "ars": 979,
      "Ġac": 980,
      "ident": 981,
      "Ġsim": 982,
      "ix": 983,
      "Ġhim": 984,
      "Ġfol": 985,
      "Ġsignific": 986,
      "Ġref": 987,
      "ources": 988,
      "eg": 989,
      "Ġbusiness": 990,
      "Ġaf": 991,
      "led": 992,
      "Ġgra": 993,
      "olut": 994,
      "ccess": 995,
      "Ġfam": 996,
      "por": 997,
      "Ġpower": 998,
      "Ġment": 999,
      "Ġlong": 1000,
      "Ġens": 1001,
      "Ġgood": 1002,
      "Ġchall": 1003,
      "ients": 1004,
      "Ġsec": 1005,
      "any": 1006,
      "ĠSure": 1007,
      "Ġpres": 1008,
      "Ġlook": 1009,
      "Ġback": 1010,
      "line": 1011,
      "Ġpol": 1012,
      "Ġshow": 1013,
      "Ġaccess": 1014,
      "amp": 1015,
      "Ġbre": 1016,
      "Ġcho": 1017,
      "erstand": 1018,
      "Ġimprove": 1019,
      "Ġorgan": 1020,
      "ages": 1021,
      "Ġhand": 1022,
      "ider": 1023,
      "Ġpersonal": 1024,
      "ommend": 1025,
      "ĠYes": 1026,
      "Ġcur": 1027,
      "iety": 1028,
      "Ġsub": 1029,
      "Ġcar": 1030,
      "ocus": 1031,
      "Ġed": 1032,
      "Ġgive": 1033,
      "Ġsound": 1034,
      "Ġdetails": 1035,
      "put": 1036,
      "Ġ=": 1037,
      "Ġbefore": 1038,
      "Ġmusic": 1039,
      "Ġent": 1040,
      "ween": 1041,
      "Ġexample": 1042,
      "Ġrecommend": 1043,
      "akes": 1044,
      "Ġmem": 1045,
      "ĠPro": 1046,
      "ork": 1047,
      "Ġcharact": 1048,
      "Ġincre": 1049,
      "Ġyear": 1050,
      "Ġgl": 1051,
      "Ġget": 1052,
      "Ġbetween": 1053,
      "iron": 1054,
      "Ġstart": 1055,
      "Ġbra": 1056,
      "Ġsuccess": 1057,
      "Ġfollow": 1058,
      "Ġfood": 1059,
      "other": 1060,
      "Ġenergy": 1061,
      "Ġ[": 1062,
      "Ġrequ": 1063,
      "Ġcook": 1064,
      "ins": 1065,
      "Ġsmall": 1066,
      "Ġonly": 1067,
      "ational": 1068,
      "ĠĠĠĠĠĠĠĠ": 1069,
      "itive": 1070,
      "urn": 1071,
      "Ġlove": 1072,
      "Ġtake": 1073,
      "Ġbeing": 1074,
      "ict": 1075,
      "ĠWe": 1076,
      "Ġunt": 1077,
      "Ġob": 1078,
      "avor": 1079,
      "Ġdel": 1080,
      "Ġpop": 1081,
      "Ġthose": 1082,
      "ax": 1083,
      "Ġoffer": 1084,
      "Ġbel": 1085,
      "Ġgener": 1086,
      "Ġunderstand": 1087,
      "aut": 1088,
      "lement": 1089,
      "ĠOver": 1090,
      "__": 1091,
      "hip": 1092,
      "aterial": 1093,
      "ec": 1094,
      "ĠAnd": 1095,
      "Ġret": 1096,
      "hen": 1097,
      "Ġgr": 1098,
      "Ġ7": 1099,
      "Ġunique": 1100,
      "ript": 1101,
      "Ġplease": 1102,
      "Ġindust": 1103,
      "rite": 1104,
      "Ġlist": 1105,
      "ify": 1106,
      "ateg": 1107,
      "Ġuser": 1108,
      "Ġmaking": 1109,
      "Ġ20": 1110,
      "Ġben": 1111,
      "Ġteam": 1112,
      "Ġpartic": 1113,
      "Ġbuild": 1114,
      "Ġgrow": 1115,
      ".\"": 1116,
      "Ġfin": 1117,
      "ivers": 1118,
      "ered": 1119,
      "Ġend": 1120,
      "Ġwebs": 1121,
      "ĠIf": 1122,
      "Ġhere": 1123,
      "cial": 1124,
      "ner": 1125,
      "Ġrese": 1126,
      "ved": 1127,
      "Ġpass": 1128,
      "Ġmedia": 1129,
      "az": 1130,
      "ism": 1131,
      "Ġconc": 1132,
      "ĠEn": 1133,
      "ason": 1134,
      "Ġfirst": 1135,
      "atter": 1136,
      "Ġhist": 1137,
      "Ġdist": 1138,
      "Ġperform": 1139,
      "Ġuntil": 1140,
      "cing": 1141,
      "Ġmain": 1142,
      "ied": 1143,
      "Ġsure": 1144,
      "viron": 1145,
      "ĠHowever": 1146,
      "ries": 1147,
      "Ġwrit": 1148,
      "der": 1149,
      "Ġmaterial": 1150,
      "Ġfocus": 1151,
      "ather": 1152,
      "ps": 1153,
      "ants": 1154,
      "ols": 1155,
      "ĠAl": 1156,
      "ves": 1157,
      "ribut": 1158,
      "Ġass": 1159,
      "ables": 1160,
      "'m": 1161,
      "self": 1162,
      "ier": 1163,
      "Ġcount": 1164,
      "ause": 1165,
      "Ġsty": 1166,
      "Ġproject": 1167,
      "con": 1168,
      "Ġchalleng": 1169,
      "ited": 1170,
      "ote": 1171,
      "ven": 1172,
      "Ġtry": 1173,
      "uch": 1174,
      "Ġext": 1175,
      "Ġsignificant": 1176,
      "Ġthen": 1177,
      "air": 1178,
      "Ġanal": 1179,
      "ving": 1180,
      "Ġess": 1181,
      "Ġenviron": 1182,
      "ds": 1183,
      "Ġpur": 1184,
      "mer": 1185,
      "Ġreally": 1186,
      "cept": 1187,
      "ble": 1188,
      "Ġtell": 1189,
      "ĠAn": 1190,
      "angu": 1191,
      "orpor": 1192,
      "Ġplan": 1193,
      "Ġaddition": 1194,
      "Ġactiv": 1195,
      "Ġprof": 1196,
      "ĠOverall": 1197,
      "ining": 1198,
      "aging": 1199,
      "Ġtwo": 1200,
      "Ġlight": 1201,
      "Ġbenef": 1202,
      "lu": 1203,
      "Ġcontent": 1204,
      "Ġhum": 1205,
      "Ġfound": 1206,
      "--": 1207,
      "els": 1208,
      "iven": 1209,
      "Ġcare": 1210,
      "Ġthink": 1211,
      "Ġbest": 1212,
      "Ġboth": 1213,
      "Ġreal": 1214,
      "Ġindivid": 1215,
      "ĠBut": 1216,
      "Ġconf": 1217,
      "ling": 1218,
      "Ġcr": 1219,
      "ew": 1220,
      "nect": 1221,
      "ditionally": 1222,
      "Ġlet": 1223,
      "atural": 1224,
      "ists": 1225,
      "Ġdesc": 1226,
      "ty": 1227,
      "Ġaround": 1228,
      "Ġrest": 1229,
      "Ġlar": 1230,
      "Ġaud": 1231,
      "Ġmind": 1232,
      "Ġensure": 1233,
      "ted": 1234,
      "apt": 1235,
      "Ġlangu": 1236,
      "Ġkeep": 1237,
      "ĠAdditionally": 1238,
      "ern": 1239,
      "Ġtyp": 1240,
      "Ġappro": 1241,
      "ĠDo": 1242,
      "Ġtop": 1243,
      "Ġoften": 1244,
      "ron": 1245,
      "nce": 1246,
      "und": 1247,
      "Ġ_": 1248,
      "agement": 1249,
      "ills": 1250,
      "Ġplace": 1251,
      "Ġcour": 1252,
      "Ġenc": 1253,
      "ertainly": 1254,
      "ization": 1255,
      "Ġsever": 1256,
      "Ġwebsite": 1257,
      "ability": 1258,
      "ware": 1259,
      "ash": 1260,
      "vent": 1261,
      "Ġeffective": 1262,
      "Ġprot": 1263,
      "Ġrequire": 1264,
      "Ã¤": 1265,
      "Ġafter": 1266,
      "Ġday": 1267,
      "Ġpotential": 1268,
      "Ġresp": 1269,
      "Ġdef": 1270,
      "cho": 1271,
      "Ġlearn": 1272,
      "orts": 1273,
      "ody": 1274,
      "Ġdevelopment": 1275,
      "Ġstep": 1276,
      "gether": 1277,
      "Ġtogether": 1278,
      "Ġenvironment": 1279,
      "Ġhome": 1280,
      "Ġresearch": 1281,
      "Ġstrateg": 1282,
      "Ġclass": 1283,
      "Ġpub": 1284,
      "bers": 1285,
      "Ġseveral": 1286,
      "ĠBy": 1287,
      "Ġfeatures": 1288,
      "Ġdr": 1289,
      "atch": 1290,
      "Ġcontin": 1291,
      "Ġresult": 1292,
      "ock": 1293,
      "Ġmon": 1294,
      "Ġbo": 1295,
      "Ġlocal": 1296,
      "Ġtradition": 1297,
      "ank": 1298,
      "joy": 1299,
      "iving": 1300,
      "Ġear": 1301,
      "ave": 1302,
      "Ġdon": 1303,
      "Ġagain": 1304,
      "Ġmust": 1305,
      "Ġtechnology": 1306,
      "Ġdown": 1307,
      "Ġet": 1308,
      "be": 1309,
      "Ġposs": 1310,
      "ways": 1311,
      "ĠThere": 1312,
      "Ġfac": 1313,
      "io": 1314,
      "Ġoptions": 1315,
      "Ġveget": 1316,
      "ĠCould": 1317,
      "Ġident": 1318,
      "itions": 1319,
      "Ġaff": 1320,
      "ording": 1321,
      "ĠUn": 1322,
      "resh": 1323,
      "Ġreduce": 1324,
      "Ġser": 1325,
      "mon": 1326,
      "Ġemot": 1327,
      "tle": 1328,
      "ploy": 1329,
      "Ġclear": 1330,
      "Ġnatural": 1331,
      "Ġthough": 1332,
      "Ġlanguage": 1333,
      "tern": 1334,
      "ĠCertainly": 1335,
      "Ġinflu": 1336,
      "read": 1337,
      "Ġfriend": 1338,
      "light": 1339,
      "Ġvarious": 1340,
      "Ġop": 1341,
      "Ġworks": 1342,
      "iel": 1343,
      "Ġ8": 1344,
      "Ġsum": 1345,
      "ope": 1346,
      "ipe": 1347,
      "Ġconnect": 1348,
      "ese": 1349,
      "Ġcent": 1350,
      "Ġnumber": 1351,
      "ĠTo": 1352,
      "ĠWrite": 1353,
      "Ġinvol": 1354,
      "ories": 1355,
      "Ġcall": 1356,
      "ĠThat": 1357,
      "Ġest": 1358,
      "Ġbook": 1359,
      "Ġcup": 1360,
      "Ġindustry": 1361,
      "Ġsense": 1362,
      "to": 1363,
      "Ġavail": 1364,
      "Ġresources": 1365,
      "ĠWhat": 1366,
      "oura": 1367,
      "Ġbetter": 1368,
      "Ġfil": 1369,
      "Ġwithout": 1370,
      "Ġusers": 1371,
      "Ġlevel": 1372,
      "abor": 1373,
      "Ġminut": 1374,
      "ustain": 1375,
      "Ġfact": 1376,
      "ĠRe": 1377,
      "Ġgrou": 1378,
      "uce": 1379,
      "Ġchild": 1380,
      "Ġways": 1381,
      "Ġbrand": 1382,
      "ery": 1383,
      "Ġmarketing": 1384,
      "Ġtraditional": 1385,
      "Ġcamp": 1386,
      "Ġimportant": 1387,
      "tain": 1388,
      "Ġ#": 1389,
      "Ġfunction": 1390,
      "reen": 1391,
      "com": 1392,
      "Ġshare": 1393,
      "redients": 1394,
      "po": 1395,
      "pend": 1396,
      "Ġstudents": 1397,
      "Ġchallenges": 1398,
      "ems": 1399,
      "Ġmuch": 1400,
      "ieve": 1401,
      "Ġcommunity": 1402,
      "Ġoil": 1403,
      "Ġexperien": 1404,
      "port": 1405,
      "uals": 1406,
      "Ġtem": 1407,
      "Ġbeaut": 1408,
      "Ġdoes": 1409,
      "ets": 1410,
      "Ġsom": 1411,
      "over": 1412,
      "Ġproducts": 1413,
      "Ġkey": 1414,
      "Ġoffers": 1415,
      "Ġstill": 1416,
      "Ġele": 1417,
      "Ġchang": 1418,
      "Ġincorpor": 1419,
      "Ġcor": 1420,
      "imes": 1421,
      "Ġright": 1422,
      "Ġservices": 1423,
      "ato": 1424,
      "Ġpopular": 1425,
      "ually": 1426,
      "ĠAdd": 1427,
      "Ġ10": 1428,
      "ms": 1429,
      "Ġmet": 1430,
      "uss": 1431,
      "erc": 1432,
      "wards": 1433,
      "ication": 1434,
      "'re": 1435,
      "ray": 1436,
      "Ġimplement": 1437,
      "ee": 1438,
      "Ġlit": 1439,
      "Ġsustain": 1440,
      "fect": 1441,
      "way": 1442,
      "Ġpar": 1443,
      "Ġothers": 1444,
      "Ġcharacter": 1445,
      "Ġproper": 1446,
      "less": 1447,
      "ases": 1448,
      "pped": 1449,
      "Ġach": 1450,
      "Ġrelations": 1451,
      "ĠčĊ": 1452,
      "view": 1453,
      "Ġeduc": 1454,
      "Ġel": 1455,
      "ĠAr": 1456,
      "Ġminutes": 1457,
      "Ġflavor": 1458,
      "iques": 1459,
      "king": 1460,
      "ah": 1461,
      "Ġdid": 1462,
      "pportun": 1463,
      "Ġrange": 1464,
      "Ġcomb": 1465,
      "irect": 1466,
      "Ġpain": 1467,
      "ĠBe": 1468,
      "ci": 1469,
      "Ġsoft": 1470,
      "Ġcity": 1471,
      "ined": 1472,
      "Ġcompany": 1473,
      "Ġpast": 1474,
      "Ġfamily": 1475,
      "conom": 1476,
      "Ġpoint": 1477,
      "Ġbeh": 1478,
      "Ġeasy": 1479,
      "atform": 1480,
      "Ġalways": 1481,
      "Ġstyle": 1482,
      "new": 1483,
      "Ġnature": 1484,
      "Ġing": 1485,
      "Ġopportun": 1486,
      "Ġthings": 1487,
      "Ġrecipe": 1488,
      "ately": 1489,
      "Ġbased": 1490,
      "Ġ$": 1491,
      "Ġable": 1492,
      "Ġhistory": 1493,
      "Ġskills": 1494,
      "ital": 1495,
      "ĠShe": 1496,
      "raph": 1497,
      "Ġrole": 1498,
      "me": 1499,
      "Ġcal": 1500,
      "irt": 1501,
      "Ġconst": 1502,
      "ex": 1503,
      "ination": 1504,
      "Ġinvest": 1505,
      "Ġfree": 1506,
      "Ġaudience": 1507,
      "Ġcustomers": 1508,
      "Ġavailable": 1509,
      "Ġmot": 1510,
      "Ġdep": 1511,
      "ĠSh": 1512,
      "land": 1513,
      "work": 1514,
      "ream": 1515,
      "err": 1516,
      "Ġonline": 1517,
      "Ġevents": 1518,
      "Ġful": 1519,
      "Ġcustomer": 1520,
      "Ġquest": 1521,
      "Ġself": 1522,
      "pper": 1523,
      "oid": 1524,
      "Ġyears": 1525,
      "Ġcolor": 1526,
      "ode": 1527,
      "Ġplatform": 1528,
      "hor": 1529,
      "Ġcost": 1530,
      "Ġsame": 1531,
      "Ġsens": 1532,
      "Ġbody": 1533,
      "Ġideas": 1534,
      "ĠSp": 1535,
      ").": 1536,
      "Ġtechniques": 1537,
      "Ġhapp": 1538,
      "ale": 1539,
      "Ġemploy": 1540,
      "Ġlearning": 1541,
      "Ġapplic": 1542,
      "ĠEx": 1543,
      "Ġsit": 1544,
      "day": 1545,
      "Ġknown": 1546,
      "Ġpublic": 1547,
      "Ġphys": 1548,
      "Ġbenefits": 1549,
      "Ġeconom": 1550,
      "Ġfut": 1551,
      "Ġprovides": 1552,
      "aign": 1553,
      "ross": 1554,
      "Ġstand": 1555,
      "rent": 1556,
      "arget": 1557,
      "let": 1558,
      "Ġpie": 1559,
      "ush": 1560,
      "Ġenjoy": 1561,
      "Ġpositive": 1562,
      "Ġperfect": 1563,
      "ĠPl": 1564,
      "Ġdev": 1565,
      "Ġnut": 1566,
      "Ġview": 1567,
      "au": 1568,
      "vern": 1569,
      ",\"": 1570,
      "Ġdiff": 1571,
      "Ġcontribut": 1572,
      "ats": 1573,
      "Ġtre": 1574,
      "weet": 1575,
      "Ġiss": 1576,
      "Ġinput": 1577,
      "Ġaffect": 1578,
      "Ġtest": 1579,
      "Ġsauce": 1580,
      "ances": 1581,
      "Ġ201": 1582,
      "br": 1583,
      "Ġmess": 1584,
      "Ġpresent": 1585,
      "Ġfresh": 1586,
      "Ġland": 1587,
      "Ġanim": 1588,
      "Ġcreating": 1589,
      "Ġtypes": 1590,
      "Ġactivities": 1591,
      "ired": 1592,
      "oss": 1593,
      "Ġmove": 1594,
      "Ġneeds": 1595,
      "ĠDe": 1596,
      "Ġcultural": 1597,
      "Ġheart": 1598,
      "Ġsym": 1599,
      "Ġmil": 1600,
      "ium": 1601,
      "ape": 1602,
      "ethod": 1603,
      "Ġ19": 1604,
      "Ġmeas": 1605,
      "Ġtrack": 1606,
      "Ġsou": 1607,
      "ilities": 1608,
      "Ġhope": 1609,
      "Ġhelps": 1610,
      "Ġequ": 1611,
      "hips": 1612,
      "Ġgovern": 1613,
      "Ġanother": 1614,
      "Ġexplore": 1615,
      "ior": 1616,
      "ething": 1617,
      "Ġcontro": 1618,
      "Ġvisit": 1619,
      "Ġstate": 1620,
      "Ġfuture": 1621,
      "Ġchange": 1622,
      "ically": 1623,
      "Ġcome": 1624,
      "urther": 1625,
      "Ġtru": 1626,
      "Ġmix": 1627,
      "Ġce": 1628,
      "Ġadditional": 1629,
      "ince": 1630,
      "ering": 1631,
      "Ġaccording": 1632,
      "),": 1633,
      "Ġareas": 1634,
      "Ġair": 1635,
      "Ġtarget": 1636,
      "Ġinteg": 1637,
      "by": 1638,
      "Ġcampaign": 1639,
      "Ġ9": 1640,
      "Ġstrong": 1641,
      "Ġimm": 1642,
      "Ġtools": 1643,
      "Ġparticular": 1644,
      "ouse": 1645,
      "rap": 1646,
      "'ll": 1647,
      "Ġprofess": 1648,
      "Ġmight": 1649,
      "Ġpractices": 1650,
      "ains": 1651,
      "Ġmethod": 1652,
      "Ġnow": 1653,
      "Ġmental": 1654,
      "Ġconsider": 1655,
      "Ġcourse": 1656,
      "oh": 1657,
      "Ġvery": 1658,
      "pping": 1659,
      "Ġgrowth": 1660,
      "Ġjour": 1661,
      "oot": 1662,
      "Ġsol": 1663,
      "Ġfore": 1664,
      "Ġdescript": 1665,
      "Ġingredients": 1666,
      "ug": 1667,
      "Ġcoll": 1668,
      "Ġpost": 1669,
      "Ġobject": 1670,
      "Ġ'": 1671,
      "ames": 1672,
      "Ġsuccessful": 1673,
      "Ġexc": 1674,
      "oring": 1675,
      "Ġvide": 1676,
      "Ġstore": 1677,
      "Ġincrease": 1678,
      "ead": 1679,
      "ructure": 1680,
      "Ġsomething": 1681,
      "ĠInd": 1682,
      "Ġelect": 1683,
      "Ġlarge": 1684,
      "Ġexerc": 1685,
      "Ġstay": 1686,
      "Ġbro": 1687,
      "Ġgar": 1688,
      "ember": 1689,
      "Ġspecial": 1690,
      "ger": 1691,
      "ret": 1692,
      "Ġmaterials": 1693,
      "Ġsearch": 1694,
      "ĠSome": 1695,
      "Ġevent": 1696,
      "illed": 1697,
      "ze": 1698,
      "aring": 1699,
      "Ġless": 1700,
      "Ġrece": 1701,
      "ĠInst": 1702,
      "Ġhuman": 1703,
      "Ġbecome": 1704,
      "thing": 1705,
      "Ġprograms": 1706,
      "ĠSc": 1707,
      "ike": 1708,
      "Ġvariety": 1709,
      "Ġmult": 1710,
      "Ġes": 1711,
      "ĠQ": 1712,
      "Ġgoals": 1713,
      "Ġtoo": 1714,
      "ished": 1715,
      "Ġdirect": 1716,
      "Ġindividuals": 1717,
      "de": 1718,
      "back": 1719,
      "Ġcommon": 1720,
      "Ġprotect": 1721,
      "Ġbreak": 1722,
      "ring": 1723,
      "here": 1724,
      "ney": 1725,
      "Ġunder": 1726,
      "rehe": 1727,
      "ides": 1728,
      "Ġnever": 1729,
      "ĠĠĠĠĠĠĠ": 1730,
      "Ġopen": 1731,
      "Ġtri": 1732,
      "ĠÃ": 1733,
      "Ġquality": 1734,
      "ĠInc": 1735,
      "Ġoper": 1736,
      "izing": 1737,
      "Ġproviding": 1738,
      "Ġperformance": 1739,
      "Ġris": 1740,
      "ogn": 1741,
      "pos": 1742,
      "Ġencoura": 1743,
      "ours": 1744,
      "Ġnecess": 1745,
      "Ġinsp": 1746,
      "Ġsounds": 1747,
      "Ġtast": 1748,
      "Ġwriting": 1749,
      "Ġdra": 1750,
      "Ġservice": 1751,
      "af": 1752,
      "Ġaddress": 1753,
      "Ġpow": 1754,
      "Ġlim": 1755,
      "Ġcheese": 1756,
      "Ġrele": 1757,
      "ency": 1758,
      "Ġprevent": 1759,
      "Ġbusinesses": 1760,
      "Ġarea": 1761,
      "chool": 1762,
      "olution": 1763,
      "Ġmom": 1764,
      "Ġchick": 1765,
      "Ġclean": 1766,
      "Ġstudy": 1767,
      "Ġmaintain": 1768,
      "ĠOne": 1769,
      "gar": 1770,
      "Ġsaf": 1771,
      "Ġsaid": 1772,
      "Ġpat": 1773,
      "Ġbecause": 1774,
      "imate": 1775,
      "Ġanaly": 1776,
      "itut": 1777,
      "ĠIs": 1778,
      "Ġinteract": 1779,
      "ructions": 1780,
      "Ġemail": 1781,
      "lish": 1782,
      "ights": 1783,
      "Ġcheck": 1784,
      "Ġelements": 1785,
      "Ġwithin": 1786,
      "Ġcomplex": 1787,
      "ĠEm": 1788,
      "Ġoverall": 1789,
      "Ġagainst": 1790,
      "nces": 1791,
      "Ġfeed": 1792,
      "meric": 1793,
      "Ġeffic": 1794,
      "Ġlo": 1795,
      "Ġtraining": 1796,
      "oney": 1797,
      "Ġculture": 1798,
      "ditions": 1799,
      "care": 1800,
      "ĠWow": 1801,
      "The": 1802,
      "aj": 1803,
      "Ġmanagement": 1804,
      "Ġhelpful": 1805,
      "anks": 1806,
      "fort": 1807,
      "Ġgroup": 1808,
      "Ġpossible": 1809,
      "Ġnon": 1810,
      "Ġcap": 1811,
      "Ġmen": 1812,
      "Ġpa": 1813,
      "Ġgame": 1814,
      "ĠWhen": 1815,
      "ledge": 1816,
      "Ġstrategies": 1817,
      "ĠRem": 1818,
      "icult": 1819,
      "Ġcurrent": 1820,
      "Ġincludes": 1821,
      "Ġsweet": 1822,
      "Ġseason": 1823,
      "``": 1824,
      "Ġlow": 1825,
      "ibility": 1826,
      "Ġtransport": 1827,
      "aves": 1828,
      "Ġthroughout": 1829,
      "Ġrepres": 1830,
      "Ġpromot": 1831,
      "ention": 1832,
      "Ġrun": 1833,
      "Ġ```": 1834,
      "Ġsupp": 1835,
      "Ġmar": 1836,
      "word": 1837,
      "Ġhealthy": 1838,
      "Ġtreat": 1839,
      "ivity": 1840,
      "just": 1841,
      "ĠWith": 1842,
      "Ġfriends": 1843,
      "Ġheat": 1844,
      "Ġstru": 1845,
      "Ġspace": 1846,
      "duct": 1847,
      "ards": 1848,
      "Ġexperiences": 1849,
      "ners": 1850,
      "lection": 1851,
      "Ġhelped": 1852,
      "ograph": 1853,
      "Ġterm": 1854,
      "sc": 1855,
      "ration": 1856,
      "ared": 1857,
      "Ġauthor": 1858,
      "Ġorder": 1859,
      "Ġkind": 1860,
      "pr": 1861,
      "ĠAf": 1862,
      "____": 1863,
      "Ġcompan": 1864,
      "ĠCre": 1865,
      "Ġmov": 1866,
      "ield": 1867,
      "Ġdifficult": 1868,
      "gin": 1869,
      "Ġidentify": 1870,
      "itation": 1871,
      "Ġcase": 1872,
      "asing": 1873,
      "Ġessential": 1874,
      "Ġoptim": 1875,
      "Ġside": 1876,
      "Ġi": 1877,
      "Ġcream": 1878,
      "Ġpepper": 1879,
      "Ġdelic": 1880,
      "Ġcontrol": 1881,
      "ently": 1882,
      "Ġphysical": 1883,
      "Ġprint": 1884,
      "Ġprep": 1885,
      "ision": 1886,
      "co": 1887,
      "Ġvalue": 1888,
      "Ġdem": 1889,
      "Ġmodern": 1890,
      "Ġallows": 1891,
      "Ġinfluen": 1892,
      "Ġocc": 1893,
      "orth": 1894,
      "Ġsystems": 1895,
      "Ġdeep": 1896,
      "Ġbelie": 1897,
      "Ġlast": 1898,
      "Ġbring": 1899,
      "Ġhot": 1900,
      "Ġidea": 1901,
      "ral": 1902,
      "Ġdig": 1903,
      "Ġreport": 1904,
      "the": 1905,
      "Ġcompet": 1906,
      "Ġexpress": 1907,
      "Ġinit": 1908,
      "play": 1909,
      "Ġgovernment": 1910,
      "iment": 1911,
      "Ġinn": 1912,
      "ury": 1913,
      "Ġdish": 1914,
      "Ġtowards": 1915,
      "ĠCl": 1916,
      "Ġvers": 1917,
      "ises": 1918,
      "Ġpromote": 1919,
      "Ġinteresting": 1920,
      "Ġdetailed": 1921,
      "Ġz": 1922,
      "//": 1923,
      "Ġsustainable": 1924,
      "osp": 1925,
      "elt": 1926,
      "Ġbal": 1927,
      "Ġstrugg": 1928,
      "Ġrecommendations": 1929,
      "aur": 1930,
      "Ġachieve": 1931,
      "alk": 1932,
      "aling": 1933,
      "Ġneg": 1934,
      "Ġsuggestions": 1935,
      "Ġvegetables": 1936,
      "Ġchanges": 1937,
      "Ġeducation": 1938,
      "ising": 1939,
      "Ġhead": 1940,
      "ysis": 1941,
      "Ġ{": 1942,
      "ived": 1943,
      "based": 1944,
      "Ġenh": 1945,
      "Ġdepend": 1946,
      "aster": 1947,
      "Ġsat": 1948,
      "ĠCom": 1949,
      "friend": 1950,
      "ffic": 1951,
      "Ġworking": 1952,
      "izations": 1953,
      "aces": 1954,
      "Ġopportunities": 1955,
      "ruction": 1956,
      "Ġexplain": 1957,
      "Ġchildren": 1958,
      "..": 1959,
      "ilar": 1960,
      "reng": 1961,
      "ĠAmeric": 1962,
      "Ġtype": 1963,
      "Ġcollabor": 1964,
      "ann": 1965,
      "Ġpractice": 1966,
      "aw": 1967,
      "Ġengaging": 1968,
      "Ġmeet": 1969,
      "Ġnet": 1970,
      "urity": 1971,
      "Ġunderstanding": 1972,
      "ĠDes": 1973,
      "ĠCreate": 1974,
      "Ġaccount": 1975,
      "Ġfre": 1976,
      "Ġknowledge": 1977,
      "elves": 1978,
      "ait": 1979,
      "cul": 1980,
      "Ġvol": 1981,
      "Ġsalt": 1982,
      "Ġamaz": 1983,
      "vert": 1984,
      "Ġfit": 1985,
      "Ġdeterm": 1986,
      "ott": 1987,
      "rist": 1988,
      "Ġtas": 1989,
      "ges": 1990,
      "Ġvirt": 1991,
      "Ġtravel": 1992,
      "ming": 1993,
      "Ġcompanies": 1994,
      "ots": 1995,
      "Ġscen": 1996,
      "Ġmag": 1997,
      "ĠCons": 1998,
      "Ġtimes": 1999,
      "ird": 2000,
      "ches": 2001,
      "Ġmi": 2002,
      "Ġlaw": 2003,
      "Ġmean": 2004,
      "Ġsl": 2005,
      "fact": 2006,
      "nam": 2007,
      "Ġregular": 2008,
      "bo": 2009,
      "selves": 2010,
      "ource": 2011,
      "Ġbuilding": 2012,
      "vant": 2013,
      "ator": 2014,
      "Ġey": 2015,
      "Ġshort": 2016,
      "Ġhard": 2017,
      "Ġpatter": 2018,
      "Ġchicken": 2019,
      "Ġred": 2020,
      "Ġstress": 2021,
      "icy": 2022,
      "Ġbas": 2023,
      "Ġquick": 2024,
      "ik": 2025,
      "'ve": 2026,
      "ude": 2027,
      "Ġspir": 2028,
      "Ġstreng": 2029,
      "Ġnecessary": 2030,
      "Ġwords": 2031,
      "ĠGod": 2032,
      "Ġfollowing": 2033,
      "Ġdiscuss": 2034,
      "ival": 2035,
      "Ġface": 2036,
      "Ġavoid": 2037,
      "lend": 2038,
      "rast": 2039,
      "erve": 2040,
      "Ġdi": 2041,
      "Ġdesigned": 2042,
      "lus": 2043,
      "Ġcharacters": 2044,
      "Ġcrit": 2045,
      "ĠSe": 2046,
      "ont": 2047,
      "Ġphot": 2048,
      "Ġsources": 2049,
      "Ġdishes": 2050,
      "Ġmembers": 2051,
      "Ġalong": 2052,
      "friendly": 2053,
      "iple": 2054,
      "Ġintern": 2055,
      "Ġsumm": 2056,
      "Ġissues": 2057,
      "ĠCol": 2058,
      "Ġque": 2059,
      "Ġrespons": 2060,
      "Ġcommunication": 2061,
      "Ġupd": 2062,
      ");": 2063,
      "come": 2064,
      "Ġpan": 2065,
      "Ġrout": 2066,
      "Ġreach": 2067,
      "tt": 2068,
      "rior": 2069,
      "Ġanalysis": 2070,
      "Ġprogress": 2071,
      "Ġname": 2072,
      "pro": 2073,
      "Ġpoem": 2074,
      "ĠNew": 2075,
      "Ġgiven": 2076,
      "oci": 2077,
      "rate": 2078,
      "ĠAlso": 2079,
      "ĠThanks": 2080,
      "ĠÎ": 2081,
      "Ġsteps": 2082,
      "Ġamazing": 2083,
      "Ġcolors": 2084,
      "Ġwind": 2085,
      "Ġhold": 2086,
      "idd": 2087,
      "Ġsay": 2088,
      "ĠZ": 2089,
      "Ġapproach": 2090,
      "arr": 2091,
      "Ġbow": 2092,
      "rehens": 2093,
      "Ġfru": 2094,
      "Ġgen": 2095,
      "Ġsymb": 2096,
      "Ġvisual": 2097,
      "Ġamong": 2098,
      "Ġfurther": 2099,
      "anced": 2100,
      "ift": 2101,
      "Ġfeedback": 2102,
      "ng": 2103,
      "istic": 2104,
      "orn": 2105,
      "ĠYour": 2106,
      "Ġill": 2107,
      "Ġsoftware": 2108,
      "Ġreflect": 2109,
      "iful": 2110,
      "Ġimportance": 2111,
      "Ġexpect": 2112,
      "Ġability": 2113,
      "ees": 2114,
      "Ġcertain": 2115,
      "hing": 2116,
      "acks": 2117,
      "ĠÃł": 2118,
      "Ġarch": 2119,
      "Ġparticip": 2120,
      "Ġcaus": 2121,
      "Ġtaste": 2122,
      "Ġfund": 2123,
      "oms": 2124,
      "Ġpay": 2125,
      "cle": 2126,
      "Ġjob": 2127,
      "Ġmention": 2128,
      "Ġguide": 2129,
      "Ġwarm": 2130,
      "Ġgarlic": 2131,
      "Ġsn": 2132,
      "Ġcapt": 2133,
      "Ġconsum": 2134,
      "Ġpack": 2135,
      "Ġleg": 2136,
      "Ġrenew": 2137,
      "Ġstat": 2138,
      "Ġbutter": 2139,
      "Ġline": 2140,
      "ibr": 2141,
      "ooth": 2142,
      "Ġaction": 2143,
      "Ġthree": 2144,
      "Ġguid": 2145,
      "ified": 2146,
      "ried": 2147,
      "Ġsw": 2148,
      "Ġmo": 2149,
      "Ġbreat": 2150,
      "Ġsimple": 2151,
      "Ġcra": 2152,
      "Ġcountry": 2153,
      "Ġacross": 2154,
      "Ġwom": 2155,
      "Ġabove": 2156,
      "Ġjourney": 2157,
      "Ġlay": 2158,
      "izes": 2159,
      "Ġgreen": 2160,
      "urs": 2161,
      "Ġtour": 2162,
      "face": 2163,
      "rown": 2164,
      "Ġmakes": 2165,
      "Ġold": 2166,
      "ĠTe": 2167,
      "Ġhighlight": 2168,
      "Ġsecond": 2169,
      "iod": 2170,
      "Ġinnov": 2171,
      "ĠRes": 2172,
      "Ġadjust": 2173,
      "use": 2174,
      "Ġlive": 2175,
      "Ġcooking": 2176,
      "Ġnav": 2177,
      "oun": 2178,
      "Ġcode": 2179,
      "Ġimag": 2180,
      "ek": 2181,
      "poon": 2182,
      "000": 2183,
      "Ġreturn": 2184,
      "Ġdelicious": 2185,
      "Ġtaking": 2186,
      "ina": 2187,
      "ancial": 2188,
      "Ġjo": 2189,
      "ĠSo": 2190,
      "asc": 2191,
      "atives": 2192,
      "Ġadding": 2193,
      "Ġrestaur": 2194,
      "Ġcomprehens": 2195,
      "ission": 2196,
      "ians": 2197,
      "Ġeffects": 2198,
      "fulness": 2199,
      "Ġbehav": 2200,
      "ĠMake": 2201,
      "Ġlevels": 2202,
      "Ġ}": 2203,
      "ĠMay": 2204,
      "atoes": 2205,
      "cer": 2206,
      "oph": 2207,
      "rop": 2208,
      "xture": 2209,
      "itude": 2210,
      "Ġchoose": 2211,
      "Ġrepresent": 2212,
      "Ġproble": 2213,
      "Ġbeautiful": 2214,
      "ĠFin": 2215,
      "Ġhig": 2216,
      "ops": 2217,
      "Ġindividual": 2218,
      "Ġaway": 2219,
      "of": 2220,
      "Ġuses": 2221,
      "hers": 2222,
      "par": 2223,
      "Ġcomfort": 2224,
      "Ġsince": 2225,
      "ites": 2226,
      "Ġcut": 2227,
      "lex": 2228,
      "ferences": 2229,
      "ĠEng": 2230,
      "Ġflow": 2231,
      "Ġport": 2232,
      "Ġtemper": 2233,
      "ilt": 2234,
      "Ġleast": 2235,
      "ĠChrist": 2236,
      "Ġcause": 2237,
      "Ġreducing": 2238,
      "aily": 2239,
      "lo": 2240,
      "elling": 2241,
      "Ġrelevant": 2242,
      "Ġpurch": 2243,
      "Ġquestions": 2244,
      "Ġbegin": 2245,
      "Ġadapt": 2246,
      "ĠAll": 2247,
      "Ġeffectively": 2248,
      "Ġbowl": 2249,
      "Ġefforts": 2250,
      "ux": 2251,
      "side": 2252,
      "Ġprovided": 2253,
      "Ġamount": 2254,
      "Ġmotiv": 2255,
      "ones": 2256,
      "ane": 2257,
      "Ġreview": 2258,
      "ili": 2259,
      "Ġtur": 2260,
      "ura": 2261,
      "Ġyourself": 2262,
      "fer": 2263,
      "ters": 2264,
      "Ġtom": 2265,
      "idence": 2266,
      "Ġhy": 2267,
      "Ġskin": 2268,
      "Ġground": 2269,
      "Ġlittle": 2270,
      "Ġrelationships": 2271,
      "Ġeconomic": 2272,
      "Ġut": 2273,
      "lebr": 2274,
      "Ġexist": 2275,
      "itect": 2276,
      "Ġsun": 2277,
      "Ġartic": 2278,
      "Ġfull": 2279,
      "Ġmeans": 2280,
      "Ġ0": 2281,
      "Ġorganizations": 2282,
      "iting": 2283,
      "Ġmixture": 2284,
      "Ġprojects": 2285,
      "Ġtransportation": 2286,
      "Ġsitu": 2287,
      "Ġlik": 2288,
      "Ġcreative": 2289,
      "orm": 2290,
      "ids": 2291,
      "Ġcountries": 2292,
      "wer": 2293,
      "Ġemotional": 2294,
      "Ġemotions": 2295,
      "Ġcomprehensive": 2296,
      "not": 2297,
      "Ġput": 2298,
      "igin": 2299,
      "ument": 2300,
      "Ġmessage": 2301,
      "oor": 2302,
      "Ġsize": 2303,
      "Ġbeauty": 2304,
      "Ġprote": 2305,
      "Ġreason": 2306,
      "Ġapplication": 2307,
      "Ġunivers": 2308,
      "Ġfactors": 2309,
      "Ġfavor": 2310,
      "Ġmoment": 2311,
      "illing": 2312,
      "Ġsong": 2313,
      "ils": 2314,
      "uro": 2315,
      "Ġfinancial": 2316,
      "Ġpolit": 2317,
      "nds": 2318,
      "Ġcontain": 2319,
      "Ġwond": 2320,
      "Ġestab": 2321,
      "app": 2322,
      "Ġcontinue": 2323,
      "Ġvari": 2324,
      "20": 2325,
      "pose": 2326,
      "Ġwin": 2327,
      "Ġsing": 2328,
      "Ġtool": 2329,
      "Ġattract": 2330,
      "Ġperiod": 2331,
      "ĠIm": 2332,
      "Ġturn": 2333,
      "ĠOr": 2334,
      "Ġtou": 2335,
      "Ġblend": 2336,
      "Ġinstructions": 2337,
      "Ġsle": 2338,
      "Ġdue": 2339,
      "eds": 2340,
      "vey": 2341,
      "Ġdaily": 2342,
      "ley": 2343,
      "Ġthemselves": 2344,
      "Ġprofessional": 2345,
      "Ġled": 2346,
      "Ġrecogn": 2347,
      "Ġblack": 2348,
      "Ġpaper": 2349,
      "Ġol": 2350,
      "ai": 2351,
      "time": 2352,
      "reci": 2353,
      "Ġcool": 2354,
      "Ġtechnolog": 2355,
      "Ġlooking": 2356,
      "Ġlog": 2357,
      "ĠBl": 2358,
      "Ġappear": 2359,
      "place": 2360,
      "Ġnavig": 2361,
      "ĠĠĠĠĠ": 2362,
      "Ġju": 2363,
      "uten": 2364,
      "Ġconsist": 2365,
      "Ġprior": 2366,
      "Ġproduction": 2367,
      "Ġplant": 2368,
      "Ġattention": 2369,
      "Ġrenewable": 2370,
      "Ġleft": 2371,
      "ored": 2372,
      "ĠPh": 2373,
      "Ġsmooth": 2374,
      "ĠGo": 2375,
      "Ġheav": 2376,
      "Ġschool": 2377,
      "Ġarchitect": 2378,
      "Ġtemperature": 2379,
      "Ġstrength": 2380,
      "Ġmaj": 2381,
      "Ġsatis": 2382,
      "Ġfa": 2383,
      "Ġappe": 2384,
      "Ġtakes": 2385,
      "Ġenhance": 2386,
      "ither": 2387,
      "Ġinterested": 2388,
      "Ġsimilar": 2389,
      "Ġhab": 2390,
      "Ġnext": 2391,
      "Ġhistor": 2392,
      "Ġste": 2393,
      "Ġregion": 2394,
      "Ġrelig": 2395,
      "Ġegg": 2396,
      "Ġvideo": 2397,
      "Ġneeded": 2398,
      "Ġmat": 2399,
      "Ġbar": 2400,
      "Ġconditions": 2401,
      "aken": 2402,
      "ton": 2403,
      "unch": 2404,
      "ators": 2405,
      "aged": 2406,
      "Ġdescrib": 2407,
      "ued": 2408,
      "Ġappreci": 2409,
      "pecial": 2410,
      "atic": 2411,
      "Ġdest": 2412,
      "Ġleading": 2413,
      "Ġmob": 2414,
      "arent": 2415,
      "outh": 2416,
      "astic": 2417,
      "Ġwar": 2418,
      "ption": 2419,
      "Ġremind": 2420,
      "Ġtrue": 2421,
      "alls": 2422,
      "Ġcover": 2423,
      "Ġimages": 2424,
      "man": 2425,
      "Ġnight": 2426,
      "Ġ+": 2427,
      "Ġcalled": 2428,
      "Ġsecurity": 2429,
      "rodu": 2430,
      "Ġiniti": 2431,
      "ĠRemember": 2432,
      "Ġsent": 2433,
      "ĠOf": 2434,
      "ĠThank": 2435,
      "ged": 2436,
      "ĠLe": 2437,
      "Ġfile": 2438,
      "Ġshowc": 2439,
      "Ġlocation": 2440,
      "ĠOn": 2441,
      "Ġnear": 2442,
      "Ġalm": 2443,
      "ĠConsider": 2444,
      "Ġspirit": 2445,
      "Ġcir": 2446,
      "ford": 2447,
      "Ġant": 2448,
      "olutely": 2449,
      "Ġerr": 2450,
      "Ġupon": 2451,
      "ground": 2452,
      "Ġexce": 2453,
      "Ġsalad": 2454,
      "ĠProv": 2455,
      "Ġassoci": 2456,
      "Ġfeeling": 2457,
      "Ġwhy": 2458,
      "icate": 2459,
      "ĠJoh": 2460,
      "ĠMar": 2461,
      "Ġ*": 2462,
      "iver": 2463,
      "book": 2464,
      "Ġsubject": 2465,
      "Ġessay": 2466,
      "Ġcommunities": 2467,
      "Ġtables": 2468,
      "ius": 2469,
      "Ġresults": 2470,
      "Ġthought": 2471,
      "Ġterms": 2472,
      "Ġdark": 2473,
      "Ġmentioned": 2474,
      "Ġsymbol": 2475,
      "):": 2476,
      "Ġcelebr": 2477,
      "Ġwhole": 2478,
      "acy": 2479,
      "Ġstring": 2480,
      "Ġhealthcare": 2481,
      "Ġnetwork": 2482,
      "Ġsubst": 2483,
      "Ġsugar": 2484,
      "Ġnegative": 2485,
      "Ġlives": 2486,
      "ĠChe": 2487,
      "Ġremain": 2488,
      "ening": 2489,
      "Ġ//": 2490,
      "orld": 2491,
      "Ġpress": 2492,
      "ung": 2493,
      "phas": 2494,
      "ength": 2495,
      "Ġclos": 2496,
      "uis": 2497,
      "Ġseen": 2498,
      "Ġparticularly": 2499,
      "Ġaim": 2500,
      "emic": 2501,
      "imately": 2502,
      "Ġprin": 2503,
      "Ġadded": 2504,
      "Ġextra": 2505,
      "Ġmultiple": 2506,
      "Ġfield": 2507,
      "Ġeasily": 2508,
      "Ġpowerful": 2509,
      "sp": 2510,
      "ched": 2511,
      "Ġspeak": 2512,
      "Ġrelated": 2513,
      "Ġrich": 2514,
      "Ġtexture": 2515,
      "Ġorigin": 2516,
      "Ġsurround": 2517,
      "Ġchopped": 2518,
      "Ġanc": 2519,
      "ulation": 2520,
      "Ġgain": 2521,
      "Ġobs": 2522,
      "Ġincorporate": 2523,
      "bon": 2524,
      "ised": 2525,
      "Ġwhether": 2526,
      "Ġclimate": 2527,
      "Ġthing": 2528,
      "Ġoption": 2529,
      "Ġdigital": 2530,
      "Ġinvolved": 2531,
      "Ġpred": 2532,
      "Ġcommit": 2533,
      "Ġefficient": 2534,
      "Ġconcept": 2535,
      "aps": 2536,
      "Ġbread": 2537,
      "Ġles": 2538,
      "Ġpatterns": 2539,
      "ump": 2540,
      "gor": 2541,
      "Ġcontact": 2542,
      "Ġhaving": 2543,
      "ĠTra": 2544,
      "Ġplatforms": 2545,
      "Ġstra": 2546,
      "ĠPlease": 2547,
      "Ġaltern": 2548,
      "Ġselect": 2549,
      "Ġfelt": 2550,
      "Ġslic": 2551,
      "que": 2552,
      "Ġencourage": 2553,
      "Ġprotein": 2554,
      "Ġmor": 2555,
      "Ġ&": 2556,
      "Ġdisplay": 2557,
      "ging": 2558,
      "Ġautom": 2559,
      "val": 2560,
      "ĠAm": 2561,
      "Ġarr": 2562,
      "Ġanimals": 2563,
      "Ġcreated": 2564,
      "olutions": 2565,
      "une": 2566,
      "Ġyoung": 2567,
      "Ġmanage": 2568,
      "Ġbud": 2569,
      "irm": 2570,
      "Ġinstead": 2571,
      "Ġfarm": 2572,
      "Ġvivid": 2573,
      "Ġdise": 2574,
      "Ġfar": 2575,
      "Ġstructure": 2576,
      "Ġvalues": 2577,
      "Ġitself": 2578,
      "Ġdress": 2579,
      "ĠCar": 2580,
      "Ġemphas": 2581,
      "aches": 2582,
      "Ġliving": 2583,
      "ests": 2584,
      "Ġleaves": 2585,
      "Ġdefin": 2586,
      "ĠAmerican": 2587,
      "Ġcomes": 2588,
      "Ġmajor": 2589,
      "Ġabs": 2590,
      "Ġthemes": 2591,
      "Ġemb": 2592,
      "Ġsche": 2593,
      "Ġask": 2594,
      "zz": 2595,
      "Ġmonth": 2596,
      "Ġengagement": 2597,
      "Ġpiece": 2598,
      "ification": 2599,
      "che": 2600,
      "Ġfoot": 2601,
      "Ġeverything": 2602,
      "oved": 2603,
      "Ġwaste": 2604,
      "go": 2605,
      "sh": 2606,
      "Ġseem": 2607,
      "Ġbehavior": 2608,
      "ĠTr": 2609,
      "Ġliter": 2610,
      "ocol": 2611,
      "Ġenough": 2612,
      "omes": 2613,
      "Ġenvironmental": 2614,
      "quality": 2615,
      "nder": 2616,
      "Ġpoints": 2617,
      "yth": 2618,
      "ened": 2619,
      "Ġonce": 2620,
      "na": 2621,
      "Ġbur": 2622,
      "Ġarg": 2623,
      "Ġbalance": 2624,
      "Ġsav": 2625,
      "Ġattend": 2626,
      "Ġwide": 2627,
      "Ġever": 2628,
      "Ġpair": 2629,
      "Ġdevices": 2630,
      "ony": 2631,
      "Ġdone": 2632,
      "Ġsales": 2633,
      "Ġweb": 2634,
      "Ġmilk": 2635,
      "onse": 2636,
      "istics": 2637,
      "ĠFr": 2638,
      "pite": 2639,
      "Ġpage": 2640,
      "Ġwhite": 2641,
      "Ġglob": 2642,
      "gorith": 2643,
      "Ġ15": 2644,
      "ression": 2645,
      "Ġgre": 2646,
      "Ġrisk": 2647,
      "Ġyet": 2648,
      "iveness": 2649,
      "Ġartists": 2650,
      "life": 2651,
      "Ġfest": 2652,
      "ĠLet": 2653,
      "ĠOur": 2654,
      "iced": 2655,
      "Ġmeditation": 2656,
      "Ġadm": 2657,
      "ĠSu": 2658,
      "ows": 2659,
      "erson": 2660,
      "Ġinsights": 2661,
      "Ġones": 2662,
      "Ġpowder": 2663,
      "Ġ18": 2664,
      "ĠKe": 2665,
      "Ġminim": 2666,
      "Ġengine": 2667,
      "Ġfavorite": 2668,
      "Ġitems": 2669,
      "pecially": 2670,
      "Ġcy": 2671,
      "Ġroom": 2672,
      "Ġmeaning": 2673,
      "ĠMan": 2674,
      "Ġemployees": 2675,
      "Ġpeace": 2676,
      "Ġgard": 2677,
      "ĠUnivers": 2678,
      "Ġmeasure": 2679,
      "Ġaware": 2680,
      "Ġgeneral": 2681,
      "Ġbit": 2682,
      "ĠAt": 2683,
      "Ġmindfulness": 2684,
      "aching": 2685,
      "itely": 2686,
      "Ġalgorith": 2687,
      "Ġrelationship": 2688,
      "Ġtherap": 2689,
      "Ġoven": 2690,
      "Ġregard": 2691,
      "ĠOnce": 2692,
      "ety": 2693,
      "Ġbaking": 2694,
      "Ġmethods": 2695,
      "Ġfish": 2696,
      "Ġmatter": 2697,
      "Ġgoing": 2698,
      "Ġdam": 2699,
      "Ġvo": 2700,
      "Ġrecip": 2701,
      "Ġdays": 2702,
      "ference": 2703,
      "Ġtasks": 2704,
      "ĠComm": 2705,
      "Ġpric": 2706,
      "Ġflav": 2707,
      "Ġlocated": 2708,
      "Ġanx": 2709,
      "Ġcell": 2710,
      "Ġcru": 2711,
      "Ġespecially": 2712,
      "Ġorganization": 2713,
      "Ġplayed": 2714,
      "att": 2715,
      "Ġfilm": 2716,
      "Ġhappy": 2717,
      "Ġhours": 2718,
      "Ġspecies": 2719,
      "uck": 2720,
      "Ġdream": 2721,
      "Ġsuper": 2722,
      "Ġsetting": 2723,
      "anger": 2724,
      "itor": 2725,
      "Ġsomeone": 2726,
      "Ġassist": 2727,
      "overed": 2728,
      "asted": 2729,
      "Ġcomput": 2730,
      "sequ": 2731,
      "Ġarray": 2732,
      "Ġconflic": 2733,
      "Ġhigher": 2734,
      "Ġexercises": 2735,
      "inating": 2736,
      "Ġyog": 2737,
      "Ġmach": 2738,
      "Ġmobile": 2739,
      "Ġtechnologies": 2740,
      "Ġolive": 2741,
      "Ġshap": 2742,
      "lude": 2743,
      "Ġearly": 2744,
      "Ġpersonalized": 2745,
      "Ġ12": 2746,
      "ĠQu": 2747,
      "ĠCo": 2748,
      "ĠWhile": 2749,
      "Ġsource": 2750,
      "free": 2751,
      "Ġsleep": 2752,
      "Ġtoday": 2753,
      "Ġsurv": 2754,
      "Ġhimself": 2755,
      "Ġinfluence": 2756,
      "Ġsolutions": 2757,
      "Ġlower": 2758,
      "Ġap": 2759,
      "ĠHis": 2760,
      "Ġpreferences": 2761,
      "Ġsociety": 2762,
      "Ġbackground": 2763,
      "Ġstories": 2764,
      "ls": 2765,
      "Ġfire": 2766,
      "Î½": 2767,
      "Ġsqu": 2768,
      "Ġdemon": 2769,
      "Ġpoet": 2770,
      "ĠSal": 2771,
      "ison": 2772,
      "Ġactivity": 2773,
      "ĠMed": 2774,
      "lished": 2775,
      "Ġprev": 2776,
      "Ġrelax": 2777,
      "augh": 2778,
      "Ġtouch": 2779,
      "ension": 2780,
      "Ġur": 2781,
      "Ġmel": 2782,
      "pri": 2783,
      "Ġimage": 2784,
      "Ġword": 2785,
      "Ġdry": 2786,
      "Ġplants": 2787,
      "'d": 2788,
      "uff": 2789,
      "Ġrice": 2790,
      "Ġexh": 2791,
      "Ġinvolves": 2792,
      "ster": 2793,
      "Ġstir": 2794,
      "rig": 2795,
      "Ġaspect": 2796,
      "II": 2797,
      "Ġquickly": 2798,
      "Ġdiet": 2799,
      "aly": 2800,
      "Ġlikely": 2801,
      "Ġnumbers": 2802,
      "Ġserve": 2803,
      "ĠRo": 2804,
      "Ġmeal": 2805,
      "Ġwood": 2806,
      "ĠFinally": 2807,
      "Ġlot": 2808,
      "Ġbudget": 2809,
      "ĠApp": 2810,
      "issions": 2811,
      "agon": 2812,
      "Ġfall": 2813,
      "Ġscient": 2814,
      "Ġscience": 2815,
      "ĠAbs": 2816,
      "ĠJohn": 2817,
      "Ġ|": 2818,
      "Ġpractical": 2819,
      "ĠOb": 2820,
      "ocolate": 2821,
      "Ġbig": 2822,
      "Ġstrategy": 2823,
      "Ġquestion": 2824,
      "Ġdiv": 2825,
      "ĠSoc": 2826,
      "Ġmoney": 2827,
      "Ġpartners": 2828,
      "Ġmedium": 2829,
      "Ġbecame": 2830,
      "ĠX": 2831,
      "Ġexcell": 2832,
      "Ġresponse": 2833,
      "Ġsus": 2834,
      "Ġcop": 2835,
      "Ġexercise": 2836,
      "enge": 2837,
      "Ġvegan": 2838,
      "ipment": 2839,
      "Ġcou": 2840,
      "ĠUnited": 2841,
      "ĠRep": 2842,
      "isc": 2843,
      "ffee": 2844,
      "Ġdeath": 2845,
      "Ġgroups": 2846,
      "ding": 2847,
      "Ġpolitical": 2848,
      "Ġconduct": 2849,
      "Ġincorporating": 2850,
      "Ġancient": 2851,
      "Ġmeat": 2852,
      "Ġhon": 2853,
      "Ġqui": 2854,
      "Ġcampaigns": 2855,
      "Ġexperiment": 2856,
      "Ġvirtual": 2857,
      "head": 2858,
      "Ġelse": 2859,
      "Ġfaced": 2860,
      "ÏĦ": 2861,
      "apan": 2862,
      "Ġpropos": 2863,
      "Ġpriv": 2864,
      "rics": 2865,
      "ino": 2866,
      "Ġplayers": 2867,
      "Ġpassage": 2868,
      "inary": 2869,
      "ext": 2870,
      "hood": 2871,
      "Ġfasc": 2872,
      "ĠDevelop": 2873,
      "aff": 2874,
      "Ġge": 2875,
      "Ġrespect": 2876,
      "Ġcalcul": 2877,
      "ĠUniversity": 2878,
      "Ġtal": 2879,
      "ĠSy": 2880,
      "Ġ30": 2881,
      "Ġwritten": 2882,
      "Ġgold": 2883,
      "ying": 2884,
      "Ġfamous": 2885,
      "._": 2886,
      "cks": 2887,
      "Ġincreased": 2888,
      "Ġengage": 2889,
      "ĠAbsolutely": 2890,
      "Ġrequired": 2891,
      "Ġhear": 2892,
      "ties": 2893,
      "Ġslow": 2894,
      "ĠĠĠĠĠĠĠĠĠĠĠĠĠĠĠĠ": 2895,
      "Ġhouse": 2896,
      "Ġcannot": 2897,
      "ĠEuro": 2898,
      "ĠProvide": 2899,
      "Ġdeveloping": 2900,
      "Ġgreater": 2901,
      "ront": 2902,
      "Ġtone": 2903,
      "Ġcomplete": 2904,
      "Ġsort": 2905,
      "Ġstarted": 2906,
      "Ġtaken": 2907,
      "Ġimproving": 2908,
      "Ġbehind": 2909,
      "Ġemp": 2910,
      "Ġans": 2911,
      "illion": 2912,
      "Ġfrequ": 2913,
      "Ġbir": 2914,
      "iction": 2915,
      "Ġer": 2916,
      "Ġallowing": 2917,
      "()": 2918,
      "Ġbrown": 2919,
      "Ġteas": 2920,
      "Ġsil": 2921,
      "ervation": 2922,
      "step": 2923,
      "Ġconsid": 2924,
      "ological": 2925,
      "Î¹": 2926,
      "het": 2927,
      "ĠRed": 2928,
      "Ġgames": 2929,
      "aries": 2930,
      "Ġthoughts": 2931,
      "mosp": 2932,
      "Ġwild": 2933,
      "Ġposition": 2934,
      "Ġseries": 2935,
      "Ġassociated": 2936,
      "Ġdemand": 2937,
      "(\"": 2938,
      "Ġdecor": 2939,
      "inks": 2940,
      "Ġcollect": 2941,
      "Ġloss": 2942,
      "urt": 2943,
      "umb": 2944,
      "Ġcred": 2945,
      "Ġreceive": 2946,
      "Ġsho": 2947,
      "Ġincreasing": 2948,
      "Ġreaders": 2949,
      "Ġdraw": 2950,
      "Ġsecure": 2951,
      "oud": 2952,
      "Ġcris": 2953,
      "ĠMy": 2954,
      "Ġintrodu": 2955,
      "nding": 2956,
      "Ġarticle": 2957,
      "Ġfour": 2958,
      "ĠMany": 2959,
      "Ġsave": 2960,
      "Ġapplications": 2961,
      "ĠGree": 2962,
      "Î±": 2963,
      "Ġatmosp": 2964,
      "Ġanxiety": 2965,
      "Ġtrust": 2966,
      "ado": 2967,
      "Ġfig": 2968,
      "rict": 2969,
      "Ġpromoting": 2970,
      "Ġpieces": 2971,
      "Ġdivers": 2972,
      "Ġdemonst": 2973,
      "Ġann": 2974,
      "Ġadvert": 2975,
      "Ġcareer": 2976,
      "itch": 2977,
      "hel": 2978,
      "Ġgoal": 2979,
      "Ġhandle": 2980,
      "ĠAnother": 2981,
      "ana": 2982,
      "Ġknew": 2983,
      "Ġlif": 2984,
      "yle": 2985,
      "ĠHer": 2986,
      "Ġrecent": 2987,
      "Ġmodel": 2988,
      "sy": 2989,
      "ĠEurope": 2990,
      "Ġsoup": 2991,
      "ĠMe": 2992,
      "Ġemerg": 2993,
      "ĠDon": 2994,
      "Ġjuice": 2995,
      "Ġachie": 2996,
      "cast": 2997,
      "ashion": 2998,
      "Ġcuis": 2999,
      "Ġappropri": 3000,
      "ĠJapan": 3001,
      "unte": 3002,
      "Ġclients": 3003,
      "ĠCent": 3004,
      "Ġcenter": 3005,
      "Ġparts": 3006,
      "Ġrecord": 3007,
      "uable": 3008,
      "Ġinspir": 3009,
      "Ġchoice": 3010,
      "Ġult": 3011,
      "ronic": 3012,
      "Ġweather": 3013,
      "Ġequipment": 3014,
      "arian": 3015,
      "Ġtransform": 3016,
      "aving": 3017,
      "Ġinstall": 3018,
      "Ġstudies": 3019,
      "Ġmeasures": 3020,
      "Ġsuit": 3021,
      "ogle": 3022,
      "ĠSm": 3023,
      "Ġbelieve": 3024,
      "ka": 3025,
      "Ġtim": 3026,
      "Ġreader": 3027,
      "Ġflavors": 3028,
      "Ġdetect": 3029,
      "ĠAv": 3030,
      "ready": 3031,
      "Ġdoc": 3032,
      "Ġsignificance": 3033,
      "ensive": 3034,
      "made": 3035,
      "Ġhighly": 3036,
      "Ġelectric": 3037,
      "Ġglobal": 3038,
      "ume": 3039,
      "icial": 3040,
      "Ġdefinitely": 3041,
      "oyal": 3042,
      "uth": 3043,
      "Ġder": 3044,
      "gest": 3045,
      "ufact": 3046,
      "urch": 3047,
      "Ġple": 3048,
      "ĠArt": 3049,
      "Ġtrying": 3050,
      "Ġeasier": 3051,
      "Ġscript": 3052,
      "ences": 3053,
      "ĠAcc": 3054,
      "Ġsafety": 3055,
      "ole": 3056,
      "Ġinitiatives": 3057,
      "Ġanything": 3058,
      "Ġcosts": 3059,
      "Ġimplemented": 3060,
      "alf": 3061,
      "Ġshall": 3062,
      "Ġwrite": 3063,
      "Ġactions": 3064,
      "Ġdistribut": 3065,
      ".--": 3066,
      "fs": 3067,
      "rated": 3068,
      "iency": 3069,
      "Ġversion": 3070,
      "Ġinde": 3071,
      "idge": 3072,
      "Ġdance": 3073,
      "rastructure": 3074,
      "mit": 3075,
      "pre": 3076,
      "Ġage": 3077,
      "Ġroutine": 3078,
      "ER": 3079,
      "10": 3080,
      "Ġhost": 3081,
      "Ġfear": 3082,
      "Ġsand": 3083,
      "Ġclassic": 3084,
      "Ġpath": 3085,
      "Ġafford": 3086,
      "Ġbooks": 3087,
      "Ġlength": 3088,
      "Ġdou": 3089,
      "Ġeyes": 3090,
      "Ġrev": 3091,
      "Ġbreath": 3092,
      "med": 3093,
      "Ġleaders": 3094,
      "Ġspread": 3095,
      "ilos": 3096,
      "Ġconvey": 3097,
      "Ġlonger": 3098,
      "Ġalready": 3099,
      "Ġcard": 3100,
      "Ġfocused": 3101,
      "Ġproduce": 3102,
      "Ġmovement": 3103,
      "Ġthr": 3104,
      "Ġimpress": 3105,
      "Ġdy": 3106,
      "Ġmax": 3107,
      "yond": 3108,
      "Ġearth": 3109,
      "Ġded": 3110,
      "ĠPr": 3111,
      "Ġcarbon": 3112,
      "Ġgraph": 3113,
      "Ġprec": 3114,
      "Ġarchitecture": 3115,
      "Ġpolic": 3116,
      "ĠTake": 3117,
      "Ġdeveloped": 3118,
      "Ġflour": 3119,
      "ctions": 3120,
      "ĠAfric": 3121,
      "Ġdesigns": 3122,
      "Ġhor": 3123,
      "ĠAre": 3124,
      "Ġrather": 3125,
      "ĠCho": 3126,
      ".,": 3127,
      "Ġovercome": 3128,
      "Ġelement": 3129,
      "Ġactive": 3130,
      "Ġcirc": 3131,
      "othing": 3132,
      "Ġgetting": 3133,
      "osing": 3134,
      "Ġpurpose": 3135,
      "Ġrecipes": 3136,
      "Ġrate": 3137,
      "Ġapply": 3138,
      "Ġwine": 3139,
      "Ġdeg": 3140,
      "Ġsoul": 3141,
      "Ġsepar": 3142,
      "Ġstyles": 3143,
      "Ġgenerate": 3144,
      "Ġprevious": 3145,
      "Ġcoffee": 3146,
      "In": 3147,
      "Ġopportunity": 3148,
      "ler": 3149,
      "ned": 3150,
      "Ġfruit": 3151,
      "ags": 3152,
      "Ġinstru": 3153,
      "Ġcollection": 3154,
      "ricult": 3155,
      "Ġadvanced": 3156,
      "ography": 3157,
      "Ġinfluenced": 3158,
      "atitude": 3159,
      "Ġhol": 3160,
      "ĠHey": 3161,
      "Ġpolicies": 3162,
      "Ġrates": 3163,
      "tings": 3164,
      "isions": 3165,
      "Ġri": 3166,
      "ses": 3167,
      "lusion": 3168,
      "Ġnews": 3169,
      "Ġvi": 3170,
      "Ġopp": 3171,
      "ĠBr": 3172,
      "Ġconsidered": 3173,
      "Ġshape": 3174,
      "Ġformat": 3175,
      "Ġshows": 3176,
      "ĠInt": 3177,
      "Ġentire": 3178,
      "Ġvaluable": 3179,
      "Ġwonder": 3180,
      "Ġnothing": 3181,
      "Ġhands": 3182,
      "ĠMarket": 3183,
      "Ġpurchase": 3184,
      "ĠComp": 3185,
      "Ġcolle": 3186,
      "itary": 3187,
      "Ġbegan": 3188,
      "dd": 3189,
      "Ġinterests": 3190,
      "Ġtable": 3191,
      "ĠAfter": 3192,
      "ĠCont": 3193,
      "Ġcoc": 3194,
      "Ġforms": 3195,
      "Ġacad": 3196,
      "ĠGener": 3197,
      "Ġbuilt": 3198,
      "Ġbright": 3199,
      "iber": 3200,
      "Ġnarr": 3201,
      "room": 3202,
      "Ġthird": 3203,
      "cript": 3204,
      "iam": 3205,
      "cl": 3206,
      "Ġeconomy": 3207,
      "Ġinfrastructure": 3208,
      "imp": 3209,
      "Ġsess": 3210,
      "Ġaccom": 3211,
      "Ġcuisine": 3212,
      "Ġexcellent": 3213,
      "Ġvideos": 3214,
      "Ġweek": 3215,
      "ancing": 3216,
      "Ġplans": 3217,
      "Ġeither": 3218,
      "Ġserving": 3219,
      "Ġcontribute": 3220,
      "Ġlink": 3221,
      "Ġinteractive": 3222,
      "Ġlooks": 3223,
      "Ġoutd": 3224,
      "Ġmanufact": 3225,
      "Ġatmosphere": 3226,
      "Ġbi": 3227,
      "ull": 3228,
      "Ġadvance": 3229,
      "Ġvisually": 3230,
      "illa": 3231,
      "Ġparent": 3232,
      "orial": 3233,
      "Ġmedical": 3234,
      "iddle": 3235,
      "omet": 3236,
      "ĠSet": 3237,
      "berg": 3238,
      "Ġsummary": 3239,
      "Ġchallenging": 3240,
      "ades": 3241,
      "Ġblog": 3242,
      "Ġjud": 3243,
      "ĠTherefore": 3244,
      "Ġcorre": 3245,
      "Ġcame": 3246,
      "Ġexpand": 3247,
      "aim": 3248,
      "izz": 3249,
      "Ġfr": 3250,
      "Ġcontem": 3251,
      "Ġidentity": 3252,
      "Ġlost": 3253,
      "Ġcurious": 3254,
      "ields": 3255,
      "Ġseems": 3256,
      "Ġletter": 3257,
      "being": 3258,
      "Ġlimited": 3259,
      "agonist": 3260,
      "ĠStates": 3261,
      "Ġbeyond": 3262,
      "ĠUS": 3263,
      "Ġlat": 3264,
      "Ġconcer": 3265,
      "Ġdepending": 3266,
      "Ġmount": 3267,
      "ctor": 3268,
      "Ġchocolate": 3269,
      "plic": 3270,
      "ĠGoogle": 3271,
      "Ġcrucial": 3272,
      "Ġstre": 3273,
      "cent": 3274,
      "rench": 3275,
      "Ġcooked": 3276,
      "50": 3277,
      "Ġincluded": 3278,
      "Ġprim": 3279,
      "chools": 3280,
      "Ġcritical": 3281,
      "Ġdecision": 3282,
      "Ġroll": 3283,
      "Ġindustries": 3284,
      "Ġtook": 3285,
      "Ġpark": 3286,
      "ule": 3287,
      "Ġhistorical": 3288,
      "Ġremove": 3289,
      "Ġhair": 3290,
      "Ġobst": 3291,
      "Ġconnection": 3292,
      "Ġfascinating": 3293,
      "Ġteaspoon": 3294,
      "iles": 3295,
      "Ġdesired": 3296,
      "ugh": 3297,
      "rad": 3298,
      "Ġtown": 3299,
      "Ġwon": 3300,
      "ĠCook": 3301,
      "Ġsea": 3302,
      "ĠEnjoy": 3303,
      "Ġoutside": 3304,
      "Ġfra": 3305,
      "Ġwal": 3306,
      "Ġrestaurant": 3307,
      "Ġfashion": 3308,
      "lam": 3309,
      "Ġadvice": 3310,
      "Ġstor": 3311,
      "uild": 3312,
      "mar": 3313,
      "Ġappropriate": 3314,
      "Ġconcise": 3315,
      "Ġestablish": 3316,
      "enc": 3317,
      "ĠGr": 3318,
      "Ġexpert": 3319,
      "Ġutil": 3320,
      "Ġchallenge": 3321,
      "earch": 3322,
      "Ġagree": 3323,
      "Ġweight": 3324,
      "rought": 3325,
      "19": 3326,
      "Ġdepth": 3327,
      "ĠNational": 3328,
      "Ġadop": 3329,
      "Ġaffected": 3330,
      "Ġpict": 3331,
      "fully": 3332,
      "Ġstream": 3333,
      "osed": 3334,
      "Ġscene": 3335,
      "Ġwait": 3336,
      "Ġprotagonist": 3337,
      "Ġsac": 3338,
      "Ġmatch": 3339,
      "Ġforest": 3340,
      "Ġenter": 3341,
      "Ġsingle": 3342,
      "ĠProject": 3343,
      "hold": 3344,
      "Ġsection": 3345,
      "icro": 3346,
      "ĠMaybe": 3347,
      "ma": 3348,
      "Ġ200": 3349,
      "ĠCal": 3350,
      "Ġperspect": 3351,
      "Ġlemon": 3352,
      "Ġdoing": 3353,
      "Ġclose": 3354,
      "Ġsafe": 3355,
      "orks": 3356,
      "Ġthick": 3357,
      "Ġwatch": 3358,
      "ĠPe": 3359,
      "Ġallowed": 3360,
      "Ġproblem": 3361,
      "ban": 3362,
      "hent": 3363,
      "ĠNow": 3364,
      "Ġblue": 3365,
      "Ġspices": 3366,
      "term": 3367,
      "coming": 3368,
      "Ġalternative": 3369,
      "Ġdanger": 3370,
      "Ġtypically": 3371,
      "Ġnavigate": 3372,
      "Ġvisitors": 3373,
      "board": 3374,
      "ios": 3375,
      "Ġlearned": 3376,
      "ww": 3377,
      "Ġfitness": 3378,
      "Ġonion": 3379,
      "Ġtraffic": 3380,
      "Ġoutput": 3381,
      "inct": 3382,
      "Ġconstruction": 3383,
      "Ġherbs": 3384,
      "Ġbase": 3385,
      "Ġx": 3386,
      "Ġwomen": 3387,
      "rition": 3388,
      "Ġpriorit": 3389,
      "Ġdifference": 3390,
      "Ġconsequ": 3391,
      "Ġharm": 3392,
      "Ġtrees": 3393,
      "Ġreality": 3394,
      "\",": 3395,
      "otes": 3396,
      "________": 3397,
      "Ġfram": 3398,
      "Î¿": 3399,
      "oll": 3400,
      "Ġlandsc": 3401,
      "Ġtrade": 3402,
      "ĠStep": 3403,
      "ecut": 3404,
      "Ġlab": 3405,
      "chan": 3406,
      "ĠPar": 3407,
      "Ġsensory": 3408,
      "Ġsurface": 3409,
      "su": 3410,
      "enn": 3411,
      "Ġmemory": 3412,
      "Ġappreciate": 3413,
      "Ġinternational": 3414,
      "Ġhoney": 3415,
      "Ġson": 3416,
      "Ġadvant": 3417,
      "aced": 3418,
      "Ġfully": 3419,
      "Ġforward": 3420,
      "oke": 3421,
      "Ġproperly": 3422,
      "Ġworth": 3423,
      "ilies": 3424,
      "Ġfail": 3425,
      "Ġtruly": 3426,
      "Ġ11": 3427,
      "Ġpour": 3428,
      "tics": 3429,
      "Ġdescriptive": 3430,
      "ĠName": 3431,
      "Ã¨": 3432,
      "ĠRom": 3433,
      "ivil": 3434,
      "rink": 3435,
      "bor": 3436,
      "Ġplaces": 3437,
      "Ġobjects": 3438,
      "ief": 3439,
      "Ġrad": 3440,
      "Ã¶": 3441,
      "ĠTheir": 3442,
      "Ġsin": 3443,
      "Ġseeds": 3444,
      "ĠInclude": 3445,
      "Ġsaw": 3446,
      "ĠFl": 3447,
      "Ġchann": 3448,
      "rief": 3449,
      "dom": 3450,
      "Ġoffering": 3451,
      "Ġfinal": 3452,
      "Ġdat": 3453,
      "ulate": 3454,
      "Ġreligious": 3455,
      "Ġagricult": 3456,
      "Ġdead": 3457,
      "alu": 3458,
      "Ġcombination": 3459,
      "ellig": 3460,
      "Ġcand": 3461,
      "ĠNo": 3462,
      "Ġobstac": 3463,
      "iers": 3464,
      "ppers": 3465,
      "Ġeveryone": 3466,
      "Ġpowers": 3467,
      "Ġter": 3468,
      "hic": 3469,
      "Ã¼": 3470,
      "Ġtherapy": 3471,
      "ĠIng": 3472,
      "Ġrequirements": 3473,
      "atory": 3474,
      "onut": 3475,
      "Ġqual": 3476,
      "Ġmyself": 3477,
      "ini": 3478,
      "ĠGu": 3479,
      "oon": 3480,
      "Ġlarger": 3481,
      "Ġawareness": 3482,
      "Ġhelping": 3483,
      "Ġbenefit": 3484,
      "ires": 3485,
      "Ġincred": 3486,
      "Ġcreatures": 3487,
      "Ġsolar": 3488,
      "Ġreli": 3489,
      "ifications": 3490,
      "aph": 3491,
      "gy": 3492,
      "Ġvolunte": 3493,
      "ena": 3494,
      "Ġreceived": 3495,
      "ules": 3496,
      "Ġlines": 3497,
      "Ġcommunicate": 3498,
      "Ġserved": 3499,
      "ĠBased": 3500,
      "Ġsite": 3501,
      "ĠSar": 3502,
      "ais": 3503,
      "ĠReg": 3504,
      "ĠGreat": 3505,
      "Ġver": 3506,
      "Ġlibr": 3507,
      "oint": 3508,
      "Ġdetermine": 3509,
      "Ġimmers": 3510,
      "Ġappl": 3511,
      "ĠGl": 3512,
      "Ġillust": 3513,
      "nal": 3514,
      "edi": 3515,
      "Ġcases": 3516,
      "Ġtreatment": 3517,
      "Ġexploring": 3518,
      "itute": 3519,
      "anc": 3520,
      "Ġvoice": 3521,
      "Ġadvent": 3522,
      "Ġcomplet": 3523,
      "ĠWest": 3524,
      "Ġreven": 3525,
      "unning": 3526,
      "Ġconstant": 3527,
      "Ġstri": 3528,
      "Ġmachine": 3529,
      "Ġanalyze": 3530,
      "Ġinnovative": 3531,
      "Ġpassion": 3532,
      "Ġplanning": 3533,
      "ĠWorld": 3534,
      "Ġtheme": 3535,
      "Ġwalk": 3536,
      "oming": 3537,
      "Ġspiritual": 3538,
      "Ġgod": 3539,
      "Ġang": 3540,
      "Ġsoil": 3541,
      "Ġic": 3542,
      "Ġslight": 3543,
      "Ġfeelings": 3544,
      "Ġevidence": 3545,
      "Ġsustainability": 3546,
      "Ġphilos": 3547,
      "Ġerror": 3548,
      "Ġsharing": 3549,
      "ĠEns": 3550,
      "ĠDespite": 3551,
      "Ġinj": 3552,
      "Ġsmart": 3553,
      "ĠWar": 3554,
      "Ġacademic": 3555,
      "dule": 3556,
      "Ġeye": 3557,
      "ĠFrench": 3558,
      "verage": 3559,
      "Ġmaxim": 3560,
      "Ġcomfortable": 3561,
      "Ġblood": 3562,
      "gr": 3563,
      "Ġtopics": 3564,
      "Ġdescriptions": 3565,
      "porary": 3566,
      "Ġflex": 3567,
      "Ġsituation": 3568,
      "amed": 3569,
      "Ġauthent": 3570,
      "Ġhabit": 3571,
      "Ġscreen": 3572,
      "ĠGra": 3573,
      "Ġadvertising": 3574,
      "Ġpolicy": 3575,
      "Ġprofession": 3576,
      "Ġprefer": 3577,
      "Ġimplementing": 3578,
      "Ġtomatoes": 3579,
      "sych": 3580,
      "Ġgradu": 3581,
      "Ġdescription": 3582,
      "Ġdom": 3583,
      "Ġevalu": 3584,
      "attle": 3585,
      "Ġloved": 3586,
      "Ġteac": 3587,
      "ended": 3588,
      "Ġglass": 3589,
      "Ġsatisf": 3590,
      "Ġaccur": 3591,
      "Ġdu": 3592,
      "Ġice": 3593,
      "cean": 3594,
      "Ġoriginal": 3595,
      "ĠIngredients": 3596,
      "abilities": 3597,
      "Ġfinding": 3598,
      "Ġheld": 3599,
      "ured": 3600,
      "ourage": 3601,
      "Ġschools": 3602,
      "Ġcondition": 3603,
      "Ġlimit": 3604,
      "Ġpal": 3605,
      "agram": 3606,
      "Ġexhib": 3607,
      "Ġgratitude": 3608,
      "Ġtax": 3609,
      "ĠAccording": 3610,
      "Ġefficiency": 3611,
      "Ġnovel": 3612,
      "ĠFe": 3613,
      "Ġmechan": 3614,
      "Ġmuse": 3615,
      "ums": 3616,
      "Ġoptimize": 3617,
      "Ġtail": 3618,
      "artment": 3619,
      "Ġopin": 3620,
      "Ġsubs": 3621,
      "ĠChoose": 3622,
      "my": 3623,
      "ands": 3624,
      "Ġoccas": 3625,
      "Ġsliced": 3626,
      "Ġsoon": 3627,
      "Ġmilitary": 3628,
      "Ġstorage": 3629,
      "ĠKeep": 3630,
      "Ġvehic": 3631,
      "TM": 3632,
      "Ġexcept": 3633,
      "Ġshowcase": 3634,
      "Ġsports": 3635,
      "Ġworked": 3636,
      "ounter": 3637,
      "Ġwoman": 3638,
      "Â°": 3639,
      "Ġdiverse": 3640,
      "Ġtot": 3641,
      "Ġcourses": 3642,
      "Ġvalid": 3643,
      "arc": 3644,
      "Ġreading": 3645,
      "Ġworkout": 3646,
      "Ġmit": 3647,
      "Ġtit": 3648,
      "Ġcentury": 3649,
      "Ġprompt": 3650,
      "ror": 3651,
      "St": 3652,
      "uments": 3653,
      "Ġhalf": 3654,
      "Ġfast": 3655,
      "ĠFurther": 3656,
      "Ġcollaboration": 3657,
      "Ġconvers": 3658,
      "Ġmass": 3659,
      "ĠĠĠĠĠĠĠĠĠĠĠ": 3660,
      "Ġdiscover": 3661,
      "Ġdate": 3662,
      "Ġneigh": 3663,
      "Ġaccessible": 3664,
      "Ġtrends": 3665,
      "rain": 3666,
      "Ġconclusion": 3667,
      "ĠBar": 3668,
      "Ġdie": 3669,
      "Ġlatest": 3670,
      "oves": 3671,
      "Ġregions": 3672,
      "Ġrecommended": 3673,
      "ĠEnsure": 3674,
      "Ġgarden": 3675,
      "unt": 3676,
      "ĠGreek": 3677,
      "Ġaffordable": 3678,
      "ĠPark": 3679,
      "Ġappealing": 3680,
      "Ġcam": 3681,
      "Ġimagery": 3682,
      "Ġdrive": 3683,
      "zy": 3684,
      "Ġfight": 3685,
      "Ġbott": 3686,
      "uel": 3687,
      "Ġleave": 3688,
      "Ġunc": 3689,
      "Ġcrisp": 3690,
      "ĠSouth": 3691,
      "30": 3692,
      "ES": 3693,
      "Ġpresence": 3694,
      "Ġtruth": 3695,
      "Ġdrink": 3696,
      "Ġ16": 3697,
      "Ġproperties": 3698,
      "Ġrock": 3699,
      "ĠTw": 3700,
      "ĠPer": 3701,
      "ĠEl": 3702,
      "Ġroad": 3703,
      "Ġspeed": 3704,
      "Ġalmond": 3705,
      "fficient": 3706,
      "lines": 3707,
      "Ġdirectly": 3708,
      "ĠStud": 3709,
      "Ġprepare": 3710,
      "Ġtechnique": 3711,
      "umber": 3712,
      "Ġsky": 3713,
      "Ġwid": 3714,
      "Ġrain": 3715,
      "Ġnarrative": 3716,
      "Ġalone": 3717,
      "overy": 3718,
      "Ġfab": 3719,
      "Ġgrand": 3720,
      "idents": 3721,
      "Ġdamage": 3722,
      "eter": 3723,
      "Ġfamilies": 3724,
      "ĠOff": 3725,
      "Ġpotatoes": 3726,
      "ister": 3727,
      "Ġexperienced": 3728,
      "Ġexpected": 3729,
      "Ġbuildings": 3730,
      "Ġau": 3731,
      "umin": 3732,
      "Ġdial": 3733,
      "Ġstudent": 3734,
      "Ġeffort": 3735,
      "ON": 3736,
      "Ġbeans": 3737,
      "Ġcontext": 3738,
      "Ġtraditions": 3739,
      "Ġrestaurants": 3740,
      "Ġvegetable": 3741,
      "ĠÃ©": 3742,
      "ĠPre": 3743,
      "Ġabilities": 3744,
      "Ġproblems": 3745,
      "gment": 3746,
      "Ġloyal": 3747,
      "Ġdescribe": 3748,
      "Ġshared": 3749,
      "Ġsays": 3750,
      "fit": 3751,
      "Ġphone": 3752,
      "Ġbeef": 3753,
      "Ġjoy": 3754,
      "Ġoperations": 3755,
      "Ġaccept": 3756,
      "Ġspecifically": 3757,
      "PI": 3758,
      "Ġeco": 3759,
      "ula": 3760,
      "Ġbelieved": 3761,
      "ĠSw": 3762,
      "Ġissue": 3763,
      "Ġconcerns": 3764,
      "Ġwent": 3765,
      "Ġoutdoor": 3766,
      "Ġregularly": 3767,
      "Ġsmaller": 3768,
      "Ġtree": 3769,
      "Ġdisease": 3770,
      "inger": 3771,
      "Ġrequires": 3772,
      "Ġ.": 3773,
      "Ġcontinued": 3774,
      "Ġensuring": 3775,
      "Ġcities": 3776,
      "asure": 3777,
      "15": 3778,
      "Ġuseful": 3779,
      "Ġdess": 3780,
      "Ġgas": 3781,
      "ĠAg": 3782,
      "Ġforce": 3783,
      "Ġresist": 3784,
      "bt": 3785,
      "Ġoccur": 3786,
      "ĠMon": 3787,
      "ĠDr": 3788,
      "Ġpainting": 3789,
      "ample": 3790,
      "Ġtesting": 3791,
      "amb": 3792,
      "Ġcold": 3793,
      "ellow": 3794,
      "Ġimmedi": 3795,
      "ager": 3796,
      "etic": 3797,
      "Ġprice": 3798,
      "ĠSec": 3799,
      "Ġpoetry": 3800,
      "Ġmiss": 3801,
      "Ġevol": 3802,
      "Ġinvestment": 3803,
      "Ġinstance": 3804,
      "Ġdecisions": 3805,
      "Ġintellig": 3806,
      "Ġeffectiveness": 3807,
      "Ġtea": 3808,
      "Ġbrought": 3809,
      "ded": 3810,
      "Ġplaying": 3811,
      "Ġrob": 3812,
      "aught": 3813,
      "ĠPart": 3814,
      "Ġeggs": 3815,
      "Ġproductivity": 3816,
      "ĠInstructions": 3817,
      "Ġteams": 3818,
      "Ġanswer": 3819,
      "set": 3820,
      "Ġnor": 3821,
      "fl": 3822,
      "Ġphotos": 3823,
      "Ġdocument": 3824,
      "Ġsummar": 3825,
      "Ġcraft": 3826,
      "Ġdeal": 3827,
      "Ġcorrect": 3828,
      "Ġnutrition": 3829,
      "ĠHigh": 3830,
      "Ġemissions": 3831,
      "eper": 3832,
      "Ġthreat": 3833,
      "Ġremember": 3834,
      "Ġreve": 3835,
      "Ġblock": 3836,
      "rew": 3837,
      "era": 3838,
      "ĠVis": 3839,
      "ha": 3840,
      "Ġfilled": 3841,
      "rs": 3842,
      "Ġapps": 3843,
      "Ġsuff": 3844,
      "ĠRec": 3845,
      "Ġpatient": 3846,
      "Ġupdated": 3847,
      "ternal": 3848,
      "words": 3849,
      "Ġtherefore": 3850,
      "ky": 3851,
      "Ġlater": 3852,
      "ĠHave": 3853,
      "ĠÂ": 3854,
      "raft": 3855,
      "ĠCity": 3856,
      "Ġinvolve": 3857,
      "Ġguidance": 3858,
      "Ġdough": 3859,
      "Ġcompos": 3860,
      "uous": 3861,
      "load": 3862,
      "Ġinformative": 3863,
      "Ġdynam": 3864,
      "wh": 3865,
      "Ġstarting": 3866,
      "Ġintric": 3867,
      "Ġbatter": 3868,
      "ached": 3869,
      "Ġquite": 3870,
      "Ġfive": 3871,
      "ĠAss": 3872,
      "Ġresil": 3873,
      "Ġcultures": 3874,
      "Ġbrain": 3875,
      "Ġsolution": 3876,
      "Ġclasses": 3877,
      "Ġmis": 3878,
      "ĠSarah": 3879,
      "Ġmas": 3880,
      "ĠWill": 3881,
      "Ġplastic": 3882,
      "Ġtask": 3883,
      "utenberg": 3884,
      "Ġcast": 3885,
      "ĠMix": 3886,
      "comes": 3887,
      "Ġmillion": 3888,
      "Ġsusp": 3889,
      "ĠServe": 3890,
      "Ġvegetarian": 3891,
      "rel": 3892,
      "icated": 3893,
      "Ġgiving": 3894,
      "Ġadds": 3895,
      "ĠEach": 3896,
      "Ġrunning": 3897,
      "ĠCheck": 3898,
      "Ġvan": 3899,
      "Ġ14": 3900,
      "ĠStart": 3901,
      "Ġtracking": 3902,
      "ĠEnglish": 3903,
      "ĠSocial": 3904,
      "ĠAust": 3905,
      "Ã¡": 3906,
      "rupt": 3907,
      "ae": 3908,
      "ĠUsing": 3909,
      "Ġplus": 3910,
      "chol": 3911,
      "Ġcompared": 3912,
      "ĠObj": 3913,
      "ĠWhe": 3914,
      "Ġstruggles": 3915,
      "ĠThrough": 3916,
      "Ġfields": 3917,
      "Ġden": 3918,
      "Ġinvestig": 3919,
      "ball": 3920,
      "iences": 3921,
      "Ġcin": 3922,
      "Ġshown": 3923,
      "Ġanimal": 3924,
      "Ġcups": 3925,
      "Ġcoconut": 3926,
      "Ġprocesses": 3927,
      "Ġboard": 3928,
      "TI": 3929,
      "Ġalign": 3930,
      "Ġcompon": 3931,
      "nown": 3932,
      "Ġpet": 3933,
      "ĠOut": 3934,
      "Ġfro": 3935,
      "Ġfaith": 3936,
      "onic": 3937,
      "Ġcivil": 3938,
      "Ġimproved": 3939,
      "Ġcro": 3940,
      "_,": 3941,
      "Ġfo": 3942,
      "ĠNe": 3943,
      "Ġvine": 3944,
      "ĠFace": 3945,
      "Ġimpacted": 3946,
      "Ġir": 3947,
      "Ġschedule": 3948,
      "Ġ17": 3949,
      "crib": 3950,
      "Ġflowers": 3951,
      "Ġrh": 3952,
      "ĠSim": 3953,
      "key": 3954,
      "Ġpressure": 3955,
      "Ġexecut": 3956,
      "Ġkn": 3957,
      "Ġtrou": 3958,
      "Ġvict": 3959,
      "Ġsuccessfully": 3960,
      "AR": 3961,
      "ĠBrit": 3962,
      "Ġdistance": 3963,
      "Ġbed": 3964,
      "pan": 3965,
      "ĠAI": 3966,
      "Ġord": 3967,
      "Ġcit": 3968,
      "Ġmanner": 3969,
      "fered": 3970,
      "Ġtablespoon": 3971,
      "Ġonto": 3972,
      "Ġimpacts": 3973,
      "uries": 3974,
      "Ġgrowing": 3975,
      "icing": 3976,
      "Ġmaintaining": 3977,
      "Ġobstacles": 3978,
      "Ġviews": 3979,
      "ĠMus": 3980,
      "Ġsupply": 3981,
      "Ġacqu": 3982,
      "ette": 3983,
      "Ġoffered": 3984,
      "erved": 3985,
      "Ġultimately": 3986,
      "Ġslightly": 3987,
      "Ġpatients": 3988,
      "print": 3989,
      "Ġhyd": 3990,
      "Ġmist": 3991,
      "Ġstunning": 3992,
      "itors": 3993,
      "Ġrespond": 3994,
      "Ġec": 3995,
      "Ġheavy": 3996,
      "ute": 3997,
      "Ġscientific": 3998,
      "Ġdessert": 3999,
      "Ġcomments": 4000,
      "Ġready": 4001,
      "Ġproperty": 4002,
      "?\"": 4003,
      "ĠResearch": 4004,
      "chen": 4005,
      "Ġthinking": 4006,
      "itage": 4007,
      "Ġrecy": 4008,
      "Ġvary": 4009,
      "Ġprivate": 4010,
      "Ġstruct": 4011,
      "Ġcontrast": 4012,
      "inations": 4013,
      "umn": 4014,
      "ĠIndian": 4015,
      "Ġwebsites": 4016,
      "house": 4017,
      "ĠIndia": 4018,
      "ĠNorth": 4019,
      "Ġpeppers": 4020,
      "ille": 4021,
      "ĠTry": 4022,
      "Ġpasta": 4023,
      "ably": 4024,
      "ĠPol": 4025,
      "Ġroasted": 4026,
      "Ġmission": 4027,
      "Ġinstitut": 4028,
      "cious": 4029,
      "Ġmonths": 4030,
      "ĠGe": 4031,
      "Ġmood": 4032,
      "Ġtut": 4033,
      "Ġrise": 4034,
      "Ġworksh": 4035,
      "Ġmeals": 4036,
      "Ġassess": 4037,
      "Ġtender": 4038,
      "Ġpush": 4039,
      "Ġmoments": 4040,
      "ĠSchool": 4041,
      "aul": 4042,
      "Ġfruits": 4043,
      "Ġstick": 4044,
      "Ġwhis": 4045,
      "Ġrelease": 4046,
      "ĠOther": 4047,
      "Ġtow": 4048,
      "lying": 4049,
      "Ġexplan": 4050,
      "Ġpsych": 4051,
      "ogue": 4052,
      "Ġretail": 4053,
      "faction": 4054,
      "Ġnumer": 4055,
      "rug": 4056,
      "Ġfeet": 4057,
      "Ġalgorithm": 4058,
      "ĠEd": 4059,
      "Ġtransl": 4060,
      "empt": 4061,
      "Ġheard": 4062,
      "Ġstatistics": 4063,
      "Ġpoems": 4064,
      "Ġesc": 4065,
      "ental": 4066,
      "Ġconflict": 4067,
      "Ġ13": 4068,
      "Ġclick": 4069,
      "Ġpap": 4070,
      "Ġdevice": 4071,
      "Ġgent": 4072,
      "Ġfoods": 4073,
      "Ġaspects": 4074,
      "fast": 4075,
      "inese": 4076,
      "Ġvariations": 4077,
      "Ġsold": 4078,
      "Ġremote": 4079,
      "Ġtechnical": 4080,
      "ivery": 4081,
      "Ġcomplement": 4082,
      "Ġpossess": 4083,
      "12": 4084,
      "ĠDuring": 4085,
      "Ġcreativity": 4086,
      "Ġchanging": 4087,
      "ĠSE": 4088,
      "Ġorganic": 4089,
      "ocado": 4090,
      "Ġclothing": 4091,
      "Ġcaused": 4092,
      "Ġmark": 4093,
      "Ġassistance": 4094,
      "ĠFrom": 4095,
      "Ġstaff": 4096,
      "inc": 4097,
      "Ġplot": 4098,
      "like": 4099,
      "ply": 4100,
      "ĠBra": 4101,
      "igen": 4102,
      "rase": 4103,
      "Ġinsight": 4104,
      "Ġparents": 4105,
      "Ġdatab": 4106,
      "usion": 4107,
      "Ġfilling": 4108,
      "Ġmodels": 4109,
      "Ġintricate": 4110,
      "pected": 4111,
      "Ġsi": 4112,
      "gen": 4113,
      "vest": 4114,
      "Ġtrip": 4115,
      "Ġcatch": 4116,
      "min": 4117,
      "Ġcompletely": 4118,
      "Ġkit": 4119,
      "ĠHealth": 4120,
      "Ġmember": 4121,
      "ava": 4122,
      "Ġoutcomes": 4123,
      "ought": 4124,
      "Ġplayer": 4125,
      "Ġbox": 4126,
      "ara": 4127,
      "mat": 4128,
      "Ġdiscount": 4129,
      "Ġconsistent": 4130,
      "Ġsummer": 4131,
      "ĠFacebook": 4132,
      "Ġlack": 4133,
      "enses": 4134,
      "idden": 4135,
      "rooms": 4136,
      "cers": 4137,
      "Ġalmost": 4138,
      "ciples": 4139,
      "Ġrevenue": 4140,
      "Ġvibr": 4141,
      "Ġusually": 4142,
      "Ġdeeper": 4143,
      "Ġsituations": 4144,
      "Ġprofessionals": 4145,
      "urance": 4146,
      "Ġbrands": 4147,
      "],": 4148,
      "oration": 4149,
      "ĠState": 4150,
      "Ġjustice": 4151,
      "asons": 4152,
      "Ġviol": 4153,
      "ython": 4154,
      "Ġnational": 4155,
      "Ġdiced": 4156,
      "Ġsnow": 4157,
      "Îµ": 4158,
      "Ġdistinct": 4159,
      "Ġfunding": 4160,
      "lt": 4161,
      "Ġinterface": 4162,
      "ĠGutenberg": 4163,
      "Ġpoll": 4164,
      "Ġdidn": 4165,
      "Ġsummarize": 4166,
      "Ġhomemade": 4167,
      "ceed": 4168,
      "Ġmovements": 4169,
      "berries": 4170,
      "Ġsomet": 4171,
      "Ġcross": 4172,
      "ĠEar": 4173,
      "Ġnuts": 4174,
      "Ġbell": 4175,
      "ĠSam": 4176,
      "iding": 4177,
      "force": 4178,
      "Ġmenu": 4179,
      "Ġsnack": 4180,
      "ĠBo": 4181,
      "Ġil": 4182,
      "Ġep": 4183,
      "Ġsuppl": 4184,
      "ĠGerm": 4185,
      "Ġbound": 4186,
      "Ġdressing": 4187,
      "Ġinside": 4188,
      "Ġchat": 4189,
      "Ġcreates": 4190,
      "Ġconversation": 4191,
      "Ġquant": 4192,
      "Ġcateg": 4193,
      "kin": 4194,
      "Ġboost": 4195,
      "imin": 4196,
      "atur": 4197,
      "Ġcere": 4198,
      "Ġvac": 4199,
      "Ġcogn": 4200,
      "Ġban": 4201,
      "Ġhous": 4202,
      "Ġbecomes": 4203,
      "Ġocean": 4204,
      "Ġbold": 4205,
      "orporate": 4206,
      "Ġchem": 4207,
      "Ġanalyz": 4208,
      "Ġoffice": 4209,
      "Ġ25": 4210,
      "Ġlighting": 4211,
      "Ġpartner": 4212,
      "Ġcreation": 4213,
      "ĠFirst": 4214,
      "Ġwee": 4215,
      "Ġuns": 4216,
      "eries": 4217,
      "Ġlandscape": 4218,
      "iff": 4219,
      "Ġparty": 4220,
      "Ġsuitable": 4221,
      "Ġeducational": 4222,
      "Ġcompetition": 4223,
      "though": 4224,
      "Ġmother": 4225,
      "Ġsimply": 4226,
      "Ġmovie": 4227,
      "Ġbeliefs": 4228,
      "ĠPo": 4229,
      "Ġbes": 4230,
      "poons": 4231,
      "Ġexciting": 4232,
      "known": 4233,
      "roll": 4234,
      "Ġliterature": 4235,
      "Ġprioritize": 4236,
      "Ġsometimes": 4237,
      "Ġinspired": 4238,
      "Ġreviews": 4239,
      "IN": 4240,
      "Ġspot": 4241,
      "Ġcapture": 4242,
      "ĠChina": 4243,
      "ĠJust": 4244,
      "orus": 4245,
      "Ġfat": 4246,
      "illet": 4247,
      "Ġfather": 4248,
      "tenance": 4249,
      "Ġcomputer": 4250,
      "Ġofficial": 4251,
      "Ġremains": 4252,
      "odies": 4253,
      "Ġextract": 4254,
      "Ġchannels": 4255,
      "Ġlayer": 4256,
      "Ġconsequences": 4257,
      "Ġanalytics": 4258,
      "ĠPract": 4259,
      "Ġcarry": 4260,
      "Ġsongs": 4261,
      "Ġprinciples": 4262,
      "Ġstret": 4263,
      "Ġdeliver": 4264,
      "Ġretur": 4265,
      "enty": 4266,
      "Ġcat": 4267,
      "Ġcontemporary": 4268,
      "Ġideal": 4269,
      "ĠLook": 4270,
      "ups": 4271,
      "Ġbelow": 4272,
      "Ġupdates": 4273,
      "ĠCommun": 4274,
      "itter": 4275,
      "cling": 4276,
      "Ġonions": 4277,
      "eral": 4278,
      "Ġimpressive": 4279,
      "Ġstatement": 4280,
      "Ġresponsible": 4281,
      "Ġsatisfaction": 4282,
      "Ġclaim": 4283,
      "ipped": 4284,
      "fu": 4285,
      "Ġcontains": 4286,
      "Ġreact": 4287,
      "ibly": 4288,
      "ĠMore": 4289,
      "Ġvul": 4290,
      "Ġdelivery": 4291,
      "Ġcells": 4292,
      "Ġspin": 4293,
      "encies": 4294,
      "Ġpure": 4295,
      "Ġwear": 4296,
      "Ġdog": 4297,
      "Ġmotivated": 4298,
      "Ġfront": 4299,
      "...": 4300,
      "Ġhowever": 4301,
      "more": 4302,
      "Ġengaged": 4303,
      "Ġpick": 4304,
      "Ġexact": 4305,
      "Ġindepend": 4306,
      "Ġgather": 4307,
      "Ġparticipate": 4308,
      "Ġtotal": 4309,
      "rates": 4310,
      "ĠVal": 4311,
      "Ġgluten": 4312,
      "change": 4313,
      "iling": 4314,
      "Ġmemories": 4315,
      "Ġinnovation": 4316,
      "Ġyoga": 4317,
      "Ġmer": 4318,
      "Ġanyone": 4319,
      "Ġking": 4320,
      "Ġtwist": 4321,
      "used": 4322,
      "Ġaccompl": 4323,
      "ĠTrans": 4324,
      "ĠTechn": 4325,
      "Ġreb": 4326,
      "Ġsettings": 4327,
      "eless": 4328,
      "Ġtension": 4329,
      "ken": 4330,
      "ulpt": 4331,
      "ĠDesign": 4332,
      "ppings": 4333,
      "Ġmoist": 4334,
      "Ġmush": 4335,
      "Ġseek": 4336,
      "ales": 4337,
      "Ġrisks": 4338,
      "Ġbelong": 4339,
      "Ġcommonly": 4340,
      "://": 4341,
      "Ġgift": 4342,
      "Ġbasic": 4343,
      "ĠVe": 4344,
      "Ġexpertise": 4345,
      "Ġinitial": 4346,
      "Ġtsp": 4347,
      "Ġbroad": 4348,
      "\".": 4349,
      "haps": 4350,
      "iring": 4351,
      "eria": 4352,
      "Ġrom": 4353,
      "Ġnutri": 4354,
      "Ġnames": 4355,
      "Ġ/": 4356,
      "Ġcorn": 4357,
      "ĠMarketing": 4358,
      "yl": 4359,
      "Ġskillet": 4360,
      "Ġnous": 4361,
      "Ġ100": 4362,
      "Ġfort": 4363,
      "Ġreput": 4364,
      "Ġtopic": 4365,
      "Ġrequest": 4366,
      "isms": 4367,
      "Ġbuy": 4368,
      "25": 4369,
      "Ġsurrounding": 4370,
      "Ġbirds": 4371,
      "Ġpu": 4372,
      "Ġcreamy": 4373,
      "lusive": 4374,
      "duc": 4375,
      "ĠIntern": 4376,
      "itate": 4377,
      "Ġeat": 4378,
      "Ġthy": 4379,
      "Ġsessions": 4380,
      "ocal": 4381,
      "Ġfestival": 4382,
      "ĠThen": 4383,
      "Ġstates": 4384,
      "Ġmagn": 4385,
      "Ġincent": 4386,
      "rie": 4387,
      "ublic": 4388,
      "Ġstores": 4389,
      "emy": 4390,
      "Ġextre": 4391,
      "Ġpod": 4392,
      "Ġpages": 4393,
      "Ġball": 4394,
      "Ġcrust": 4395,
      "water": 4396,
      "ĠGenerate": 4397,
      "Ġgentle": 4398,
      "Ġdesire": 4399,
      "Ġcontributed": 4400,
      "ĠAb": 4401,
      "ĠGood": 4402,
      "Ġestablished": 4403,
      "Ġgoods": 4404,
      "antic": 4405,
      "ĠChinese": 4406,
      "Ġdifferences": 4407,
      "aked": 4408,
      "Ġcopy": 4409,
      "agn": 4410,
      "Ġformer": 4411,
      "Ġunex": 4412,
      "iance": 4413,
      "Ġsuggests": 4414,
      "Ġnotable": 4415,
      "Ġstruggle": 4416,
      "Ġperspective": 4417,
      "Ġfarmers": 4418,
      "ommod": 4419,
      "udd": 4420,
      "Ġexisting": 4421,
      "ech": 4422,
      "Ġbrief": 4423,
      "Ġcleaning": 4424,
      "works": 4425,
      "Ġthin": 4426,
      "EN": 4427,
      "Ġhar": 4428,
      "iday": 4429,
      "list": 4430,
      "Ġentertain": 4431,
      "Ġbroth": 4432,
      "ht": 4433,
      "Ġmaster": 4434,
      "ĠAvoid": 4435,
      "ĠPlace": 4436,
      "Ġearl": 4437,
      "Ġexpression": 4438,
      "Ġvinegar": 4439,
      "Ãª": 4440,
      "Ġartist": 4441,
      "Ġpun": 4442,
      "Ġfair": 4443,
      "anging": 4444,
      "ulations": 4445,
      "Ġhop": 4446,
      "Ġcarro": 4447,
      "Ġstreet": 4448,
      "Ġgot": 4449,
      "ĠAlex": 4450,
      "ĠExpl": 4451,
      "rows": 4452,
      "erce": 4453,
      "Ġprinc": 4454,
      "Ġsculpt": 4455,
      "assion": 4456,
      "ene": 4457,
      "Ġcher": 4458,
      "hest": 4459,
      "Ġpayment": 4460,
      "Ġdried": 4461,
      "Ġweak": 4462,
      "Ġgave": 4463,
      "Ġlaws": 4464,
      "Ġbecoming": 4465,
      "Ġwinter": 4466,
      "ĠAfrican": 4467,
      "ĠAir": 4468,
      "Ġsets": 4469,
      "ĠProg": 4470,
      "=,": 4471,
      "Ġmonitor": 4472,
      "Ġworkers": 4473,
      "Ġclient": 4474,
      "Ġinspire": 4475,
      "aborate": 4476,
      "Ġphilosoph": 4477,
      "Ġkeeping": 4478,
      "Ġurban": 4479,
      "Ġsides": 4480,
      "Ġcompare": 4481,
      "Ġherself": 4482,
      "Ġmyth": 4483,
      "Ġmap": 4484,
      "Ġfiles": 4485,
      "Ġembra": 4486,
      "Ġtrain": 4487,
      "ĠĠĠĠĠĠ": 4488,
      "Ġmedic": 4489,
      "ibilities": 4490,
      "ĠLa": 4491,
      "oli": 4492,
      "Ġchance": 4493,
      "rong": 4494,
      "Ġelectronic": 4495,
      "Ġcoming": 4496,
      "Ġyogurt": 4497,
      "Ġamb": 4498,
      "ĠHar": 4499,
      "ĠMin": 4500,
      "Ġheritage": 4501,
      "Ġisland": 4502,
      "Ġinspiration": 4503,
      "Ġstructures": 4504,
      "Ġmessages": 4505,
      "ĠJo": 4506,
      "AT": 4507,
      "Ġcombine": 4508,
      "Ġlisten": 4509,
      "Ġband": 4510,
      "Ġspicy": 4511,
      "Ġcel": 4512,
      "!\"": 4513,
      "Ġadvantage": 4514,
      "ada": 4515,
      "ĠServ": 4516,
      "Ã©s": 4517,
      "izza": 4518,
      "Ġrent": 4519,
      "Ġath": 4520,
      "ĠJapanese": 4521,
      "eration": 4522,
      "Ġbul": 4523,
      "Ġusage": 4524,
      "Ġwit": 4525,
      "Ġvulner": 4526,
      "ĠAug": 4527,
      "AS": 4528,
      "Ġhosp": 4529,
      "Ġalgorithms": 4530,
      "Ġcauses": 4531,
      "Ġresearc": 4532,
      "Ġprices": 4533,
      "Ġpricing": 4534,
      "Ġwall": 4535,
      "orough": 4536,
      "Ġload": 4537,
      "ided": 4538,
      "Ġsupporting": 4539,
      "Ġvibrant": 4540,
      "Ġposts": 4541,
      "Ġmanaging": 4542,
      "Ġmaintenance": 4543,
      "Ġaccommod": 4544,
      "ifying": 4545,
      "Ġdoesn": 4546,
      "cles": 4547,
      "Ġfabric": 4548,
      "ket": 4549,
      "ÏĤ": 4550,
      "Ġinterview": 4551,
      "wise": 4552,
      "Ġbeach": 4553,
      "Ġgolden": 4554,
      "Ġapart": 4555,
      "hetic": 4556,
      "Ġreplace": 4557,
      "ivals": 4558,
      "Ġcancer": 4559,
      "Ġshel": 4560,
      "Ġshopping": 4561,
      "Ġresilience": 4562,
      "Ġceremon": 4563,
      "Ġrealized": 4564,
      "Ġemployee": 4565,
      "arily": 4566,
      "Ġgives": 4567,
      "ĠYork": 4568,
      "Ġtele": 4569,
      "ero": 4570,
      "ĠAc": 4571,
      "Ġspaces": 4572,
      "Ġexcited": 4573,
      "Ġcommand": 4574,
      "Ġfant": 4575,
      "ĠGiven": 4576,
      "acity": 4577,
      "ĠRoman": 4578,
      "Ġfilter": 4579,
      "Ġassign": 4580,
      "ĠDis": 4581,
      "ube": 4582,
      "Ġcurrently": 4583,
      "Ġcontinues": 4584,
      "Ġevil": 4585,
      "ĠEnc": 4586,
      "Ġdialogue": 4587,
      "Ġthus": 4588,
      "Ġunexpected": 4589,
      "Ġpopulation": 4590,
      "Ġclim": 4591,
      "bre": 4592,
      "mes": 4593,
      "Ġpas": 4594,
      "Ġmeeting": 4595,
      "Ġmixed": 4596,
      "Ġast": 4597,
      "Ġstandard": 4598,
      "Ġdura": 4599,
      "Ġcalm": 4600,
      "num": 4601,
      "ĠJack": 4602,
      "Ġtoppings": 4603,
      "Ġloyalty": 4604,
      "Ġchili": 4605,
      "Ã¤n": 4606,
      "ellect": 4607,
      "Ġwed": 4608,
      "iate": 4609,
      "Ġachieving": 4610,
      "elines": 4611,
      "Ġcake": 4612,
      "ĠInstagram": 4613,
      "order": 4614,
      "Ġbreathing": 4615,
      "Ġleads": 4616,
      "Ġdatabase": 4617,
      "Ġimplementation": 4618,
      "Ġtang": 4619,
      "going": 4620,
      "ira": 4621,
      "Ġhighlights": 4622,
      "Ġadopt": 4623,
      "Ġmetrics": 4624,
      "Ġcry": 4625,
      "akers": 4626,
      "Ġuniverse": 4627,
      "asts": 4628,
      "Ġleadership": 4629,
      "Ġguests": 4630,
      "itoring": 4631,
      "Ġgrate": 4632,
      "ĠCenter": 4633,
      "Ġrepl": 4634,
      "Ġround": 4635,
      "Ġproduced": 4636,
      "person": 4637,
      "Ġmemor": 4638,
      "Ġmorning": 4639,
      "atively": 4640,
      "Ġdiseases": 4641,
      "AN": 4642,
      "gon": 4643,
      "hern": 4644,
      "gypt": 4645,
      "Ġstatus": 4646,
      "Ġchain": 4647,
      "Ġtomato": 4648,
      "Ġlargest": 4649,
      "Ġbird": 4650,
      "Ġsour": 4651,
      "Ġbeginning": 4652,
      "Ġappearance": 4653,
      "ĠAnaly": 4654,
      "Ġserves": 4655,
      "Ġwilling": 4656,
      "âĢ": 4657,
      "aint": 4658,
      "Ġresulting": 4659,
      "Ġdriving": 4660,
      "Ġavocado": 4661,
      "rinkle": 4662,
      "Ġconven": 4663,
      "Ġnotes": 4664,
      "Ġdri": 4665,
      "Ġmaybe": 4666,
      "Ġattempt": 4667,
      "ĠWhether": 4668,
      "Ġmarkets": 4669,
      "Ġhidden": 4670,
      "Ġ24": 4671,
      "ĠPres": 4672,
      "Ġwel": 4673,
      "iking": 4674,
      "ED": 4675,
      "making": 4676,
      "ception": 4677,
      "Ġentre": 4678,
      "Ġreliable": 4679,
      "Ġbond": 4680,
      "Ġwhom": 4681,
      "arp": 4682,
      "Ġfeat": 4683,
      "Ġintelligence": 4684,
      "right": 4685,
      "Ġexplanation": 4686,
      "Ġtalk": 4687,
      "Ġpackaging": 4688,
      "inoa": 4689,
      "ague": 4690,
      "Ġagriculture": 4691,
      "Ġmoving": 4692,
      "Ġattack": 4693,
      "Ġsend": 4694,
      "Ġmid": 4695,
      "bl": 4696,
      "Ġrepresents": 4697,
      "Ġalb": 4698,
      "Ġvit": 4699,
      "Ġreduced": 4700,
      "uge": 4701,
      "Ġrepe": 4702,
      "Ġplays": 4703,
      "Ġpredict": 4704,
      "Ġthorough": 4705,
      "Ġdiscovered": 4706,
      "ĠMuse": 4707,
      "Ġshapes": 4708,
      "arsh": 4709,
      "ĠCount": 4710,
      "Ġpicture": 4711,
      "ĠRemove": 4712,
      "ĠAct": 4713,
      "Ġtablespoons": 4714,
      "iation": 4715,
      "Ġpaint": 4716,
      "Ġcert": 4717,
      "alse": 4718,
      "ĠFound": 4719,
      "Ġfix": 4720,
      "Ġskill": 4721,
      "Ġcombined": 4722,
      "icks": 4723,
      "Ġsmok": 4724,
      "ĠDef": 4725,
      "ensity": 4726,
      "Ġlux": 4727,
      "Ġsignificantly": 4728,
      "Ġconservation": 4729,
      "Ġreports": 4730,
      "Ġmut": 4731,
      "ĠCustom": 4732,
      "Ġlibrary": 4733,
      "zzle": 4734,
      "Ġinstrument": 4735,
      "Ġadventure": 4736,
      "namon": 4737,
      "ttps": 4738,
      "Ġje": 4739,
      "Ġmiddle": 4740,
      "ishing": 4741,
      "Ġinteger": 4742,
      "ĠAustral": 4743,
      "Ġlate": 4744,
      "ipping": 4745,
      "mp": 4746,
      "Ġnamed": 4747,
      "ĠChar": 4748,
      "Ġsizes": 4749,
      "ystem": 4750,
      "Ġimprovement": 4751,
      "Ġbag": 4752,
      "down": 4753,
      "Ġerrors": 4754,
      "ĠAut": 4755,
      "exic": 4756,
      "Ġleaving": 4757,
      "Ġresearchers": 4758,
      "Ġseasoning": 4759,
      "Ġtransfer": 4760,
      "world": 4761,
      "Ġeating": 4762,
      "ĠHol": 4763,
      "acing": 4764,
      "Ġpattern": 4765,
      "Ġintellect": 4766,
      "ĠEgypt": 4767,
      "Ġdemonstrate": 4768,
      "Ġbottom": 4769,
      "Ġaccurate": 4770,
      "Ġsequ": 4771,
      "Ġnumerous": 4772,
      "Ġmyst": 4773,
      "ĠIts": 4774,
      "ĠEduc": 4775,
      "ĠChristian": 4776,
      "Ġpodcast": 4777,
      "Ġ50": 4778,
      "zen": 4779,
      "Ġoccasion": 4780,
      "Ġtact": 4781,
      "Ġprepared": 4782,
      "oir": 4783,
      "ett": 4784,
      "Ġbreakfast": 4785,
      "Ġstop": 4786,
      "Ġdin": 4787,
      "ĠAns": 4788,
      "ĠCut": 4789,
      "uilding": 4790,
      "ola": 4791,
      "',": 4792,
      "Ġincredible": 4793,
      "Ġchips": 4794,
      "Ġstars": 4795,
      "Ġwealth": 4796,
      "Ġmuseum": 4797,
      "ĠRob": 4798,
      "comm": 4799,
      "Ġtried": 4800,
      "Ġmicro": 4801,
      "ii": 4802,
      "Ġbad": 4803,
      "Ġstar": 4804,
      "Ġcircum": 4805,
      "Ġforg": 4806,
      "Ġcommitment": 4807,
      "Ġprotection": 4808,
      "uration": 4809,
      "rial": 4810,
      "Ġgrace": 4811,
      "Ġorganized": 4812,
      "Ġfollows": 4813,
      "ĠInstead": 4814,
      "Ġinstruction": 4815,
      "ores": 4816,
      "))": 4817,
      "Ġminced": 4818,
      "Ġdedicated": 4819,
      "ny": 4820,
      "Ġconsumption": 4821,
      "ĠDay": 4822,
      "ĠÏ": 4823,
      "Ġdrug": 4824,
      "ĠMind": 4825,
      "Ġselection": 4826,
      "Ġgrateful": 4827,
      "ĠMexic": 4828,
      "Ġcloud": 4829,
      "Ġconnected": 4830,
      "Ġimmediately": 4831,
      "ĠAmerica": 4832,
      "Ġstronger": 4833,
      "Ġmusical": 4834,
      "ĠItal": 4835,
      "Ġindic": 4836,
      "icip": 4837,
      "En": 4838,
      "Ġflavorful": 4839,
      "Ġpros": 4840,
      "ĠChurch": 4841,
      "Ġobtain": 4842,
      "Ġhabits": 4843,
      "Ġsight": 4844,
      "where": 4845,
      "Ġwis": 4846,
      "Ġmort": 4847,
      "Ġprocessing": 4848,
      "ĠAPI": 4849,
      "Ġwalking": 4850,
      "Ġpublished": 4851,
      "oving": 4852,
      "vere": 4853,
      "Ġvision": 4854,
      "Ġluck": 4855,
      "60": 4856,
      "Ġcognitive": 4857,
      "ĠCle": 4858,
      "rific": 4859,
      "uts": 4860,
      "Ġloop": 4861,
      "Ġaw": 4862,
      "Your": 4863,
      "Ġargument": 4864,
      "athy": 4865,
      "Ġconsult": 4866,
      "ffect": 4867,
      "Ġperformances": 4868,
      "Ġclar": 4869,
      "Ġpollut": 4870,
      "Ġconfidence": 4871,
      "Ġcontainer": 4872,
      "Ġmitig": 4873,
      "Ġregarding": 4874,
      "Ġsmell": 4875,
      "Ġfurn": 4876,
      "ĠSl": 4877,
      "ui": 4878,
      "ander": 4879,
      "Ġsquare": 4880,
      "Ġunderg": 4881,
      "ĠBritish": 4882,
      "can": 4883,
      "Ġdire": 4884,
      "Ġfunctions": 4885,
      "sec": 4886,
      "Ġcolorful": 4887,
      "Ġintense": 4888,
      "azz": 4889,
      "Ġstage": 4890,
      "afood": 4891,
      "Ġpars": 4892,
      "Ġguided": 4893,
      "18": 4894,
      "urd": 4895,
      "Ġnote": 4896,
      "ĠPerson": 4897,
      "ĠGreen": 4898,
      "eling": 4899,
      "ĠBlack": 4900,
      "Ġbutton": 4901,
      "Ġexcess": 4902,
      "yd": 4903,
      "ica": 4904,
      "Ġrecognition": 4905,
      "Ġahead": 4906,
      "Ġune": 4907,
      "IS": 4908,
      "Ġinvent": 4909,
      "Ġrights": 4910,
      "Ġseemed": 4911,
      "Ġrelaxation": 4912,
      "oster": 4913,
      "rup": 4914,
      "Ġarts": 4915,
      "Ġsem": 4916,
      "Ġsector": 4917,
      "Ġparticipants": 4918,
      "Ġrefresh": 4919,
      "rating": 4920,
      "Ġvast": 4921,
      "Ġcrow": 4922,
      "Ġshad": 4923,
      "Ġhandling": 4924,
      "Ġplenty": 4925,
      "Ġreturns": 4926,
      "edom": 4927,
      "Ġhun": 4928,
      "Ġbreaks": 4929,
      "ĠTest": 4930,
      "Ġseparate": 4931,
      "Ġneighbor": 4932,
      "Ġresolution": 4933,
      "Ġtutorial": 4934,
      "Ġaffects": 4935,
      "Ġetc": 4936,
      "Ġlifest": 4937,
      "ĠMor": 4938,
      "airs": 4939,
      "Ġven": 4940,
      "ĠNot": 4941,
      "Ġtend": 4942,
      "Ġchanged": 4943,
      "Ġdram": 4944,
      "Ġpassed": 4945,
      "erse": 4946,
      "Ġfuel": 4947,
      "----": 4948,
      "ID": 4949,
      "Ġexchange": 4950,
      "Ġsched": 4951,
      "iny": 4952,
      "ilant": 4953,
      "Ġcredit": 4954,
      "Ġdegree": 4955,
      "verse": 4956,
      "Ġencount": 4957,
      "Ġfocusing": 4958,
      "Ġreson": 4959,
      "acon": 4960,
      "ĠProgram": 4961,
      "Ġrhyth": 4962,
      "Ġoverw": 4963,
      "Ġcompl": 4964,
      "Ġcas": 4965,
      "Ġpray": 4966,
      "Ġinformed": 4967,
      "Ġprimary": 4968,
      "Ġpracticing": 4969,
      "Ġinternal": 4970,
      "ĠEmp": 4971,
      "Ġequal": 4972,
      "Ġupcoming": 4973,
      "iors": 4974,
      "odes": 4975,
      "Ġworkshops": 4976,
      "Ġwanted": 4977,
      "bsp": 4978,
      "Ġcouldn": 4979,
      "Ġlistening": 4980,
      "ĠOpt": 4981,
      "ĠNet": 4982,
      "Ġheight": 4983,
      "Ġpercent": 4984,
      "Ġroot": 4985,
      "Ġenvironments": 4986,
      "Th": 4987,
      "ama": 4988,
      "Ġpizza": 4989,
      "Ġearlier": 4990,
      "Ġexplores": 4991,
      "ym": 4992,
      "org": 4993,
      "Ġdistract": 4994,
      "Ġsell": 4995,
      "Ġempt": 4996,
      "Ġtalent": 4997,
      "Ġongoing": 4998,
      "Ġmonitoring": 4999,
      "prene": 5000,
      "Ġdecre": 5001,
      "Ġmere": 5002,
      "Ġaid": 5003,
      "Ġlocations": 5004,
      "Ġedge": 5005,
      "pec": 5006,
      "ĠOp": 5007,
      "AC": 5008,
      "Ġvehicles": 5009,
      "Ġmanufacturing": 5010,
      "irl": 5011,
      "host": 5012,
      "Ġmal": 5013,
      "Ġcrispy": 5014,
      "aming": 5015,
      "Ġfirm": 5016,
      "ĠAng": 5017,
      "LE": 5018,
      "ĠAR": 5019,
      "Ġmagical": 5020,
      "Ġstock": 5021,
      "Ġsuspense": 5022,
      "Ġbattle": 5023,
      "ĠEarth": 5024,
      "Ġprogramming": 5025,
      "Ġenable": 5026,
      "bles": 5027,
      "Ġforeign": 5028,
      "Ġresource": 5029,
      "Ġfestivals": 5030,
      "Ġengineering": 5031,
      "Ġcarrots": 5032,
      "ĠHouse": 5033,
      "Ġspeaking": 5034,
      "Ġsix": 5035,
      "Ġwaves": 5036,
      "stand": 5037,
      "Ġteach": 5038,
      "Ġplanet": 5039,
      "Ġpresentation": 5040,
      "Ġconflicts": 5041,
      "ham": 5042,
      "Ġwat": 5043,
      "Ġ500": 5044,
      "Ġcommitted": 5045,
      "elle": 5046,
      "Ġseeking": 5047,
      "Ġcollege": 5048,
      "ĠTV": 5049,
      "Ġaims": 5050,
      "ĠMuseum": 5051,
      "Ġcapable": 5052,
      "Ġcarefully": 5053,
      "Ġgro": 5054,
      "Ġcookies": 5055,
      "Ġfigure": 5056,
      "sole": 5057,
      "iter": 5058,
      "ĠAnt": 5059,
      "Ġteaching": 5060,
      "Ġhour": 5061,
      "ĠAugust": 5062,
      "Ġhit": 5063,
      "Ġgoes": 5064,
      "sol": 5065,
      "ĠPlan": 5066,
      "Ġsacrific": 5067,
      "Ġsoy": 5068,
      "ĠItalian": 5069,
      "bing": 5070,
      "Ġlabor": 5071,
      "Ġpand": 5072,
      "Ġcentral": 5073,
      "Ġcovers": 5074,
      "Ġsurvive": 5075,
      "ĠRead": 5076,
      "Ġoverwhel": 5077,
      "telling": 5078,
      "Ġjournal": 5079,
      "ively": 5080,
      "Ġglad": 5081,
      "gra": 5082,
      "Ġtitle": 5083,
      "Ġvegg": 5084,
      "Ġhomes": 5085,
      "Ġincome": 5086,
      "ĠPractice": 5087,
      "inated": 5088,
      "wood": 5089,
      "Ġvanilla": 5090,
      "Ġpra": 5091,
      "ĠBus": 5092,
      "ij": 5093,
      "Ġexternal": 5094,
      "Ġmemorable": 5095,
      "Ġconcepts": 5096,
      "erving": 5097,
      "Ġtourism": 5098,
      "ĠTH": 5099,
      "Ġlegal": 5100,
      "ĠDav": 5101,
      "Ġcontributions": 5102,
      "vis": 5103,
      "Ġads": 5104,
      "ĠExper": 5105,
      "ĠAnswer": 5106,
      "Ġcompar": 5107,
      "gers": 5108,
      "ercial": 5109,
      "Ġtransition": 5110,
      "Ġavailability": 5111,
      "ĠKing": 5112,
      "erts": 5113,
      "Ġadmin": 5114,
      "ĠBro": 5115,
      "ĠSystem": 5116,
      "iture": 5117,
      "iller": 5118,
      "igenous": 5119,
      "Ġtours": 5120,
      "Ġdro": 5121,
      "backs": 5122,
      "anch": 5123,
      "Ġmetal": 5124,
      "Ġcontr": 5125,
      "Ġfeaturing": 5126,
      "onial": 5127,
      "Ġspeaker": 5128,
      "Ġdistribution": 5129,
      "ĠLear": 5130,
      "azon": 5131,
      "Ġfiber": 5132,
      "Ġinteractions": 5133,
      "Ġsurpr": 5134,
      "Ġelaborate": 5135,
      "Ġextensive": 5136,
      "Ġsites": 5137,
      "Ġresidents": 5138,
      "ĠUlt": 5139,
      "ĠWater": 5140,
      "Ġcovered": 5141,
      "Ġbike": 5142,
      "Ġspent": 5143,
      "ĠAtt": 5144,
      "aby": 5145,
      "Ïģ": 5146,
      "Ġadult": 5147,
      "Ġstruggling": 5148,
      "craft": 5149,
      "Ġaverage": 5150,
      "Ġseafood": 5151,
      "aks": 5152,
      "Ġfeels": 5153,
      "Ġwire": 5154,
      "Ġdepression": 5155,
      "Ġschol": 5156,
      "reg": 5157,
      "ocks": 5158,
      "ĠGet": 5159,
      "Ġlanguages": 5160,
      "Ġcompetitive": 5161,
      "Ġdeb": 5162,
      "Ġadvoc": 5163,
      "Ġhappiness": 5164,
      "aker": 5165,
      "Ġalle": 5166,
      "lick": 5167,
      "ĠSan": 5168,
      "Ġpul": 5169,
      "Ġscent": 5170,
      "osystem": 5171,
      "iant": 5172,
      "Ġsheet": 5173,
      "Ġmixing": 5174,
      "Ġarticles": 5175,
      "Ġreligion": 5176,
      "Ġcoord": 5177,
      "ĠCS": 5178,
      "ĠEvery": 5179,
      "Ġpen": 5180,
      "ĠCr": 5181,
      "Ġpaid": 5182,
      "ĠIncorporate": 5183,
      "Ġwhose": 5184,
      "Ġvirtue": 5185,
      "Ġpersonality": 5186,
      "Ġcalculate": 5187,
      "col": 5188,
      "men": 5189,
      "Ġexistence": 5190,
      "Ġcontract": 5191,
      "Ġease": 5192,
      "Ġcinnamon": 5193,
      "Ġimmersive": 5194,
      "Ġsnacks": 5195,
      "Ġresistance": 5196,
      "Ġshr": 5197,
      "OR": 5198,
      "ÃŁ": 5199,
      "lin": 5200,
      "Ġfollowers": 5201,
      "Ġforget": 5202,
      "Ġgeneration": 5203,
      "asting": 5204,
      "Ġjew": 5205,
      "ĠInternational": 5206,
      "ĠRiver": 5207,
      "ĠIr": 5208,
      "Ġfan": 5209,
      "Ġinner": 5210,
      "Ġfont": 5211,
      "Ġsympt": 5212,
      "date": 5213,
      "ĠEmily": 5214,
      "Ġfem": 5215,
      "rations": 5216,
      "Ġgrilled": 5217,
      "Ġdreams": 5218,
      "iled": 5219,
      "Ġprob": 5220,
      "Ġecosystem": 5221,
      "Ġsecret": 5222,
      "Ġcalls": 5223,
      "ĠFoundation": 5224,
      "ĠScience": 5225,
      "Ġmagic": 5226,
      "Ġhighest": 5227,
      "flow": 5228,
      "nesses": 5229,
      "Ġthank": 5230,
      "Ġauthentic": 5231,
      "ĠSalt": 5232,
      "ĠSte": 5233,
      "ĠCor": 5234,
      "Ġhumans": 5235,
      "rest": 5236,
      "Ġflu": 5237,
      "Ġgenerated": 5238,
      "Ġfacing": 5239,
      "Ġtofu": 5240,
      "ipl": 5241,
      "Ġactually": 5242,
      "Ġbrush": 5243,
      "Ġchemical": 5244,
      "Ġdangerous": 5245,
      "Ġriver": 5246,
      "Ġdynamic": 5247,
      "tail": 5248,
      "Ġsandw": 5249,
      "orders": 5250,
      "tra": 5251,
      "ounds": 5252,
      "Ġadvancements": 5253,
      "ĠEuropean": 5254,
      "Ġfaster": 5255,
      "Ġbesides": 5256,
      "Ġtbsp": 5257,
      "ĠId": 5258,
      "Ġroles": 5259,
      "Ġserver": 5260,
      "Ġevenly": 5261,
      "Ġcomplexity": 5262,
      "Ġinstruments": 5263,
      "Ġefficiently": 5264,
      "Ġowners": 5265,
      "Ġinstitutions": 5266,
      "Ġconnections": 5267,
      "Ġinfluencers": 5268,
      "Ġjobs": 5269,
      "Ġkitchen": 5270,
      "Ġvill": 5271,
      "Ġexperts": 5272,
      "Ġwalls": 5273,
      "Ġathlet": 5274,
      "asters": 5275,
      "erate": 5276,
      "Ġbank": 5277,
      "Ġgraphics": 5278,
      "Ġteachers": 5279,
      "ads": 5280,
      "Ġprem": 5281,
      "Ġrat": 5282,
      "Ġstretch": 5283,
      "inch": 5284,
      "Ġisol": 5285,
      "ĠDid": 5286,
      "Ġpackage": 5287,
      "Ġcharity": 5288,
      "Ġmushrooms": 5289,
      "Ġconv": 5290,
      "Ġten": 5291,
      "pret": 5292,
      "inate": 5293,
      "Ġchos": 5294,
      "ĠPython": 5295,
      "Ġapplied": 5296,
      "ĠAmazon": 5297,
      "ĠDep": 5298,
      "Ġtight": 5299,
      "ĠPal": 5300,
      "Ġnearby": 5301,
      "Ġcircumst": 5302,
      "ensions": 5303,
      "Ġexpenses": 5304,
      "Ġign": 5305,
      "Ġbirth": 5306,
      "Ġterr": 5307,
      "ĠII": 5308,
      "Ġexpectations": 5309,
      "ĠFocus": 5310,
      "Ġhotel": 5311,
      "Ġdespite": 5312,
      "Ġdim": 5313,
      "ĠBal": 5314,
      "Ġrank": 5315,
      "Ġconstantly": 5316,
      "Ġspending": 5317,
      "Ġmotion": 5318,
      "Ġexpos": 5319,
      "Ġ2018": 5320,
      "ndom": 5321,
      "Ġconscious": 5322,
      "ament": 5323,
      "Ġfrequently": 5324,
      "21": 5325,
      "Ġconsumers": 5326,
      "**": 5327,
      "Ġrose": 5328,
      "NA": 5329,
      "Ġcompelling": 5330,
      "Ġforces": 5331,
      "Ġmaximum": 5332,
      "Ġapple": 5333,
      "Ġcomponents": 5334,
      "mission": 5335,
      "Ã©e": 5336,
      "emb": 5337,
      "Ġwriters": 5338,
      "Ġscenar": 5339,
      "Ġfacilities": 5340,
      "Ġmessaging": 5341,
      "Ġspend": 5342,
      "ĠMc": 5343,
      "Ġchoosing": 5344,
      "Ġwidely": 5345,
      "Ġwish": 5346,
      "Ġenab": 5347,
      "Ġescape": 5348,
      "Ġinh": 5349,
      "uk": 5350,
      "Ġfans": 5351,
      "aze": 5352,
      "Ġ199": 5353,
      "Ġmusicians": 5354,
      "Ġfinally": 5355,
      "Ġvariable": 5356,
      "Ġlime": 5357,
      "Ġpotato": 5358,
      "Ġsymptoms": 5359,
      "Ġalt": 5360,
      "Ġturned": 5361,
      "Ġopinion": 5362,
      "Ġcustomize": 5363,
      "ĠFurthermore": 5364,
      "rees": 5365,
      "Ġquiet": 5366,
      "à¤": 5367,
      "Ġaccomplish": 5368,
      "Ġlifestyle": 5369,
      "Ġperhaps": 5370,
      "Ġrace": 5371,
      "Ġstorytelling": 5372,
      "istration": 5373,
      "ĠColle": 5374,
      "Ġtargeted": 5375,
      "Ġfreedom": 5376,
      "Ġprop": 5377,
      "ashing": 5378,
      "nes": 5379,
      "ĠPat": 5380,
      "agraph": 5381,
      "Ġdetermined": 5382,
      "Ġmeaningful": 5383,
      "eline": 5384,
      "ĠLike": 5385,
      "berry": 5386,
      "Ġconfident": 5387,
      "ondon": 5388,
      "iliar": 5389,
      "aper": 5390,
      "Ġrust": 5391,
      "imal": 5392,
      "Ġempty": 5393,
      "Ġsentence": 5394,
      "Ġtough": 5395,
      "Ġfulf": 5396,
      "othes": 5397,
      "Ġspeech": 5398,
      "].": 5399,
      "Ġlaunch": 5400,
      "Ġfill": 5401,
      "Ġfacil": 5402,
      "off": 5403,
      "Ġraise": 5404,
      "Ġchoices": 5405,
      "Ġcamera": 5406,
      "Ġpartnerships": 5407,
      "Ġcommercial": 5408,
      "Ġentreprene": 5409,
      "arts": 5410,
      "orrow": 5411,
      "Ġanalyzing": 5412,
      "Ġillustrate": 5413,
      "Ġinvesting": 5414,
      "ulated": 5415,
      "log": 5416,
      "Ġsyrup": 5417,
      "ĠInter": 5418,
      "Ġrein": 5419,
      "Ġkids": 5420,
      "ĠApple": 5421,
      "olic": 5422,
      "Ġinqu": 5423,
      "ĠGutenbergTM": 5424,
      "Ġbeg": 5425,
      "Ġpandemic": 5426,
      "Ġbeat": 5427,
      "Ġcultiv": 5428,
      "uracy": 5429,
      "Ġ%": 5430,
      "Ġmoral": 5431,
      "anish": 5432,
      "Ġrealistic": 5433,
      "Ġcandid": 5434,
      "Ġly": 5435,
      "Ġaudio": 5436,
      "outs": 5437,
      "ĠSub": 5438,
      "iner": 5439,
      "Ġremaining": 5440,
      "Ġfollowed": 5441,
      "Ġvitam": 5442,
      "Ġhiking": 5443,
      "Ġcapacity": 5444,
      "ĠOh": 5445,
      "Ġjoin": 5446,
      "ĠCO": 5447,
      "ĠLord": 5448,
      "Ġkeywords": 5449,
      "Ġminimal": 5450,
      "Ġflo": 5451,
      "Ġthous": 5452,
      "Ġeventually": 5453,
      "omp": 5454,
      "Enter": 5455,
      "ĠFrance": 5456,
      "uing": 5457,
      "Ġmountain": 5458,
      "ĠReply": 5459,
      "ĠCreat": 5460,
      "ĠChorus": 5461,
      "Ġspinach": 5462,
      "Ġdecl": 5463,
      "Ġreflects": 5464,
      "ĠRuss": 5465,
      "Ġreferr": 5466,
      "Ġpollution": 5467,
      "ĠTwitter": 5468,
      "ita": 5469,
      "Ġbodies": 5470,
      "Ġguidelines": 5471,
      "Ġliterary": 5472,
      "ĠAp": 5473,
      "ĠÏĦ": 5474,
      "Ġaside": 5475,
      "ĠDet": 5476,
      "Ġevolved": 5477,
      "Ġrural": 5478,
      "Ġda": 5479,
      "ĠEast": 5480,
      "Ġserious": 5481,
      "ĠGar": 5482,
      "Ġdans": 5483,
      "rika": 5484,
      "related": 5485,
      "ĠTom": 5486,
      "Ġdestination": 5487,
      "ĠDec": 5488,
      "Ġlaugh": 5489,
      "ox": 5490,
      "Ġginger": 5491,
      "asp": 5492,
      "Ġrule": 5493,
      "Ġprofile": 5494,
      "Ġcausing": 5495,
      "rix": 5496,
      "ĠColl": 5497,
      "Ġreputation": 5498,
      "Ġfine": 5499,
      "Ġquinoa": 5500,
      "Ġreasons": 5501,
      "Ġheavily": 5502,
      "onom": 5503,
      "ĠTur": 5504,
      "umes": 5505,
      "Ġmanufacture": 5506,
      "Ġconstruct": 5507,
      "Ġ2019": 5508,
      "ari": 5509,
      "ctors": 5510,
      "Ġfocuses": 5511,
      "atever": 5512,
      "ollow": 5513,
      "Ġenjoyed": 5514,
      "Ġinspiring": 5515,
      "Ġstake": 5516,
      "Ġemotion": 5517,
      "Ġdoor": 5518,
      "Ġrefreshing": 5519,
      "action": 5520,
      "Ġtout": 5521,
      "Ġoppos": 5522,
      "IT": 5523,
      "Ġrefrig": 5524,
      "style": 5525,
      "Ġrap": 5526,
      "Ġjewel": 5527,
      "ael": 5528,
      "Ġaccuracy": 5529,
      "Ġrecovery": 5530,
      "Ġdouble": 5531,
      "Ġpret": 5532,
      "Ġagreement": 5533,
      "ĠPort": 5534,
      "Ê¹": 5535,
      "Ġsen": 5536,
      "Ġrit": 5537,
      "mas": 5538,
      "Ġsharp": 5539,
      "ints": 5540,
      "Ġvisuals": 5541,
      "Ġencourages": 5542,
      "Ġincorporated": 5543,
      "ingu": 5544,
      "Ġscenes": 5545,
      "Ġwrong": 5546,
      "Ġstaying": 5547,
      "IC": 5548,
      "ĠSur": 5549,
      "ĠAfrica": 5550,
      "ĠMount": 5551,
      "Ġintu": 5552,
      "Ġhighlighting": 5553,
      "otic": 5554,
      "Ġstraight": 5555,
      "Ġreveal": 5556,
      "roup": 5557,
      "Ġgenerally": 5558,
      "Ġconfirm": 5559,
      "oe": 5560,
      "ether": 5561,
      "Ġdut": 5562,
      "Ġgram": 5563,
      "ĠMich": 5564,
      "Ġseam": 5565,
      "resp": 5566,
      "Ġstandards": 5567,
      "Ġintegration": 5568,
      "Ġappoint": 5569,
      "14": 5570,
      "Ġwildlife": 5571,
      "Ġcitiz": 5572,
      "OS": 5573,
      "Ġinterpret": 5574,
      "Ġfold": 5575,
      "Ġensures": 5576,
      "Ġleader": 5577,
      "raid": 5578,
      "efore": 5579,
      "Ġsavory": 5580,
      "ĠPour": 5581,
      "Ġresol": 5582,
      "Ġrewards": 5583,
      "Ġabst": 5584,
      "bur": 5585,
      "Ġperfectly": 5586,
      "Ġmanip": 5587,
      "Ġcontrary": 5588,
      "den": 5589,
      "Ġcompleted": 5590,
      "Ġber": 5591,
      "Ġtold": 5592,
      "ection": 5593,
      "Ġcapabilities": 5594,
      "Ġslices": 5595,
      "Ġfunctionality": 5596,
      "Ġreduction": 5597,
      "Ġpoor": 5598,
      "Ġpump": 5599,
      "Ġine": 5600,
      "Ġautomation": 5601,
      "ĠEmpire": 5602,
      "met": 5603,
      "Ġaccordingly": 5604,
      "Ġalbum": 5605,
      "Ġlooked": 5606,
      "Ġbasil": 5607,
      "ros": 5608,
      "Ġpassword": 5609,
      "Ġartistic": 5610,
      "Ġgenerations": 5611,
      "Ġbath": 5612,
      "Ġliqu": 5613,
      "Ġfalse": 5614,
      "Ġcontroll": 5615,
      "Ġhumor": 5616,
      "bed": 5617,
      "ta": 5618,
      "Ġalive": 5619,
      "Ġconcern": 5620,
      "oo": 5621,
      "Ġelectricity": 5622,
      "ĠPrehe": 5623,
      "\")": 5624,
      "Ġclin": 5625,
      "Ġses": 5626,
      "ims": 5627,
      "Ġsynt": 5628,
      "ĠBusiness": 5629,
      "iche": 5630,
      "Ġfootprint": 5631,
      "?:": 5632,
      "Ġspl": 5633,
      "Ġdinner": 5634,
      "ĠPlay": 5635,
      "ĠProm": 5636,
      "ĠPreheat": 5637,
      "esan": 5638,
      "ĠJames": 5639,
      "Ġrules": 5640,
      "Ġfindings": 5641,
      "Ġtactics": 5642,
      "ws": 5643,
      "cription": 5644,
      "year": 5645,
      "Ġbrings": 5646,
      "hus": 5647,
      "Ġpork": 5648,
      "Ġdirection": 5649,
      "ĠWho": 5650,
      "Ġcoaching": 5651,
      "Ġtick": 5652,
      "Ġmig": 5653,
      "Ġlessons": 5654,
      "Ġ--": 5655,
      "Ġformal": 5656,
      "marks": 5657,
      "Ġcrops": 5658,
      "ographic": 5659,
      "omen": 5660,
      "Ġcertainly": 5661,
      "lig": 5662,
      "mal": 5663,
      "ĠLondon": 5664,
      "ĠBest": 5665,
      "Ġcoast": 5666,
      "Ġpersu": 5667,
      "Ġversat": 5668,
      "Ġlinks": 5669,
      "Ġtempl": 5670,
      "Ġindeed": 5671,
      "roy": 5672,
      "Ġiron": 5673,
      "Ġreported": 5674,
      "Ġcapital": 5675,
      "Î¯": 5676,
      "Ġintervent": 5677,
      "Ġparagraph": 5678,
      "ĠBook": 5679,
      "Ġtheory": 5680,
      "Ġpresented": 5681,
      "Ġasked": 5682,
      "Ġsurvey": 5683,
      "Ġtaught": 5684,
      "ĠMod": 5685,
      "Ġwriter": 5686,
      "Ġphen": 5687,
      "ounc": 5688,
      "Ġwider": 5689,
      "ĠVol": 5690,
      "ĠMoreover": 5691,
      "ushed": 5692,
      "Ġpeaceful": 5693,
      "verty": 5694,
      "Ġvir": 5695,
      "ĠHist": 5696,
      "la": 5697,
      "ĠBre": 5698,
      "Ġshop": 5699,
      "ifts": 5700,
      "Ġweeks": 5701,
      "pecific": 5702,
      "Ġveggies": 5703,
      "Ġafraid": 5704,
      "isco": 5705,
      "Ġexclusive": 5706,
      "Ġinternet": 5707,
      "Ġframew": 5708,
      "ĠSince": 5709,
      "Ġpurs": 5710,
      "Ġphilosophy": 5711,
      "Ġreward": 5712,
      "ĠEncourage": 5713,
      "Ġthanks": 5714,
      "olf": 5715,
      "Ġorange": 5716,
      "Ġparsley": 5717,
      "fall": 5718,
      "rings": 5719,
      "ĠSen": 5720,
      "Ġtrail": 5721,
      "Ġstability": 5722,
      "Ġfragr": 5723,
      "Ġpoverty": 5724,
      "Ġsubstitute": 5725,
      "Ġtun": 5726,
      "Ġplaced": 5727,
      "Ġmode": 5728,
      "Ġdownload": 5729,
      "asive": 5730,
      "Ġconducted": 5731,
      "Ġfurniture": 5732,
      "Ġfriendly": 5733,
      "Ġsolve": 5734,
      "overn": 5735,
      "Ġappears": 5736,
      "Ġflexible": 5737,
      "Ġsaying": 5738,
      "char": 5739,
      "()`": 5740,
      "ogether": 5741,
      "Ġpursu": 5742,
      "Ġcenturies": 5743,
      "Ġfigures": 5744,
      "add": 5745,
      "Ġdrinks": 5746,
      "Ġdeeply": 5747,
      "ĠJava": 5748,
      "Ġupdate": 5749,
      "ĠDI": 5750,
      "holders": 5751,
      "uy": 5752,
      "Ġgreatest": 5753,
      "writ": 5754,
      "ossible": 5755,
      "mber": 5756,
      "Ġhistoric": 5757,
      "ĠParis": 5758,
      "Ġfinish": 5759,
      "Ġsuc": 5760,
      "Ġvisiting": 5761,
      "Ġsolid": 5762,
      "Ġauthority": 5763,
      "Ġmedicine": 5764,
      "armesan": 5765,
      "Ġswe": 5766,
      "Ġcomment": 5767,
      "ĠCollege": 5768,
      "Ġiconic": 5769,
      "Ġcab": 5770,
      "uit": 5771,
      "Ġslowly": 5772,
      "ighter": 5773,
      "Ġaccounts": 5774,
      "Ġphoto": 5775,
      "hand": 5776,
      "Ġhonor": 5777,
      "Ġattractions": 5778,
      "RE": 5779,
      "Ġtrib": 5780,
      "Ġrefer": 5781,
      "ught": 5782,
      "Ġnutrients": 5783,
      "Ġneighborhood": 5784,
      "look": 5785,
      "Ġaest": 5786,
      "ams": 5787,
      "name": 5788,
      "Ġcars": 5789,
      "Ġsociet": 5790,
      "Ġdepends": 5791,
      "ĠMal": 5792,
      "Ġpleasure": 5793,
      "Ġconsistency": 5794,
      "ĠHome": 5795,
      "Ġperformed": 5796,
      "Ġarrange": 5797,
      "Ġletters": 5798,
      "AL": 5799,
      "Ġevaluate": 5800,
      "Ġaward": 5801,
      "Ġsubmit": 5802,
      "Ġperiods": 5803,
      "Ġscheme": 5804,
      "Ġscientists": 5805,
      "Ġswim": 5806,
      "Ġarguments": 5807,
      "ĠIsland": 5808,
      "Ġride": 5809,
      "75": 5810,
      "Ġshift": 5811,
      "Ġnood": 5812,
      "Ġemphasizes": 5813,
      "16": 5814,
      "Ġprinciple": 5815,
      "Ġflexibility": 5816,
      "Ġincentives": 5817,
      "Ġbot": 5818,
      "Ġworkplace": 5819,
      "ĠWilliam": 5820,
      "Ġjewelry": 5821,
      "Ġmeant": 5822,
      "Ġhero": 5823,
      "Ġstone": 5824,
      "rick": 5825,
      "mus": 5826,
      "Ġtextures": 5827,
      "iox": 5828,
      "Ġabsor": 5829,
      "yn": 5830,
      "Ġma": 5831,
      "Ġencounter": 5832,
      "Ġexcite": 5833,
      "Ġgrew": 5834,
      "Ġrely": 5835,
      "Ġmystery": 5836,
      "band": 5837,
      "lamm": 5838,
      "Ġcrunch": 5839,
      "Ġstudying": 5840,
      "ĠMa": 5841,
      "Ġswitch": 5842,
      "ĠEngland": 5843,
      "Ġoverview": 5844,
      "Ġarm": 5845,
      "Ġchickpe": 5846,
      "PS": 5847,
      "Ġfrequency": 5848,
      "Ġourselves": 5849,
      "Ġshaping": 5850,
      "Ġrot": 5851,
      "Ġsatisfying": 5852,
      "Ġstated": 5853,
      "iments": 5854,
      "Ġrestrict": 5855,
      "Ġrandom": 5856,
      "Ġhousing": 5857,
      "Ġpaprika": 5858,
      "Ġsurroundings": 5859,
      "Ġdietary": 5860,
      "ĠFind": 5861,
      "ester": 5862,
      "Ġhom": 5863,
      "Ġproced": 5864,
      "Ġdow": 5865,
      "Ġshrimp": 5866,
      "Ġfacult": 5867,
      "mark": 5868,
      "bal": 5869,
      "ĠSEO": 5870,
      "Ġru": 5871,
      "Ġsmoothie": 5872,
      "Ġappreciation": 5873,
      "ĠdÃ©": 5874,
      "Ġnoise": 5875,
      "Ġaudiences": 5876,
      "ĠEducation": 5877,
      "ris": 5878,
      "ĠSee": 5879,
      "Ġpurpos": 5880,
      "Ġgradually": 5881,
      "Ġgall": 5882,
      "ĠDiv": 5883,
      "ĠTod": 5884,
      "Ġchatb": 5885,
      "wide": 5886,
      "Ġaddressing": 5887,
      "Ġgods": 5888,
      "Ġhappen": 5889,
      "Ġarise": 5890,
      "Ġdispl": 5891,
      "Ġoperation": 5892,
      "Ġweap": 5893,
      "Ġclearly": 5894,
      "Ġarms": 5895,
      "ĠOrgan": 5896,
      "Ġcounter": 5897,
      "ĠRet": 5898,
      "Ġkindness": 5899,
      "ecd": 5900,
      "Ġsurvival": 5901,
      "Ġcuc": 5902,
      "ĠTop": 5903,
      "Ġmovies": 5904,
      "ĠRome": 5905,
      "Ġaddiction": 5906,
      "input": 5907,
      "Ġburn": 5908,
      "Ġattribut": 5909,
      "Ġcourt": 5910,
      "Ġcircumstances": 5911,
      "Ġwellness": 5912,
      "Ġ40": 5913,
      "ĠEnergy": 5914,
      "Ġecho": 5915,
      "Ġgrav": 5916,
      "Ġsymbols": 5917,
      "Ġyellow": 5918,
      "nish": 5919,
      "Ġanecd": 5920,
      "Ġessence": 5921,
      "Ġboy": 5922,
      "Ġtransp": 5923,
      "80": 5924,
      "ĠWal": 5925,
      "Ġintroduced": 5926,
      "Ġknowing": 5927,
      "Ġobjectives": 5928,
      "Ġgenres": 5929,
      "ĠUp": 5930,
      "Ġnetworks": 5931,
      "Ã±": 5932,
      "tre": 5933,
      "Ġfoundation": 5934,
      "Ġtort": 5935,
      "Ġcompost": 5936,
      "Ġcenters": 5937,
      "ĠSpanish": 5938,
      "aration": 5939,
      "Ġartwork": 5940,
      "Ġprofit": 5941,
      "iforn": 5942,
      "ographics": 5943,
      "Ġromantic": 5944,
      "ĠLast": 5945,
      "ĠStir": 5946,
      "Ġcollaborate": 5947,
      "Ġexposure": 5948,
      "ĠSoph": 5949,
      "overs": 5950,
      "ĠIslam": 5951,
      "www": 5952,
      "Ġgently": 5953,
      "Ġturns": 5954,
      "ĠBefore": 5955,
      "Ġcustomized": 5956,
      "('": 5957,
      "Ġsucceed": 5958,
      "Ġuniversity": 5959,
      "icht": 5960,
      "Ġexploration": 5961,
      "Ġclassical": 5962,
      "Ġacts": 5963,
      "file": 5964,
      "Ġlived": 5965,
      "agers": 5966,
      "ĠMet": 5967,
      "cknow": 5968,
      "dr": 5969,
      "airy": 5970,
      "Ġidentifying": 5971,
      "Ġhttps": 5972,
      "Ġreleased": 5973,
      ".]": 5974,
      "Ġaimed": 5975,
      "Wh": 5976,
      "`.": 5977,
      "night": 5978,
      "ĠFood": 5979,
      "Ġneck": 5980,
      "Ġaccident": 5981,
      "Ġopinions": 5982,
      "angers": 5983,
      "Ġseconds": 5984,
      "Ġdivine": 5985,
      "lets": 5986,
      "Ġwondering": 5987,
      "ĠOpen": 5988,
      "Ġdiscounts": 5989,
      "plications": 5990,
      "ĠWork": 5991,
      "Ġscale": 5992,
      "Ġreflection": 5993,
      "ĠTy": 5994,
      "iest": 5995,
      "ĠUltimately": 5996,
      "Ġenables": 5997,
      "Pro": 5998,
      "Ġintegrate": 5999,
      "dden": 6000,
      "lessly": 6001,
      "Ġsupports": 6002,
      "ilantro": 6003,
      "Ġappeal": 6004,
      "amic": 6005,
      "Ġstrengths": 6006,
      "Ġclosely": 6007,
      "Ġhasht": 6008,
      "Ġspring": 6009,
      "arter": 6010,
      "Ġupl": 6011,
      "ĠEven": 6012,
      "Ġcutting": 6013,
      "agues": 6014,
      "Ġextreme": 6015,
      "Ġsample": 6016,
      "Ġsyn": 6017,
      "ĠShare": 6018,
      "Ġearn": 6019,
      "Ġfantastic": 6020,
      "Ġmes": 6021,
      "Ġnutritional": 6022,
      "Ġrecently": 6023,
      "Ïĥ": 6024,
      "Ġvolume": 6025,
      "Ġconfig": 6026,
      "ĠHot": 6027,
      "Ġsan": 6028,
      "Ġselecting": 6029,
      "Ġadapted": 6030,
      "Ġdetermination": 6031,
      "ĠImpro": 6032,
      "ifornia": 6033,
      "Ġtall": 6034,
      "Ġbrother": 6035,
      "Ġtreatments": 6036,
      "ucch": 6037,
      "Ġestim": 6038,
      "Ġempathy": 6039,
      "Ġcourage": 6040,
      "Ġsession": 6041,
      "Ġcards": 6042,
      "Ġcharge": 6043,
      "Ġencountered": 6044,
      "ĠUK": 6045,
      "Ġflat": 6046,
      "atin": 6047,
      "Ġstanding": 6048,
      "Ġgrant": 6049,
      "cher": 6050,
      "Ġcouns": 6051,
      "Ġchronic": 6052,
      "Ġarom": 6053,
      "ishes": 6054,
      "Ġkept": 6055,
      "Ġindex": 6056,
      "Ġlights": 6057,
      "Ġacid": 6058,
      "ificial": 6059,
      "Ġharsh": 6060,
      "Ġsudden": 6061,
      "Ġcumin": 6062,
      "ĠAsia": 6063,
      "amples": 6064,
      "Ġmulti": 6065,
      "Ġteacher": 6066,
      "Ġreminder": 6067,
      "Ġparties": 6068,
      "Ġinse": 6069,
      "asy": 6070,
      "Ġtag": 6071,
      "ĠIncre": 6072,
      "ender": 6073,
      "Ġsimmer": 6074,
      "Ġbars": 6075,
      "Ġtailored": 6076,
      "Ġpictures": 6077,
      "top": 6078,
      "Ġproof": 6079,
      "Ġattacks": 6080,
      "Ġembrace": 6081,
      "Ġvent": 6082,
      "ĠBudd": 6083,
      "rical": 6084,
      "Ġstorm": 6085,
      "ĠFest": 6086,
      "rome": 6087,
      "ĠPersonal": 6088,
      "Ġproviders": 6089,
      "Ġpredators": 6090,
      "Ġdispos": 6091,
      "US": 6092,
      "issance": 6093,
      "Ġlimitations": 6094,
      "Ġbags": 6095,
      "anges": 6096,
      "Ġshred": 6097,
      "ĠArch": 6098,
      "Ġhes": 6099,
      "ĠHum": 6100,
      "Ġgrill": 6101,
      "ouncil": 6102,
      "Ġentertainment": 6103,
      "Ġcontinuous": 6104,
      "Ġexperiencing": 6105,
      "then": 6106,
      "ðŁ": 6107,
      "unction": 6108,
      "tr": 6109,
      "Ġapproaches": 6110,
      "Ġends": 6111,
      "Ġcrack": 6112,
      "ĠThus": 6113,
      "Ġfunctional": 6114,
      "Ġwhisk": 6115,
      "ĠCounty": 6116,
      "Ġconsumer": 6117,
      "Ġmuscle": 6118,
      "Ġcritic": 6119,
      "Ġrhythm": 6120,
      "Ġcelebrate": 6121,
      "do": 6122,
      "wing": 6123,
      "Ch": 6124,
      "lation": 6125,
      "Ġunw": 6126,
      "ĠLaw": 6127,
      "ĠGroup": 6128,
      "ords": 6129,
      "Ġbarri": 6130,
      "Ġmelted": 6131,
      "Ġqualities": 6132,
      "ĠSil": 6133,
      "Ġlogo": 6134,
      "Ġprinting": 6135,
      "Ġcomposition": 6136,
      "Ġcycle": 6137,
      "Ġinjury": 6138,
      "Ã³": 6139,
      "Ġconsole": 6140,
      "Ġtemperatures": 6141,
      "ĠJu": 6142,
      "Ġopening": 6143,
      "Ïħ": 6144,
      "Ġ<<": 6145,
      "such": 6146,
      "Ġnotice": 6147,
      "Ġintroduction": 6148,
      "Ġfoster": 6149,
      "bit": 6150,
      "ĠMicro": 6151,
      "ĠRef": 6152,
      "ĠWhere": 6153,
      "Ġvend": 6154,
      "ĠRev": 6155,
      "Ġsupplies": 6156,
      "Ġprey": 6157,
      "ĠInf": 6158,
      "Ġdisapp": 6159,
      "Ġholiday": 6160,
      "Ġflower": 6161,
      "ĠAssoci": 6162,
      "Ġintegers": 6163,
      "Ġrapid": 6164,
      "Ġ>": 6165,
      "Ġspice": 6166,
      "Ġdepict": 6167,
      "Ġpartnership": 6168,
      "des": 6169,
      "ĠUsers": 6170,
      "Ġcloves": 6171,
      "Ġyouth": 6172,
      "coh": 6173,
      "Ġimpossible": 6174,
      "Ġid": 6175,
      "ĠLove": 6176,
      "Ġscholars": 6177,
      "Ġexcitement": 6178,
      "Ġrelation": 6179,
      "Ġbeginners": 6180,
      "atically": 6181,
      "ĠIdent": 6182,
      "Ġsensitive": 6183,
      "Ġprofound": 6184,
      "ancy": 6185,
      "Ġlaun": 6186,
      "Ġdescribed": 6187,
      "Ġom": 6188,
      "Ġpairs": 6189,
      "Ġmoved": 6190,
      "ormal": 6191,
      "Ġmoisture": 6192,
      "11": 6193,
      "oding": 6194,
      "Ġfle": 6195,
      "Ġmotivation": 6196,
      "ĠCalifornia": 6197,
      "ĠMusic": 6198,
      "inent": 6199,
      "afe": 6200,
      "Ġrul": 6201,
      "ĠDavid": 6202,
      "Ġpreserve": 6203,
      "profit": 6204,
      "dem": 6205,
      "Ġfert": 6206,
      "Ġcompassion": 6207,
      "Ġapprox": 6208,
      "Ġnavigation": 6209,
      "Ġsprinkle": 6210,
      "ocktail": 6211,
      "rab": 6212,
      "Ġconcent": 6213,
      "ĠTime": 6214,
      "ruit": 6215,
      "uation": 6216,
      "ounce": 6217,
      "Ġhealing": 6218,
      "Ġwatching": 6219,
      "ucchini": 6220,
      "Ġfloor": 6221,
      "Ġ==": 6222,
      "Ġclub": 6223,
      "Ġfinds": 6224,
      "Ġmac": 6225,
      "Ġmechanisms": 6226,
      "Ġcommunic": 6227,
      "Ġintegrated": 6228,
      "Ġproposed": 6229,
      "Ġcater": 6230,
      "Ġmill": 6231,
      "ĠClick": 6232,
      "Ġgenre": 6233,
      "husi": 6234,
      "oral": 6235,
      "itar": 6236,
      "Ġpine": 6237,
      "Ġachieved": 6238,
      "Ġmitigate": 6239,
      "efficient": 6240,
      "Ġencry": 6241,
      "Ġrevolution": 6242,
      "ĠRel": 6243,
      "Ġenthusi": 6244,
      "Ġconversion": 6245,
      "ipp": 6246,
      "Ġrare": 6247,
      "Ġmanaged": 6248,
      "rence": 6249,
      "ĠDirect": 6250,
      "Ġthou": 6251,
      "ĠDel": 6252,
      "ĠâĢ": 6253,
      "Ġitem": 6254,
      "Ġwrap": 6255,
      "unk": 6256,
      "Ġimprovements": 6257,
      "ĠMem": 6258,
      "Ġfrozen": 6259,
      "Ġcore": 6260,
      "Ġbake": 6261,
      "Ġhealthier": 6262,
      "Ġchosen": 6263,
      "ccoli": 6264,
      "Ġskilled": 6265,
      "Ġluxury": 6266,
      "Ġsurf": 6267,
      "Ġfilms": 6268,
      "Ġdifficulty": 6269,
      "ously": 6270,
      "Ġtrend": 6271,
      "Ġfamiliar": 6272,
      "hemat": 6273,
      "Ġpurposes": 6274,
      "oop": 6275,
      "reeze": 6276,
      "Ġformed": 6277,
      "Ġjump": 6278,
      "Ġforever": 6279,
      "Ġemphasis": 6280,
      "Ġentrepreneurs": 6281,
      "li": 6282,
      "Ġholding": 6283,
      "lymp": 6284,
      "Ġproposal": 6285,
      "uses": 6286,
      "Ġ2017": 6287,
      "Ġmountains": 6288,
      "mented": 6289,
      "izable": 6290,
      "aste": 6291,
      "40": 6292,
      "istry": 6293,
      "De": 6294,
      "ĠSch": 6295,
      "izer": 6296,
      "Ġalthough": 6297,
      "Ġpotentially": 6298,
      "Ġye": 6299,
      "Ġtoss": 6300,
      "ĠDisc": 6301,
      "Ġsigns": 6302,
      "Ġcouple": 6303,
      "Ġemergency": 6304,
      "Ġannual": 6305,
      "Ġsimpl": 6306,
      "Ġeveryday": 6307,
      "anut": 6308,
      "Ġspirits": 6309,
      "Ġchildhood": 6310,
      "Ġsymbolism": 6311,
      "press": 6312,
      "Ġsweetness": 6313,
      "Ġthyme": 6314,
      "ĠGovern": 6315,
      "lear": 6316,
      "Ġvital": 6317,
      "ĠWind": 6318,
      "Ġlandmarks": 6319,
      "Ġdelicate": 6320,
      "Ġmetaph": 6321,
      "Ġcozy": 6322,
      "AM": 6323,
      "Ġlent": 6324,
      "Ġflood": 6325,
      "Ġcoat": 6326,
      "Ġsubstitut": 6327,
      "Ġparaph": 6328,
      "ĠMax": 6329,
      "Ġeleg": 6330,
      "Ġscore": 6331,
      "Ġfeatured": 6332,
      "atching": 6333,
      "Ġfriendship": 6334,
      "Ġcilantro": 6335,
      "Ġgran": 6336,
      "Ġberries": 6337,
      "AP": 6338,
      "Ġinsurance": 6339,
      "Ġimagine": 6340,
      "ĠSupport": 6341,
      "lower": 6342,
      "oit": 6343,
      "Ġdrop": 6344,
      "ĠSol": 6345,
      "CT": 6346,
      "Ġseeing": 6347,
      "ĠOF": 6348,
      "reet": 6349,
      "zer": 6350,
      "Ġscr": 6351,
      "Ġquotes": 6352,
      "ĠMac": 6353,
      "Ġsenses": 6354,
      "Ġwhatever": 6355,
      "Ġachievements": 6356,
      "ĠSun": 6357,
      "Ġstrings": 6358,
      "veys": 6359,
      "Ġrecognize": 6360,
      "Ġdivid": 6361,
      "Ġanecdotes": 6362,
      "pace": 6363,
      "Ġdiscovery": 6364,
      "Ġmur": 6365,
      "Ġbon": 6366,
      "apter": 6367,
      "Ġastron": 6368,
      "Ġchickpeas": 6369,
      "omb": 6370,
      "Ġought": 6371,
      "Ġengines": 6372,
      "plement": 6373,
      "Ġfactor": 6374,
      "Ġdisplays": 6375,
      "Ġcul": 6376,
      "Ġentirely": 6377,
      "Ġnob": 6378,
      "Ġvolunteer": 6379,
      "eness": 6380,
      "Ġpsychological": 6381,
      "Ġdevelopers": 6382,
      "Ġcreature": 6383,
      "Ġjazz": 6384,
      "Ġborn": 6385,
      "Ġstakeholders": 6386,
      "amel": 6387,
      "Ġaccessories": 6388,
      "natural": 6389,
      "ĠWhy": 6390,
      "angle": 6391,
      "Ġtrig": 6392,
      "Ġtangy": 6393,
      "Ġpolice": 6394,
      "Ġformula": 6395,
      "ĠJes": 6396,
      "Ġmir": 6397,
      "ĠEr": 6398,
      "ĠMat": 6399,
      "Ġsteel": 6400,
      "indu": 6401,
      "Ġsupported": 6402,
      "Ġpopulations": 6403,
      "ĠCat": 6404,
      "Ġbusy": 6405,
      "Ġencouraging": 6406,
      "ĠSum": 6407,
      "ĠSecond": 6408,
      "Ġlege": 6409,
      "Ġframe": 6410,
      "cel": 6411,
      "ĠWhich": 6412,
      "opt": 6413,
      "ĠVerse": 6414,
      "Ġagricultural": 6415,
      "Ġevolution": 6416,
      "Ġdesert": 6417,
      "Ġorganize": 6418,
      "cend": 6419,
      "Ġ:": 6420,
      "ĠPower": 6421,
      "17": 6422,
      "Ġretain": 6423,
      "nel": 6424,
      "Ġlas": 6425,
      "Ġacknow": 6426,
      "ffective": 6427,
      "Ġnost": 6428,
      "ĠNor": 6429,
      "_.": 6430,
      "ĠBake": 6431,
      "ĠToday": 6432,
      "ĠOlymp": 6433,
      "ĠLife": 6434,
      "inal": 6435,
      "orter": 6436,
      "Ġoccup": 6437,
      "box": 6438,
      "found": 6439,
      "=\"": 6440,
      "ault": 6441,
      "ĠOffer": 6442,
      "Ġindependent": 6443,
      "ĠSimilar": 6444,
      "Ġraised": 6445,
      "Ġnegot": 6446,
      "Ġconvenient": 6447,
      "Ġwife": 6448,
      "Ġpest": 6449,
      "ĠWestern": 6450,
      "Ġbattery": 6451,
      "ship": 6452,
      "Ġgreens": 6453,
      "Ġinstallation": 6454,
      "13": 6455,
      "formation": 6456,
      "Ġvia": 6457,
      "ederal": 6458,
      "weight": 6459,
      "Ġliquid": 6460,
      "Ġspect": 6461,
      "Ġemails": 6462,
      "Ġspecialized": 6463,
      "ending": 6464,
      "Ġspark": 6465,
      "ĠRoasted": 6466,
      "ĠClass": 6467,
      "Ġbeneficial": 6468,
      "ache": 6469,
      "Ġlasting": 6470,
      "chain": 6471,
      "Ġdoubt": 6472,
      "nov": 6473,
      "ĠData": 6474,
      "ĠPay": 6475,
      "Ġstraw": 6476,
      "Ġdates": 6477,
      "Ġsaut": 6478,
      "cribe": 6479,
      "Ġstim": 6480,
      "inter": 6481,
      "Ġship": 6482,
      "Ġsod": 6483,
      "ua": 6484,
      "alsa": 6485,
      "Ġja": 6486,
      "Ġcub": 6487,
      "lla": 6488,
      "Ġbringing": 6489,
      "Ġviewers": 6490,
      "Ġexplaining": 6491,
      "ĠMag": 6492,
      "Î»": 6493,
      "Ġmouth": 6494,
      "Ġglow": 6495,
      "Ġgained": 6496,
      "Ġdisaster": 6497,
      "ĠKore": 6498,
      "Ġinsect": 6499,
      "Ġshoes": 6500,
      "Ġanti": 6501,
      "Ġmarine": 6502,
      "commerce": 6503,
      "Ġbacon": 6504,
      "Ġminimize": 6505,
      "Ġdisorders": 6506,
      "Ġincredibly": 6507,
      "ĠDIY": 6508,
      "Ġmoon": 6509,
      "Ġthoroughly": 6510,
      "pes": 6511,
      "string": 6512,
      "Ġrecognized": 6513,
      "Ġdesigners": 6514,
      "`,": 6515,
      "Ġein": 6516,
      "Ġboil": 6517,
      "ĠCur": 6518,
      "ĠPot": 6519,
      "Ġcha": 6520,
      "Ġimper": 6521,
      "ĠLink": 6522,
      "ĠChristmas": 6523,
      "Ġincreasingly": 6524,
      "ĠBur": 6525,
      "Ġexpensive": 6526,
      "Ġcoop": 6527,
      "ĠAustralia": 6528,
      "bra": 6529,
      ",_": 6530,
      ".)": 6531,
      "EM": 6532,
      "son": 6533,
      "ĠJan": 6534,
      "Ġbehaviors": 6535,
      "redient": 6536,
      "Ġdisrupt": 6537,
      "Ġansw": 6538,
      "Ġabsolutely": 6539,
      "Î·": 6540,
      "Ġcrime": 6541,
      "Ġox": 6542,
      "Ġphr": 6543,
      "Ġfly": 6544,
      "Ġdecided": 6545,
      "car": 6546,
      "Ġdip": 6547,
      "ĠMary": 6548,
      "ĠNature": 6549,
      "Ġscenarios": 6550,
      "asm": 6551,
      "Ġcitizens": 6552,
      "Ġoptimization": 6553,
      "rote": 6554,
      "ĠMont": 6555,
      "Ġdepartment": 6556,
      "insp": 6557,
      "Ġbrows": 6558,
      "Ġcompetitors": 6559,
      "ĠsautÃ©": 6560,
      "rete": 6561,
      "Ġreference": 6562,
      "Ġblender": 6563,
      "Ġlic": 6564,
      "Ġmustard": 6565,
      "ocation": 6566,
      "Ġmistakes": 6567,
      "Ġtraum": 6568,
      "Ġstain": 6569,
      "ĠJe": 6570,
      "Ġuncertain": 6571,
      "Ġbaby": 6572,
      "Ġdiscussion": 6573,
      "Ġfears": 6574,
      "ĠSa": 6575,
      "Ġminimum": 6576,
      "Ġsoldiers": 6577,
      "Ġbelief": 6578,
      "ĠEst": 6579,
      "Ġperforming": 6580,
      "ĠGerman": 6581,
      "Ġperspectives": 6582,
      "Ġstands": 6583,
      "Ġshowcases": 6584,
      "Ġnar": 6585,
      "Ġgone": 6586,
      "ĠFollow": 6587,
      "Ġgrated": 6588,
      "Ġstrategic": 6589,
      "ĠNote": 6590,
      "Ġunf": 6591,
      "Ġvisibility": 6592,
      "respond": 6593,
      "Ġist": 6594,
      "Ġstation": 6595,
      "ĠJew": 6596,
      "Ġsuns": 6597,
      "Ġgrown": 6598,
      "RO": 6599,
      "Ġhaun": 6600,
      "Ġsufficient": 6601,
      "Ġdegrees": 6602,
      "Ġunl": 6603,
      "Ġshredded": 6604,
      "Ġturning": 6605,
      "Ġagency": 6606,
      "Ġwarmth": 6607,
      "anes": 6608,
      "Ġfet": 6609,
      "Ġadvantages": 6610,
      "Ġauthentication": 6611,
      "itÃ©": 6612,
      "Ġprompts": 6613,
      "struction": 6614,
      "Î±Î¹": 6615,
      "Ġsuggested": 6616,
      "Ġnotifications": 6617,
      "Ġvehicle": 6618,
      "Ġdedication": 6619,
      "ĠMil": 6620,
      "Ġ23": 6621,
      "Ġfunds": 6622,
      "Ġsoph": 6623,
      "Ġshowing": 6624,
      "ala": 6625,
      "ĠCanada": 6626,
      "Ġconver": 6627,
      "Ġdepart": 6628,
      "Ġgrass": 6629,
      "Ġnetworking": 6630,
      "page": 6631,
      "Ġagencies": 6632,
      "Ġformation": 6633,
      "Ġstarts": 6634,
      "ĠCompany": 6635,
      "ĠImplement": 6636,
      "Ġathletes": 6637,
      "ĠMo": 6638,
      "Ġjar": 6639,
      "rets": 6640,
      "Ġfaces": 6641,
      "ĠGold": 6642,
      "cons": 6643,
      "Ġpaste": 6644,
      "Ġreaching": 6645,
      "Ġgreenhouse": 6646,
      "ĠBel": 6647,
      "pow": 6648,
      "sm": 6649,
      "ĠIns": 6650,
      "Ġcelebrated": 6651,
      "ĠLily": 6652,
      "Ġmild": 6653,
      "Ġchecking": 6654,
      "ifies": 6655,
      "Ġmole": 6656,
      "ĠTHE": 6657,
      "Ġnoodles": 6658,
      "ifact": 6659,
      "ĠPost": 6660,
      "Ġmyster": 6661,
      "Ġ22": 6662,
      "Ġconsidering": 6663,
      "Ġcharacteristics": 6664,
      "Ġattach": 6665,
      "Ġoils": 6666,
      "Ġfinished": 6667,
      "Ġstirring": 6668,
      "ulating": 6669,
      "Ġcloser": 6670,
      "Ġlie": 6671,
      "ĠSeason": 6672,
      "aughter": 6673,
      "Ġsculpture": 6674,
      "ĠPaul": 6675,
      "Ġparaphrase": 6676,
      "Ġspons": 6677,
      "Ġsequence": 6678,
      "Ġtap": 6679,
      "Ġsalmon": 6680,
      "Ġbeer": 6681,
      "ĠWhite": 6682,
      "Ġparam": 6683,
      "Ġwedding": 6684,
      "edy": 6685,
      "Ġvoc": 6686,
      "gent": 6687,
      "Ġremark": 6688,
      "Ġoperating": 6689,
      "solving": 6690,
      "raction": 6691,
      "Ġrestrictions": 6692,
      "ida": 6693,
      "Ġbalanced": 6694,
      "Ġresponsibilities": 6695,
      "Ġdiagn": 6696,
      "Ġwindow": 6697,
      "Ġslice": 6698,
      "Ġoblig": 6699,
      "Ġdecline": 6700,
      "aren": 6701,
      "fol": 6702,
      "ĠQue": 6703,
      "Ġhearing": 6704,
      "ĠUnd": 6705,
      "Ġshipping": 6706,
      "Ġexactly": 6707,
      "ĠList": 6708,
      "Ġscar": 6709,
      "Ġchurch": 6710,
      "Ġcareful": 6711,
      "Ġ2016": 6712,
      "ĠDig": 6713,
      "oad": 6714,
      "orge": 6715,
      "ounced": 6716,
      "ĠFestival": 6717,
      "rum": 6718,
      "Ġhonest": 6719,
      "ĠHeat": 6720,
      "Ġgovernments": 6721,
      "rian": 6722,
      "Ġresponsive": 6723,
      "Ġdurable": 6724,
      "Ġdefe": 6725,
      "Ġfishing": 6726,
      "Ġreached": 6727,
      "Ġingredient": 6728,
      "Ġremained": 6729,
      "Ġcocktail": 6730,
      "Ġversatile": 6731,
      "Ġdeploy": 6732,
      "Ġpursue": 6733,
      "Ġjudgment": 6734,
      "Ġ60": 6735,
      "Ġrecycling": 6736,
      "ĠCommunity": 6737,
      "ĠBlue": 6738,
      "Ġsubjects": 6739,
      "Ġhob": 6740,
      "Ġcriteria": 6741,
      "Ġzu": 6742,
      "ago": 6743,
      "Ġdarkness": 6744,
      "ĠVR": 6745,
      "iances": 6746,
      "Ġabstract": 6747,
      "Ġimmune": 6748,
      "Ġrelief": 6749,
      "Ġadults": 6750,
      "ĠEnter": 6751,
      "Ġindustrial": 6752,
      "Ġlyrics": 6753,
      "Ġhousehold": 6754,
      "Ġcaught": 6755,
      "Ġleur": 6756,
      "+.--": 6757,
      "Ġbillion": 6758,
      "ona": 6759,
      "ĠChick": 6760,
      "osis": 6761,
      "Ġstored": 6762,
      "Ġpromotions": 6763,
      "Ġcalend": 6764,
      "Ġcolleagues": 6765,
      "Ġpri": 6766,
      "Ġcompat": 6767,
      "ifting": 6768,
      "ĠTre": 6769,
      "Ġdiscussing": 6770,
      "Ġdestroy": 6771,
      "Ġtestim": 6772,
      "ĠDepartment": 6773,
      "Ã§": 6774,
      "Ġresponsibility": 6775,
      "rich": 6776,
      "Ġshot": 6777,
      "Ġforced": 6778,
      "Ġtargeting": 6779,
      "Ġclothes": 6780,
      "Ġartifact": 6781,
      "Ġpreparation": 6782,
      "Ġplate": 6783,
      "Ġmuscles": 6784,
      "Ġfacts": 6785,
      "Ġlaunched": 6786,
      "Ġpassing": 6787,
      "Ġknows": 6788,
      "ĠRoad": 6789,
      "Ġadoption": 6790,
      "Ġinventory": 6791,
      "Ġassistant": 6792,
      "\":": 6793,
      "ĠBas": 6794,
      "gl": 6795,
      "Ġschedul": 6796,
      "Ġartificial": 6797,
      "Ġduration": 6798,
      "Ġruns": 6799,
      "ĠBoth": 6800,
      "Ġlegacy": 6801,
      "Ġboundaries": 6802,
      "usable": 6803,
      "ĠChild": 6804,
      "atable": 6805,
      "Ġsupportive": 6806,
      "ĠRegular": 6807,
      "hi": 6808,
      "real": 6809,
      "ĠHope": 6810,
      "Ġdesk": 6811,
      "Ê»": 6812,
      "70": 6813,
      "Ġgirl": 6814,
      "ĠJour": 6815,
      "Ġcorrespond": 6816,
      "ĠZe": 6817,
      "Ġbear": 6818,
      "ocr": 6819,
      "oa": 6820,
      "Ġcomparison": 6821,
      "Ġproducing": 6822,
      "Ġdining": 6823,
      "net": 6824,
      "ĠProf": 6825,
      "Ġmindful": 6826,
      "Ġaffirm": 6827,
      "Ġtechnological": 6828,
      "Ġraw": 6829,
      "Ġbaked": 6830,
      "otion": 6831,
      "inf": 6832,
      "Ġselling": 6833,
      "Ġscan": 6834,
      "Ġmeasurements": 6835,
      "plant": 6836,
      "Ãł": 6837,
      "Ġbill": 6838,
      "Ġbatt": 6839,
      "ĠPresident": 6840,
      "Ġroutes": 6841,
      "ĠBer": 6842,
      "Ġdele": 6843,
      "oken": 6844,
      "ey": 6845,
      "Ġera": 6846,
      "ĠPublic": 6847,
      "Ġintensity": 6848,
      "Ġpride": 6849,
      "Ġlayout": 6850,
      "erie": 6851,
      "Ġtrails": 6852,
      "ĠProduct": 6853,
      "Ġtu": 6854,
      "Ġhat": 6855,
      "Ġrefriger": 6856,
      "Ġdoll": 6857,
      "Ġconqu": 6858,
      "Ġstew": 6859,
      "Ġencouraged": 6860,
      "eles": 6861,
      "Ġintended": 6862,
      "Ġbreaking": 6863,
      "active": 6864,
      "ĠEss": 6865,
      "Ġexpans": 6866,
      "Ġlabel": 6867,
      "Ġclaims": 6868,
      "Ġphrases": 6869,
      "estion": 6870,
      "raw": 6871,
      "Ġghost": 6872,
      "ĠUnion": 6873,
      "Ġunderst": 6874,
      "Ġneither": 6875,
      "Ġguitar": 6876,
      "Ġcombat": 6877,
      "PA": 6878,
      "Ġstrange": 6879,
      "ails": 6880,
      "Ġregards": 6881,
      "ĠEnd": 6882,
      "Ġsunlight": 6883,
      "Ġrub": 6884,
      "ĠOld": 6885,
      "apes": 6886,
      "Ġdistractions": 6887,
      "Ġfaculty": 6888,
      "Ġwings": 6889,
      "Ġminute": 6890,
      "Ġvulnerable": 6891,
      "Ġsevere": 6892,
      "emon": 6893,
      "abil": 6894,
      "++": 6895,
      "ĠIN": 6896,
      "ĠCa": 6897,
      "ĠMr": 6898,
      "Ġpreference": 6899,
      "Ġrepair": 6900,
      "Ġmedit": 6901,
      "Ġwisdom": 6902,
      "Ġinfluences": 6903,
      "TH": 6904,
      "Ġcalming": 6905,
      "Ġattendees": 6906,
      "ĠJesus": 6907,
      "Ġshoot": 6908,
      "Ġindigenous": 6909,
      "Ġsavings": 6910,
      "Ġrituals": 6911,
      "Ġneighb": 6912,
      "rus": 6913,
      "ĠMiddle": 6914,
      "Ġmeets": 6915,
      "ĠDear": 6916,
      "cled": 6917,
      "Ġolder": 6918,
      "Ġconce": 6919,
      "ĠHence": 6920,
      "roud": 6921,
      "hors": 6922,
      "ĠFore": 6923,
      "Ġguard": 6924,
      "Ġsubtle": 6925,
      "Ġwra": 6926,
      "Ġconvert": 6927,
      "Î¼": 6928,
      "Ġflakes": 6929,
      "Ġages": 6930,
      "Ġplain": 6931,
      "Ġ21": 6932,
      "iches": 6933,
      "well": 6934,
      "Ġtwists": 6935,
      "Ġphrase": 6936,
      "ani": 6937,
      "jection": 6938,
      "Ġwaiting": 6939,
      "ĠTem": 6940,
      "Ġinitiative": 6941,
      "Ġinfluencer": 6942,
      "never": 6943,
      "Ġcorrectly": 6944,
      "cont": 6945,
      "Ġshaped": 6946,
      "Ġwasn": 6947,
      "Ġforth": 6948,
      "Ġinjuries": 6949,
      "ĠBen": 6950,
      "izers": 6951,
      "undred": 6952,
      "Ġtransformation": 6953,
      "ville": 6954,
      "Ġprime": 6955,
      "case": 6956,
      "ĠCamp": 6957,
      "Ġsensors": 6958,
      "Ġemployment": 6959,
      "Ġuniversities": 6960,
      "field": 6961,
      "Ġwrote": 6962,
      "Ġaccurately": 6963,
      "Ġhappened": 6964,
      "Ġrecon": 6965,
      "Ġdeals": 6966,
      "Ġrecords": 6967,
      "ĠHel": 6968,
      "Ġedges": 6969,
      "ĠBay": 6970,
      "Ġih": 6971,
      "Ġmassive": 6972,
      "ĠTim": 6973,
      "Ġscal": 6974,
      "Ġfell": 6975,
      "ĠTechnology": 6976,
      "Ġunable": 6977,
      "Ġshell": 6978,
      "pack": 6979,
      "Ġharmony": 6980,
      "Ġinval": 6981,
      "ĠManagement": 6982,
      "Ġpit": 6983,
      "Ġflight": 6984,
      "ĠHindu": 6985,
      "Ġsurrounded": 6986,
      "Ġshowed": 6987,
      "ĠOl": 6988,
      "fortun": 6989,
      "ĠNav": 6990,
      "Ġintellectual": 6991,
      "Ġstuff": 6992,
      "Ġshops": 6993,
      "ĠInstitute": 6994,
      "ĠWall": 6995,
      "andon": 6996,
      "utter": 6997,
      "Ġsegment": 6998,
      "idential": 6999,
      "aphor": 7000,
      "Ġhyp": 7001,
      "22": 7002,
      "rays": 7003,
      "phone": 7004,
      "Ġjudge": 7005,
      "Ġhus": 7006,
      "Ġholds": 7007,
      "Ġreduces": 7008,
      "ĠAny": 7009,
      "Ġimplications": 7010,
      "ruption": 7011,
      "abet": 7012,
      "Ġmathemat": 7013,
      "Ġparks": 7014,
      "\"?": 7015,
      "taking": 7016,
      "umbled": 7017,
      "Ġtro": 7018,
      "ĠDist": 7019,
      "Ġresulted": 7020,
      "Ġstrengthen": 7021,
      "Ġemphasize": 7022,
      "Ġsatisfied": 7023,
      "Ġretailers": 7024,
      "ĠCe": 7025,
      "Ġepis": 7026,
      "Ġzucchini": 7027,
      "Ġpreviously": 7028,
      "Ġcott": 7029,
      "soft": 7030,
      "ubs": 7031,
      "Ġagg": 7032,
      "ĠGrand": 7033,
      "ĠGermany": 7034,
      "Ġbreeze": 7035,
      "Ġbegins": 7036,
      "Ġkne": 7037,
      "Ġfarming": 7038,
      "ĠAcad": 7039,
      "ki": 7040,
      "makers": 7041,
      "Ġotherwise": 7042,
      "Ġni": 7043,
      "Ġobserv": 7044,
      "apple": 7045,
      "Ġselected": 7046,
      "ĠConf": 7047,
      "point": 7048,
      "\";": 7049,
      "rip": 7050,
      "Ġdocuments": 7051,
      "Ġther": 7052,
      "ĠInvest": 7053,
      "Ġmeetings": 7054,
      "Ġrid": 7055,
      "Ġcurry": 7056,
      "nic": 7057,
      "ĠFire": 7058,
      "Ġsport": 7059,
      "Ġlinked": 7060,
      "Ġpreferred": 7061,
      "ĠStore": 7062,
      "Ġwooden": 7063,
      "ĠTit": 7064,
      "ĠÎµ": 7065,
      "Ġapproximately": 7066,
      "Ġgets": 7067,
      "Ġlunch": 7068,
      "ĠBeach": 7069,
      "Ġdiffer": 7070,
      "Ġtrial": 7071,
      "ĠMark": 7072,
      "ĠâĢ¢": 7073,
      "Ġconsists": 7074,
      "ĠMart": 7075,
      "Ġcrisis": 7076,
      "Ġlon": 7077,
      "oses": 7078,
      "Ġchecks": 7079,
      "Ġobserved": 7080,
      "Ġhospit": 7081,
      "ĠCoc": 7082,
      "Ġou": 7083,
      "ĠElect": 7084,
      "Ġphotography": 7085,
      "Ġautomatically": 7086,
      "Ġoptimal": 7087,
      "ĠYear": 7088,
      "ĠShow": 7089,
      "Ġfry": 7090,
      "Ġpaintings": 7091,
      "Ġportray": 7092,
      "Ġfailure": 7093,
      "Ġsubstance": 7094,
      "Ġsandwich": 7095,
      "nger": 7096,
      "ĠMichael": 7097,
      "It": 7098,
      "ĠLight": 7099,
      "Ġinfect": 7100,
      "Ġcombinations": 7101,
      "Ġthreats": 7102,
      "We": 7103,
      "Ġimagination": 7104,
      "Ġalternatives": 7105,
      "Ġlibraries": 7106,
      "Ġsearching": 7107,
      "Ġnerv": 7108,
      "Ġspray": 7109,
      "orship": 7110,
      "Ġperce": 7111,
      "Ġintuitive": 7112,
      "Ġcontainers": 7113,
      "ĠStay": 7114,
      "Ġmodify": 7115,
      "dess": 7116,
      "ĠSout": 7117,
      "ĠBring": 7118,
      "Ġsilver": 7119,
      "Ġmarin": 7120,
      "Ġoverc": 7121,
      "everance": 7122,
      "Ġnice": 7123,
      "Ġbub": 7124,
      "ĠHall": 7125,
      "Ġofferings": 7126,
      "Ġrepresentation": 7127,
      "Ġsole": 7128,
      "comp": 7129,
      "Ġterrit": 7130,
      "ĠPan": 7131,
      "Ġenjoyable": 7132,
      "Ġoffic": 7133,
      "ria": 7134,
      "Ġbranding": 7135,
      "Ġhearts": 7136,
      "rue": 7137,
      "Ġbroccoli": 7138,
      "Ġrealize": 7139,
      "ometric": 7140,
      "Ġpanels": 7141,
      "Ar": 7142,
      "tery": 7143,
      "Ġnutrit": 7144,
      "Ġbene": 7145,
      "Ġblo": 7146,
      "ĠRest": 7147,
      "Ġsorted": 7148,
      "Ġdonations": 7149,
      "eding": 7150,
      "Ġske": 7151,
      "Ġrough": 7152,
      "fry": 7153,
      "ĠMain": 7154,
      "Ġcow": 7155,
      "Ġfer": 7156,
      "Ġcarried": 7157,
      "uary": 7158,
      "Ġpurchasing": 7159,
      "Ġhorror": 7160,
      "Ġframework": 7161,
      "ella": 7162,
      "Ġlegs": 7163,
      "Ġcrop": 7164,
      "Ġbless": 7165,
      "Ġcherry": 7166,
      "ĠCare": 7167,
      "Ġspecified": 7168,
      "Ġfundra": 7169,
      "Ġfalling": 7170,
      "Ġopened": 7171,
      "Ġinvestigation": 7172,
      "MS": 7173,
      "ald": 7174,
      "pie": 7175,
      "ĠNative": 7176,
      "vision": 7177,
      "ĠGard": 7178,
      "Ġediting": 7179,
      "ĠAlthough": 7180,
      "Ġdisasters": 7181,
      "________________": 7182,
      "part": 7183,
      "Ġovers": 7184,
      "Ġhydro": 7185,
      "Ġbottle": 7186,
      "ĠSimilarly": 7187,
      "equ": 7188,
      "Ġsought": 7189,
      "Ġbasket": 7190,
      "Ġsor": 7191,
      "Ġwants": 7192,
      "enery": 7193,
      "Ġnation": 7194,
      "Ġbasis": 7195,
      "Ġstreets": 7196,
      "ourse": 7197,
      "Ġconcrete": 7198,
      "45": 7199,
      "roid": 7200,
      "Ġnode": 7201,
      "Ġextended": 7202,
      "Ġelev": 7203,
      "Ġinfin": 7204,
      "Ġlayers": 7205,
      "Ġemerging": 7206,
      "Ġdies": 7207,
      "oles": 7208,
      "Ġcategories": 7209,
      "mm": 7210,
      "Ġdust": 7211,
      "alax": 7212,
      "Ġstood": 7213,
      "Ġcloth": 7214,
      "Ġmythology": 7215,
      "Ġlose": 7216,
      "Ġsentiment": 7217,
      "Ġhospital": 7218,
      "Ġwet": 7219,
      "itable": 7220,
      "Ġleather": 7221,
      "Ġstack": 7222,
      "Ġcomponent": 7223,
      "ĠLou": 7224,
      "Ġdevelopments": 7225,
      "Ġregional": 7226,
      "Ġretention": 7227,
      "Ġuniversal": 7228,
      "Ġnutritious": 7229,
      "Ġlists": 7230,
      "ĠMedia": 7231,
      "Ġmanager": 7232,
      "Ġmelody": 7233,
      "Ġcryst": 7234,
      "kes": 7235,
      "Ġportion": 7236,
      "ora": 7237,
      "Ġfier": 7238,
      "Ġmatches": 7239,
      "Ġbuying": 7240,
      "Ġpleas": 7241,
      "Ġillness": 7242,
      "Ġago": 7243,
      "Ġmuseums": 7244,
      "inse": 7245,
      "ĠApr": 7246,
      "Ġunknown": 7247,
      "Ġappet": 7248,
      "ĠĠĠĠĠĠĠĠĠĠĠĠĠĠĠ": 7249,
      "ĠFresh": 7250,
      "Ġvisualization": 7251,
      "Ġoptimizing": 7252,
      "Ġlesson": 7253,
      "ÃŃ": 7254,
      "ask": 7255,
      "orthern": 7256,
      "ĠYouT": 7257,
      "ĠAssociation": 7258,
      "Er": 7259,
      "imm": 7260,
      "ĠPet": 7261,
      "ĠBuddh": 7262,
      "Ġpink": 7263,
      "Ġdebt": 7264,
      "Ġwitness": 7265,
      "Ġ26": 7266,
      "Ġbackgrounds": 7267,
      "Ġsont": 7268,
      "Ġdrawing": 7269,
      "ĠItaly": 7270,
      "urpose": 7271,
      "Ġrooms": 7272,
      "bled": 7273,
      "Ġproud": 7274,
      "Ġenjoying": 7275,
      "Ġmindset": 7276,
      "Ġpersons": 7277,
      "Ġentry": 7278,
      "ĠIdentify": 7279,
      "va": 7280,
      "Ġdefine": 7281,
      "Ġvolunteers": 7282,
      "Ġmetaphor": 7283,
      "Ġviolence": 7284,
      "Ġjoint": 7285,
      "ĠRena": 7286,
      "ĠYe": 7287,
      "Ġtracks": 7288,
      "Ġspr": 7289,
      "sized": 7290,
      "Ġbroken": 7291,
      "ĠIslamic": 7292,
      "ĠUN": 7293,
      "eem": 7294,
      "Ġnom": 7295,
      "Ġfrust": 7296,
      "Ġactively": 7297,
      "ĠLim": 7298,
      "Ġobserve": 7299,
      "Ġdelight": 7300,
      "ĠOct": 7301,
      "Ġchees": 7302,
      "Ġpil": 7303,
      "Ġauthors": 7304,
      "Ġneut": 7305,
      "phones": 7306,
      "urric": 7307,
      "Ġinstruct": 7308,
      "Ġpumpkin": 7309,
      "cery": 7310,
      "ĠCap": 7311,
      "Ġattending": 7312,
      "bility": 7313,
      "ĠParmesan": 7314,
      "ampions": 7315,
      "Ġmetaphors": 7316,
      "Ġgaming": 7317,
      "Ġstreaming": 7318,
      "aturally": 7319,
      "ĠLinked": 7320,
      "ĠPass": 7321,
      "cell": 7322,
      "Ġenemy": 7323,
      "Ġcaptures": 7324,
      "Ġrocks": 7325,
      "Ġtrained": 7326,
      "ĠStar": 7327,
      "ĠScott": 7328,
      "ĠOnline": 7329,
      "Ġmale": 7330,
      "ĠMarch": 7331,
      "ĠStreet": 7332,
      "length": 7333,
      "Ġworship": 7334,
      "Ġintrig": 7335,
      "200": 7336,
      "Ġvot": 7337,
      "Ġtech": 7338,
      "Ġunderstood": 7339,
      "Ġcash": 7340,
      "Ġisolation": 7341,
      "ĠGrilled": 7342,
      "scale": 7343,
      "ĠStudents": 7344,
      "Â»": 7345,
      "Ġstruggled": 7346,
      "Ġapples": 7347,
      "arant": 7348,
      "ĠSmith": 7349,
      "Ġspots": 7350,
      "ĠPeople": 7351,
      "alle": 7352,
      "ĠHim": 7353,
      "ĠSqu": 7354,
      "LA": 7355,
      "Ġpopularity": 7356,
      "Ġmaple": 7357,
      "Ġmissing": 7358,
      "Ġshades": 7359,
      "ĠVirt": 7360,
      "Ġdiam": 7361,
      "Ġalongside": 7362,
      "Ġproceed": 7363,
      "anches": 7364,
      "ila": 7365,
      "ĠSuper": 7366,
      "ĠLearning": 7367,
      "Ġcollaborations": 7368,
      "Ġdistingu": 7369,
      "mental": 7370,
      "ĠHaw": 7371,
      "Ġchief": 7372,
      "Ġmentions": 7373,
      "ben": 7374,
      "othe": 7375,
      "Ġincorporates": 7376,
      "ĠMexican": 7377,
      "Ġceremony": 7378,
      "Ġcategory": 7379,
      "ĠCam": 7380,
      "Ġevening": 7381,
      "rol": 7382,
      "Ġparticipation": 7383,
      "TS": 7384,
      "Ġfees": 7385,
      "ao": 7386,
      "reens": 7387,
      "Ġaccessibility": 7388,
      "Ġnative": 7389,
      "ĠUt": 7390,
      "intage": 7391,
      "ulum": 7392,
      "Ġyounger": 7393,
      "Ġpersuasive": 7394,
      "Ġaids": 7395,
      "Ġactual": 7396,
      "Ġsalsa": 7397,
      "Ġdas": 7398,
      "ĠPers": 7399,
      "Ġprocedures": 7400,
      "Ġconsideration": 7401,
      "Ġconference": 7402,
      "ĠYouTube": 7403,
      "erals": 7404,
      "Ġprovider": 7405,
      "Ġsau": 7406,
      ".'": 7407,
      "Ġultimate": 7408,
      "Ġproduces": 7409,
      "cohol": 7410,
      "Ġexpansion": 7411,
      "ĠWrit": 7412,
      "Ġexceptional": 7413,
      "Ġsett": 7414,
      "Ġham": 7415,
      "ĠRenaissance": 7416,
      "Ġcustoms": 7417,
      "ois": 7418,
      "Ġmeasuring": 7419,
      "Ġweapons": 7420,
      "ĠAN": 7421,
      "ĠHand": 7422,
      "Ġinvestors": 7423,
      "Ġbanana": 7424,
      "Ġdiscipl": 7425,
      "Ġquote": 7426,
      "Ġterrain": 7427,
      "Ġhundred": 7428,
      "Ġextend": 7429,
      "Ġmiles": 7430,
      "kind": 7431,
      "Ġperseverance": 7432,
      "Ãªme": 7433,
      "Ġ27": 7434,
      "Ġreporting": 7435,
      "income": 7436,
      "Ġrail": 7437,
      "Ġ28": 7438,
      "ĠComb": 7439,
      "Ġthousands": 7440,
      "driven": 7441,
      "ĠWell": 7442,
      "Ġshowcasing": 7443,
      "Ġabandon": 7444,
      "Ġroast": 7445,
      "Ġcorner": 7446,
      "kend": 7447,
      "Ġworldwide": 7448,
      "Ġutilizing": 7449,
      "Ġpreparing": 7450,
      "ori": 7451,
      "most": 7452,
      "anqu": 7453,
      "Ġdesp": 7454,
      "Ġrelatively": 7455,
      "Ġthrow": 7456,
      "Ġcart": 7457,
      "bar": 7458,
      "Ġ2015": 7459,
      "adow": 7460,
      "emies": 7461,
      "Ġguest": 7462,
      "ĠThom": 7463,
      "ĠLake": 7464,
      "Ġsecrets": 7465,
      "Ġgreatly": 7466,
      "Ġkick": 7467,
      "Ġinsert": 7468,
      "Ġreusable": 7469,
      "rapy": 7470,
      "Ġfemale": 7471,
      "Ġpolitics": 7472,
      "Ġcoverage": 7473,
      "Ġasking": 7474,
      "ishment": 7475,
      "gener": 7476,
      "Ġreform": 7477,
      "Ġtests": 7478,
      "ĠMah": 7479,
      "Ġheaven": 7480,
      "ĠCy": 7481,
      "ĠMad": 7482,
      "appy": 7483,
      "Ġjack": 7484,
      "Ġhier": 7485,
      "ĠDevelopment": 7486,
      "ĠExperiment": 7487,
      "ya": 7488,
      "Ġemerged": 7489,
      "Ġleaf": 7490,
      "Ġcalendar": 7491,
      "You": 7492,
      "Ġpromotion": 7493,
      "Ġprimarily": 7494,
      "estic": 7495,
      "Ġrising": 7496,
      "Ġfats": 7497,
      "ioxid": 7498,
      "Ġgardens": 7499,
      "Ġshelter": 7500,
      "arn": 7501,
      "acific": 7502,
      "ĠSpe": 7503,
      "Ġcaptiv": 7504,
      "Ġcomme": 7505,
      "opher": 7506,
      "Ġcontributing": 7507,
      "Ġvisible": 7508,
      "Ġcalories": 7509,
      "ĠLuc": 7510,
      "Ġconvent": 7511,
      "Ġlib": 7512,
      "Ġarchitectural": 7513,
      "ml": 7514,
      "ĠFort": 7515,
      "enger": 7516,
      "Ġpossibility": 7517,
      "ĠÃ©t": 7518,
      "Ġenabling": 7519,
      "Ġtells": 7520,
      "Ġenvironmentally": 7521,
      "Ġdisplayed": 7522,
      "Ġcharacterized": 7523,
      "rael": 7524,
      "ĠVer": 7525,
      "Ġoptimized": 7526,
      "Ġblank": 7527,
      "Ġanimation": 7528,
      "Ġsed": 7529,
      "Ġdealing": 7530,
      "through": 7531,
      "Ġherb": 7532,
      "Ġinteraction": 7533,
      "Ġretrie": 7534,
      "Ġapplying": 7535,
      "Ġvictory": 7536,
      "ĠEp": 7537,
      "Ġdisabilities": 7538,
      "aws": 7539,
      "ĠService": 7540,
      "Ġplug": 7541,
      "Error": 7542,
      "On": 7543,
      "Ġindicate": 7544,
      "ĠBridge": 7545,
      "Ġamounts": 7546,
      "Ġpreventing": 7547,
      "Ġadminist": 7548,
      "vas": 7549,
      "Ġ@": 7550,
      "Ġmerely": 7551,
      "Ïī": 7552,
      "Ġclassroom": 7553,
      "Ġtourists": 7554,
      "Ġnaturally": 7555,
      "iden": 7556,
      "ĠCath": 7557,
      "hem": 7558,
      "Ġdiss": 7559,
      "ĠAdv": 7560,
      "yo": 7561,
      "Ã©t": 7562,
      "ĠMexico": 7563,
      "Ġsections": 7564,
      "uls": 7565,
      "Ġcomputing": 7566,
      "Ġroof": 7567,
      "Ġore": 7568,
      "Ġcircle": 7569,
      "ĠBuild": 7570,
      "Ġnoticed": 7571,
      "omy": 7572,
      "Ġorders": 7573,
      "Ġmint": 7574,
      "ocated": 7575,
      "Ġfu": 7576,
      "Ġadaptations": 7577,
      "see": 7578,
      "Ġthrive": 7579,
      "Ġsignal": 7580,
      "lands": 7581,
      "Ġfee": 7582,
      "Ġnuc": 7583,
      "Ġoutcome": 7584,
      "ĠÎ±": 7585,
      "Ġestate": 7586,
      "Ġcos": 7587,
      "ĠDigital": 7588,
      "Ġcope": 7589,
      "ditional": 7590,
      "Ġdrama": 7591,
      "ĠIT": 7592,
      "ares": 7593,
      "ĠArab": 7594,
      "Ġlimits": 7595,
      "Ġtourist": 7596,
      "Ġchest": 7597,
      "Ġavoiding": 7598,
      "ĠCentral": 7599,
      "Ġprominent": 7600,
      "high": 7601,
      "Ġidentified": 7602,
      "ĠYog": 7603,
      "35": 7604,
      "ĠSing": 7605,
      "Ġfinance": 7606,
      "abit": 7607,
      "Ġseed": 7608,
      "Ġroots": 7609,
      "Ġawe": 7610,
      "Ġlocally": 7611,
      "chant": 7612,
      "Ġlui": 7613,
      "Ġtutorials": 7614,
      "ĠReview": 7615,
      "ĠExplain": 7616,
      "Ġmanif": 7617,
      "Ġtargets": 7618,
      "Ġfolk": 7619,
      "Ġhotels": 7620,
      "Ġresponses": 7621,
      "Ġmakeup": 7622,
      "Ġhusband": 7623,
      "ĠStr": 7624,
      "Ġrecycled": 7625,
      "ĠIndust": 7626,
      "Ġbien": 7627,
      "Ġrelatable": 7628,
      "Ġcivilization": 7629,
      "Ġkingdom": 7630,
      "Script": 7631,
      "CE": 7632,
      "Ġseat": 7633,
      "Ġinsightful": 7634,
      "ĠRock": 7635,
      "itting": 7636,
      "Ġinterviews": 7637,
      "Ġcucumber": 7638,
      "ĠFre": 7639,
      "ĠFam": 7640,
      "IP": 7641,
      "Ġcookie": 7642,
      "icious": 7643,
      "Ġdomin": 7644,
      "ĠLinkedIn": 7645,
      "Ġsoap": 7646,
      "Ġbranches": 7647,
      "Ġwave": 7648,
      "ĠVeget": 7649,
      "ĠSmart": 7650,
      "zil": 7651,
      "Ġsere": 7652,
      "ĠProt": 7653,
      "Ġpossibilities": 7654,
      "ushi": 7655,
      "Ġceremonies": 7656,
      "Ġinterior": 7657,
      "Ġofficials": 7658,
      "Ġalmonds": 7659,
      "Ġevident": 7660,
      "Ġinputs": 7661,
      "Ġwindows": 7662,
      "Ġcolon": 7663,
      "Ġfiction": 7664,
      "Ġtopping": 7665,
      "ano": 7666,
      "ĠST": 7667,
      "powered": 7668,
      "riage": 7669,
      "Ġdirectory": 7670,
      "Ġnarrow": 7671,
      "Ġsad": 7672,
      "ota": 7673,
      "Ġevoke": 7674,
      "Ġcrimin": 7675,
      "Ġworkouts": 7676,
      "Ġdurability": 7677,
      "ĠMost": 7678,
      "phony": 7679,
      "ingers": 7680,
      "Ġminds": 7681,
      "Ġgraphic": 7682,
      "Ġhashtags": 7683,
      "ĠSk": 7684,
      "Ġantioxid": 7685,
      "Ġfridge": 7686,
      "astern": 7687,
      "ĠCover": 7688,
      "Ġvisited": 7689,
      "ĠRevolution": 7690,
      "Ġstrict": 7691,
      "onna": 7692,
      "Ġowner": 7693,
      "count": 7694,
      "Ġprivacy": 7695,
      "Ġsitting": 7696,
      "Ġstoring": 7697,
      "ĠAnalyze": 7698,
      "Ġinvested": 7699,
      "Ġreceiving": 7700,
      "AD": 7701,
      "Ġquarter": 7702,
      "ĠProfess": 7703,
      "aust": 7704,
      "Ġgear": 7705,
      "Ġvocal": 7706,
      "Ġtimeline": 7707,
      "Ġbite": 7708,
      "Ġroute": 7709,
      "ĠSn": 7710,
      "ĠAltern": 7711,
      "ĠWeb": 7712,
      "Ġdefense": 7713,
      "antha": 7714,
      "ĠRobert": 7715,
      "etry": 7716,
      "ugg": 7717,
      "pass": 7718,
      "ĠEmma": 7719,
      "III": 7720,
      "Ġrepeat": 7721,
      "He": 7722,
      "Ġclosed": 7723,
      "Ġvacc": 7724,
      "Ġmotivations": 7725,
      "ĠHold": 7726,
      "ĠVir": 7727,
      "Ġgrocery": 7728,
      "anged": 7729,
      "Ġinflamm": 7730,
      "ometimes": 7731,
      "Ġfixed": 7732,
      "itivity": 7733,
      "oust": 7734,
      "Ġdairy": 7735,
      "Ġneuro": 7736,
      "Ġii": 7737,
      "24": 7738,
      "ye": 7739,
      "Ġdecorative": 7740,
      "Ġutilized": 7741,
      "igor": 7742,
      "Ġ45": 7743,
      "ĠApril": 7744,
      "inspired": 7745,
      "ĠJane": 7746,
      "Ġrequests": 7747,
      "Ê¼": 7748,
      "Ġanticip": 7749,
      "Ġ!": 7750,
      "Ġkinds": 7751,
      "Ġsacrifice": 7752,
      "Ġeld": 7753,
      "Ġinvolvement": 7754,
      "ĠBig": 7755,
      "Ġguess": 7756,
      "Ph": 7757,
      "Ġendless": 7758,
      "Ġnewfound": 7759,
      "ĠOptim": 7760,
      "Ġhaz": 7761,
      "Ġlegis": 7762,
      "ĠMicrosoft": 7763,
      "Ġdecrease": 7764,
      "una": 7765,
      "Ġkale": 7766,
      "ĠAdding": 7767,
      "Ġvendors": 7768,
      "Ġsaucepan": 7769,
      "Ġinquir": 7770,
      "Ġmatters": 7771,
      "Ġprotecting": 7772,
      "Ġinterventions": 7773,
      "Ġrefrigerator": 7774,
      "Ġsupernatural": 7775,
      "Ġfighting": 7776,
      "Ġaux": 7777,
      "Ġbarriers": 7778,
      "ĠExample": 7779,
      "Ġwaters": 7780,
      "Ġoverwhelming": 7781,
      "gs": 7782,
      "Ġimpression": 7783,
      "Ġfles": 7784,
      "ady": 7785,
      "Ġdirected": 7786,
      "ading": 7787,
      "oman": 7788,
      "utch": 7789,
      "Ġtroubles": 7790,
      "Ġrend": 7791,
      "Ġkeeps": 7792,
      "Ġlearners": 7793,
      "ĠIsrael": 7794,
      "];": 7795,
      "Ġreturned": 7796,
      "ĠCast": 7797,
      "ĠAllow": 7798,
      "Ġdesigning": 7799,
      "Ġspeakers": 7800,
      "Ġveter": 7801,
      "Ġfrost": 7802,
      "Ġpromotes": 7803,
      "serv": 7804,
      "urious": 7805,
      "Ġmatrix": 7806,
      "anz": 7807,
      "Ã¨re": 7808,
      "ĠLatin": 7809,
      "Ġoperate": 7810,
      "itt": 7811,
      "archy": 7812,
      "Ġstable": 7813,
      "33": 7814,
      "Ġtiss": 7815,
      "Ġdaughter": 7816,
      "Ġnicht": 7817,
      "ĠTex": 7818,
      "Ġrepresenting": 7819,
      "ĠClean": 7820,
      "oul": 7821,
      "ĠHistory": 7822,
      "okes": 7823,
      "Ġpanc": 7824,
      "mo": 7825,
      "Ġperception": 7826,
      "Ġ2020": 7827,
      "iar": 7828,
      "icians": 7829,
      "Ġpositions": 7830,
      "Ġwearing": 7831,
      "CO": 7832,
      "Ġcrafts": 7833,
      "dep": 7834,
      "Ġvert": 7835,
      "Ġnewslet": 7836,
      "inder": 7837,
      "ĠKh": 7838,
      "west": 7839,
      "beat": 7840,
      "Ã¦": 7841,
      "otics": 7842,
      "ricks": 7843,
      "ĠSophie": 7844,
      "Ġhummus": 7845,
      "Ġputs": 7846,
      "Ġessays": 7847,
      "Ġdash": 7848,
      "Ġhuge": 7849,
      "Ġsto": 7850,
      "actions": 7851,
      "arks": 7852,
      "Ġsmoked": 7853,
      "Ġsquash": 7854,
      "ĠColor": 7855,
      "Ġbridge": 7856,
      "Ġhardware": 7857,
      "Ġthread": 7858,
      "Ġinstant": 7859,
      "ĠRub": 7860,
      "Ġunits": 7861,
      "ĠClub": 7862,
      "ĠCSS": 7863,
      "ĠSamantha": 7864,
      "ikes": 7865,
      "Ġunity": 7866,
      "Ġresc": 7867,
      "BC": 7868,
      "Î¬": 7869,
      "Ġspoon": 7870,
      "Ġconstitut": 7871,
      "Ġprospect": 7872,
      "ĠWashing": 7873,
      "Ġpeanut": 7874,
      "Ġentered": 7875,
      "Ġforecast": 7876,
      "Ġbeings": 7877,
      "String": 7878,
      "lim": 7879,
      "ĠTour": 7880,
      "Ġchatbot": 7881,
      "building": 7882,
      "ĠBeg": 7883,
      "px": 7884,
      "Ġmachines": 7885,
      "ĠFranc": 7886,
      "ĠStand": 7887,
      "Ġpanel": 7888,
      "VID": 7889,
      "ĠThai": 7890,
      "ĠRepe": 7891,
      "Ġunit": 7892,
      "Ġprison": 7893,
      "Ġphotograph": 7894,
      "Ġdied": 7895,
      "Ġfrequent": 7896,
      "Ġenemies": 7897,
      "Ġduty": 7898,
      "Ġhabitats": 7899,
      "Ġpassions": 7900,
      "Ġinches": 7901,
      "ĠConnect": 7902,
      "ĠNut": 7903,
      "Ġbeneath": 7904,
      "Ġdestinations": 7905,
      "ĠRich": 7906,
      "nuts": 7907,
      "Ġgifts": 7908,
      "text": 7909,
      "Ġperfection": 7910,
      "99": 7911,
      "orted": 7912,
      "fortunately": 7913,
      "Ġdestruction": 7914,
      "ĠGeneral": 7915,
      "Ġblockchain": 7916,
      "ste": 7917,
      "Ġharvest": 7918,
      "Ġdisput": 7919,
      "Ġdecide": 7920,
      "aan": 7921,
      "Ġwheat": 7922,
      "valid": 7923,
      "ĠSociety": 7924,
      "Ġpreserving": 7925,
      "Sh": 7926,
      "that": 7927,
      "ĠReduce": 7928,
      "Ġbinary": 7929,
      "Ġfav": 7930,
      "acher": 7931,
      "ĠDem": 7932,
      "Ġchannel": 7933,
      "ĠLastly": 7934,
      "Ġlanding": 7935,
      "Ġconsciousness": 7936,
      "ĠServices": 7937,
      "ĠSometimes": 7938,
      "hesive": 7939,
      "ĠCult": 7940,
      "Ġeight": 7941,
      "Ġremoved": 7942,
      "Ġpretty": 7943,
      "Ġsoda": 7944,
      "Ġoccasionally": 7945,
      "Ġcaf": 7946,
      "Ġtemple": 7947,
      "ĠTurn": 7948,
      "Ġcette": 7949,
      "Ġlies": 7950,
      "Ġfict": 7951,
      "Ġblow": 7952,
      "Ġprecision": 7953,
      "Ġculinary": 7954,
      "table": 7955,
      "Ġspoken": 7956,
      "hesis": 7957,
      "Ġflesh": 7958,
      "mary": 7959,
      "Ġtranqu": 7960,
      "Ġunless": 7961,
      "Ġmoves": 7962,
      "Ġseven": 7963,
      "Ġnormal": 7964,
      "Ġweaknesses": 7965,
      "organ": 7966,
      "ivered": 7967,
      "ĠUr": 7968,
      "Ġbeginner": 7969,
      "umps": 7970,
      "ĠAsk": 7971,
      "Ġclarity": 7972,
      "Ġbands": 7973,
      "ĠIce": 7974,
      "Ġsensation": 7975,
      "Ġexhibits": 7976,
      "Ġoutline": 7977,
      "ĠSalad": 7978,
      "athe": 7979,
      "ĠBuilding": 7980,
      "Ġpeel": 7981,
      "Ġswimming": 7982,
      "Ġsale": 7983,
      "Ġ2014": 7984,
      "Ġobjective": 7985,
      "ĠÎº": 7986,
      "Ġpool": 7987,
      "Ġincreases": 7988,
      "Ġsie": 7989,
      "Ġpoly": 7990,
      "ĠSept": 7991,
      "Ġtheater": 7992,
      "ĠWood": 7993,
      "long": 7994,
      "ĠSpread": 7995,
      "Ġclinical": 7996,
      "Ġ90": 7997,
      "optional": 7998,
      "Ġshadows": 7999,
      "Ġdynamics": 8000,
      "Ġinsects": 8001,
      "ĠCouncil": 8002,
      "ĠNetwork": 8003,
      "Ġvolunteering": 8004,
      "Ġgrammar": 8005,
      "Ġlocals": 8006,
      "celer": 8007,
      "ĠðŁ": 8008,
      "reach": 8009,
      "ouds": 8010,
      "edia": 8011,
      "Ġanger": 8012,
      "Ġalcohol": 8013,
      "ĠÂ«": 8014,
      "Ġterror": 8015,
      "Ġkid": 8016,
      "Ġsensations": 8017,
      "Ġturb": 8018,
      "Ġtrop": 8019,
      "ĠRoyal": 8020,
      "Ġfib": 8021,
      "ĠReal": 8022,
      "Ġturkey": 8023,
      "Ġ80": 8024,
      "aulif": 8025,
      "Ġteamwork": 8026,
      "Ġfilters": 8027,
      "ĠIrish": 8028,
      "Ġbiggest": 8029,
      "Ġhouses": 8030,
      "Ġballs": 8031,
      "Ġupper": 8032,
      "Ġoutfit": 8033,
      "auliflower": 8034,
      "lined": 8035,
      "Ġaesthetic": 8036,
      "Ġpou": 8037,
      "Ġgun": 8038,
      "Ġhunting": 8039,
      "Ġrepet": 8040,
      "Ġcelery": 8041,
      "Ġwonderful": 8042,
      "Ġsans": 8043,
      "ĠEv": 8044,
      "TA": 8045,
      "ÏĢ": 8046,
      "pending": 8047,
      "iration": 8048,
      "Ġpriority": 8049,
      "ĠContin": 8050,
      "Ġimmediate": 8051,
      "standing": 8052,
      "Ġmic": 8053,
      "Ġvillage": 8054,
      "ĠOutput": 8055,
      "Ġhorse": 8056,
      "str": 8057,
      "ĠWord": 8058,
      "Ġtestimonial": 8059,
      "ĠWashington": 8060,
      "Ġgym": 8061,
      "ferent": 8062,
      "Ġgrab": 8063,
      "Ġprecise": 8064,
      "Ġseasonal": 8065,
      "Ġportfol": 8066,
      "Ġforgiveness": 8067,
      "QL": 8068,
      "inn": 8069,
      "Ġhal": 8070,
      "Ġknife": 8071,
      "yal": 8072,
      "Ġ35": 8073,
      "Ġrental": 8074,
      "jo": 8075,
      "Ġcrowd": 8076,
      "Ġutilize": 8077,
      "Ġconversations": 8078,
      "Ġodd": 8079,
      "otal": 8080,
      "Ġappeared": 8081,
      "worth": 8082,
      "Ġsending": 8083,
      "Ġsteak": 8084,
      "Ġvintage": 8085,
      "Ġalter": 8086,
      "ĠHen": 8087,
      "Ġpaying": 8088,
      "ĠEngine": 8089,
      "effective": 8090,
      "Ġsignature": 8091,
      "sum": 8092,
      "Ġwa": 8093,
      "eting": 8094,
      "Ġexpressed": 8095,
      "ĠCost": 8096,
      "Ġlever": 8097,
      "Ġjal": 8098,
      "ressive": 8099,
      "Ġnearly": 8100,
      "aped": 8101,
      "Ġdetection": 8102,
      "Book": 8103,
      "ÏĮ": 8104,
      "Ġfederal": 8105,
      "ĠPress": 8106,
      "vi": 8107,
      "Ġshower": 8108,
      "Ġshares": 8109,
      "Ġnutrient": 8110,
      "Ġworn": 8111,
      "ĠValley": 8112,
      "obile": 8113,
      "Ġchances": 8114,
      "Ġmillions": 8115,
      "eters": 8116,
      "Ġacquis": 8117,
      "ĠRepeat": 8118,
      "Ġmagaz": 8119,
      "ĠAnalytics": 8120,
      "Ġchair": 8121,
      "Ġstead": 8122,
      "Ġsaus": 8123,
      "Ġlightly": 8124,
      "body": 8125,
      "ln": 8126,
      "irls": 8127,
      "ĠSelect": 8128,
      "Ġminerals": 8129,
      "Ġcotton": 8130,
      "Ġmini": 8131,
      "Ġsurviv": 8132,
      "Ġcurric": 8133,
      "heit": 8134,
      "Ġoz": 8135,
      "Ġenhancing": 8136,
      "Ġinstalled": 8137,
      "esome": 8138,
      "ĠAccess": 8139,
      "ĠJos": 8140,
      "Ġputting": 8141,
      "anta": 8142,
      "Ġnone": 8143,
      "opy": 8144,
      "ĠBrazil": 8145,
      "Ġamen": 8146,
      "iano": 8147,
      "Ġdisp": 8148,
      "Ġexpressions": 8149,
      "Ġelegant": 8150,
      "ĠDi": 8151,
      "Ġdrawn": 8152,
      "Ġsuperior": 8153,
      "Ġcollected": 8154,
      "Ġarmy": 8155,
      "ĠHead": 8156,
      "Ġtasty": 8157,
      "Ġdistrict": 8158,
      "Ġprayer": 8159,
      "ĠHost": 8160,
      "Ġinstances": 8161,
      "brid": 8162,
      "Ġprotected": 8163,
      "Ġow": 8164,
      "Ġguides": 8165,
      "Ġhoriz": 8166,
      "Ġaccompan": 8167,
      "Ġreinforce": 8168,
      "Ġextent": 8169,
      "Ġinflammation": 8170,
      "road": 8171,
      "ĠAS": 8172,
      "Ġwelcome": 8173,
      "ĠJournal": 8174,
      "Ġ400": 8175,
      "ĠJune": 8176,
      "ĠVict": 8177,
      "oven": 8178,
      "Ġtalking": 8179,
      "vol": 8180,
      "Ġmurder": 8181,
      "ĠNon": 8182,
      "Ġquantum": 8183,
      "ĠVirtual": 8184,
      "laim": 8185,
      "odge": 8186,
      "gano": 8187,
      "Ġassum": 8188,
      "ograp": 8189,
      "Ġbreast": 8190,
      "Ġsmile": 8191,
      "Ġproductive": 8192,
      "Ġtraveling": 8193,
      "dis": 8194,
      "Ġannounced": 8195,
      "($": 8196,
      "Ġtab": 8197,
      "Ġnations": 8198,
      "Ġgenetic": 8199,
      "Ġgoddess": 8200,
      "Ġsuspenseful": 8201,
      "ool": 8202,
      "Ġbact": 8203,
      "tuce": 8204,
      "Ġrelaxing": 8205,
      "Ġsex": 8206,
      "Ġmotor": 8207,
      "ĠRepublic": 8208,
      "Ġdocumentation": 8209,
      "Ġdifficulties": 8210,
      "istical": 8211,
      "Ġwash": 8212,
      "Ġadvers": 8213,
      "ĠSand": 8214,
      "ĠLead": 8215,
      "ĠVisit": 8216,
      "ĠBrown": 8217,
      "tee": 8218,
      "ĠCaes": 8219,
      "ĠBet": 8220,
      "Ġprints": 8221,
      "path": 8222,
      "Ġprocessor": 8223,
      "Ġlatter": 8224,
      "ĠJohns": 8225,
      "Ġcasual": 8226,
      "Ġcompleting": 8227,
      "Ġfacility": 8228,
      "Ġtreasure": 8229,
      "Ġtooth": 8230,
      "Ġencryption": 8231,
      "Ġbelieves": 8232,
      "Ġmaximize": 8233,
      "ĠTips": 8234,
      "ĠConduct": 8235,
      "Ġtrouble": 8236,
      "Name": 8237,
      "ĠDie": 8238,
      "Ġsaved": 8239,
      "Ex": 8240,
      "yon": 8241,
      "Ġartifacts": 8242,
      "ĠAsian": 8243,
      "Ġequipped": 8244,
      "Ġproport": 8245,
      "Ġremarkable": 8246,
      "ello": 8247,
      "Ġcoach": 8248,
      "Ġmanual": 8249,
      "Ġlegend": 8250,
      "gu": 8251,
      "leep": 8252,
      "ĠCH": 8253,
      "Ġ1000": 8254,
      "Ġfounded": 8255,
      "ĠLeague": 8256,
      "Ġcooperation": 8257,
      "osion": 8258,
      "Ġinfluential": 8259,
      "Ġpromotional": 8260,
      "BA": 8261,
      "Ġcrew": 8262,
      "Ġdiscussed": 8263,
      "Ġmais": 8264,
      "ĠVisual": 8265,
      "Ġhip": 8266,
      "Ġalike": 8267,
      "Ġdrain": 8268,
      "lor": 8269,
      "Ġtrauma": 8270,
      "ĠAnn": 8271,
      "gments": 8272,
      "oup": 8273,
      "Ġformats": 8274,
      "Ġregulate": 8275,
      "ĠInteg": 8276,
      "Ġreferences": 8277,
      "Ġpapers": 8278,
      "Ġintake": 8279,
      "Ġparticipating": 8280,
      "Ġinch": 8281,
      "Ġpayments": 8282,
      "Ġestimated": 8283,
      "Ġ29": 8284,
      "Ġsubscrib": 8285,
      "ĠSweet": 8286,
      "achel": 8287,
      "Ġvalued": 8288,
      "Ġflash": 8289,
      "Ġremoving": 8290,
      "Ġmodified": 8291,
      "ĠSpace": 8292,
      "Ġpercentage": 8293,
      "Ġfootball": 8294,
      "Ġphysics": 8295,
      "Ġaer": 8296,
      "Ġcampus": 8297,
      "Ġrecurs": 8298,
      "Ġlift": 8299,
      "Ġhosting": 8300,
      "CD": 8301,
      "Ġdistributed": 8302,
      "Îº": 8303,
      "Ġcontributes": 8304,
      "Ġrepresented": 8305,
      "Ġpill": 8306,
      "ĠJul": 8307,
      "Ġdesserts": 8308,
      "ĠVegan": 8309,
      "Ġaroma": 8310,
      "Ġhunt": 8311,
      "Ġcontest": 8312,
      "Ġpoets": 8313,
      "Ġtransformed": 8314,
      "kay": 8315,
      "ĠBi": 8316,
      "Ġmask": 8317,
      "Ġconsistently": 8318,
      "Ġradio": 8319,
      "ĠGeorge": 8320,
      "EO": 8321,
      "Ġcaramel": 8322,
      "ĠCall": 8323,
      "ĠHam": 8324,
      "Ġdelivered": 8325,
      "Ġgest": 8326,
      "Ġasp": 8327,
      "Ġsalads": 8328,
      "Ġpic": 8329,
      "Ġvisualize": 8330,
      "Ġgenerating": 8331,
      "Ġpurchases": 8332,
      "ĠTok": 8333,
      "Ġdefend": 8334,
      "Ġ198": 8335,
      "Ġworry": 8336,
      "Ġcamping": 8337,
      "Ġmotif": 8338,
      "Ġrush": 8339,
      "Ġhabitat": 8340,
      "Ġhumanity": 8341,
      "ĠEmploy": 8342,
      "Ġchart": 8343,
      "ĠVen": 8344,
      "Ġadjustments": 8345,
      "Ġpace": 8346,
      "OT": 8347,
      "ĠBlend": 8348,
      "Ġtoward": 8349,
      "Ġdefect": 8350,
      "level": 8351,
      "();": 8352,
      "Ġcompete": 8353,
      "ĠSea": 8354,
      "Ġcelebration": 8355,
      "Ġsick": 8356,
      "Ġfictional": 8357,
      "js": 8358,
      "inity": 8359,
      "Ġsaving": 8360,
      "ĠCollabor": 8361,
      "Ġjourn": 8362,
      "Ġsurprise": 8363,
      "racy": 8364,
      "aux": 8365,
      "Ġcolumn": 8366,
      "Ġped": 8367,
      "omena": 8368,
      "Ġemployed": 8369,
      "Ġtemplates": 8370,
      "Ġcubes": 8371,
      "Ġfalls": 8372,
      "udes": 8373,
      "Ġgrains": 8374,
      "Ġhesitate": 8375,
      "Ġfried": 8376,
      "ĠLog": 8377,
      "Ġextrem": 8378,
      "ige": 8379,
      "Ġbattles": 8380,
      "ĠPacific": 8381,
      "Ġindependence": 8382,
      "Ġawards": 8383,
      "Ġrow": 8384,
      "Ġfeta": 8385,
      "Ġcollaborative": 8386,
      "ĠHoly": 8387,
      "Ġvitamins": 8388,
      "aver": 8389,
      "ĠPH": 8390,
      "Ġdiscussions": 8391,
      "TION": 8392,
      "Ġbroader": 8393,
      "front": 8394,
      "Ġillustrations": 8395,
      "Ġfacilit": 8396,
      "Ġlentils": 8397,
      "Ġinvalid": 8398,
      "arding": 8399,
      "ifferent": 8400,
      "Ġclubs": 8401,
      "ĠFrank": 8402,
      "Ġkeyword": 8403,
      "Ġbreathtaking": 8404,
      "Ġexplored": 8405,
      "Ġelectron": 8406,
      "ĠTexas": 8407,
      "Ġwines": 8408,
      "Ġclouds": 8409,
      "ĠGive": 8410,
      "Ġdirector": 8411,
      "Ã¤t": 8412,
      "Ġvel": 8413,
      "ĠSund": 8414,
      "Ġpersist": 8415,
      "Ġski": 8416,
      "Ġstro": 8417,
      "pet": 8418,
      "inars": 8419,
      "ctic": 8420,
      "ĠChocolate": 8421,
      "with": 8422,
      "ĠFarm": 8423,
      "Ġpatience": 8424,
      "Ġlosing": 8425,
      "ĠMel": 8426,
      "tical": 8427,
      "Ġmath": 8428,
      "Ġbelongs": 8429,
      "ctr": 8430,
      "Ġdeadlines": 8431,
      "ygen": 8432,
      "isk": 8433,
      "Ġdesires": 8434,
      "ĠSmall": 8435,
      "Ġending": 8436,
      "ĠDNA": 8437,
      "lements": 8438,
      "isticated": 8439,
      "enne": 8440,
      "Ġcoping": 8441,
      "Ġaug": 8442,
      "Ġreferral": 8443,
      "olute": 8444,
      "ĠCloud": 8445,
      "Ġsurveys": 8446,
      "Ġwinning": 8447,
      "Ġtailor": 8448,
      "vin": 8449,
      "Ġgrief": 8450,
      "ĠPhil": 8451,
      "ĠFriend": 8452,
      "Ġoats": 8453,
      "Ġtestament": 8454,
      "ĠChic": 8455,
      "Ġmanagers": 8456,
      "Ġhappens": 8457,
      "ĠAud": 8458,
      "ĠMindfulness": 8459,
      "Ġmashed": 8460,
      "uke": 8461,
      "Ġlean": 8462,
      "Ġlamb": 8463,
      "Ġmysterious": 8464,
      "ĠLemon": 8465,
      "Ġextension": 8466,
      "Ġgarnish": 8467,
      "Ġamenities": 8468,
      "IL": 8469,
      "Ġdriver": 8470,
      "anean": 8471,
      "ĠFeb": 8472,
      "Ġecosystems": 8473,
      "Ġsauces": 8474,
      "vable": 8475,
      "Ġdrinking": 8476,
      "Ġvariables": 8477,
      "iti": 8478,
      "Ġregardless": 8479,
      "Ã¼r": 8480,
      "Ġcultivate": 8481,
      "sem": 8482,
      "Ġcalling": 8483,
      "depth": 8484,
      "Ġgalax": 8485,
      "ĠRad": 8486,
      "Ġcycling": 8487,
      "Â®": 8488,
      "Ġexhibit": 8489,
      "IM": 8490,
      "ali": 8491,
      "ĠSon": 8492,
      "ieval": 8493,
      "ĠCatholic": 8494,
      "ĠAcademy": 8495,
      "Ġpassionate": 8496,
      "500": 8497,
      "Ġvow": 8498,
      "Ġvitamin": 8499,
      "Ġeth": 8500,
      "Ġexpressing": 8501,
      "Ġnecessity": 8502,
      "Ġsurg": 8503,
      "ĠCustomer": 8504,
      "Ġsectors": 8505,
      "ĠRos": 8506,
      "Ġreflecting": 8507,
      "ĠLocal": 8508,
      "ST": 8509,
      "Ġsel": 8510,
      "UR": 8511,
      "ĠFund": 8512,
      ".[": 8513,
      "uality": 8514,
      "Ġbrow": 8515,
      "Ġretire": 8516,
      "ĠChicken": 8517,
      "ĠWild": 8518,
      "arer": 8519,
      "hop": 8520,
      "engers": 8521,
      "Ġexists": 8522,
      "ĠVan": 8523,
      "ET": 8524,
      "ĠCup": 8525,
      "amental": 8526,
      "Ġdiscovers": 8527,
      "ĠLong": 8528,
      "ĠNext": 8529,
      "Ġton": 8530,
      "Ġintent": 8531,
      "Ġpositively": 8532,
      "Ġchaos": 8533,
      "Ġwhenever": 8534,
      "Ġproteins": 8535,
      "ober": 8536,
      "Ġattractive": 8537,
      "ĠDefine": 8538,
      "cha": 8539,
      "ĠMedit": 8540,
      "da": 8541,
      "gress": 8542,
      "Ġfreshly": 8543,
      "hoot": 8544,
      "Ġnu": 8545,
      "Ġpublish": 8546,
      "Ġelimin": 8547,
      "ĠReport": 8548,
      "Ġfate": 8549,
      "ĠRO": 8550,
      "obe": 8551,
      "Ġholes": 8552,
      "Ġbutt": 8553,
      "Ġĉ": 8554,
      "Ġfellow": 8555,
      "Ġsuffering": 8556,
      "Ġfoss": 8557,
      "Ġblind": 8558,
      "Ġdescribes": 8559,
      "Ġcontempl": 8560,
      "ĠFree": 8561,
      "Ġintention": 8562,
      "Ġreminders": 8563,
      "Ġfacilitate": 8564,
      "ĠCarol": 8565,
      "while": 8566,
      "ĠDen": 8567,
      "Ġburst": 8568,
      "Ġsophisticated": 8569,
      "ja": 8570,
      "Ġproc": 8571,
      "size": 8572,
      "ĠEconom": 8573,
      "Ġaffecting": 8574,
      "Ġhappening": 8575,
      "Ġcopyright": 8576,
      "Ġspecify": 8577,
      "Ġattain": 8578,
      "Ġaccommodate": 8579,
      "Ġteen": 8580,
      "oking": 8581,
      "isible": 8582,
      "Ġimpl": 8583,
      "Ġcharts": 8584,
      "zing": 8585,
      "ĠAugustine": 8586,
      "Ġrefers": 8587,
      "gency": 8588,
      "Ġroyal": 8589,
      "ĠNatural": 8590,
      "Ġovercoming": 8591,
      "Ġmilest": 8592,
      "atre": 8593,
      "Ġdece": 8594,
      "alsamic": 8595,
      "Ins": 8596,
      "Ġcustomizable": 8597,
      "Ġmanufacturer": 8598,
      "ĠFit": 8599,
      "van": 8600,
      "bies": 8601,
      "Ġdiscoveries": 8602,
      "Ġlock": 8603,
      "Ġwhereas": 8604,
      "Ġdrum": 8605,
      "Ġlandscapes": 8606,
      "Ġgrid": 8607,
      "ĠBow": 8608,
      "ĠBreak": 8609,
      "tes": 8610,
      "Ġsleek": 8611,
      "ĠEnviron": 8612,
      "Ġseasonings": 8613,
      "Ġtravelers": 8614,
      "Ġpersonalities": 8615,
      "Ġlightweight": 8616,
      "Ġinequality": 8617,
      "ĠCross": 8618,
      "otta": 8619,
      "Ġring": 8620,
      "Ġoregano": 8621,
      "Ġharmon": 8622,
      "Ġrobust": 8623,
      "Ġquel": 8624,
      "Ġstrawberries": 8625,
      "UT": 8626,
      "Ġplayful": 8627,
      "Ġdogs": 8628,
      "Ġgender": 8629,
      "Ġreflected": 8630,
      "Ġdomain": 8631,
      "Ġadmit": 8632,
      "Ġpinch": 8633,
      "ĠUnfortunately": 8634,
      "Ġregarded": 8635,
      "Ġunp": 8636,
      "Ġrevealed": 8637,
      "Ġtags": 8638,
      "Ġcurriculum": 8639,
      "Ġcoding": 8640,
      "dy": 8641,
      "Ġassemb": 8642,
      "Ġmanifest": 8643,
      "Ġstations": 8644,
      "Ġguarant": 8645,
      "Ġcomprom": 8646,
      "Ġroutines": 8647,
      "Ġlabels": 8648,
      "Ġdownt": 8649,
      "eric": 8650,
      "Ġdipping": 8651,
      "Ġsushi": 8652,
      "Ġconducting": 8653,
      "cs": 8654,
      "ĠPrior": 8655,
      "Ġseal": 8656,
      "Ġmarked": 8657,
      "Ġincident": 8658,
      "Ġ36": 8659,
      "Ġshadow": 8660,
      "ĠRen": 8661,
      "Ġvess": 8662,
      "Ġsocietal": 8663,
      "gn": 8664,
      "Ġtire": 8665,
      "Ġblocks": 8666,
      "Ġpreservation": 8667,
      "Ġbackup": 8668,
      "Ġoccurred": 8669,
      "ĠIP": 8670,
      "ecause": 8671,
      "Ġindicating": 8672,
      "Ġmodes": 8673,
      "ĠYeah": 8674,
      "ping": 8675,
      "Ġaircraft": 8676,
      "fish": 8677,
      "Ġpersonalize": 8678,
      "Ġcountless": 8679,
      "ĠArts": 8680,
      "Ġpitch": 8681,
      "IR": 8682,
      "agus": 8683,
      "Ġuncle": 8684,
      "ĠTrail": 8685,
      "Ġevaluation": 8686,
      "bris": 8687,
      "Ġhike": 8688,
      "Ġlettuce": 8689,
      "ĠPen": 8690,
      "Ġdivision": 8691,
      "hr": 8692,
      "Ġrecover": 8693,
      "Ġfraud": 8694,
      "Ġmotivate": 8695,
      "Ġpaths": 8696,
      "Ġfits": 8697,
      "esty": 8698,
      "erty": 8699,
      "erranean": 8700,
      "ĠMer": 8701,
      "ĠLand": 8702,
      "Ġaddressed": 8703,
      "Ġinitially": 8704,
      "ĠPhot": 8705,
      "Ġniche": 8706,
      "Ġ2013": 8707,
      "Ġairt": 8708,
      "Ġcandidate": 8709,
      "Ġtack": 8710,
      "Ġwise": 8711,
      "Ġlake": 8712,
      "ĠEastern": 8713,
      "rigation": 8714,
      "ĠOffice": 8715,
      "Ġtac": 8716,
      "Ġfortune": 8717,
      "ĠSeptember": 8718,
      "ĠLiter": 8719,
      "Ġagent": 8720,
      "rer": 8721,
      "Ġseamless": 8722,
      "rette": 8723,
      "Ġseasons": 8724,
      "Ġships": 8725,
      "Ġdivided": 8726,
      "Ġcocoa": 8727,
      "Ġassessment": 8728,
      "umbers": 8729,
      "ĠFil": 8730,
      "Ġscreens": 8731,
      "Ġanywhere": 8732,
      "Ġinvestments": 8733,
      "ĠSales": 8734,
      "Ġmeditations": 8735,
      "indrome": 8736,
      "ĠĠĠĠĠĠĠĠĠ": 8737,
      "Ġcandidates": 8738,
      "cular": 8739,
      "Ġpushing": 8740,
      "Ġreactions": 8741,
      "Ġdrawbacks": 8742,
      "Ġresonates": 8743,
      "no": 8744,
      "ĠTower": 8745,
      "ĠSer": 8746,
      "ĠFlor": 8747,
      "ĠLeg": 8748,
      "ĠConc": 8749,
      "ĠExt": 8750,
      "Ġzero": 8751,
      "isher": 8752,
      "Ġfundamental": 8753,
      "ĠIntrodu": 8754,
      "umni": 8755,
      "Ġrosemary": 8756,
      "itative": 8757,
      "forest": 8758,
      "ĠDra": 8759,
      "idity": 8760,
      "Ġaddresses": 8761,
      "Ġgene": 8762,
      "imply": 8763,
      "Ġphenomena": 8764,
      "23": 8765,
      "Ġalert": 8766,
      "Ġorganizing": 8767,
      "Ġwidth": 8768,
      "what": 8769,
      "Ġcabin": 8770,
      "100": 8771,
      "Cl": 8772,
      "Ġoverwhelmed": 8773,
      "Ġportfolio": 8774,
      "Ã¢": 8775,
      "cending": 8776,
      "Ġdancing": 8777,
      "ells": 8778,
      "Ġcalculates": 8779,
      "Ġmigration": 8780,
      "tti": 8781,
      "oes": 8782,
      "Ġsoothing": 8783,
      "Ġsuspect": 8784,
      "ĠCaesar": 8785,
      "specific": 8786,
      "Ġindoor": 8787,
      "ĠTogether": 8788,
      "Ġcurs": 8789,
      "Ġconcerned": 8790,
      "Ġassert": 8791,
      "Ġlogistics": 8792,
      "Ġdepicted": 8793,
      "Ġairtight": 8794,
      "ĠHy": 8795,
      "Ġadvis": 8796,
      "Ġ70": 8797,
      "Ġregul": 8798,
      "oors": 8799,
      "ĠID": 8800,
      "ĠMach": 8801,
      "Ġcleaner": 8802,
      "ovember": 8803,
      "connect": 8804,
      "Ġvacation": 8805,
      "Ã¤Ã¤": 8806,
      "Ã¨s": 8807,
      "ĠCOVID": 8808,
      "ĠLab": 8809,
      "Ġstylish": 8810,
      "ĠKey": 8811,
      "Ġdemands": 8812,
      "ĠThomas": 8813,
      "Ġfur": 8814,
      "Ġsinging": 8815,
      "ras": 8816,
      "Ġhall": 8817,
      "Ġabund": 8818,
      "piece": 8819,
      "Ġchose": 8820,
      "Ġ(_": 8821,
      "CA": 8822,
      "Ġrelate": 8823,
      "ĠMediterranean": 8824,
      "Ġwest": 8825,
      "Ġmine": 8826,
      "Ġindul": 8827,
      "othic": 8828,
      "Ġpackages": 8829,
      "inen": 8830,
      "anas": 8831,
      "Ġdisorder": 8832,
      "Ġcombines": 8833,
      "Ġprincip": 8834,
      "minute": 8835,
      "eur": 8836,
      "Ġdangers": 8837,
      "Ġquantity": 8838,
      "Ġauthorities": 8839,
      "Ġachievement": 8840,
      "ami": 8841,
      "ĠPop": 8842,
      "ressed": 8843,
      "Ġprove": 8844,
      "Ġboat": 8845,
      "Ġstructured": 8846,
      "ĠInformation": 8847,
      "ĠAttend": 8848,
      "Ġgate": 8849,
      "ĠYet": 8850,
      "Ġearthy": 8851,
      "ĠDan": 8852,
      "Ġschedules": 8853,
      "Ġsorting": 8854,
      "Ġdrugs": 8855,
      "Ġomn": 8856,
      "Ġheating": 8857,
      "Ġcomedy": 8858,
      "ĠMiss": 8859,
      "Ġgenu": 8860,
      "ĠInterest": 8861,
      "ĠResp": 8862,
      "ĠExplore": 8863,
      "Ġdear": 8864,
      "Ġacceler": 8865,
      "Ġaccommodations": 8866,
      "ĠJohnson": 8867,
      "Ġmuff": 8868,
      "ĠCream": 8869,
      "ĠUnderstand": 8870,
      "win": 8871,
      "ĠSimply": 8872,
      "Ġappliances": 8873,
      "Ġscratch": 8874,
      "ĠTokyo": 8875,
      "ĠSecurity": 8876,
      "Ġbat": 8877,
      "ĠPhys": 8878,
      "28": 8879,
      "Ġrefuge": 8880,
      "redict": 8881,
      "Ġtie": 8882,
      "Ġkiller": 8883,
      "Ġtowns": 8884,
      "Ġsacred": 8885,
      "Ġhaven": 8886,
      "Ġadopted": 8887,
      "purpose": 8888,
      "Ġteeth": 8889,
      "obal": 8890,
      "Ġpound": 8891,
      "Ġdebris": 8892,
      "ĠCreating": 8893,
      "Ġcardi": 8894,
      "Ġforests": 8895,
      "using": 8896,
      "Ġpy": 8897,
      "ulf": 8898,
      "Ġleverage": 8899,
      "Ġabuse": 8900,
      "Ġstages": 8901,
      "Ġdramatic": 8902,
      "Ġsail": 8903,
      "Ġheal": 8904,
      "Ġdriven": 8905,
      "Ġborder": 8906,
      "ilize": 8907,
      "Ġrecommendation": 8908,
      "Ġcareers": 8909,
      "Ġurgency": 8910,
      "Ġbind": 8911,
      "Ġworkshop": 8912,
      "Ġsurfaces": 8913,
      "enes": 8914,
      "ĠMass": 8915,
      "Ġpeas": 8916,
      "Ġminor": 8917,
      "Ġrolling": 8918,
      "Ġkilled": 8919,
      "Ġrecording": 8920,
      "ĠSelf": 8921,
      "Ġshade": 8922,
      "Ġtransactions": 8923,
      "inaig": 8924,
      "Ġtestimonials": 8925,
      "Ġaffili": 8926,
      "Ġals": 8927,
      "Ġdelivering": 8928,
      "Ġjam": 8929,
      "Ġpull": 8930,
      "fly": 8931,
      "ĠÎ´": 8932,
      "ĠBank": 8933,
      "meg": 8934,
      "tered": 8935,
      "ologies": 8936,
      "ĠVictor": 8937,
      "Ġemployers": 8938,
      "Ġsins": 8939,
      "Ġinterpretation": 8940,
      "Ġod": 8941,
      "Ġsafely": 8942,
      "Ġopposite": 8943,
      "Ġproposition": 8944,
      "Ġrespective": 8945,
      "Ġgrain": 8946,
      "Ġpip": 8947,
      "ĠIl": 8948,
      "Ġfundraising": 8949,
      "nament": 8950,
      "Ġthrilling": 8951,
      "ĠParticip": 8952,
      "aid": 8953,
      "ĠNight": 8954,
      "Ġcanvas": 8955,
      "Ġaligns": 8956,
      "Ġcontrolled": 8957,
      "Ġoxygen": 8958,
      "Ġadministr": 8959,
      "Ġepisode": 8960,
      "xic": 8961,
      "Ġseparated": 8962,
      "ĠIll": 8963,
      "necess": 8964,
      "cking": 8965,
      "ocracy": 8966,
      "Ġanimations": 8967,
      "Ġmanipulate": 8968,
      "Ġrib": 8969,
      "Ġdemographics": 8970,
      "Ġreign": 8971,
      "ĠJavaScript": 8972,
      "Ġsubscribers": 8973,
      "Ġscenic": 8974,
      "books": 8975,
      "ĠJuly": 8976,
      "ĠWithout": 8977,
      "Ġrepeated": 8978,
      "--------": 8979,
      "aware": 8980,
      "astics": 8981,
      "rid": 8982,
      "ĠSustain": 8983,
      "Ġcustomization": 8984,
      "Ġfeather": 8985,
      "Ġelig": 8986,
      "inaigrette": 8987,
      "Ġmeats": 8988,
      "Ġlaid": 8989,
[...]
