{
  "version": "1.0",
  "truncation": null,
  "padding": null,
  "added_tokens": [
    {
      "id": 0,
      "content": "<pad>",
      "single_word": false,
      "lstrip": false,
      "rstrip": false,
      "normalized": false,
      "special": true
    },
    {
      "id": 1,
      "content": "<unk>",
      "single_word": false,
      "lstrip": false,
      "rstrip": false,
      "normalized": false,
      "special": true
    },
    {
      "id": 2,
      "content": "<bos>",
      "single_word": false,
      "lstrip": false,
      "rstrip": false,
      "normalized": false,
      "special": true
    },
    {
      "id": 3,
      "content": "<eos>",
      "single_word": false,
      "lstrip": false,
      "rstrip": false,
      "normalized": false,
      "special": true
    }
  ],
  "normalizer": {
    "type": "Sequence",
    "normalizers": [
      {
        "type": "Replace",
        "pattern": {
          "String": "“"
        },
        "content": "\""
      },
      {
        "type": "Replace",
        "pattern": {
          "String": "”"
        },
        "content": "\""
      },
      {
        "type": "Replace",
        "pattern": {
          "String": "‘"
        },
        "content": "'"
      },
      {
        "type": "Replace",
        "pattern": {
          "String": "’"
        },
        "content": "'"
      },
      {
        "type": "Replace",
        "pattern": {
          "String": "—"
        },
        "content": "-"
      },
      {
        "type": "Replace",
        "pattern": {
          "String": "–"
        },
        "content": "-"
      },
      {
        "type": "Replace",
        "pattern": {
          "String": "…"
        },
        "content": "..."
      },
      {
        "type": "NFD"
      },
      {
        "type": "Lowercase"
      },
      {
        "type": "StripAccents"
      }
    ]
  },
  "pre_tokenizer": {
    "type": "ByteLevel",
    "add_prefix_space": true,
    "trim_offsets": true,
    "use_regex": true
  },
  "post_processor": {
    "type": "TemplateProcessing",
    "single": [
      {
        "SpecialToken": {
          "id": "<bos>",
          "type_id": 0
        }
      },
      {
        "Sequence": {
          "id": "A",
          "type_id": 0
        }
      },
      {
        "SpecialToken": {
          "id": "<eos>",
          "type_id": 0
        }
      }
    ],
    "pair": [
      {
        "SpecialToken": {
          "id": "<bos>",
          "type_id": 0
        }
      },
      {
        "Sequence": {
          "id": "A",
          "type_id": 0
        }
      },
      {
        "SpecialToken": {
          "id": "<eos>",
          "type_id": 0
        }
      },
      {
        "SpecialToken": {
          "id": "<bos>",
          "type_id": 0
        }
      },
      {
        "Sequence": {
          "id": "B",
          "type_id": 1
        }
      },
      {
        "SpecialToken": {
          "id": "<eos>",
          "type_id": 1
        }
      }
    ],
    "special_tokens": {
      "<bos>": {
        "id": "<bos>",
        "ids": [
          2
        ],
        "tokens": [
          "<bos>"
        ]
      },
      "<eos>": {
        "id": "<eos>",
        "ids": [
          3
        ],
        "tokens": [
          "<eos>"
        ]
      }
    }
  },
  "decoder": {
    "type": "ByteLevel",
    "add_prefix_space": true,
    "trim_offsets": true,
    "use_regex": true
  },
  "model": {
    "type": "BPE",
    "dropout": null,
    "unk_token": "<unk>",
    "continuing_subword_prefix": null,
    "end_of_word_suffix": null,
    "fuse_unk": false,
    "byte_fallback": false,
    "ignore_merges": false,
    "vocab": {
      "<pad>": 0,
      "<unk>": 1,
      "<bos>": 2,
      "<eos>": 3,
      "!": 4,
      "\"": 5,
      "#": 6,
      "$": 7,
      "%": 8,
      "&": 9,
      "'": 10,
      "(": 11,
      ")": 12,
      "*": 13,
      "+": 14,
      ",": 15,
      "-": 16,
      ".": 17,
      "/": 18,
      "0": 19,
      "1": 20,
      "2": 21,
      "3": 22,
      "4": 23,
      "5": 24,
      "6": 25,
      "7": 26,
      "8": 27,
      "9": 28,
      ":": 29,
      ";": 30,
      "<": 31,
      "=": 32,
      ">": 33,
      "?": 34,
      "@": 35,
      "[": 36,
      "\\": 37,
      "]": 38,
      "^": 39,
      "_": 40,
      "`": 41,
      "a": 42,
      "b": 43,
      "c": 44,
      "d": 45,
      "e": 46,
      "f": 47,
      "g": 48,
      "h": 49,
      "i": 50,
      "j": 51,
      "k": 52,
      "l": 53,
      "m": 54,
      "n": 55,
      "o": 56,
      "p": 57,
      "q": 58,
      "r": 59,
      "s": 60,
      "t": 61,
      "u": 62,
      "v": 63,
      "w": 64,
      "x": 65,
      "y": 66,
      "z": 67,
      "{": 68,
      "|": 69,
      "}": 70,
      "~": 71,
      "¡": 72,
      "¢": 73,
      "£": 74,
      "¤": 75,
      "¥": 76,
      "¦": 77,
      "§": 78,
      "¨": 79,
      "©": 80,
      "ª": 81,
      "«": 82,
      "¬": 83,
      "®": 84,
      "¯": 85,
      "°": 86,
      "±": 87,
      "²": 88,
      "³": 89,
      "´": 90,
      "µ": 91,
      "¶": 92,
      "·": 93,
      "¸": 94,
      "¹": 95,
      "º": 96,
      "»": 97,
      "¼": 98,
      "½": 99,
      "¾": 100,
      "¿": 101,
      "Â": 102,
      "Ã": 103,
      "Ä": 104,
      "Å": 105,
      "Æ": 106,
      "É": 107,
      "Ê": 108,
      "Ë": 109,
      "Î": 110,
      "Ï": 111,
      "Ð": 112,
      "Ñ": 113,
      "Ò": 114,
      "Ó": 115,
      "Õ": 116,
      "×": 117,
      "Ø": 118,
      "Ù": 119,
      "Ú": 120,
      "Û": 121,
      "à": 122,
      "á": 123,
      "â": 124,
      "ã": 125,
      "ä": 126,
      "å": 127,
      "æ": 128,
      "ç": 129,
      "è": 130,
      "é": 131,
      "ï": 132,
      "ð": 133,
      "ĉ": 134,
      "Ċ": 135,
      "č": 136,
      "Ġ": 137,
      "Ģ": 138,
      "ģ": 139,
      "Ĥ": 140,
      "ĥ": 141,
      "Ħ": 142,
      "ħ": 143,
      "Ĩ": 144,
      "ĩ": 145,
      "Ī": 146,
      "ī": 147,
      "Ĭ": 148,
      "ĭ": 149,
      "Į": 150,
      "į": 151,
      "İ": 152,
      "ı": 153,
      "Ĳ": 154,
      "ĳ": 155,
      "Ĵ": 156,
      "ĵ": 157,
      "Ķ": 158,
      "ķ": 159,
      "ĸ": 160,
      "Ĺ": 161,
      "ĺ": 162,
      "Ļ": 163,
      "ļ": 164,
      "Ľ": 165,
      "ľ": 166,
      "Ŀ": 167,
      "ŀ": 168,
      "Ł": 169,
      "ł": 170,
      "Ń": 171,
      "Ġt": 172,
      "Ġa": 173,
      "he": 174,
      "in": 175,
      "Ġthe": 176,
      "re": 177,
      "Ġo": 178,
      "Ġs": 179,
      "er": 180,
      "Ġw": 181,
      "on": 182,
      "an": 183,
      "Ġb": 184,
      "Ġc": 185,
      "at": 186,
      "is": 187,
      "it": 188,
      "čĊ": 189,
      "Ġm": 190,
      "or": 191,
      "en": 192,
      "Ġf": 193,
      "Ġp": 194,
      "Ġan": 195,
      "Ġin": 196,
      "Ġof": 197,
      "es": 198,
      "ed": 199,
      "al": 200,
      "Ġh": 201,
      "Ġd": 202,
      "ing": 203,
      "Ġand": 204,
      "ar": 205,
      "ou": 206,
      "ic": 207,
      "ion": 208,
      "as": 209,
      "Ġto": 210,
      "le": 211,
      "Ġn": 212,
      "Ġth": 213,
      "Ġe": 214,
      "Ġl": 215,
      "om": 216,
      "Ġre": 217,
      "Ġbe": 218,
      "il": 219,
      "Ġg": 220,
      "st": 221,
      "ot": 222,
      "ent": 223,
      "am": 224,
      "ct": 225,
      "Ġis": 226,
      "ĠčĊ": 227,
      "ce": 228,
      "el": 229,
      "iv": 230,
      "Ġhe": 231,
      "un": 232,
      "Ġwh": 233,
      "im": 234,
      "Ġit": 235,
      "ut": 236,
      "ro": 237,
      "Ġon": 238,
      "ly": 239,
      "ay": 240,
      "Ġ1": 241,
      "ur": 242,
      "us": 243,
      "Ġfor": 244,
      "um": 245,
      "ol": 246,
      "Ġas": 247,
      "Ġst": 248,
      "Ġi": 249,
      "Ġthat": 250,
      "ad": 251,
      "ch": 252,
      "ation": 253,
      "ir": 254,
      "ig": 255,
      "et": 256,
      "ers": 257,
      "id": 258,
      "Ġar": 259,
      "Ġal": 260,
      "ow": 261,
      "ith": 262,
      "Ġr": 263,
      "Ġ2": 264,
      "ist": 265,
      "Ġcon": 266,
      "Ġwas": 267,
      "Ġwith": 268,
      "Ġ(": 269,
      "Ġv": 270,
      "ul": 271,
      "her": 272,
      "Ġex": 273,
      "os": 274,
      "Ġun": 275,
      "ity": 276,
      "em": 277,
      "ter": 278,
      "Ġnot": 279,
      "Ġat": 280,
      "Ġj": 281,
      "th": 282,
      "Ġfr": 283,
      "av": 284,
      "Ġy": 285,
      "res": 286,
      "'s": 287,
      "Ġch": 288,
      "Ġby": 289,
      "ere": 290,
      "Ġk": 291,
      "ich": 292,
      "Ġse": 293,
      "Ġhum": 294,
      "ver": 295,
      "ill": 296,
      "Ġ20": 297,
      "and": 298,
      "Ġhuman": 299,
      "ain": 300,
      "Ġor": 301,
      "Ġsu": 302,
      "ess": 303,
      "dor": 304,
      "ĠĠ": 305,
      "Ġ19": 306,
      "ld": 307,
      "Ġbut": 308,
      "Ġde": 309,
      "Ġ\"": 310,
      "Ġwhich": 311,
      "Ġardor": 312,
      "Ġcom": 313,
      "ap": 314,
      "ore": 315,
      "ive": 316,
      "ag": 317,
      "Ġme": 318,
      "ht": 319,
      "ac": 320,
      "ect": 321,
      "op": 322,
      "Ġfrom": 323,
      "Ġhis": 324,
      "ci": 325,
      "Ġpro": 326,
      "oun": 327,
      "Ġare": 328,
      "ak": 329,
      "est": 330,
      "ust": 331,
      "Ġsh": 332,
      "od": 333,
      "ure": 334,
      "if": 335,
      "ab": 336,
      "qu": 337,
      "Ġso": 338,
      "Ġint": 339,
      "ate": 340,
      "Ġsp": 341,
      "Ġwhe": 342,
      "se": 343,
      "art": 344,
      "ri": 345,
      "Ġ201": 346,
      "Ġpl": 347,
      "ave": 348,
      "Ġne": 349,
      "all": 350,
      "Ġthis": 351,
      "ian": 352,
      "Ġwe": 353,
      "ight": 354,
      "Ġle": 355,
      "pp": 356,
      "ant": 357,
      "ov": 358,
      "Ġyou": 359,
      "Ġwor": 360,
      "Ġcan": 361,
      "ame": 362,
      "Ġhave": 363,
      "Ġtr": 364,
      "sel": 365,
      "end": 366,
      "ime": 367,
      "Ġmay": 368,
      "ard": 369,
      "Ġone": 370,
      "pt": 371,
      "ies": 372,
      "ould": 373,
      "ort": 374,
      "Ġman": 375,
      "are": 376,
      "Ġthere": 377,
      "ous": 378,
      "ence": 379,
      "ther": 380,
      "ia": 381,
      "Ġpr": 382,
      "Ġdo": 383,
      "der": 384,
      "ber": 385,
      "Ġthey": 386,
      "ud": 387,
      "ell": 388,
      "Ġ|": 389,
      "per": 390,
      "ject": 391,
      "our": 392,
      "Ġwhen": 393,
      "self": 394,
      "Ġall": 395,
      "ang": 396,
      "Ġthem": 397,
      "Ġcomp": 398,
      "ish": 399,
      "Ġref": 400,
      "Ġper": 401,
      "ces": 402,
      "ream": 403,
      "ace": 404,
      "ie": 405,
      "ction": 406,
      "pl": 407,
      "ong": 408,
      "ary": 409,
      "ality": 410,
      "ast": 411,
      "Ġinto": 412,
      "oug": 413,
      "Ġdream": 414,
      "ult": 415,
      "ated": 416,
      "Ġam": 417,
      "Ġhim": 418,
      "ivers": 419,
      "ib": 420,
      "use": 421,
      "Ġbr": 422,
      "Ġtime": 423,
      "ance": 424,
      "Ġtheir": 425,
      "out": 426,
      "Ġab": 427,
      "og": 428,
      "ind": 429,
      "Ġbec": 430,
      "bject": 431,
      "Ġgo": 432,
      "ment": 433,
      "ory": 434,
      "Ġwho": 435,
      "so": 436,
      "Ġother": 437,
      "Ġunivers": 438,
      "Ġhas": 439,
      "ound": 440,
      "Ġu": 441,
      "ĠĊ": 442,
      "Ġfe": 443,
      "Ġher": 444,
      "ress": 445,
      "eren": 446,
      "Ġhad": 447,
      "ire": 448,
      "Ġno": 449,
      "Ġmy": 450,
      "Ġaf": 451,
      "Ġev": 452,
      "Ġpe": 453,
      "oc": 454,
      "Ġdis": 455,
      "ip": 456,
      "Ġpart": 457,
      "Ġshe": 458,
      "ost": 459,
      "act": 460,
      "ical": 461,
      "ear": 462,
      "Ġen": 463,
      "ks": 464,
      "ge": 465,
      "ions": 466,
      "ine": 467,
      "ub": 468,
      "Ġwere": 469,
      "ations": 470,
      "ru": 471,
      "Ġ-": 472,
      "Ġbeing": 473,
      "Ġind": 474,
      "Ġcl": 475,
      "Ġgr": 476,
      "Ġwhat": 477,
      "Ġim": 478,
      "Ġro": 479,
      "amp": 480,
      "Ġapp": 481,
      "Ġcont": 482,
      "ry": 483,
      "ome": 484,
      "cc": 485,
      "iz": 486,
      "Ġad": 487,
      "Ġwill": 488,
      "Ġte": 489,
      "ates": 490,
      "Ġits": 491,
      "ice": 492,
      "Ġmore": 493,
      "ass": 494,
      "ople": 495,
      "ue": 496,
      "Ġqu": 497,
      "cl": 498,
      "Ġmem": 499,
      "age": 500,
      "ok": 501,
      "ause": 502,
      "Ġany": 503,
      "tern": 504,
      "Ġfir": 505,
      "ature": 506,
      "Ġalso": 507,
      "Ġmean": 508,
      "Ġag": 509,
      "hed": 510,
      "Ġkn": 511,
      "Ġus": 512,
      "oth": 513,
      "Ġunder": 514,
      "Ġpeople": 515,
      "ra": 516,
      "00": 517,
      "ack": 518,
      "ally": 519,
      "Ġmar": 520,
      "Ġinst": 521,
      "Ġwhy": 522,
      "ough": 523,
      "ose": 524,
      "itt": 525,
      "Ġfirst": 526,
      "ke": 527,
      "erv": 528,
      "Ġ||": 529,
      "Ġres": 530,
      "ree": 531,
      "Ġdes": 532,
      "ents": 533,
      "Ġatt": 534,
      "Ġpos": 535,
      "way": 536,
      "ord": 537,
      "Ġup": 538,
      "ery": 539,
      "Ġplay": 540,
      "Ġif": 541,
      "cept": 542,
      "Ġcons": 543,
      "Ġonly": 544,
      "ures": 545,
      "ond": 546,
      "old": 547,
      "able": 548,
      "ign": 549,
      "Ġbecause": 550,
      "Ġ18": 551,
      "ens": 552,
      "low": 553,
      "ug": 554,
      "ition": 555,
      "Ġbeen": 556,
      "Ġrep": 557,
      "ict": 558,
      "Ġboth": 559,
      "we": 560,
      "),": 561,
      "Ġph": 562,
      "Ġpre": 563,
      "Ġspe": 564,
      "Ġever": 565,
      "Ġreferen": 566,
      "uc": 567,
      "Ġwould": 568,
      "wn": 569,
      "bjective": 570,
      "Ġem": 571,
      "ff": 572,
      "Ġnew": 573,
      "one": 574,
      "Ġsa": 575,
      "Ġknow": 576,
      "ater": 577,
      "ness": 578,
      "ty": 579,
      "Ġtw": 580,
      "Ġmor": 581,
      "ans": 582,
      "Ġbet": 583,
      "ial": 584,
      "ide": 585,
      "Ġout": 586,
      "lect": 587,
      "ren": 588,
      "Ġafter": 589,
      "Ġwell": 590,
      "Ġreferences": 591,
      "Ġsame": 592,
      "ach": 593,
      "ite": 594,
      "ath": 595,
      "Ġbl": 596,
      "ings": 597,
      "Ġfil": 598,
      "de": 599,
      "Ġfun": 600,
      "Ġcomm": 601,
      "Ġcol": 602,
      "Ġexp": 603,
      "ational": 604,
      "Ġrec": 605,
      "ake": 606,
      "Ġrel": 607,
      "19": 608,
      "Ġchang": 609,
      "sib": 610,
      "ward": 611,
      "Ġla": 612,
      "Ġpres": 613,
      "gr": 614,
      "Ġoff": 615,
      "hes": 616,
      "ason": 617,
      "erm": 618,
      "Ġform": 619,
      "orn": 620,
      "Ġfilm": 621,
      "ely": 622,
      "int": 623,
      "other": 624,
      "ics": 625,
      "ustr": 626,
      "Ġmeaning": 627,
      "Ġsc": 628,
      "Ġact": 629,
      "Ġ2016": 630,
      ".\"": 631,
      "Ġ3": 632,
      "Ġbo": 633,
      "Ġgre": 634,
      "ered": 635,
      "Ġlight": 636,
      "Ġsing": 637,
      "Ġyear": 638,
      "hing": 639,
      "Ġvery": 640,
      "ful": 641,
      "ert": 642,
      "ile": 643,
      "Ġworld": 644,
      "Ġjust": 645,
      "ret": 646,
      "Ġsec": 647,
      "ild": 648,
      "..": 649,
      "Ġdreams": 650,
      "Ġli": 651,
      "ife": 652,
      "Ġdist": 653,
      "ican": 654,
      "ception": 655,
      "ade": 656,
      "ating": 657,
      "Ġitself": 658,
      "Ġcult": 659,
      "Ġtwo": 660,
      "20": 661,
      "Ġexist": 662,
      "ored": 663,
      "Ġour": 664,
      "les": 665,
      "ve": 666,
      "fore": 667,
      "Ġconst": 668,
      "Ġthen": 669,
      "Ġpo": 670,
      "Ġstate": 671,
      "ween": 672,
      "ied": 673,
      "hip": 674,
      "Ġwithout": 675,
      "Ġway": 676,
      "Ġco": 677,
      "Ġplace": 678,
      "Ġbetween": 679,
      "orm": 680,
      "Ġpol": 681,
      "Ġdisc": 682,
      "Ġsuch": 683,
      "Ġreality": 684,
      "Ġcould": 685,
      "Ġmemory": 686,
      "Ġcoun": 687,
      "Ġmany": 688,
      "ors": 689,
      "ubl": 690,
      "Ġinter": 691,
      "Ġthan": 692,
      "Ġ200": 693,
      "Ġcare": 694,
      "Ġhow": 695,
      "urn": 696,
      "the": 697,
      "Ġreg": 698,
      "Ġacc": 699,
      "Ġprin": 700,
      "Ġuniversal": 701,
      "ands": 702,
      "ited": 703,
      "'m": 704,
      "Ġdoes": 705,
      "Ġfin": 706,
      "Ġrem": 707,
      "Ġart": 708,
      "ase": 709,
      "Ġchanges": 710,
      "Ġsome": 711,
      "pe": 712,
      "row": 713,
      "Ġagain": 714,
      "Ġed": 715,
      "Ġmind": 716,
      "omet": 717,
      "Ġill": 718,
      "Ġjo": 719,
      "ĠĠĠĠ": 720,
      "Ġperception": 721,
      "ball": 722,
      "Ġpossib": 723,
      "Ġmorality": 724,
      "ious": 725,
      "Ġover": 726,
      "Ġide": 727,
      "Ġgen": 728,
      "ility": 729,
      "ail": 730,
      "Ġsch": 731,
      "ys": 732,
      "Ġimp": 733,
      "Ġgive": 734,
      "Ġexper": 735,
      "Ġ199": 736,
      "ished": 737,
      "Ġsubjective": 738,
      "ep": 739,
      "als": 740,
      "hen": 741,
      "Ġwom": 742,
      "Ġstill": 743,
      "Ġnature": 744,
      "Ġthese": 745,
      "iss": 746,
      "rib": 747,
      ").": 748,
      "Ġabout": 749,
      "Ġfo": 750,
      "let": 751,
      "Ġwork": 752,
      "Ġright": 753,
      "Ġpar": 754,
      "ared": 755,
      "iff": 756,
      "Ġlife": 757,
      "Ġsaid": 758,
      "ought": 759,
      "Ġge": 760,
      "ork": 761,
      "get": 762,
      "ural": 763,
      "clud": 764,
      "ways": 765,
      "ather": 766,
      "Ġserv": 767,
      "Ġamer": 768,
      "Ġwr": 769,
      "Ġsee": 770,
      "Ġwhere": 771,
      "olog": 772,
      "ruct": 773,
      "uring": 774,
      "ample": 775,
      "ittle": 776,
      "ists": 777,
      "Ġass": 778,
      "over": 779,
      "Ġ4": 780,
      "Ġexample": 781,
      "Ġlittle": 782,
      "land": 783,
      "Ġbus": 784,
      "ention": 785,
      "io": 786,
      "ily": 787,
      "ament": 788,
      "Ġcar": 789,
      "Ġalways": 790,
      "Ġinf": 791,
      "thing": 792,
      "ise": 793,
      "Ġmust": 794,
      "Ġmost": 795,
      "Ġhist": 796,
      "Ġsy": 797,
      "Ġbel": 798,
      "Ġfl": 799,
      "Ġsou": 800,
      "ternal": 801,
      "own": 802,
      "ick": 803,
      "az": 804,
      "red": 805,
      "ased": 806,
      "otion": 807,
      "Ġlin": 808,
      "Ġprinci": 809,
      "Ġac": 810,
      "ne": 811,
      "Ġown": 812,
      "gan": 813,
      "du": 814,
      "Ġmen": 815,
      "Ġz": 816,
      "ual": 817,
      "Ġfound": 818,
      "led": 819,
      "Ġinstance": 820,
      "Ġevery": 821,
      "Ġexperi": 822,
      "Ġob": 823,
      "Ġmat": 824,
      "Ġmus": 825,
      "Ġear": 826,
      "Ġtrans": 827,
      "Ġnow": 828,
      "Ġmed": 829,
      "Ġpubl": 830,
      "Ġfol": 831,
      "Ġmin": 832,
      "Ġexpress": 833,
      "ĠĠĠ": 834,
      "Ġthr": 835,
      "Ġsay": 836,
      "ular": 837,
      "Ġdr": 838,
      "ool": 839,
      "Ġsin": 840,
      "ha": 841,
      "Ġpers": 842,
      "Ġcr": 843,
      "Ġsingle": 844,
      "ities": 845,
      "Ġillustr": 846,
      "hy": 847,
      "Ġmade": 848,
      "Ġgu": 849,
      "Ġamerican": 850,
      "ision": 851,
      "Ġfeel": 852,
      "Ġuniversity": 853,
      "Ġbefore": 854,
      "Ġpartic": 855,
      "Ġinclud": 856,
      "sw": 857,
      "Ġcent": 858,
      "Ġ5": 859,
      "Ġ'": 860,
      "Ġmon": 861,
      "Ġnor": 862,
      "ft": 863,
      "ames": 864,
      "Ġend": 865,
      "Ġsm": 866,
      "aster": 867,
      "vel": 868,
      "cap": 869,
      "Ġless": 870,
      "ood": 871,
      ",\"": 872,
      "man": 873,
      "Ġlike": 874,
      "ove": 875,
      "ons": 876,
      "Ġent": 877,
      "Ġliv": 878,
      "Ġsecond": 879,
      "ches": 880,
      "Ġchar": 881,
      "Ġsim": 882,
      "ning": 883,
      "Ġsupp": 884,
      "Ġduring": 885,
      "Ġhold": 886,
      "Ġgener": 887,
      "Ġconf": 888,
      "Ġest": 889,
      "ale": 890,
      "ative": 891,
      "Ġeven": 892,
      "Ġexternal": 893,
      "ll": 894,
      "Ġma": 895,
      "Ġser": 896,
      "uth": 897,
      "ury": 898,
      "Ġstruct": 899,
      "Ġop": 900,
      "Ġbu": 901,
      "Ġteam": 902,
      "ples": 903,
      "Ġinv": 904,
      "cious": 905,
      "Ġbir": 906,
      "Ġdiff": 907,
      "Ġfollow": 908,
      "ier": 909,
      "ember": 910,
      "Ġexistence": 911,
      "Ġnational": 912,
      "Ġdire": 913,
      "Ġstud": 914,
      "Ġeng": 915,
      "ix": 916,
      "Ġtoget": 917,
      "Ġtogether": 918,
      "Ġfoot": 919,
      "Ġexperience": 920,
      "Ġproper": 921,
      "Ġillustrates": 922,
      "lection": 923,
      "Ġthose": 924,
      "cess": 925,
      "Ġ198": 926,
      "Ġschool": 927,
      "Ġfact": 928,
      "Ġseason": 929,
      "Ġhig": 930,
      "Ġlo": 931,
      "Ġevents": 932,
      "Ġbod": 933,
      "up": 934,
      "Ġcall": 935,
      "Ġloc": 936,
      "ced": 937,
      "Ġmet": 938,
      "'t": 939,
      "Ġdef": 940,
      "Ġsub": 941,
      "Ġwar": 942,
      "Ġansw": 943,
      "eds": 944,
      "Ġspace": 945,
      "Ġday": 946,
      "Ġwomen": 947,
      "app": 948,
      "ertain": 949,
      "cent": 950,
      "Ġthrough": 951,
      "Ġnothing": 952,
      "Ġlong": 953,
      "air": 954,
      "ina": 955,
      "oup": 956,
      "Ġreflect": 957,
      "18": 958,
      "Ġsur": 959,
      "Ġret": 960,
      "Ġlinks": 961,
      "Ġfund": 962,
      "Ġanything": 963,
      "Ġdiscover": 964,
      "Ġsen": 965,
      "Ġel": 966,
      "Ġgrow": 967,
      "ts": 968,
      "ths": 969,
      "Ġgreat": 970,
      "ived": 971,
      "ik": 972,
      "Ġinc": 973,
      "its": 974,
      "Ġthree": 975,
      "Ġdirect": 976,
      "Ġchild": 977,
      "ending": 978,
      "Ġanother": 979,
      "ah": 980,
      "fully": 981,
      "Ġ6": 982,
      "Ġmeas": 983,
      "rict": 984,
      "Ġdeath": 985,
      "Ġdep": 986,
      "Ġshould": 987,
      "Ġdid": 988,
      "Ġfeature": 989,
      "Ġpossibility": 990,
      "Ġfunction": 991,
      "Ġju": 992,
      "cape": 993,
      "ink": 994,
      "iel": 995,
      "cial": 996,
      "Ġhimself": 997,
      "Ġyears": 998,
      "Ġstructure": 999,
      "Ġwhile": 1000,
      "Ġfootball": 1001,
      "Ġphil": 1002,
      "ific": 1003,
      "abl": 1004,
      "Ġthought": 1005,
      "Ġanswer": 1006,
      "Ġsince": 1007,
      "Ġgood": 1008,
      "ute": 1009,
      "Ġfilms": 1010,
      "work": 1011,
      "egr": 1012,
      "ident": 1013,
      "rap": 1014,
      "Ġobject": 1015,
      "itself": 1016,
      "Ġappear": 1017,
      "Ġprinciples": 1018,
      "uss": 1019,
      "ph": 1020,
      "Ġconstant": 1021,
      "Ġorder": 1022,
      "Ġcap": 1023,
      "Ġext": 1024,
      "Ġexpression": 1025,
      "Ġattention": 1026,
      "Ġdiv": 1027,
      "ower": 1028,
      "ined": 1029,
      "ement": 1030,
      "ouse": 1031,
      "Ġgover": 1032,
      "Ġcour": 1033,
      "Ġworth": 1034,
      "ner": 1035,
      "Ġunited": 1036,
      "uch": 1037,
      "any": 1038,
      "Ġ196": 1039,
      "Ġintegr": 1040,
      "Ġpresent": 1041,
      "Ġmusic": 1042,
      "Ġcor": 1043,
      "aking": 1044,
      "igin": 1045,
      "Ġ197": 1046,
      "Ġcre": 1047,
      "Ġrecord": 1048,
      "ank": 1049,
      "ern": 1050,
      "play": 1051,
      "Ġfam": 1052,
      "Ġlands": 1053,
      "Ġproperty": 1054,
      "ves": 1055,
      "Ġ195": 1056,
      "Ġplayers": 1057,
      "form": 1058,
      "Ġair": 1059,
      "Ġgovern": 1060,
      "ble": 1061,
      "Ġ7": 1062,
      "Ġfre": 1063,
      "ont": 1064,
      "resses": 1065,
      "Ġcultural": 1066,
      "Ġprof": 1067,
      "ained": 1068,
      "une": 1069,
      "Ġchamp": 1070,
      "Ġnum": 1071,
      "Ġagainst": 1072,
      "Ġorigin": 1073,
      "Ġmake": 1074,
      "Ġpass": 1075,
      "Ġaward": 1076,
      "Ġalb": 1077,
      "Ġemotion": 1078,
      "ever": 1079,
      "lying": 1080,
      "uro": 1081,
      "resent": 1082,
      "ograp": 1083,
      "by": 1084,
      "Ġlead": 1085,
      "Ġmod": 1086,
      "Ġconscious": 1087,
      "Ġlater": 1088,
      "pr": 1089,
      "Ġslow": 1090,
      "time": 1091,
      "--": 1092,
      "ple": 1093,
      "Ġbrain": 1094,
      "Ġrele": 1095,
      "Ġ|-": 1096,
      "Ġobjective": 1097,
      "Ġfundament": 1098,
      "Ġshap": 1099,
      "iew": 1100,
      "te": 1101,
      "Ġoffic": 1102,
      "Ġ17": 1103,
      "na": 1104,
      "cy": 1105,
      "ither": 1106,
      "Ġdet": 1107,
      "alian": 1108,
      "Ġgiv": 1109,
      "Ġpoint": 1110,
      "Ġgod": 1111,
      "Ġdem": 1112,
      "Ġlaw": 1113,
      "Ġlandscape": 1114,
      "Ġseeds": 1115,
      "Ġuniverse": 1116,
      "Ġfundamental": 1117,
      "Ġsong": 1118,
      "Ġstr": 1119,
      "Ġset": 1120,
      "ution": 1121,
      "aint": 1122,
      "Ġperson": 1123,
      "Ġfar": 1124,
      "Ġshow": 1125,
      "Ġspeed": 1126,
      "Ġgroup": 1127,
      "son": 1128,
      "ism": 1129,
      "Ġprov": 1130,
      "Ġpolit": 1131,
      "Ġdesc": 1132,
      "Ġmeasures": 1133,
      "Ġstates": 1134,
      "Ġhere": 1135,
      "ount": 1136,
      "Ġjuly": 1137,
      "Ġsw": 1138,
      "Ġlist": 1139,
      "Ġcertain": 1140,
      "Ġrev": 1141,
      "Ġ194": 1142,
      "Ġestabl": 1143,
      "Ġfather": 1144,
      "Ġ2015": 1145,
      "Ġgl": 1146,
      "Ġvill": 1147,
      "Ġadd": 1148,
      "Ġshared": 1149,
      "Ġ8": 1150,
      "Ġstret": 1151,
      "Ġnov": 1152,
      "sy": 1153,
      "Ġback": 1154,
      "Ġintegrating": 1155,
      "Ġintern": 1156,
      "ket": 1157,
      "Ġconsid": 1158,
      "Ġframe": 1159,
      "Ġlet": 1160,
      "Ġyour": 1161,
      "Ġwon": 1162,
      "Ġcarefully": 1163,
      "Ġreflecting": 1164,
      "ried": 1165,
      "Ġnever": 1166,
      "ton": 1167,
      "to": 1168,
      "Ġcultures": 1169,
      "iness": 1170,
      "Ġknown": 1171,
      "Ġgeomet": 1172,
      "Ġshapes": 1173,
      "duc": 1174,
      "Ġhouse": 1175,
      "Ġbusy": 1176,
      "ances": 1177,
      "Ġbody": 1178,
      "ments": 1179,
      "ady": 1180,
      "Ġsl": 1181,
      "Ġthus": 1182,
      "Ġbored": 1183,
      "Ġanch": 1184,
      "Ġupon": 1185,
      "Ġeff": 1186,
      "Ġblur": 1187,
      "hips": 1188,
      "Ġdistrict": 1189,
      "Ġke": 1190,
      "Ġthough": 1191,
      "Ġconc": 1192,
      "Ġ193": 1193,
      "Ġslower": 1194,
      "Ġrepresent": 1195,
      "Ġgeometry": 1196,
      "Ġdiscovering": 1197,
      "Ġstretches": 1198,
      "Ġca": 1199,
      "Ġcompresses": 1200,
      "imes": 1201,
      "Ġframework": 1202,
      "Ġwin": 1203,
      "Ġdifferen": 1204,
      "Ġreason": 1205,
      "Ġrece": 1206,
      "Ġunderlying": 1207,
      "Ġsci": 1208,
      "Ġpop": 1209,
      "pect": 1210,
      "Ġhistory": 1211,
      "ister": 1212,
      "Ġanchored": 1213,
      "Ġfaster": 1214,
      "ague": 1215,
      "201": 1216,
      "Ġsign": 1217,
      "Ġinterplay": 1218,
      "Ġgeneral": 1219,
      "ane": 1220,
      "Ġhead": 1221,
      "Ġins": 1222,
      "Ġbending": 1223,
      "arch": 1224,
      "port": 1225,
      "Ġ2017": 1226,
      "ines": 1227,
      "Ġideas": 1228,
      "aving": 1229,
      "Ġspacetime": 1230,
      "Ġresult": 1231,
      "Ġrelations": 1232,
      "Ġmov": 1233,
      "Ġhigh": 1234,
      "ior": 1235,
      "Ġir": 1236,
      "Ġfour": 1237,
      "Ġphys": 1238,
      "Ġsouth": 1239,
      "ium": 1240,
      "Ġbas": 1241,
      "Ġalbum": 1242,
      "Ġsomet": 1243,
      "iter": 1244,
      "Ġbirths": 1245,
      "Ġyet": 1246,
      "Ġold": 1247,
      "Ġdec": 1248,
      "hn": 1249,
      "Ġchampions": 1250,
      "ield": 1251,
      "Ġadm": 1252,
      "ired": 1253,
      "gin": 1254,
      "akes": 1255,
      "Ġclass": 1256,
      "be": 1257,
      "med": 1258,
      "Ġcity": 1259,
      "Ġliving": 1260,
      "Ġformer": 1261,
      "Ġaustr": 1262,
      "Ġoper": 1263,
      "ott": 1264,
      "Ġchr": 1265,
      "att": 1266,
      "Ġinternational": 1267,
      "oy": 1268,
      "mer": 1269,
      "Ġeuro": 1270,
      "ians": 1271,
      "ros": 1272,
      "bers": 1273,
      "Ġopen": 1274,
      "Ġgerm": 1275,
      "ains": 1276,
      "Ġcount": 1277,
      "velop": 1278,
      "Ġhowever": 1279,
      "Ġval": 1280,
      "und": 1281,
      "li": 1282,
      "Ġsum": 1283,
      "Ġlook": 1284,
      "not": 1285,
      "ica": 1286,
      "Ġprodu": 1287,
      "mp": 1288,
      "osed": 1289,
      "Ġpower": 1290,
      "Ġword": 1291,
      "lex": 1292,
      "Ġeach": 1293,
      "Ġhar": 1294,
      "Ġ16": 1295,
      "Ġshall": 1296,
      "Ġconsciousness": 1297,
      "Ġadv": 1298,
      "Ġmuch": 1299,
      "Ġthir": 1300,
      "Ġpublic": 1301,
      "Ġreal": 1302,
      "str": 1303,
      "Ġthink": 1304,
      "Ġhand": 1305,
      "Ġra": 1306,
      "Ġ9": 1307,
      "Ġbar": 1308,
      "Ġes": 1309,
      "Ġcontr": 1310,
      "Ġseries": 1311,
      "por": 1312,
      "ized": 1313,
      "Ġann": 1314,
      "Ġleg": 1315,
      "Ġciv": 1316,
      "Ġdown": 1317,
      "Ġtoo": 1318,
      "Ġ_": 1319,
      "Ġabs": 1320,
      "Ġcompet": 1321,
      "Ġname": 1322,
      "Ġ15": 1323,
      "orts": 1324,
      "ology": 1325,
      "Ġaff": 1326,
      "Ġcome": 1327,
      "Ġdel": 1328,
      "Ġcur": 1329,
      "Ġidea": 1330,
      "wh": 1331,
      "ked": 1332,
      "Ġ10": 1333,
      "Ġlast": 1334,
      "Ġgames": 1335,
      "Ġorgan": 1336,
      "stand": 1337,
      "ants": 1338,
      "xt": 1339,
      "ze": 1340,
      "Ġuse": 1341,
      "ull": 1342,
      "Ġpur": 1343,
      "Ġcle": 1344,
      "Ġpri": 1345,
      "Ġlove": 1346,
      "ety": 1347,
      "ved": 1348,
      "Ġbelie": 1349,
      "ourn": 1350,
      "ger": 1351,
      "Ġmil": 1352,
      "Ġrom": 1353,
      "\".": 1354,
      "ages": 1355,
      "soci": 1356,
      "den": 1357,
      "Ġnumber": 1358,
      "Ġtake": 1359,
      "Ġocc": 1360,
      "ann": 1361,
      "ck": 1362,
      "Ġothers": 1363,
      "Ġcivil": 1364,
      "Ġpat": 1365,
      "Ġbest": 1366,
      "Ġdevelop": 1367,
      "Ġvar": 1368,
      "Ġeduc": 1369,
      "Ġfind": 1370,
      "Ġarm": 1371,
      "itions": 1372,
      "ession": 1373,
      "Ġtem": 1374,
      "ised": 1375,
      "born": 1376,
      "Ġthings": 1377,
      "Ġ&": 1378,
      "Ġcal": 1379,
      "Ġobs": 1380,
      "Ġcareer": 1381,
      "Ġcolle": 1382,
      "ently": 1383,
      "Ġaug": 1384,
      "Ġassoci": 1385,
      "ene": 1386,
      "Ġbre": 1387,
      "elf": 1388,
      "Ġleague": 1389,
      "Ġbro": 1390,
      "Ġchur": 1391,
      "Ġpsy": 1392,
      "Ġcharact": 1393,
      "Ġcalled": 1394,
      "Ġfamily": 1395,
      "?\"": 1396,
      "Ġjohn": 1397,
      "ob": 1398,
      "Ġbuild": 1399,
      "sh": 1400,
      "Ġson": 1401,
      "Ġbecame": 1402,
      "Ġfollowing": 1403,
      "lev": 1404,
      "âĢ": 1405,
      "less": 1406,
      "Ġturn": 1407,
      "Ġexpl": 1408,
      "century": 1409,
      "Ġlar": 1410,
      "ually": 1411,
      "Ġ2018": 1412,
      "selves": 1413,
      "Ġunt": 1414,
      "Ġonce": 1415,
      "osop": 1416,
      "aps": 1417,
      "Ġhistor": 1418,
      "Ġdon": 1419,
      "Ġindian": 1420,
      "Ġhapp": 1421,
      "ote": 1422,
      "amed": 1423,
      "Âł": 1424,
      "Ġquest": 1425,
      "ai": 1426,
      "Ġ12": 1427,
      "ator": 1428,
      "Ġaugust": 1429,
      "Ġgovernment": 1430,
      "Ġfri": 1431,
      "Ġpsych": 1432,
      "Ġphilosop": 1433,
      "Ġopp": 1434,
      "itch": 1435,
      "Ġmiss": 1436,
      "anc": 1437,
      "Ġhel": 1438,
      "Ġclub": 1439,
      "17": 1440,
      "Ġeurope": 1441,
      "Ġdescrib": 1442,
      "Ġsever": 1443,
      "Ġsol": 1444,
      "Ġdifferent": 1445,
      "rop": 1446,
      "Ġproject": 1447,
      "Ġtrue": 1448,
      "Ġcommun": 1449,
      "err": 1450,
      "aw": 1451,
      "Ġ[": 1452,
      "ives": 1453,
      "Ġgiven": 1454,
      "Ġhon": 1455,
      "Ġvi": 1456,
      "su": 1457,
      "ars": 1458,
      "Ġstart": 1459,
      "Ġseem": 1460,
      "Ġperform": 1461,
      "Ġtherefore": 1462,
      "oub": 1463,
      "Ġfriend": 1464,
      "Ġrun": 1465,
      "Ġdesign": 1466,
      "200": 1467,
      "ley": 1468,
      "Ġav": 1469,
      "Ġhaving": 1470,
      "Ġty": 1471,
      "rench": 1472,
      "ography": 1473,
      "Ġcontin": 1474,
      "Ġaccord": 1475,
      "con": 1476,
      "Ġaway": 1477,
      "aug": 1478,
      "aken": 1479,
      "Ġtre": 1480,
      "Ġruss": 1481,
      "Ġnecess": 1482,
      "Ġmyself": 1483,
      "Ġchildren": 1484,
      "Ġborn": 1485,
      "bo": 1486,
      "Ġmag": 1487,
      "\",": 1488,
      "Ġtot": 1489,
      "Ġterm": 1490,
      "Ġje": 1491,
      "Ġcounty": 1492,
      "Ġprev": 1493,
      "ying": 1494,
      "Ġanci": 1495,
      "Ġreturn": 1496,
      "Ġused": 1497,
      "Ġfur": 1498,
      "Ġparticular": 1499,
      "Ġx": 1500,
      "Ġamong": 1501,
      "Ġnat": 1502,
      "Ġuntil": 1503,
      "Ġelect": 1504,
      "ended": 1505,
      "21": 1506,
      "Ġseveral": 1507,
      "Ġcamp": 1508,
      "Ġcase": 1509,
      "ible": 1510,
      "Ġtit": 1511,
      "Ġpa": 1512,
      "ately": 1513,
      "Ġsuff": 1514,
      "Ġheld": 1515,
      "Ġfrench": 1516,
      "ark": 1517,
      "Ġjan": 1518,
      "Ġchrist": 1519,
      "Ġreleased": 1520,
      "Ġmembers": 1521,
      "Ġconstit": 1522,
      "Ġvir": 1523,
      "Ġjune": 1524,
      "Ġnorth": 1525,
      "atic": 1526,
      "ae": 1527,
      "ka": 1528,
      "Ġcomplet": 1529,
      "Ġang": 1530,
      "Ġ2014": 1531,
      "Ġget": 1532,
      "ital": 1533,
      "Ġking": 1534,
      "Ġcompany": 1535,
      "erg": 1536,
      "stem": 1537,
      "ten": 1538,
      "aces": 1539,
      "ius": 1540,
      "che": 1541,
      "ences": 1542,
      "ash": 1543,
      "Ġprom": 1544,
      "Ġmid": 1545,
      "Ġtown": 1546,
      "par": 1547,
      "lymp": 1548,
      "Ġparty": 1549,
      "Ġthird": 1550,
      "Ġaction": 1551,
      "Ġearly": 1552,
      "Ġchurch": 1553,
      "ins": 1554,
      "Ġancient": 1555,
      "Ġproduc": 1556,
      "ipp": 1557,
      "Ġyoun": 1558,
      "Ġsens": 1559,
      "Ġolymp": 1560,
      "Ġcast": 1561,
      "Ġarch": 1562,
      "Ġfore": 1563,
      "Ġvillage": 1564,
      "ency": 1565,
      "Ġste": 1566,
      "Ġreceived": 1567,
      "br": 1568,
      "of": 1569,
      "Ġunderstand": 1570,
      "Ġport": 1571,
      "Ġdece": 1572,
      "Ġoct": 1573,
      "Ġsomething": 1574,
      "Ġpast": 1575,
      "angu": 1576,
      "cies": 1577,
      "ledge": 1578,
      "Ġsubject": 1579,
      "ering": 1580,
      "urd": 1581,
      "Ġauth": 1582,
      "ober": 1583,
      "Ġjud": 1584,
      "000": 1585,
      "Ġrelation": 1586,
      "for": 1587,
      "que": 1588,
      "âĢĲ": 1589,
      "Ġpost": 1590,
      "Ġ13": 1591,
      "Ġqual": 1592,
      "Ġsystem": 1593,
      "Ġdra": 1594,
      "Ġfa": 1595,
      "Ġbegan": 1596,
      "Ġcharacter": 1597,
      "Ġiv": 1598,
      "Ġput": 1599,
      "Ġcollege": 1600,
      "Ġfinal": 1601,
      "Ġrest": 1602,
      "Ġsept": 1603,
      "Ġbook": 1604,
      "Ġobserv": 1605,
      "Ġcond": 1606,
      "Ġvol": 1607,
      "com": 1608,
      "ock": 1609,
      "Ġaccording": 1610,
      "ral": 1611,
      "Ġtook": 1612,
      "Ġpresident": 1613,
      "Ġconv": 1614,
      "but": 1615,
      "Ġ190": 1616,
      "Ġneg": 1617,
      "ross": 1618,
      "ling": 1619,
      "ony": 1620,
      "Ġdi": 1621,
      "Ġcy": 1622,
      "Ġelection": 1623,
      "Ġ14": 1624,
      "Ġtri": 1625,
      "Ġmember": 1626,
      "Ġincluding": 1627,
      "ung": 1628,
      "ky": 1629,
      "Ġ192": 1630,
      "Ġself": 1631,
      "Ġden": 1632,
      "ides": 1633,
      "Ġmeans": 1634,
      "Ġoctober": 1635,
      "Ġmain": 1636,
      "Ġep": 1637,
      "Ġbrit": 1638,
      "Ġseptember": 1639,
      "Ġtoward": 1640,
      "aly": 1641,
      "16": 1642,
      "Ġwant": 1643,
      "Ġeffect": 1644,
      "Ġhome": 1645,
      "Ġround": 1646,
      "osha": 1647,
      "Ġche": 1648,
      "Ġshort": 1649,
      "Ġdivision": 1650,
      "haps": 1651,
      "uary": 1652,
      "Ġtur": 1653,
      "Ġtruth": 1654,
      "urg": 1655,
      "Ġbusiness": 1656,
      "col": 1657,
      "sp": 1658,
      "ief": 1659,
      "ting": 1660,
      "me": 1661,
      "ison": 1662,
      "Ġplayed": 1663,
      "Ġaly": 1664,
      "Ġmal": 1665,
      "Ġfurther": 1666,
      "ana": 1667,
      "ival": 1668,
      "Ġfac": 1669,
      "Ġvis": 1670,
      "ues": 1671,
      "Ġsupport": 1672,
      "iting": 1673,
      "ama": 1674,
      "izations": 1675,
      "Ġquestion": 1676,
      "ec": 1677,
      "ically": 1678,
      "Ġsuper": 1679,
      "Ġmarch": 1680,
      "Ġfreed": 1681,
      "Ġstand": 1682,
      "Ġcommon": 1683,
      "ma": 1684,
      "Ġread": 1685,
      "Ġbecome": 1686,
      "ĠĠĠĠĠĠĠĠ": 1687,
      "nect": 1688,
      "alth": 1689,
      "ided": 1690,
      "Ġtimes": 1691,
      "Ġlim": 1692,
      "aining": 1693,
      "Ġleft": 1694,
      "Ġmo": 1695,
      "Ġalyosha": 1696,
      "ient": 1697,
      "ni": 1698,
      "ric": 1699,
      "Ġwhole": 1700,
      "Ġmight": 1701,
      "Ġple": 1702,
      "Ġwhether": 1703,
      "Ġsmall": 1704,
      "Ġ.": 1705,
      "Ġequ": 1706,
      "Ġknowledge": 1707,
      "Ġ11": 1708,
      "rent": 1709,
      "Ġsit": 1710,
      "!\"": 1711,
      "Ġii": 1712,
      "eng": 1713,
      "co": 1714,
      "Ġcannot": 1715,
      "Ġnovember": 1716,
      "ument": 1717,
      "rehen": 1718,
      "Ġ21": 1719,
      "Ġperhaps": 1720,
      "Ġsummer": 1721,
      "ee": 1722,
      "Ġeither": 1723,
      "Ġwater": 1724,
      "Ġprot": 1725,
      "Ġyoung": 1726,
      "Ġcho": 1727,
      "Ġkill": 1728,
      "Ġestablished": 1729,
      "Ġroman": 1730,
      "Ġtell": 1731,
      "ination": 1732,
      "Ġsoci": 1733,
      "Ġsoul": 1734,
      "Ġfreedom": 1735,
      "ala": 1736,
      "empt": 1737,
      "day": 1738,
      "Ġbeh": 1739,
      "Ġ2013": 1740,
      ".,": 1741,
      "Ġeas": 1742,
      "ivid": 1743,
      "Ġnear": 1744,
      "Ġapr": 1745,
      "Ġbi": 1746,
      "Ġcourse": 1747,
      "Ġsucc": 1748,
      "Ġsat": 1749,
      "Ġgree": 1750,
      "Ġid": 1751,
      "Ġlocated": 1752,
      "Ġfut": 1753,
      "Ġallow": 1754,
      "au": 1755,
      "Ġten": 1756,
      "Ġsil": 1757,
      "Ġheart": 1758,
      "Ġfield": 1759,
      "Ġmom": 1760,
      "Ġreport": 1761,
      "Ġjanuary": 1762,
      "Ġant": 1763,
      "Ġwent": 1764,
      "Ġsud": 1765,
      "bs": 1766,
      "nt": 1767,
      "...": 1768,
      "Ġevent": 1769,
      "Ġapril": 1770,
      "most": 1771,
      "Ġsev": 1772,
      "ified": 1773,
      "gg": 1774,
      "ets": 1775,
      "Ġstation": 1776,
      "Ġwoman": 1777,
      "bert": 1778,
      "Ġbrother": 1779,
      "anguage": 1780,
      "Ġmanag": 1781,
      "Ġbegin": 1782,
      "ulation": 1783,
      "Ġ2019": 1784,
      "ange": 1785,
      "ara": 1786,
      "Ġeducation": 1787,
      "key": 1788,
      "Ġarr": 1789,
      "Ġwithin": 1790,
      "Ġindia": 1791,
      "Ġrequ": 1792,
      "Ġdescribed": 1793,
      "els": 1794,
      "Ġconsider": 1795,
      "Ġdeterm": 1796,
      "Ġey": 1797,
      "Ġitalian": 1798,
      "Ġactiv": 1799,
      "Ġstat": 1800,
      "Ġinstit": 1801,
      "Ġcup": 1802,
      "Ġthemselves": 1803,
      "ices": 1804,
      "emb": 1805,
      "Ġable": 1806,
      "gram": 1807,
      "Ġpet": 1808,
      "Ġhen": 1809,
      "mber": 1810,
      "Ġconnect": 1811,
      "Ġphysics": 1812,
      "oint": 1813,
      "Ġlos": 1814,
      "Ġauthor": 1815,
      "Ġalong": 1816,
      "Ġmaj": 1817,
      "Ġtal": 1818,
      "Ġlat": 1819,
      "Ġgerman": 1820,
      "Ġmill": 1821,
      "Ġnon": 1822,
      "Ġwhom": 1823,
      "Ġarg": 1824,
      "Ġsense": 1825,
      "Ġofficial": 1826,
      "Ġassociation": 1827,
      "Ġcir": 1828,
      "Ġview": 1829,
      "Ġfree": 1830,
      "Ġwest": 1831,
      "ster": 1832,
      "Ġbased": 1833,
      "Ġlab": 1834,
      "Ġath": 1835,
      "Ġtelev": 1836,
      "lish": 1837,
      "Ġrad": 1838,
      "Ġage": 1839,
      "Ġindivid": 1840,
      "Ġyork": 1841,
      "bru": 1842,
      "iction": 1843,
      "Ġsent": 1844,
      "Ġrepubl": 1845,
      "Ġrelationships": 1846,
      "ps": 1847,
      "Ġpossible": 1848,
      "Ġanim": 1849,
      "alia": 1850,
      "Ġafr": 1851,
      "Ġ189": 1852,
      "ats": 1853,
      "Ġserved": 1854,
      "ready": 1855,
      "Ġque": 1856,
      "Ġmother": 1857,
      "Ġdecember": 1858,
      "Ġbritish": 1859,
      "aced": 1860,
      "Ġappro": 1861,
      "dom": 1862,
      "Ġprogram": 1863,
      "Ġdoub": 1864,
      "erest": 1865,
      "Ġworks": 1866,
      "ize": 1867,
      "ogn": 1868,
      "Ġalex": 1869,
      "Ġthing": 1870,
      "sequ": 1871,
      "aim": 1872,
      "ened": 1873,
      "Ġoften": 1874,
      "Ġprim": 1875,
      "Ġtech": 1876,
      "Ġbasket": 1877,
      "Ġoriginal": 1878,
      "ched": 1879,
      "Ġet": 1880,
      "Ġivan": 1881,
      "Ġprop": 1882,
      "Ġder": 1883,
      "10": 1884,
      "iver": 1885,
      "ured": 1886,
      "ted": 1887,
      "Ġalready": 1888,
      "Ġservice": 1889,
      "Ġtelevision": 1890,
      "Ġ2012": 1891,
      "Ġgold": 1892,
      "Ġroad": 1893,
      "Ġparticle": 1894,
      "Ġrese": 1895,
      "that": 1896,
      "Ġcaus": 1897,
      "Ġspir": 1898,
      "bruary": 1899,
      "Ġtop": 1900,
      "Ġresp": 1901,
      "oney": 1902,
      "ological": 1903,
      "Ġcirc": 1904,
      "side": 1905,
      "arn": 1906,
      "ilt": 1907,
      "83": 1908,
      "Ġfall": 1909,
      "Ġclear": 1910,
      "Ġathlet": 1911,
      "Ġmot": 1912,
      "adem": 1913,
      "yle": 1914,
      "Ġwal": 1915,
      "ocr": 1916,
      "Ġsecret": 1917,
      "Ġwords": 1918,
      "Ġdev": 1919,
      "Ġfive": 1920,
      "ex": 1921,
      "itary": 1922,
      "Ġinvest": 1923,
      "Ġdeaths": 1924,
      "?..": 1925,
      "Ġcame": 1926,
      "Ġmatter": 1927,
      "Ġhelp": 1928,
      "ude": 1929,
      "Ġmajor": 1930,
      "Ġpun": 1931,
      "istr": 1932,
      "Ġenglish": 1933,
      "Ġsports": 1934,
      "Ġmale": 1935,
      "Ġ2020": 1936,
      "Ġplayer": 1937,
      "Ġdirector": 1938,
      "lu": 1939,
      "Ġess": 1940,
      "Ġdu": 1941,
      "ases": 1942,
      "Ġheav": 1943,
      "af": 1944,
      "Ġside": 1945,
      "ization": 1946,
      "Ġtaken": 1947,
      "Ġrather": 1948,
      "Ġfuture": 1949,
      "Ġce": 1950,
      "Ġpublished": 1951,
      "Ġaustralian": 1952,
      "Ġsix": 1953,
      "Ġvict": 1954,
      "though": 1955,
      "Ġreve": 1956,
      "Ġ2011": 1957,
      "Ġfebruary": 1958,
      "12": 1959,
      "ively": 1960,
      "acks": 1961,
      "Ġmich": 1962,
      "Ġsudden": 1963,
      "here": 1964,
      "Ġdue": 1965,
      "Ġimport": 1966,
      "go": 1967,
      "han": 1968,
      "Ġrace": 1969,
      "ada": 1970,
      "Ġbasketball": 1971,
      "Ġeuropean": 1972,
      "Ġfem": 1973,
      "Ġnamed": 1974,
      "Ġresults": 1975,
      "Ġmedal": 1976,
      "Ġcountry": 1977,
      "men": 1978,
      "apan": 1979,
      "ino": 1980,
      "king": 1981,
      "Ġcivilizations": 1982,
      "Ġland": 1983,
      "Ġgeor": 1984,
      "itya": 1985,
      "Ġcat": 1986,
      "Ġhal": 1987,
      "acy": 1988,
      "Ġkind": 1989,
      "sible": 1990,
      "Ġmoment": 1991,
      "Ġprocess": 1992,
      "Ġinterest": 1993,
      "inct": 1994,
      "Ġsocial": 1995,
      "Ġtrack": 1996,
      "Ġcrit": 1997,
      "Ġnight": 1998,
      "itor": 1999,
      "ham": 2000,
      "Ġut": 2001,
      "ille": 2002,
      "Ġattempt": 2003,
      "Ġpolice": 2004,
      "aut": 2005,
      "Ġmater": 2006,
      "Ġren": 2007,
      "Ġprofession": 2008,
      "Ġspeak": 2009,
      "Ġdepart": 2010,
      "Ġarmy": 2011,
      "iam": 2012,
      "Ġaround": 2013,
      "ya": 2014,
      "tr": 2015,
      "Ġhy": 2016,
      "Ġdeg": 2017,
      "ovitch": 2018,
      "Ġregion": 2019,
      "Ġpolitical": 2020,
      "Ġestablish": 2021,
      "Ġaddition": 2022,
      "15": 2023,
      "cil": 2024,
      "erence": 2025,
      "Ġbetter": 2026,
      "kn": 2027,
      "Ġseen": 2028,
      "medi": 2029,
      "umb": 2030,
      "Ġer": 2031,
      "Ġcer": 2032,
      "Ġrepl": 2033,
      "iving": 2034,
      "hter": 2035,
      "Ġsus": 2036,
      "iment": 2037,
      "Ġtotal": 2038,
      "oks": 2039,
      "Ġsan": 2040,
      "Ġneed": 2041,
      "ishop": 2042,
      "ably": 2043,
      "ours": 2044,
      "osition": 2045,
      "ification": 2046,
      "Ġsal": 2047,
      "Ġblack": 2048,
      "iet": 2049,
      "Ġalthough": 2050,
      "ilar": 2051,
      "idence": 2052,
      "ption": 2053,
      "Ġrussian": 2054,
      "ata": 2055,
      "Ġmount": 2056,
      "Ġsociety": 2057,
      "ev": 2058,
      "fect": 2059,
      "ged": 2060,
      "Ġmitya": 2061,
      "Ġarea": 2062,
      "Ġscience": 2063,
      "Ġsuccess": 2064,
      "ones": 2065,
      "Ġjapan": 2066,
      "Ġacadem": 2067,
      "Ġgame": 2068,
      "urs": 2069,
      "Ġalmost": 2070,
      "Ġfew": 2071,
      "ribut": 2072,
      "Ġsubst": 2073,
      "Ġgir": 2074,
      "Ġbecom": 2075,
      "Ġresearch": 2076,
      "Ġmer": 2077,
      "aled": 2078,
      "199": 2079,
      "Ġlocal": 2080,
      "Ġspecial": 2081,
      "ek": 2082,
      "Ġmotion": 2083,
      "Ġunion": 2084,
      "ards": 2085,
      "anish": 2086,
      "Ġexam": 2087,
      "Ġrecogn": 2088,
      "ission": 2089,
      "ico": 2090,
      "Ġjourn": 2091,
      "Ġnext": 2092,
      "Ġroy": 2093,
      "Ġadmin": 2094,
      "Ġpen": 2095,
      "Ġpress": 2096,
      "Ġproduction": 2097,
      "Ġtitle": 2098,
      "ule": 2099,
      "ising": 2100,
      "Ġmad": 2101,
      "itten": 2102,
      "Ġface": 2103,
      "Ġcurrent": 2104,
      "har": 2105,
      "Ġunc": 2106,
      "Ġchief": 2107,
      "Ġspecies": 2108,
      "ato": 2109,
      "ope": 2110,
      "Ġfull": 2111,
      "Ġdesire": 2112,
      "Ð¸": 2113,
      "Ġlu": 2114,
      "lo": 2115,
      "estern": 2116,
      "Ġappe": 2117,
      "Ġpure": 2118,
      "rol": 2119,
      "Ġdied": 2120,
      "Ġleast": 2121,
      "hod": 2122,
      "Ġcause": 2123,
      "usion": 2124,
      "Ġlive": 2125,
      "Ġmilitary": 2126,
      "Ġmoney": 2127,
      "Ġaustralia": 2128,
      "Ġwish": 2129,
      "Ġvide": 2130,
      "Ġaw": 2131,
      "Ġcand": 2132,
      "Ġho": 2133,
      "Ġap": 2134,
      "Ġsk": 2135,
      "ellow": 2136,
      "iously": 2137,
      "ii": 2138,
      "Ġawards": 2139,
      "uation": 2140,
      "Ġhard": 2141,
      "Ġ2010": 2142,
      "Ġmaking": 2143,
      "Ġroom": 2144,
      "Ġnothingness": 2145,
      "Ġchampionship": 2146,
      "Ġceram": 2147,
      "gress": 2148,
      "Ġdraw": 2149,
      "Ġmakes": 2150,
      "Ġliter": 2151,
      "Ġoffice": 2152,
      "Ġinn": 2153,
      "Ġnecessary": 2154,
      "Ġmaterial": 2155,
      "ceed": 2156,
      "Ġsimple": 2157,
      "icult": 2158,
      "Ġinvol": 2159,
      "Ġinde": 2160,
      "Ġthoughts": 2161,
      "Ġrail": 2162,
      "Ġele": 2163,
      "Ġdest": 2164,
      "Ġposition": 2165,
      "itted": 2166,
      "Ġcapt": 2167,
      "Ġpaul": 2168,
      "Ġcycl": 2169,
      "burg": 2170,
      "Ġsepar": 2171,
      "Ġrespect": 2172,
      "fer": 2173,
      "ler": 2174,
      "Ġvo": 2175,
      "Ġbur": 2176,
      "Ġdevelopment": 2177,
      "Ġposs": 2178,
      "Ġeverything": 2179,
      "Ġdemocr": 2180,
      "Ġred": 2181,
      "Ġcenter": 2182,
      "Ġbelieve": 2183,
      "Ġfig": 2184,
      "eder": 2185,
      "hers": 2186,
      "osp": 2187,
      "overed": 2188,
      "Ġsimilar": 2189,
      "isc": 2190,
      "inary": 2191,
      "ump": 2192,
      "Ġyes": 2193,
      "Ġannoun": 2194,
      "conom": 2195,
      "Ġnatural": 2196,
      "Ġproduced": 2197,
      "Ġsongs": 2198,
      "Ġbuilding": 2199,
      "Ġdifficult": 2200,
      "Ġsold": 2201,
      "Ġadministr": 2202,
      "14": 2203,
      "mit": 2204,
      "Ġsour": 2205,
      "Ġdav": 2206,
      "Ġpract": 2207,
      "ey": 2208,
      "Ġsoon": 2209,
      "Ġbad": 2210,
      "Ġchampionships": 2211,
      "ners": 2212,
      "Ġ,": 2213,
      "Ġdom": 2214,
      "Ġ25": 2215,
      "Ġdebut": 2216,
      "Ġstre": 2217,
      "lin": 2218,
      "Ġgrad": 2219,
      "Ġinclude": 2220,
      "Ġsqu": 2221,
      "Ġappoint": 2222,
      "Ġacqu": 2223,
      "Ġsuddenly": 2224,
      "ges": 2225,
      "Ġconce": 2226,
      "Ġchap": 2227,
      "aged": 2228,
      "Ġengine": 2229,
      "13": 2230,
      "ih": 2231,
      "Ġpolitic": 2232,
      "anch": 2233,
      "Ġground": 2234,
      "Ġpain": 2235,
      "Ġ30": 2236,
      "Ġord": 2237,
      "Ġcontinu": 2238,
      "yo": 2239,
      "ctor": 2240,
      "ught": 2241,
      "oot": 2242,
      "Ġbatt": 2243,
      "Ġmart": 2244,
      "Ġled": 2245,
      "Ġprofessional": 2246,
      "ani": 2247,
      "Ġmex": 2248,
      "Ġdays": 2249,
      "Ġstar": 2250,
      "Ġ187": 2251,
      "ries": 2252,
      "reg": 2253,
      "Ġlost": 2254,
      "Ġwhose": 2255,
      "Ġrich": 2256,
      "Ġwritten": 2257,
      "Ġinform": 2258,
      "Ġjournal": 2259,
      "Ġgrand": 2260,
      "Ġvirt": 2261,
      "aff": 2262,
      "olic": 2263,
      "endent": 2264,
      "Ġwife": 2265,
      "Ġplan": 2266,
      "Ġgirl": 2267,
      "ring": 2268,
      "Ġreally": 2269,
      "Ġ186": 2270,
      "Ġsun": 2271,
      "Ġcentral": 2272,
      "Ġpopulation": 2273,
      "Ġspirit": 2274,
      "Ġmur": 2275,
      "ays": 2276,
      "ached": 2277,
      "ected": 2278,
      "Ġregard": 2279,
      "Ġband": 2280,
      "Ġdirected": 2281,
      "Ġplaces": 2282,
      "uk": 2283,
      "ises": 2284,
      "Ġcourt": 2285,
      "Ġhistoric": 2286,
      "Ġcouncil": 2287,
      "ms": 2288,
      "Ġhor": 2289,
      "Ġappears": 2290,
      "iod": 2291,
      "Ġminister": 2292,
      "xim": 2293,
      "Ġcommand": 2294,
      "Ġpark": 2295,
      "Ġline": 2296,
      "Ġattack": 2297,
      "Ġgreek": 2298,
      "ese": 2299,
      "idge": 2300,
      "istic": 2301,
      "Ġsex": 2302,
      "ew": 2303,
      "Ġbishop": 2304,
      "Ġforce": 2305,
      "ax": 2306,
      "Ġmuse": 2307,
      "itive": 2308,
      "Ġtechn": 2309,
      "Ġsound": 2310,
      "Ġeconom": 2311,
      "Ġopin": 2312,
      "Ġbuilt": 2313,
      "Ð°": 2314,
      "Ġfaith": 2315,
      "Ġrul": 2316,
      "Ġparts": 2317,
      "Ġwind": 2318,
      "Ġwrit": 2319,
      "Ġve": 2320,
      "Ġearth": 2321,
      "aign": 2322,
      "hib": 2323,
      "Ġstep": 2324,
      "Ġprem": 2325,
      "Ġterr": 2326,
      "Ġlarge": 2327,
      "Ġident": 2328,
      "Ġtour": 2329,
      "Ġdut": 2330,
      "used": 2331,
      "Ġassist": 2332,
      "Ġmoved": 2333,
      "Ġeyes": 2334,
      "Ġbal": 2335,
      "Ġstrong": 2336,
      "Ġphilosophy": 2337,
      "Ġvideo": 2338,
      "Ġdaug": 2339,
      "Ġgoing": 2340,
      "Ġindividual": 2341,
      "Ġelse": 2342,
      "yn": 2343,
      "Ġmos": 2344,
      "Ġhealth": 2345,
      "Ġmeet": 2346,
      "Ġimag": 2347,
      "Ġjustice": 2348,
      "Ġworked": 2349,
      "Ġviol": 2350,
      "Ġroyal": 2351,
      "ators": 2352,
      "Ġpleas": 2353,
      "ruction": 2354,
      "Ġindep": 2355,
      "Ġolympics": 2356,
      "Ġimm": 2357,
      "ili": 2358,
      "sec": 2359,
      "Ġbelong": 2360,
      "Ġcampaign": 2361,
      "Ġindeed": 2362,
      "Ġtourn": 2363,
      "iforn": 2364,
      "Ġmass": 2365,
      "Ġstyle": 2366,
      "Ġalum": 2367,
      "Ġimmedi": 2368,
      "color": 2369,
      "ta": 2370,
      "rew": 2371,
      "Ġeast": 2372,
      "Ġlou": 2373,
      "igh": 2374,
      "Ġ24": 2375,
      "Ġconsidered": 2376,
      "Ġanal": 2377,
      "cul": 2378,
      "Ġperiod": 2379,
      "Ġcaliforn": 2380,
      "yond": 2381,
      "Ġfort": 2382,
      "Ġquite": 2383,
      "wards": 2384,
      "ron": 2385,
      "ense": 2386,
      "Ġentire": 2387,
      "Ġvarious": 2388,
      "Ġappl": 2389,
      "Ġtold": 2390,
      "Ġ22": 2391,
      "Ġhalf": 2392,
      "Ġwestern": 2393,
      "Ġpsychic": 2394,
      "Ġtest": 2395,
      "Ġrepublic": 2396,
      "Ġfest": 2397,
      "Ġincre": 2398,
      "Ġmult": 2399,
      "Ġtransc": 2400,
      "Ġcalifornia": 2401,
      "Ġchristian": 2402,
      "Ġrespon": 2403,
      "Ġmarried": 2404,
      "Ġ188": 2405,
      "Ġcommunity": 2406,
      "lected": 2407,
      "Ġgreen": 2408,
      "Ġwat": 2409,
      "Ġlevel": 2410,
      "Ġinvestig": 2411,
      "Ġinflu": 2412,
      "Ġcondu": 2413,
      "Ġpoints": 2414,
      "Ġcandid": 2415,
      "rov": 2416,
      "Ġfrance": 2417,
      "Ġpriv": 2418,
      "ming": 2419,
      "Ġenough": 2420,
      "Ġbirth": 2421,
      ".'": 2422,
      "Ġdecl": 2423,
      "hel": 2424,
      "Ġig": 2425,
      "Ġapprehen": 2426,
      "ters": 2427,
      "inal": 2428,
      "Ġtrav": 2429,
      "rest": 2430,
      "iti": 2431,
      "'ll": 2432,
      "Ġnav": 2433,
      "Ġobjects": 2434,
      "ingu": 2435,
      "Ġbrought": 2436,
      "Ġsam": 2437,
      "ential": 2438,
      "Ġvers": 2439,
      "Ġchange": 2440,
      "Ġairport": 2441,
      "Ġcomes": 2442,
      "Ġinterp": 2443,
      "Ġbodies": 2444,
      "Ġproble": 2445,
      "itude": 2446,
      "ena": 2447,
      "Ġlonger": 2448,
      "Ġpap": 2449,
      "omp": 2450,
      "utes": 2451,
      "Ġrank": 2452,
      "Ġalumni": 2453,
      "Ġben": 2454,
      "Ġdisp": 2455,
      "Ġmuseum": 2456,
      "Ġsem": 2457,
      "Ġsure": 2458,
      "ploy": 2459,
      "ney": 2460,
      "Ġannounced": 2461,
      "Ġrecords": 2462,
      "Ġbeyond": 2463,
      "isl": 2464,
      "Ġabove": 2465,
      "what": 2466,
      "Ġexc": 2467,
      "Ġprec": 2468,
      "Ġcentury": 2469,
      "Ġrelig": 2470,
      "Ġ23": 2471,
      "aves": 2472,
      "Ġclaim": 2473,
      "urb": 2474,
      "Ġsaw": 2475,
      "Ġdegree": 2476,
      "Ġhall": 2477,
      "'ve": 2478,
      "Ġpersonal": 2479,
      "Ġneither": 2480,
      "gcolor": 2481,
      "ondon": 2482,
      "Ġteams": 2483,
      "=#": 2484,
      "Ġcam": 2485,
      "Ġ...": 2486,
      "isf": 2487,
      "Ġwhite": 2488,
      "berg": 2489,
      "ini": 2490,
      "Ġcop": 2491,
      "elt": 2492,
      "Ġfoundation": 2493,
      "Ġreview": 2494,
      "Ġalbums": 2495,
      "Ġfriends": 2496,
      "ergy": 2497,
      "oor": 2498,
      "oss": 2499,
      "Ġsym": 2500,
      "Ġhol": 2501,
      "Ġaccount": 2502,
      "ixed": 2503,
      "Ġkar": 2504,
      "Ġincluded": 2505,
      "ned": 2506,
      "Ġber": 2507,
      "Ġprob": 2508,
      "Ġfire": 2509,
      "Ġlib": 2510,
      "Ġprince": 2511,
      "Ġfounded": 2512,
      "yodor": 2513,
      "Ġfail": 2514,
      "Ġstarted": 2515,
      "Ð¾": 2516,
      "Ġthous": 2517,
      "Ġstage": 2518,
      "Ġperfect": 2519,
      "leep": 2520,
      "Ġnom": 2521,
      "Ġwilliam": 2522,
      "Ġcit": 2523,
      "Ġdone": 2524,
      "Ġven": 2525,
      "ground": 2526,
      "Ġfyodor": 2527,
      "Ġnort": 2528,
      "Ġinfin": 2529,
      "la": 2530,
      "no": 2531,
      "Ġgot": 2532,
      "Ġelected": 2533,
      "Ġinj": 2534,
      "Ġmethod": 2535,
      "Ġimportant": 2536,
      "ca": 2537,
      "mar": 2538,
      "Ġcath": 2539,
      "Ġdesp": 2540,
      "Ġseems": 2541,
      "ication": 2542,
      "ilities": 2543,
      "Ġstory": 2544,
      "Ġjames": 2545,
      "Ġfeat": 2546,
      "Ġpan": 2547,
      "Ġlate": 2548,
      "Ġcross": 2549,
      "Ġtrad": 2550,
      "Ġemp": 2551,
      "Ġtournament": 2552,
      "hem": 2553,
      "Ġliber": 2554,
      "ishing": 2555,
      "Ġprofess": 2556,
      "Ġangel": 2557,
      "iers": 2558,
      "Ġwa": 2559,
      "ado": 2560,
      "Ġimpress": 2561,
      "Ġhill": 2562,
      "Ġisland": 2563,
      "Ġkeep": 2564,
      "Ġtype": 2565,
      "Ġconsequ": 2566,
      "Ġjoined": 2567,
      "Ġriver": 2568,
      "Ġcontem": 2569,
      "Ġabsol": 2570,
      "Ġchina": 2571,
      "11": 2572,
      "mon": 2573,
      "Ġ2021": 2574,
      "Ġuk": 2575,
      "Ġcontent": 2576,
      "Ġappearance": 2577,
      "Ġceramium": 2578,
      "Ġpal": 2579,
      "olution": 2580,
      "Ġcoach": 2581,
      "Ġstreet": 2582,
      "ires": 2583,
      "Ġlondon": 2584,
      "Ġbooks": 2585,
      "ysis": 2586,
      "ends": 2587,
      "Ġnone": 2588,
      "dy": 2589,
      "rown": 2590,
      "Ġpresence": 2591,
      "Ġhands": 2592,
      "Ġyouth": 2593,
      "Ġassum": 2594,
      "oved": 2595,
      "Ġrefer": 2596,
      "Ġappointed": 2597,
      "Ġcoll": 2598,
      "Ġaut": 2599,
      "Ġguard": 2600,
      "off": 2601,
      "Ġmaster": 2602,
      "Ġfeder": 2603,
      "Ġparticip": 2604,
      "Ġgun": 2605,
      "Ġintro": 2606,
      "Ġjose": 2607,
      "Ġcompos": 2608,
      "Ġboard": 2609,
      "Ġsingles": 2610,
      "tic": 2611,
      "cially": 2612,
      "akov": 2613,
      "Ġinstitute": 2614,
      "Ġcontrary": 2615,
      "Ġcomplex": 2616,
      "Ġindust": 2617,
      "Ġgreater": 2618,
      "Ġarts": 2619,
      "Ġabsurd": 2620,
      "ply": 2621,
      "Ġtable": 2622,
      "ories": 2623,
      "Ġasked": 2624,
      "raft": 2625,
      "Ġvillages": 2626,
      "Ġdepartment": 2627,
      "Ġhost": 2628,
      "Ġgeorge": 2629,
      "Ġol": 2630,
      "Ġ27": 2631,
      "Ġchair": 2632,
      "aland": 2633,
      "Ġpaint": 2634,
      "Ġnet": 2635,
      "Ġlie": 2636,
      "Ġlearn": 2637,
      "Ġrole": 2638,
      "Ġcreated": 2639,
      "Ġlanguage": 2640,
      "Ġterms": 2641,
      "hi": 2642,
      "oid": 2643,
      "Ġtor": 2644,
      "Ġcomb": 2645,
      "rug": 2646,
      "Ġgermany": 2647,
      "Ġkingdom": 2648,
      "Ġconduct": 2649,
      "Ġweek": 2650,
      "Ġevil": 2651,
      "50": 2652,
      "Ġfellow": 2653,
      "Ġregular": 2654,
      "Ġbehind": 2655,
      "Ġ28": 2656,
      "Ġsection": 2657,
      "ald": 2658,
      "Ġjun": 2659,
      "wr": 2660,
      "Ġsort": 2661,
      "Ġchart": 2662,
      "ellig": 2663,
      "Ġmel": 2664,
      "Ġrap": 2665,
      "Ġfranc": 2666,
      "Ġcompan": 2667,
      "Ġenv": 2668,
      "Ġrailway": 2669,
      "Ġ=": 2670,
      "Ġ26": 2671,
      "Ġver": 2672,
      "Ġprimary": 2673,
      "itect": 2674,
      "Ġdaughter": 2675,
      "Ġmere": 2676,
      "Ġfav": 2677,
      "Ġ$": 2678,
      "hood": 2679,
      "ivity": 2680,
      "Ġtim": 2681,
      "Ġaver": 2682,
      "Ġwall": 2683,
      "Ġvoc": 2684,
      "Ġparis": 2685,
      "Ðµ": 2686,
      "omb": 2687,
      "Ġ2009": 2688,
      "Ġcertainly": 2689,
      "Ġprior": 2690,
      "ford": 2691,
      "km": 2692,
      "Ġisl": 2693,
      ",'": 2694,
      "gen": 2695,
      "uel": 2696,
      "Ġcomed": 2697,
      "Ġwebs": 2698,
      "Ġoccas": 2699,
      "ead": 2700,
      "tt": 2701,
      "Ġmedia": 2702,
      "Ġdoubt": 2703,
      "ements": 2704,
      "Ġnotes": 2705,
      "Ġbraz": 2706,
      "Ġinterpret": 2707,
      "Ġ2008": 2708,
      "Ġmatch": 2709,
      "Ġarchitect": 2710,
      "Ġamb": 2711,
      "Ġbuildings": 2712,
      "you": 2713,
      "Ġbig": 2714,
      "Ġmis": 2715,
      "igan": 2716,
      "Ġappeared": 2717,
      "fe": 2718,
      "Ġalone": 2719,
      "dle": 2720,
      "Ġ0": 2721,
      "aring": 2722,
      "Ġsaying": 2723,
      "line": 2724,
      "sc": 2725,
      "Ġoutside": 2726,
      "my": 2727,
      "unt": 2728,
      "Ġq": 2729,
      "Ġconcern": 2730,
      "Ġlegisl": 2731,
      "Ġpurp": 2732,
      "Ġcatholic": 2733,
      "Ġexec": 2734,
      "Ġinstr": 2735,
      "Ġcollection": 2736,
      "Ġ:": 2737,
      "urity": 2738,
      "ify": 2739,
      "22": 2740,
      "Ġdistinct": 2741,
      "Ġwrote": 2742,
      "Ġful": 2743,
      "Ġartist": 2744,
      "Ġze": 2745,
      "cr": 2746,
      "Ġfal": 2747,
      "Ġhosp": 2748,
      "Ġmanner": 2749,
      "ites": 2750,
      "Ġgent": 2751,
      "igr": 2752,
      "anger": 2753,
      "Ġemploy": 2754,
      "Ġcommission": 2755,
      "198": 2756,
      "Ġassemb": 2757,
      "Ġhous": 2758,
      "Ġenergy": 2759,
      "Ġturk": 2760,
      "Ġfacult": 2761,
      "Ġbrazil": 2762,
      "Ġtheat": 2763,
      "rie": 2764,
      "fr": 2765,
      "aren": 2766,
      "Ġopinion": 2767,
      "endence": 2768,
      "hern": 2769,
      "Ġenc": 2770,
      "Ġrock": 2771,
      "ga": 2772,
      "yl": 2773,
      "oted": 2774,
      "ode": 2775,
      "Ġ2007": 2776,
      "Ġdrama": 2777,
      "Ġfestival": 2778,
      "Ð½": 2779,
      "Ġgave": 2780,
      "rian": 2781,
      "Ġremains": 2782,
      "rel": 2783,
      "Ġbill": 2784,
      "Ġran": 2785,
      "Ġund": 2786,
      "Ġsimply": 2787,
      "Ġbroad": 2788,
      "Ġsituation": 2789,
      "ien": 2790,
      "Ġtou": 2791,
      "oud": 2792,
      "Ġtom": 2793,
      "Ġkap": 2794,
      "ockey": 2795,
      "Ġimpos": 2796,
      "Ġrelease": 2797,
      "Ġbeaut": 2798,
      "197": 2799,
      "Ġhigher": 2800,
      "airs": 2801,
      "Ġolympic": 2802,
      "Ġchapter": 2803,
      "ability": 2804,
      "Ġbring": 2805,
      "Ġboy": 2806,
      "Ġregister": 2807,
      "Ġstudy": 2808,
      "where": 2809,
      "Ġach": 2810,
      "inated": 2811,
      "Ġbgcolor": 2812,
      "Ġpot": 2813,
      "Ġrevealed": 2814,
      "Ġ/": 2815,
      "Ġmary": 2816,
      "ush": 2817,
      "=#|": 2818,
      "Ġship": 2819,
      "Ġtrain": 2820,
      "Ġreserv": 2821,
      "Ġfemale": 2822,
      "Ġought": 2823,
      "ano": 2824,
      "ograph": 2825,
      "Ġunderstanding": 2826,
      "well": 2827,
      "Ġbor": 2828,
      "ateg": 2829,
      "Ġleave": 2830,
      "ously": 2831,
      "Ġtex": 2832,
      "Ġpie": 2833,
      "arily": 2834,
      "pro": 2835,
      "atory": 2836,
      "ouble": 2837,
      "Ġnar": 2838,
      "Ġlack": 2839,
      "Ġrob": 2840,
      "Ġlaun": 2841,
      "Ġpoet": 2842,
      "known": 2843,
      "ati": 2844,
      "Ġtransport": 2845,
      "with": 2846,
      "Ġheat": 2847,
      "Ġchoice": 2848,
      "action": 2849,
      "iron": 2850,
      "Ġcommitt": 2851,
      "Ġlaug": 2852,
      "Ġprinciple": 2853,
      "onscious": 2854,
      "duced": 2855,
      "Ġdead": 2856,
      "Ġintellig": 2857,
      "Ġreflection": 2858,
      "Ġdistance": 2859,
      "Ġspanish": 2860,
      "Ġmodern": 2861,
      "Ġalexand": 2862,
      "za": 2863,
      "ows": 2864,
      "Ġram": 2865,
      "Ġbase": 2866,
      "Ġbank": 2867,
      "uck": 2868,
      "sa": 2869,
      "Ġmaint": 2870,
      "Ġafrican": 2871,
      "Ġfinished": 2872,
      "onom": 2873,
      "Ġworking": 2874,
      "jo": 2875,
      "ades": 2876,
      "Ġfear": 2877,
      "Ġnews": 2878,
      "....": 2879,
      "Ġshows": 2880,
      "Ġsar": 2881,
      "Ġcorn": 2882,
      "Ġjew": 2883,
      "Ġcondition": 2884,
      "wise": 2885,
      "Ġtaking": 2886,
      "oph": 2887,
      "ension": 2888,
      "Ġpossess": 2889,
      "Ġfif": 2890,
      "ym": 2891,
      "ishes": 2892,
      "Ġfight": 2893,
      "Ġphen": 2894,
      "Ġhom": 2895,
      "Ġrid": 2896,
      "ection": 2897,
      "Ġsenate": 2898,
      "Ġfootballers": 2899,
      "Ġbeginning": 2900,
      "ja": 2901,
      "Ġsleep": 2902,
      "Ġsignific": 2903,
      "Ġtowards": 2904,
      "Ġcauses": 2905,
      "imate": 2906,
      "Ġdeal": 2907,
      "oke": 2908,
      "Ġcompetition": 2909,
      "Ġtreat": 2910,
      "Ġmillion": 2911,
      "Ġthousand": 2912,
      "Ġkr": 2913,
      "Ġshoot": 2914,
      "Ġreturned": 2915,
      "Ġflow": 2916,
      "Ġ2000": 2917,
      "inc": 2918,
      "Ġwood": 2919,
      "aries": 2920,
      "Ġexhib": 2921,
      "Ġsea": 2922,
      "Ġcompleted": 2923,
      "Ġsatisf": 2924,
      "Ġlow": 2925,
      "roy": 2926,
      "pecially": 2927,
      "Ġsometimes": 2928,
      "Ġphilipp": 2929,
      "Ġindiana": 2930,
      "Ġkilled": 2931,
      "eated": 2932,
      "ince": 2933,
      "Ġstop": 2934,
      "Ġvoice": 2935,
      "band": 2936,
      "gar": 2937,
      "Ġdam": 2938,
      "Ġeight": 2939,
      "ita": 2940,
      "Ġgall": 2941,
      "Ġoccur": 2942,
      "Ġapprehend": 2943,
      "Ġitaly": 2944,
      "inese": 2945,
      "_,": 2946,
      "yr": 2947,
      "Ġmun": 2948,
      "Ġrussia": 2949,
      "language": 2950,
      "pre": 2951,
      "undred": 2952,
      "nd": 2953,
      "ots": 2954,
      "istics": 2955,
      "aches": 2956,
      "Ġlooked": 2957,
      "eness": 2958,
      "Ġpav": 2959,
      "Ġindic": 2960,
      "Ġclos": 2961,
      "Ġartists": 2962,
      "jab": 2963,
      "Ġcontrol": 2964,
      "ari": 2965,
      "Ġ29": 2966,
      "acing": 2967,
      "Ġcost": 2968,
      "Ġha": 2969,
      "Ġmichigan": 2970,
      "Ġmac": 2971,
      "Ġmarket": 2972,
      "rete": 2973,
      "Ġremain": 2974,
      "Ġscient": 2975,
      "Ġgradu": 2976,
      "ba": 2977,
      "pet": 2978,
      "atives": 2979,
      "Ġdur": 2980,
      "Ġusing": 2981,
      "ael": 2982,
      "Ġsn": 2983,
      "icity": 2984,
      "enth": 2985,
      "Ġrug": 2986,
      "Ġdistingu": 2987,
      "Ġmagaz": 2988,
      "Ġnegation": 2989,
      "Ġcitiz": 2990,
      "30": 2991,
      "ustom": 2992,
      "Ġsciences": 2993,
      "Ġlatter": 2994,
      "nes": 2995,
      "Ġmir": 2996,
      "Ġhockey": 2997,
      "utive": 2998,
      "Ġsays": 2999,
      "Ġwebsite": 3000,
      "adian": 3001,
      "je": 3002,
      "Ġhundred": 3003,
      "Ġask": 3004,
      "iana": 3005,
      "Ġformed": 3006,
      "Ġ1990": 3007,
      "Ġcried": 3008,
      "Ġreported": 3009,
      "Ġwriters": 3010,
      "Ġiniti": 3011,
      "Ġprison": 3012,
      "Ġevidence": 3013,
      "Ġnorthern": 3014,
      "Ġprofessor": 3015,
      "Ġassembly": 3016,
      "Ġphenom": 3017,
      "Ġban": 3018,
      "ests": 3019,
      "Ġgovernor": 3020,
      "Ġafrica": 3021,
      "Ġbecomes": 3022,
      "Ġturkish": 3023,
      "Ġhot": 3024,
      "people": 3025,
      "Ġturned": 3026,
      "Ġsaint": 3027,
      "Ġbes": 3028,
      "itness": 3029,
      "Ġdoc": 3030,
      "Ġdemocratic": 3031,
      "pass": 3032,
      "itation": 3033,
      "riate": 3034,
      "Ġofficer": 3035,
      "Ġespecially": 3036,
      "Ġgar": 3037,
      "eth": 3038,
      "Ġ2006": 3039,
      "Ġheard": 3040,
      "Ġrights": 3041,
      "ihil": 3042,
      "Ġtheory": 3043,
      "Ġmention": 3044,
      "Ġdie": 3045,
      "Ġchinese": 3046,
      "Ġforeign": 3047,
      "Ġactivity": 3048,
      "Ġmc": 3049,
      "Ġsett": 3050,
      "Ġsite": 3051,
      "Ġeld": 3052,
      "Ġfront": 3053,
      "Ġpunjab": 3054,
      "45": 3055,
      "Ġinstead": 3056,
      "Ġminist": 3057,
      "Ġtempor": 3058,
      "ios": 3059,
      "Ġtakes": 3060,
      "Ġsister": 3061,
      "uments": 3062,
      "Ġquar": 3063,
      "Ġremained": 3064,
      "Ġign": 3065,
      "cer": 3066,
      "Ġhus": 3067,
      "Ġacademy": 3068,
      "Ġko": 3069,
      "Ġdavid": 3070,
      "ining": 3071,
      "ested": 3072,
      "ody": 3073,
      "Ġinterv": 3074,
      "Ġoperations": 3075,
      "back": 3076,
      "Ġexact": 3077,
      "Ġopened": 3078,
      "Ġsecretary": 3079,
      "Ġimmediately": 3080,
      "ÑĢ": 3081,
      "ida": 3082,
      "Ġplaying": 3083,
      "Ġrepresented": 3084,
      "Ġwil": 3085,
      "Ġ100": 3086,
      "Ġprivate": 3087,
      "ki": 3088,
      "Ġcens": 3089,
      "Ġmr": 3090,
      "Ġpict": 3091,
      "Ġmark": 3092,
      "Ġfollowed": 3093,
      "Ġnovel": 3094,
      "Ġvalue": 3095,
      "cast": 3096,
      "iety": 3097,
      "Ġball": 3098,
      "urth": 3099,
      "Ġforg": 3100,
      "Ġmedical": 3101,
      "Ġinformation": 3102,
      "Ġdrug": 3103,
      "Ġlog": 3104,
      "cif": 3105,
      "Ġlower": 3106,
      "Ġalt": 3107,
      "Ġexcept": 3108,
      "Ġaccept": 3109,
      "Ġastr": 3110,
      "Ġtraining": 3111,
      "Ġscott": 3112,
      "Ġstudents": 3113,
      "Ġrepresentative": 3114,
      "Ġcommittee": 3115,
      "Ġdan": 3116,
      "Ġengland": 3117,
      "Ġmiddle": 3118,
      "Ġjapanese": 3119,
      "Ġpak": 3120,
      "uted": 3121,
      "Ġservices": 3122,
      "Ġstudies": 3123,
      "Ġcontinued": 3124,
      "Ġrugby": 3125,
      "arent": 3126,
      "Ġsant": 3127,
      "abor": 3128,
      "Ġtext": 3129,
      "Ġseven": 3130,
      "Ġoccasion": 3131,
      "Ġdoing": 3132,
      "Ġconsist": 3133,
      "Ġartic": 3134,
      "Ġcircum": 3135,
      "isely": 3136,
      "Ġpay": 3137,
      "Ġplato": 3138,
      "Ġleading": 3139,
      "Ġmovement": 3140,
      "ota": 3141,
      "igned": 3142,
      "Ġlives": 3143,
      "Ġhospital": 3144,
      "Ñģ": 3145,
      "Ġter": 3146,
      "Ġcoup": 3147,
      "Ġfelt": 3148,
      "Ġcanadian": 3149,
      "Ġagre": 3150,
      "Ġsav": 3151,
      "Ġforces": 3152,
      "liament": 3153,
      "Ġactions": 3154,
      "Ġanalysis": 3155,
      "Ġkapurth": 3156,
      "Ġkapurthala": 3157,
      "ract": 3158,
      "wor": 3159,
      "Ġsac": 3160,
      "Ġfle": 3161,
      "Ġham": 3162,
      "Ġstated": 3163,
      "Ġ2005": 3164,
      "Ġgroups": 3165,
      "Ġradio": 3166,
      "Ġcases": 3167,
      "hest": 3168,
      "Ġhope": 3169,
      "Ġones": 3170,
      "Ġstra": 3171,
      "Ġvot": 3172,
      "Ġsched": 3173,
      "Ġeditor": 3174,
      "Ġ1953": 3175,
      "ola": 3176,
      "Ġstru": 3177,
      "Ġbound": 3178,
      "ago": 3179,
      "Ġfinally": 3180,
      "ship": 3181,
      "Ġ2004": 3182,
      "reat": 3183,
      "Ġru": 3184,
      "Ġdiscuss": 3185,
      "Ġparliament": 3186,
      "Ġtexas": 3187,
      "40": 3188,
      "lim": 3189,
      "Ġconference": 3190,
      "Ġcontract": 3191,
      "Ġepis": 3192,
      "gu": 3193,
      "istan": 3194,
      "Ġ185": 3195,
      "Ġcolon": 3196,
      "Ġfollows": 3197,
      "Ġthinking": 3198,
      "Ġheaven": 3199,
      "Ġreach": 3200,
      "Ġorganization": 3201,
      "Ġimpossible": 3202,
      "leg": 3203,
      "Ġpopular": 3204,
      "Ġthom": 3205,
      "iger": 3206,
      "Ġplaced": 3207,
      "Ġtransl": 3208,
      "Ġmonths": 3209,
      "Ġgentle": 3210,
      "rect": 3211,
      "enced": 3212,
      "Ġmyth": 3213,
      "Ġswed": 3214,
      "year": 3215,
      "icip": 3216,
      "Ġreb": 3217,
      "Ġlik": 3218,
      "Ġcover": 3219,
      "Ġ1988": 3220,
      "Ġvirtue": 3221,
      "Ġsurn": 3222,
      "Ġment": 3223,
      "Ġwashing": 3224,
      "Ġvan": 3225,
      "Ġsuppose": 3226,
      "Ġabsolute": 3227,
      "Ġpow": 3228,
      "itting": 3229,
      "Ġsecurity": 3230,
      "Ġjudg": 3231,
      "ula": 3232,
      "ria": 3233,
      "Ġprevious": 3234,
      "Ġindependent": 3235,
      "arian": 3236,
      "Ġles": 3237,
      "Ġissu": 3238,
      "Ġphot": 3239,
      "Ġmissing": 3240,
      "Ġqueens": 3241,
      "Ġmexico": 3242,
      "Ġ()": 3243,
      "Ġdoor": 3244,
      "Ġacross": 3245,
      "Ġvirgin": 3246,
      "Ġcomedy": 3247,
      "Ġbul": 3248,
      "Ġgh": 3249,
      "iding": 3250,
      "Ġrome": 3251,
      "Ġsuc": 3252,
      "aph": 3253,
      "Ġquick": 3254,
      "Ġconcrete": 3255,
      "Ġaud": 3256,
      "ription": 3257,
      "Ġdoctor": 3258,
      "Ġcolor": 3259,
      "Ġbattle": 3260,
      "Ġcompanies": 3261,
      "Ġmic": 3262,
      "ura": 3263,
      "erson": 3264,
      "oses": 3265,
      "Ġcontribut": 3266,
      "Ġenviron": 3267,
      "23": 3268,
      "ray": 3269,
      "ici": 3270,
      "Ġlady": 3271,
      "Ġamerica": 3272,
      "Ġirish": 3273,
      "Ġaim": 3274,
      "Ġknew": 3275,
      "Ġtv": 3276,
      "Ġaust": 3277,
      "Ġforward": 3278,
      "Ġperce": 3279,
      "ressed": 3280,
      "Ġblood": 3281,
      "Ġcapital": 3282,
      "Ġperformance": 3283,
      "Ġbib": 3284,
      "Ġoriginally": 3285,
      "Ġfourth": 3286,
      "Ġcyclists": 3287,
      "erer": 3288,
      "Ġlord": 3289,
      "196": 3290,
      "Ġhonor": 3291,
      "46": 3292,
      "ask": 3293,
      "amb": 3294,
      "Ġsugg": 3295,
      "rael": 3296,
      "Ġaverage": 3297,
      "Ġpurpose": 3298,
      "izing": 3299,
      "Ġconstruction": 3300,
      "Ġtemple": 3301,
      "Ġcomplete": 3302,
      "Ðº": 3303,
      "Ġstri": 3304,
      "Ġourselves": 3305,
      "Ġschol": 3306,
      "Ġcritic": 3307,
      "Ġpleasure": 3308,
      "Ġachie": 3309,
      "Ġwashington": 3310,
      "field": 3311,
      "nel": 3312,
      "ania": 3313,
      "itz": 3314,
      "asc": 3315,
      "Ġminds": 3316,
      "read": 3317,
      "Ġnames": 3318,
      "Ġunknown": 3319,
      "ifying": 3320,
      "Ġrecorded": 3321,
      "Ġestablishments": 3322,
      "gest": 3323,
      "Ġbow": 3324,
      "Ġdata": 3325,
      "Ġprogress": 3326,
      "Ġcanada": 3327,
      "Ġwriter": 3328,
      "Ġdemon": 3329,
      "Ġlaws": 3330,
      "ening": 3331,
      "Ġcurrently": 3332,
      "bor": 3333,
      "Ġstone": 3334,
      "Ġdiss": 3335,
      "Ġclose": 3336,
      "Ġinstances": 3337,
      "Ġpersons": 3338,
      "Ġproblem": 3339,
      "uz": 3340,
      "eter": 3341,
      "Ġsport": 3342,
      "Ġbridge": 3343,
      "Ġlouis": 3344,
      "Ġtheatre": 3345,
      "25": 3346,
      "head": 3347,
      "Ġlived": 3348,
      "Ġdeveloped": 3349,
      "iro": 3350,
      "Ġleng": 3351,
      "Ġeasily": 3352,
      "craft": 3353,
      "ique": 3354,
      "ny": 3355,
      "asp": 3356,
      "Ġnorm": 3357,
      "Ġsigned": 3358,
      "Ġmanagement": 3359,
      "Ġcru": 3360,
      "Ġisrael": 3361,
      "utions": 3362,
      "Ġrout": 3363,
      "Ġteac": 3364,
      "Ġforms": 3365,
      "Ġpoor": 3366,
      "Ġpath": 3367,
      "Ġaccess": 3368,
      "Ġ1994": 3369,
      "Ġfeeling": 3370,
      "Ġadded": 3371,
      "Ġmedalists": 3372,
      "Ġdig": 3373,
      "Ġsyn": 3374,
      "Ġconvers": 3375,
      "Ġconnection": 3376,
      "Ġhouses": 3377,
      "ox": 3378,
      "ww": 3379,
      "Ġinqu": 3380,
      "Ġhu": 3381,
      "Ġdark": 3382,
      "amer": 3383,
      "Ġincludes": 3384,
      "Ġobserved": 3385,
      "Ġprecisely": 3386,
      "sion": 3387,
      "Ġbene": 3388,
      "ston": 3389,
      "Ġmanif": 3390,
      "Ġgreg": 3391,
      "Ġleaders": 3392,
      "Ġmode": 3393,
      "pal": 3394,
      "itors": 3395,
      "enty": 3396,
      "Ġshown": 3397,
      "Ġ1992": 3398,
      "Ġearl": 3399,
      "Ġoperation": 3400,
      "Ġmartin": 3401,
      "Ġqueensland": 3402,
      "rd": 3403,
      "ville": 3404,
      "iga": 3405,
      "Ġcoast": 3406,
      "Ġmission": 3407,
      "Ġdmit": 3408,
      "ortun": 3409,
      "Ġflor": 3410,
      "ially": 3411,
      "Ġgreatest": 3412,
      "Ġinfluence": 3413,
      "Ġfalse": 3414,
      "Ġfaculty": 3415,
      "Ġtill": 3416,
      "Ġdiscovered": 3417,
      "Ġedition": 3418,
      "Ġ1999": 3419,
      "Ġhong": 3420,
      "Ġconcl": 3421,
      "Ġbox": 3422,
      "Ġschools": 3423,
      "Ġpassed": 3424,
      "cell": 3425,
      "Ġsinger": 3426,
      "Ġstructures": 3427,
      "zech": 3428,
      "Ġlabor": 3429,
      "Ġbed": 3430,
      "Ġfan": 3431,
      "Ġsov": 3432,
      "bour": 3433,
      "this": 3434,
      "Ġproduce": 3435,
      "Ġsand": 3436,
      "Ġlay": 3437,
      "Ġpra": 3438,
      "Ġ1970": 3439,
      "Ġperformed": 3440,
      "Ġcaptain": 3441,
      "Ġpolitician": 3442,
      "stra": 3443,
      "reng": 3444,
      "Ġoppos": 3445,
      "Ġqualities": 3446,
      "Ġinvolved": 3447,
      "Ġtradition": 3448,
      "ds": 3449,
      "Ġda": 3450,
      "Ġselected": 3451,
      "Ġremember": 3452,
      "Ġbreak": 3453,
      "fl": 3454,
      "Ġdim": 3455,
      "Ġplays": 3456,
      "Ġjudge": 3457,
      "Ġtravel": 3458,
      "riage": 3459,
      "Ġbac": 3460,
      "Ġbab": 3461,
      "Ġdanger": 3462,
      "Ġgives": 3463,
      "Ġenvironment": 3464,
      "):": 3465,
      "uit": 3466,
      "ĠÂ": 3467,
      "Ġsight": 3468,
      "Ġbay": 3469,
      "Ġpolic": 3470,
      "Ġallowed": 3471,
      "Ġanimals": 3472,
      "Ġadministration": 3473,
      "Ġreached": 3474,
      "Ġbeet": 3475,
      "aine": 3476,
      "Ġareas": 3477,
      "Ġ1998": 3478,
      "Ġproduct": 3479,
      "Ġil": 3480,
      "erning": 3481,
      "Ġvice": 3482,
      "Ġmont": 3483,
      "Ġswim": 3484,
      "Ġinstrument": 3485,
      "Ġic": 3486,
      "Ġquality": 3487,
      "Ġmoral": 3488,
      "Ġ1997": 3489,
      "Ġ50": 3490,
      "Ġhighest": 3491,
      "Ġsenses": 3492,
      "Ġsilver": 3493,
      "Ġcandidate": 3494,
      "Ġcircumst": 3495,
      "va": 3496,
      "Ġczech": 3497,
      "chan": 3498,
      "aker": 3499,
      "Ġimpl": 3500,
      "Ġtyp": 3501,
      "do": 3502,
      "Ġsir": 3503,
      "vey": 3504,
      "Ġmichael": 3505,
      "iar": 3506,
      "Ġult": 3507,
      "Ġerr": 3508,
      "era": 3509,
      "Ġlibr": 3510,
      "Ġhab": 3511,
      "Ġec": 3512,
      "Ġexpat": 3513,
      "Ġideal": 3514,
      "Ġstudio": 3515,
      "ken": 3516,
      "Ġded": 3517,
      "ume": 3518,
      "Ġrule": 3519,
      "arents": 3520,
      "fin": 3521,
      "ĠÎ": 3522,
      "Ġmist": 3523,
      "Ġkal": 3524,
      "Ġactive": 3525,
      "which": 3526,
      "Ġathletes": 3527,
      "Ġak": 3528,
      "Ġspecif": 3529,
      "Ġleader": 3530,
      "Ġavail": 3531,
      "Ġqueen": 3532,
      "Ġfeatures": 3533,
      "Ġcoming": 3534,
      "ender": 3535,
      "195": 3536,
      "Ġawarded": 3537,
      "Ġlooking": 3538,
      "Ġhistorical": 3539,
      "Ġelections": 3540,
      "Ġvictor": 3541,
      "Ġhusband": 3542,
      "48": 3543,
      "Ġfoc": 3544,
      "Ġnihil": 3545,
      "Ġneigh": 3546,
      "ounded": 3547,
      "Ġens": 3548,
      "Ġetc": 3549,
      "Ġentirely": 3550,
      "Ġcut": 3551,
      "Ġarrest": 3552,
      "Ġtransfer": 3553,
      "Ġsources": 3554,
      "Ġcitizens": 3555,
      "Ġexpect": 3556,
      "Ġfrequ": 3557,
      "Ġstreng": 3558,
      "Ġpeace": 3559,
      "Ġmathem": 3560,
      "Ġstudent": 3561,
      "Ġthomas": 3562,
      "val": 3563,
      "Ġcab": 3564,
      "itable": 3565,
      "Ġire": 3566,
      "Ġobt": 3567,
      "Ġoccup": 3568,
      "spap": 3569,
      "Ġcontempor": 3570,
      "ij": 3571,
      "uf": 3572,
      "Ġmove": 3573,
      "Ġrobert": 3574,
      "Ġpreserv": 3575,
      "Ġ31": 3576,
      "new": 3577,
      "Ġtotality": 3578,
      "Ġfair": 3579,
      "Ġ1996": 3580,
      "Ġconfir": 3581,
      "Ġthroughout": 3582,
      "Ġdetail": 3583,
      "Ġturkey": 3584,
      "Ġsource": 3585,
      "isions": 3586,
      "iano": 3587,
      "Ġknows": 3588,
      "._": 3589,
      "ole": 3590,
      "Ġwid": 3591,
      "ona": 3592,
      "oll": 3593,
      "Ġevident": 3594,
      "Ġactor": 3595,
      "Ġseasons": 3596,
      "like": 3597,
      "Ġsystems": 3598,
      "Ġireland": 3599,
      "dr": 3600,
      "Ġlad": 3601,
      "Ġken": 3602,
      "Ġsoft": 3603,
      "Ġnewspap": 3604,
      "Ġconcerning": 3605,
      "Ġsusp": 3606,
      "Ġangeles": 3607,
      "dyakov": 3608,
      "more": 3609,
      "Ġanton": 3610,
      "Ġgoal": 3611,
      "Ġimper": 3612,
      "Ġros": 3613,
      "Ġforest": 3614,
      "Ġbecoming": 3615,
      "Ġelements": 3616,
      "Ġtechnology": 3617,
      "Ġbibli": 3618,
      "Ġdmitri": 3619,
      "gia": 3620,
      "Ġsmer": 3621,
      "Ġmurder": 3622,
      "ech": 3623,
      "gy": 3624,
      "Ġcred": 3625,
      "Ġeth": 3626,
      "Ġlov": 3627,
      "Ġhear": 3628,
      "ript": 3629,
      "rupt": 3630,
      "Ġentertain": 3631,
      "yer": 3632,
      "Ġstaff": 3633,
      "ube": 3634,
      "Ġwriting": 3635,
      "Ġpreviously": 3636,
      "Ġmagazine": 3637,
      "nis": 3638,
      "cip": 3639,
      "thern": 3640,
      "Ġbron": 3641,
      "Ġdise": 3642,
      "Ġsolid": 3643,
      "Ġastronom": 3644,
      "Ġdemonstr": 3645,
      "=\"": 3646,
      "bl": 3647,
      "Ġafterwards": 3648,
      "Ġcentre": 3649,
      "Ġempire": 3650,
      "Ġcry": 3651,
      "Ġbeat": 3652,
      "Ġcrime": 3653,
      "Ġofficers": 3654,
      "Ġconstitu": 3655,
      "Ġwanted": 3656,
      "Ġhence": 3657,
      "Ġliterature": 3658,
      "Ġsmerdyakov": 3659,
      "24": 3660,
      "just": 3661,
      "win": 3662,
      "Ġhur": 3663,
      "icient": 3664,
      "Ġunity": 3665,
      "aste": 3666,
      "Ġherself": 3667,
      "Ġcorps": 3668,
      "Ġconcept": 3669,
      "ights": 3670,
      "Ġspeaking": 3671,
      "Ġmonth": 3672,
      "Ġkey": 3673,
      "Ġaffairs": 3674,
      "itar": 3675,
      "Ġmess": 3676,
      "Ġnotable": 3677,
      "ops": 3678,
      "Ġactually": 3679,
      "Ġdefin": 3680,
      "Ġsucceed": 3681,
      "resp": 3682,
      "Ġimage": 3683,
      "Ġfootballer": 3684,
      "Ġ1945": 3685,
      "Ġkept": 3686,
      "Ġdifference": 3687,
      "Ġraised": 3688,
      "Ġpoliticians": 3689,
      "Ġjunior": 3690,
      "Ġ2003": 3691,
      "Ġconstitution": 3692,
      "Ġlud": 3693,
      "ols": 3694,
      "Ġchall": 3695,
      "Ġkh": 3696,
      "apt": 3697,
      "Ġgrus": 3698,
      "Ġfirm": 3699,
      "Ġ1993": 3700,
      "Ġsmith": 3701,
      "Ġsubsequ": 3702,
      "Ġhappened": 3703,
      "Ġdetermined": 3704,
      "Ġsportspeople": 3705,
      "Ð²": 3706,
      "Ġhun": 3707,
      "Ġlake": 3708,
      "Ġstars": 3709,
      "Ġshot": 3710,
      "Ġmusical": 3711,
      "Ġinterpretation": 3712,
      "iation": 3713,
      "Ġparents": 3714,
      "iled": 3715,
      "Ġproceed": 3716,
      "alled": 3717,
      "Ġinstant": 3718,
      "Ġ1950": 3719,
      "Ġprize": 3720,
      "Ġnecessity": 3721,
      "Ġanti": 3722,
      "Ġinfinite": 3723,
      "Ġintelligence": 3724,
      "ao": 3725,
      "asing": 3726,
      "Ġconclud": 3727,
      "Ġentered": 3728,
      "Ġdeput": 3729,
      "ving": 3730,
      "Ġcustom": 3731,
      "Ġell": 3732,
      "ques": 3733,
      "Ġ1980": 3734,
      "Ġsurpr": 3735,
      "Ġdecided": 3736,
      "Ġcontrad": 3737,
      "Ġbiography": 3738,
      "Ġpavl": 3739,
      "Ġoh": 3740,
      "Ġmach": 3741,
      "atever": 3742,
      "henka": 3743,
      "Ġsymb": 3744,
      "ero": 3745,
      "Ġdance": 3746,
      "ribution": 3747,
      "Ġgenerally": 3748,
      "Ġ1960": 3749,
      "Ġmi": 3750,
      "ila": 3751,
      "olly": 3752,
      "ett": 3753,
      "Ġdeep": 3754,
      "Ġfood": 3755,
      "Ġ40": 3756,
      "Ġcarried": 3757,
      "Ġsenior": 3758,
      "Ġconditions": 3759,
      "Ġfigure": 3760,
      "Ġsquad": 3761,
      "29": 3762,
      "ĠÏ": 3763,
      "Ġunit": 3764,
      "Ġnote": 3765,
      "Ġorche": 3766,
      "Ġ1995": 3767,
      "Ġfiction": 3768,
      "Ġsouthern": 3769,
      "aught": 3770,
      "Ġdestroy": 3771,
      "Ġtrade": 3772,
      "Ġmorning": 3773,
      "Ġexists": 3774,
      "Ġcarry": 3775,
      "Ġextre": 3776,
      "Ġrequired": 3777,
      "26": 3778,
      "ux": 3779,
      "Ġfrank": 3780,
      "iance": 3781,
      "Ġenter": 3782,
      "Ġversion": 3783,
      "Ġmerely": 3784,
      "oul": 3785,
      "Ġkong": 3786,
      "Ġdeb": 3787,
      "Ġdog": 3788,
      "Ġcompl": 3789,
      "Ġprobably": 3790,
      "Ġok": 3791,
      "orpor": 3792,
      "lement": 3793,
      "Ġresist": 3794,
      "Ġcarl": 3795,
      "Ġheadqu": 3796,
      "Ġcard": 3797,
      "Ġmu": 3798,
      "ensive": 3799,
      "Ġ2002": 3800,
      "Ġinsp": 3801,
      "Ġfrancis": 3802,
      "fa": 3803,
      "ients": 3804,
      "Ġbat": 3805,
      "Ġnations": 3806,
      "Ġvon": 3807,
      "Ġcommer": 3808,
      "Ġ2001": 3809,
      "Ġ1991": 3810,
      "Ġsurv": 3811,
      "Ġanimal": 3812,
      "Ġquarter": 3813,
      "Ġexcl": 3814,
      "agon": 3815,
      "elled": 3816,
      "Ġacts": 3817,
      "Ġsurpass": 3818,
      "Ġpolitics": 3819,
      "Ġescape": 3820,
      "Ġindustry": 3821,
      "Ġgrushenka": 3822,
      "hu": 3823,
      "Ġ!": 3824,
      "Ġjul": 3825,
      "Ġspent": 3826,
      "Ġplant": 3827,
      "Ġhop": 3828,
      "Ġprosec": 3829,
      "Ġletter": 3830,
      "Ġseemed": 3831,
      "Ġprevent": 3832,
      "Ġshooting": 3833,
      "Ġmechan": 3834,
      "Ġgrant": 3835,
      "Ġculture": 3836,
      "Ġcarol": 3837,
      "Ġraj": 3838,
      "Ġislam": 3839,
      "Ġtrib": 3840,
      "Ġbh": 3841,
      "Ġchampion": 3842,
      "Ġapproxim": 3843,
      "hl": 3844,
      "Ġwitness": 3845,
      "Ġreject": 3846,
      "Ġcham": 3847,
      "Ġeffects": 3848,
      "Ġlimited": 3849,
      "Ġnavy": 3850,
      "ko": 3851,
      "Ġtion": 3852,
      "Ġhero": 3853,
      "Ġharm": 3854,
      "Ġreplied": 3855,
      "Ġdespite": 3856,
      "ores": 3857,
      "sue": 3858,
      "ids": 3859,
      "Ġunderst": 3860,
      "Ġconserv": 3861,
      "Ġmodel": 3862,
      "Ġduration": 3863,
      "Ġelder": 3864,
      "ees": 3865,
      "gian": 3866,
      "hs": 3867,
      "ker": 3868,
      "Ġwild": 3869,
      "Ġstay": 3870,
      "Ġproof": 3871,
      "Ġextra": 3872,
      "Ġpractice": 3873,
      "Ġzealand": 3874,
      ".)": 3875,
      "Ġcin": 3876,
      "Ġasian": 3877,
      "Ġinfant": 3878,
      "Ġcapable": 3879,
      "27": 3880,
      "Ġcell": 3881,
      "ching": 3882,
      "Ġpositive": 3883,
      "Ġwrong": 3884,
      "Ġfeatured": 3885,
      "Ġpeter": 3886,
      "Ġfyodorovitch": 3887,
      "Ġvocals": 3888,
      "39": 3889,
      "ications": 3890,
      "Ġready": 3891,
      "Ġcomprehen": 3892,
      "izes": 3893,
      "Ġmaria": 3894,
      "Ġexpatriate": 3895,
      "wood": 3896,
      "yan": 3897,
      "ora": 3898,
      "icated": 3899,
      "ova": 3900,
      "Ġrichard": 3901,
      "Ġopposite": 3902,
      "Ġice": 3903,
      "Ġtro": 3904,
      "Ġcro": 3905,
      "Ġshar": 3906,
      "Ġperpet": 3907,
      "Ġstudied": 3908,
      "being": 3909,
      "Ġhappiness": 3910,
      "Ġreading": 3911,
      "duction": 3912,
      "Ġgods": 3913,
      "Ġlisted": 3914,
      "2016": 3915,
      "Ġproducer": 3916,
      "Ġvictory": 3917,
      "Ġlaunched": 3918,
      "Ġing": 3919,
      "Ġexperiment": 3920,
      "Ġpassion": 3921,
      "Ġbackground": 3922,
      "Ġcompeted": 3923,
      "Ġregional": 3924,
      "Ġreligious": 3925,
      "Ġcollabor": 3926,
      "Ġvirginia": 3927,
      "Ġearlier": 3928,
      "ÑĤ": 3929,
      "Ġox": 3930,
      "encies": 3931,
      "Ġfurn": 3932,
      "Ġluc": 3933,
      "oper": 3934,
      "iful": 3935,
      "Ġminor": 3936,
      "Ġpresented": 3937,
      "Ġphysic": 3938,
      "Ġsexual": 3939,
      "37": 3940,
      "ales": 3941,
      "Ġlif": 3942,
      "oma": 3943,
      "Ġchann": 3944,
      "Ġneare": 3945,
      "Ġtry": 3946,
      "Ġchanged": 3947,
      "Ġbelieved": 3948,
      "Ġparticularly": 3949,
      "respond": 3950,
      "Ġorth": 3951,
      "Ġiron": 3952,
      "Ġgirls": 3953,
      "Ġassistant": 3954,
      "kind": 3955,
      "olf": 3956,
      "Ġcomposed": 3957,
      "Ġattended": 3958,
      "span": 3959,
      "Ġhenry": 3960,
      "Ġfederal": 3961,
      "bed": 3962,
      "hr": 3963,
      "ias": 3964,
      "Ġtar": 3965,
      "ito": 3966,
      "outh": 3967,
      "Ġtrust": 3968,
      "Ġmayor": 3969,
      "Ġenem": 3970,
      "Ġcharles": 3971,
      "anced": 3972,
      "Ġniger": 3973,
      "ela": 3974,
      "Ġmaxim": 3975,
      "Ġcorrespond": 3976,
      "Ġsubstance": 3977,
      "Ġphenomen": 3978,
      "ience": 3979,
      "Ġcas": 3980,
      "Ġont": 3981,
      "Ġkore": 3982,
      "Ġmeasure": 3983,
      "Ġpursu": 3984,
      "Ġinvestigation": 3985,
      "Ġsoviet": 3986,
      "mat": 3987,
      "Ġcold": 3988,
      "Ġmixed": 3989,
      "Ġdyn": 3990,
      "Ġmeant": 3991,
      "Ġserve": 3992,
      "Ġsupposed": 3993,
      "//": 3994,
      "Ġba": 3995,
      "Ġgard": 3996,
      "Ġwhatever": 3997,
      "idae": 3998,
      "aks": 3999,
      "Ġabstr": 4000,
      "Ġcrim": 4001,
      "Ġdirection": 4002,
      "Ġdidn": 4003,
      "Ġwinner": 4004,
      "Ġjohnson": 4005,
      "vers": 4006,
      "orrow": 4007,
      "Ġcollect": 4008,
      "Ġextent": 4009,
      "Ġmexican": 4010,
      "Ġeconomic": 4011,
      "ped": 4012,
      "Ġprovided": 4013,
      "Ġprovince": 4014,
      "Ġcountries": 4015,
      "Ġdesigned": 4016,
      "rep": 4017,
      "rey": 4018,
      "Ġbud": 4019,
      "illed": 4020,
      "ounder": 4021,
      "Ġunconscious": 4022,
      "inate": 4023,
      "inations": 4024,
      "Ġburn": 4025,
      "Ġrange": 4026,
      "Ġtwenty": 4027,
      "Ġscene": 4028,
      "Ġaccom": 4029,
      "Ġstrange": 4030,
      "Ġinnate": 4031,
      "Ġpaper": 4032,
      "Ġexecutive": 4033,
      "Ġguitar": 4034,
      "uals": 4035,
      "Ġash": 4036,
      "Ġprime": 4037,
      "Ġrelated": 4038,
      "Ġsurf": 4039,
      "Ġnumer": 4040,
      "Ġreceive": 4041,
      "Ġprojects": 4042,
      "Ġeastern": 4043,
      "Ġactivities": 4044,
      "47": 4045,
      "://": 4046,
      "kin": 4047,
      "Ġtun": 4048,
      "Ġasc": 4049,
      "ounds": 4050,
      "Ġconcert": 4051,
      "Ġarrang": 4052,
      "Ġberlin": 4053,
      "Ġbibliography": 4054,
      "Ġcongress": 4055,
      "Ġwithd": 4056,
      "Ġmankind": 4057,
      "Ġadop": 4058,
      "Ġpret": 4059,
      "Ġwinners": 4060,
      "Ġbrown": 4061,
      "Ġexplain": 4062,
      "Ġeasy": 4063,
      "Ġjoseph": 4064,
      "ses": 4065,
      "reen": 4066,
      "Ġpu": 4067,
      "Ġhung": 4068,
      "ira": 4069,
      "Ġperman": 4070,
      "Ġteach": 4071,
      "Ġcorpor": 4072,
      "Ġdescription": 4073,
      "Ġchem": 4074,
      "Ġmanager": 4075,
      "Ġavailable": 4076,
      "bar": 4077,
      "how": 4078,
      "Ġpil": 4079,
      "Ġthin": 4080,
      "Ġmunicip": 4081,
      "Ġsurname": 4082,
      "Ġforced": 4083,
      "acity": 4084,
      "Ġusually": 4085,
      "Ġbelief": 4086,
      "Ġministry": 4087,
      "Ġlikely": 4088,
      "Ġlength": 4089,
      "33": 4090,
      "don": 4091,
      "Ġchance": 4092,
      "astic": 4093,
      "Ġconting": 4094,
      "Ġpope": 4095,
      "28": 4096,
      "49": 4097,
      "body": 4098,
      "cher": 4099,
      "owa": 4100,
      "Ġprint": 4101,
      "Ġexisting": 4102,
      "Ġadditional": 4103,
      "come": 4104,
      "Ġmix": 4105,
      "Ġrare": 4106,
      "osen": 4107,
      "Ġgoes": 4108,
      "Ġnoble": 4109,
      "there": 4110,
      "Ġassert": 4111,
      "Ġmedic": 4112,
      "Ġrunning": 4113,
      "Ġsuspect": 4114,
      "Ġsoldiers": 4115,
      "Ġmeeting": 4116,
      "urban": 4117,
      "yes": 4118,
      "andon": 4119,
      "Ġaffect": 4120,
      "Ġexplan": 4121,
      "Ġpiece": 4122,
      "Ġdocument": 4123,
      "gi": 4124,
      "Ġmurd": 4125,
      "ima": 4126,
      "room": 4127,
      "Ġoverall": 4128,
      "Ġpersonnel": 4129,
      "Ġglob": 4130,
      "Ġpowers": 4131,
      "american": 4132,
      "mond": 4133,
      "idents": 4134,
      "Ġspr": 4135,
      "Ġprep": 4136,
      "Ġrepresentatives": 4137,
      "Ġauthority": 4138,
      "Ġow": 4139,
      "Ġnik": 4140,
      "acle": 4141,
      "Ġplat": 4142,
      "Ġweak": 4143,
      "Ġreference": 4144,
      "Ġbenef": 4145,
      "Ð»": 4146,
      "anz": 4147,
      "Ġelev": 4148,
      "Ġstood": 4149,
      "Ġsurr": 4150,
      "track": 4151,
      "\")": 4152,
      "chen": 4153,
      "ali": 4154,
      "Ġunf": 4155,
      "Ġweight": 4156,
      "hesis": 4157,
      "Ġways": 4158,
      "Ġtrial": 4159,
      "Ġargent": 4160,
      "98": 4161,
      "greg": 4162,
      "lor": 4163,
      "Ġchen": 4164,
      "Ġlic": 4165,
      "Ġlear": 4166,
      "Ġglass": 4167,
      "Ġrepublican": 4168,
      "Ġimagine": 4169,
      "ho": 4170,
      "Ġthor": 4171,
      "Ġnotion": 4172,
      "aka": 4173,
      "Ġclosed": 4174,
      "Ġphilosopher": 4175,
      "bon": 4176,
      "Ġmine": 4177,
      "aya": 4178,
      "ables": 4179,
      "elling": 4180,
      "Ġends": 4181,
      "Ġretired": 4182,
      "Ġmosc": 4183,
      "Ġtranscendence": 4184,
      "Ġalexander": 4185,
      "Ġlibrary": 4186,
      "Ġna": 4187,
      "Ġintel": 4188,
      "Ġwonder": 4189,
      "Ġhonour": 4190,
      "Ġrapid": 4191,
      "Ġabstract": 4192,
      "36": 4193,
      "war": 4194,
      "Ġdouble": 4195,
      "Ġgi": 4196,
      "Ġrules": 4197,
      "Ġterror": 4198,
      "rief": 4199,
      "joy": 4200,
      "Ġmas": 4201,
      "ips": 4202,
      "Ġconsists": 4203,
      "Ġflight": 4204,
      "Ġhappy": 4205,
      "Ġheavy": 4206,
      "01": 4207,
      "Ġbang": 4208,
      "Ġformation": 4209,
      "Ġgrey": 4210,
      "azz": 4211,
      "Ġobl": 4212,
      "Ġ1986": 4213,
      "Ġfamous": 4214,
      "Ġyourself": 4215,
      "Ġwinning": 4216,
      "Ġcele": 4217,
      "Ġswe": 4218,
      "Ġcateg": 4219,
      "Ġstim": 4220,
      "Ġ(\"": 4221,
      "Ġspain": 4222,
      "antic": 4223,
      "Ġcompar": 4224,
      "Ġemerg": 4225,
      "Ġboys": 4226,
      "Ġ1989": 4227,
      "Ġslight": 4228,
      "Ġclearly": 4229,
      "Ġsignificant": 4230,
      "Ġpavlovitch": 4231,
      "'d": 4232,
      "aur": 4233,
      "erc": 4234,
      "Ġinternal": 4235,
      "Ġpecul": 4236,
      "Ġindiff": 4237,
      "Ġmarriage": 4238,
      "Ġequal": 4239,
      "Ġquickly": 4240,
      "Ġtree": 4241,
      "Ġaz": 4242,
      "Ġbit": 4243,
      "Ġpier": 4244,
      "aded": 4245,
      "cia": 4246,
      "arters": 4247,
      "Ġamaz": 4248,
      "Ġaircraft": 4249,
      "Ġeye": 4250,
      "Ġtalk": 4251,
      "da": 4252,
      "enge": 4253,
      "Ġchosen": 4254,
      "Ġapprop": 4255,
      "Ġconstruct": 4256,
      "Ġcreation": 4257,
      "Ġathletics": 4258,
      "Ġstrength": 4259,
      "Ġpeculiar": 4260,
      "35": 4261,
      "fil": 4262,
      "ties": 4263,
      "Ġapparent": 4264,
      "Ġ1968": 4265,
      "Ġiii": 4266,
      "Ġignor": 4267,
      "Ġgregor": 4268,
      "Ġfixed": 4269,
      "Ġiowa": 4270,
      "ador": 4271,
      "anded": 4272,
      "erent": 4273,
      "board": 4274,
      "ashion": 4275,
      "Ġholy": 4276,
      "Ġschedule": 4277,
      "Ġcinem": 4278,
      "38": 4279,
      "ror": 4280,
      "sch": 4281,
      "Ġhtt": 4282,
      "Ġdivers": 4283,
      "Ġstad": 4284,
      "achus": 4285,
      "Ġdrink": 4286,
      "Ġphysical": 4287,
      "caa": 4288,
      "Ġmoscow": 4289,
      "ref": 4290,
      "Ġhours": 4291,
      "Ġdate": 4292,
      "eless": 4293,
      "Ġconqu": 4294,
      "theless": 4295,
      "teen": 4296,
      "Ġopportun": 4297,
      "Ġbehav": 4298,
      "Ġarrived": 4299,
      "Ġapart": 4300,
      "Ġreligion": 4301,
      "bi": 4302,
      "lands": 4303,
      "Ġvent": 4304,
      "pper": 4305,
      "Ġdisapp": 4306,
      "Ġspeech": 4307,
      "Ġbrothers": 4308,
      "Ġargument": 4309,
      "Ġunderstood": 4310,
      "iber": 4311,
      "living": 4312,
      "oon": 4313,
      "inet": 4314,
      "Ġfc": 4315,
      "iry": 4316,
      "Ġrub": 4317,
      "raw": 4318,
      "Ġaccomp": 4319,
      "Ġ1985": 4320,
      "Ġtemper": 4321,
      "Ġacquired": 4322,
      "Ġinterview": 4323,
      "Ġcelebr": 4324,
      "eat": 4325,
      "lict": 4326,
      "iced": 4327,
      "Ġthrow": 4328,
      "Ġrat": 4329,
      "Ġcomput": 4330,
      "Ġjoy": 4331,
      "Ġprincipal": 4332,
      "Ġevening": 4333,
      "Ġlegal": 4334,
      "know": 4335,
      "Ġreserve": 4336,
      "Ġbronze": 4337,
      "Ġâ": 4338,
      "Ġnam": 4339,
      "Ġagree": 4340,
      "Ġknowing": 4341,
      "Ġdiscov": 4342,
      "Ġremark": 4343,
      "Ġworkers": 4344,
      "Ġappearances": 4345,
      "Ġcorrect": 4346,
      "Ġeffort": 4347,
      "Ġsuffering": 4348,
      "Ġjewish": 4349,
      "Ġjudgment": 4350,
      "44": 4351,
      "Ġah": 4352,
      "Ġonline": 4353,
      "Ġdear": 4354,
      "Ġ|}": 4355,
      "icket": 4356,
      "Ġmagn": 4357,
      ",-": 4358,
      "Ġtax": 4359,
      "Ġsad": 4360,
      "Ġactors": 4361,
      "Ġnevertheless": 4362,
      "Ġadvant": 4363,
      "Ġresponsible": 4364,
      "Ġnetwork": 4365,
      "Ġintellect": 4366,
      "rich": 4367,
      "ued": 4368,
      "Ġvote": 4369,
      "Ġblue": 4370,
      "Ġdifficulty": 4371,
      "Ġarchitecture": 4372,
      "Ġbroadcast": 4373,
      "hic": 4374,
      "Ġcov": 4375,
      "eland": 4376,
      "rog": 4377,
      "Ġali": 4378,
      "Ġrevolution": 4379,
      "Ġavoid": 4380,
      "Ġessence": 4381,
      "Ġmentioned": 4382,
      "min": 4383,
      "het": 4384,
      "Ġos": 4385,
      "Ġsocr": 4386,
      "Ġfinn": 4387,
      "Ġportug": 4388,
      "hab": 4389,
      "isk": 4390,
      "oral": 4391,
      "Ġpul": 4392,
      "Ġhour": 4393,
      "iling": 4394,
      "Ġforget": 4395,
      "Ġnoted": 4396,
      "Ġye": 4397,
      "Ġsupre": 4398,
      "Ġtrump": 4399,
      "Ġacting": 4400,
      "Ġfinan": 4401,
      "Ġjob": 4402,
      "Ġexpressed": 4403,
      "Ġdefined": 4404,
      "Ġessential": 4405,
      "Ġhyp": 4406,
      "Ġfavour": 4407,
      "Ġcircumstances": 4408,
      "'re": 4409,
      ");": 4410,
      "Ġncaa": 4411,
      "anda": 4412,
      "Ġspok": 4413,
      "ovna": 4414,
      "Ġminute": 4415,
      "Ġcharacters": 4416,
      "Ġimpression": 4417,
      "Ġracing": 4418,
      "ulated": 4419,
      "Ġjump": 4420,
      "otten": 4421,
      "Ġprix": 4422,
      "Ġlatin": 4423,
      "eas": 4424,
      "inent": 4425,
      "anian": 4426,
      "idden": 4427,
      "Ġdirectly": 4428,
      "Ġdecision": 4429,
      "Ġopening": 4430,
      "Ġpatient": 4431,
      "Ġfully": 4432,
      "Ġapproximately": 4433,
      "uous": 4434,
      "west": 4435,
      "Ġpage": 4436,
      "Ġnation": 4437,
      "Ġlot": 4438,
      "Ġgal": 4439,
      "under": 4440,
      "chi": 4441,
      "Ġcompared": 4442,
      "Ġphilosophers": 4443,
      "Ġstanding": 4444,
      "Ġepisode": 4445,
      "08": 4446,
      "vin": 4447,
      "Ġoce": 4448,
      "onia": 4449,
      "Ġgym": 4450,
      "Ġrate": 4451,
      "Ġthereby": 4452,
      "place": 4453,
      "Ġotherwise": 4454,
      "Ġcontains": 4455,
      "2015": 4456,
      "Ġfinds": 4457,
      "Ġcompletely": 4458,
      "Ġstatistics": 4459,
      "Ġindividuals": 4460,
      "Ġsubstances": 4461,
      "Ġelement": 4462,
      "Ġtaught": 4463,
      "isa": 4464,
      "Ġfashion": 4465,
      "Ġpac": 4466,
      "ushed": 4467,
      "olit": 4468,
      "Ġparties": 4469,
      "Ġactual": 4470,
      "Ġ1930": 4471,
      "Ġarms": 4472,
      "Ġbeautiful": 4473,
      "Ġexactly": 4474,
      "Ġroute": 4475,
      "ste": 4476,
      "iang": 4477,
      "Ġserb": 4478,
      "Ġengaged": 4479,
      "Ġdiscovery": 4480,
      "Ġsensation": 4481,
      "Ġgreece": 4482,
      "Ġintroduced": 4483,
      "Ġbesides": 4484,
      "Ġconclusion": 4485,
      "Ġmathemat": 4486,
      "Ġcontemporary": 4487,
      "Ġtried": 4488,
      "isation": 4489,
      "Ġalign": 4490,
      "Ġenjoy": 4491,
      "Ġminutes": 4492,
      "Ġquestions": 4493,
      "Ġlimit": 4494,
      "Ġsquare": 4495,
      "Ġlegislative": 4496,
      "Ġpas": 4497,
      "Ġhaw": 4498,
      "arm": 4499,
      "Ġsole": 4500,
      "Ġescap": 4501,
      "Ġexamples": 4502,
      "Ġnumerous": 4503,
      "light": 4504,
      "Ġwaking": 4505,
      "Ġfat": 4506,
      "Ġverm": 4507,
      "Ġdescent": 4508,
      "Ġscore": 4509,
      "Ġmetres": 4510,
      "Ġstarting": 4511,
      "Ġukr": 4512,
      "cle": 4513,
      "Ġfast": 4514,
      "Ġpy": 4515,
      "Ġthreat": 4516,
      "ears": 4517,
      "Ġreplaced": 4518,
      "Ġmountain": 4519,
      "Ġgallery": 4520,
      "Ġpakistan": 4521,
      "bc": 4522,
      "she": 4523,
      "Ä±": 4524,
      "Ġbear": 4525,
      "ems": 4526,
      "Ġspring": 4527,
      "Ġresour": 4528,
      "Ġobv": 4529,
      "Ġmatches": 4530,
      "Ġ1987": 4531,
      "Ġfarm": 4532,
      "Ġbasis": 4533,
      "Ġengineering": 4534,
      "Ġswedish": 4535,
      "Ġnewspaper": 4536,
      "07": 4537,
      "wa": 4538,
      "Ġbass": 4539,
      "Ġrise": 4540,
      "Ġjer": 4541,
      "Ġregiment": 4542,
      "Ġ1984": 4543,
      "Ġcompetitions": 4544,
      "Ġmajority": 4545,
      "Ġincrease": 4546,
      "Ġur": 4547,
      "aling": 4548,
      "Ġnic": 4549,
      "Ġnative": 4550,
      "Ġthou": 4551,
      "Ġbelow": 4552,
      "uten": 4553,
      "resh": 4554,
      "Ġabandon": 4555,
      "Ġscul": 4556,
      "Ġprovide": 4557,
      "Ġdistinguished": 4558,
      "Ġstraight": 4559,
      "Ġgentlemen": 4560,
      "ris": 4561,
      "aked": 4562,
      "Ġexpected": 4563,
      "Ġended": 4564,
      "Ġvariety": 4565,
      "Ġapproach": 4566,
      "Ġconceive": 4567,
      "Ġtheater": 4568,
      "Ġbeg": 4569,
      "utor": 4570,
      "uses": 4571,
      "Ġunits": 4572,
      "Ġjac": 4573,
      "ift": 4574,
      "Ġmemor": 4575,
      "Ġsenator": 4576,
      "Ġ1969": 4577,
      "ancing": 4578,
      "Ġtyr": 4579,
      "Ġdetermine": 4580,
      "Ġhat": 4581,
      "Ġdoct": 4582,
      "ression": 4583,
      "Ġserious": 4584,
      "standing": 4585,
      "Ġidentity": 4586,
      "Ġstimul": 4587,
      "Ġsocrates": 4588,
      "Ġsculpt": 4589,
      "Ġanx": 4590,
      "Ġdail": 4591,
      "iring": 4592,
      "odes": 4593,
      "Ġserving": 4594,
      "Ġdrum": 4595,
      "Ġdefeated": 4596,
      "Ġmusicians": 4597,
      "90": 4598,
      "Ġopt": 4599,
      "Ġpiano": 4600,
      "icked": 4601,
      "Ġclubs": 4602,
      "Ġlearned": 4603,
      "Ġsubsequently": 4604,
      "Ġorchestra": 4605,
      "Ġstadium": 4606,
      ".[": 4607,
      "pur": 4608,
      "ven": 4609,
      "Ġtel": 4610,
      "Ġtend": 4611,
      "Ġbern": 4612,
      "Ġlies": 4613,
      "uru": 4614,
      "ella": 4615,
      "Ġoffered": 4616,
      "Ġinfer": 4617,
      "Ġsurvey": 4618,
      "Ġgiving": 4619,
      "Ġreasons": 4620,
      "Ġgraduated": 4621,
      "ufact": 4622,
      "hiana": 4623,
      "Ġtoday": 4624,
      "Ġarab": 4625,
      "Ġsearch": 4626,
      "Ġplain": 4627,
      "Ġfloor": 4628,
      "Ġextension": 4629,
      "Ġbaseball": 4630,
      "Ġfifth": 4631,
      "Ġphilippines": 4632,
      "Ġludhiana": 4633,
      "met": 4634,
      "ented": 4635,
      "ether": 4636,
      "Ġchic": 4637,
      "Ġprove": 4638,
      "ishment": 4639,
      "Ġrecent": 4640,
      "Ġpoly": 4641,
      "Ġgenus": 4642,
      "Ġcommunities": 4643,
      "Ġsupported": 4644,
      "Ġbeauty": 4645,
      "Ġcensus": 4646,
      "las": 4647,
      "Ġbon": 4648,
      "Ġcub": 4649,
      "Ġmik": 4650,
      "olved": 4651,
      "Ġaspect": 4652,
      "Ġjack": 4653,
      "pped": 4654,
      "Ġups": 4655,
      "Ġflorida": 4656,
      "Ġdaily": 4657,
      "can": 4658,
      "Ġfer": 4659,
      "osing": 4660,
      "Ġlee": 4661,
      "Ġmanufact": 4662,
      "Ġadam": 4663,
      "raid": 4664,
      "Ġentr": 4665,
      "oubles": 4666,
      "Ġobserve": 4667,
      "Ġeventually": 4668,
      "Ġcaused": 4669,
      "Ġengineer": 4670,
      "Ġpremier": 4671,
      "Ġcandidates": 4672,
      "Ġproblems": 4673,
      "Ġsacr": 4674,
      "Ġphenomenon": 4675,
      "Ġsupreme": 4676,
      "iat": 4677,
      "Ġbott": 4678,
      "inger": 4679,
      "Ġstrict": 4680,
      "ette": 4681,
      "Ġrak": 4682,
      "odox": 4683,
      "Ġsubjects": 4684,
      "Ġmultip": 4685,
      "Ġdisease": 4686,
      "oh": 4687,
      "una": 4688,
      "Ġagric": 4689,
      "Ġsaf": 4690,
      "Ġremoved": 4691,
      "Ġtransform": 4692,
      "center": 4693,
      "Ġopera": 4694,
      "Ġvalley": 4695,
      "anned": 4696,
      "Ġrequire": 4697,
      "Ġhardly": 4698,
      "Ġconcerned": 4699,
      "Ġmedicine": 4700,
      "mark": 4701,
      "rs": 4702,
      "ware": 4703,
      "Ġsart": 4704,
      "Ġped": 4705,
      "Ġdar": 4706,
      "Ġdial": 4707,
      "Ġisa": 4708,
      "Ġstations": 4709,
      "Ġimpro": 4710,
      "Ġseeing": 4711,
      "Ġfacticity": 4712,
      "Ġ1967": 4713,
      "Ġlargest": 4714,
      "Ġequally": 4715,
      "Ġprotection": 4716,
      "Ġstrugg": 4717,
      "Ġcav": 4718,
      "Ġhit": 4719,
      "Ġhither": 4720,
      "Ġexcell": 4721,
      "Ġleaving": 4722,
      "Ġrepro": 4723,
      "ĠĠĠĠĠĠĠĠĠĠĠĠĠĠĠĠ": 4724,
      "Ġseparate": 4725,
      "Ġtow": 4726,
      "Ġwholly": 4727,
      "Ġrepeated": 4728,
      "Ġadmit": 4729,
      "Ġsemi": 4730,
      "Ġchairman": 4731,
      "Ġtouch": 4732,
      "70": 4733,
      "inn": 4734,
      "Ġcrow": 4735,
      "ider": 4736,
      "essed": 4737,
      "Ġintention": 4738,
      "Ġtru": 4739,
      "Ġfeet": 4740,
      "Ġafraid": 4741,
      "reek": 4742,
      "Ġannual": 4743,
      "Ġcontinue": 4744,
      "Ġdeclared": 4745,
      "Ġconsequently": 4746,
      "Ġagricult": 4747,
      "Ġcart": 4748,
      "Ġincl": 4749,
      "Ġchand": 4750,
      "Ġscored": 4751,
      "Ġmatters": 4752,
      "Ġdivine": 4753,
      "Ġdoubles": 4754,
      "Ġchannel": 4755,
      "Ġexplanation": 4756,
      "32": 4757,
      "hum": 4758,
      "ls": 4759,
      "Ġtrop": 4760,
      "Ġfine": 4761,
      "ione": 4762,
      "Ġaltern": 4763,
      "Ġrose": 4764,
      "Ġincumb": 4765,
      "Ġcreate": 4766,
      "Ġexplained": 4767,
      "Ġprotect": 4768,
      "Ġmulti": 4769,
      "gal": 4770,
      "ãĢ": 4771,
      "Ġcovered": 4772,
      "Ġhind": 4773,
      "uries": 4774,
      "Ġpray": 4775,
      "ctions": 4776,
      "Ġexped": 4777,
      "Ġoffer": 4778,
      "mann": 4779,
      "Ġcharl": 4780,
      "Ġclassical": 4781,
      "Ġorganizations": 4782,
      "Ġcharts": 4783,
      "Ġscientific": 4784,
      "Ġmanifest": 4785,
      "Ġgymn": 4786,
      "mad": 4787,
      "Ġod": 4788,
      "Ġconception": 4789,
      "osis": 4790,
      "Ġmoreover": 4791,
      "Ġactress": 4792,
      "Ġwrite": 4793,
      "Ġaware": 4794,
      "Ġliberty": 4795,
      "Ġmental": 4796,
      "wan": 4797,
      "eral": 4798,
      "Ġly": 4799,
      "iments": 4800,
      "Ġrefers": 4801,
      "Ġcontact": 4802,
      "lesh": 4803,
      "Ġcounter": 4804,
      "Ġ1977": 4805,
      "Ġloss": 4806,
      "Ġalongside": 4807,
      "Ġsuccessful": 4808,
      "Ġscholars": 4809,
      "mir": 4810,
      "uct": 4811,
      "Ġsab": 4812,
      "Ġwishes": 4813,
      "itage": 4814,
      "oured": 4815,
      "Ġasia": 4816,
      "Ġexerc": 4817,
      "akh": 4818,
      "Ġplot": 4819,
      "ourse": 4820,
      "Ġlaid": 4821,
      "Ġ1940": 4822,
      "Ġacademic": 4823,
      "Ġpolicy": 4824,
      "Ġchamber": 4825,
      "Ġnearest": 4826,
      "ding": 4827,
      "anth": 4828,
      "isher": 4829,
      "Ġmit": 4830,
      "Ġunable": 4831,
      "Ġcloud": 4832,
      "Ġpublishing": 4833,
      "2013": 4834,
      "2014": 4835,
      "Ġdipl": 4836,
      "Ġsitu": 4837,
      "Ġlieuten": 4838,
      "Ġinitially": 4839,
      "ares": 4840,
      "Ġdor": 4841,
      "irk": 4842,
      "Ġseat": 4843,
      "Ġintended": 4844,
      "Ġpreced": 4845,
      "rible": 4846,
      "Ġextended": 4847,
      "iority": 4848,
      "Ġopposition": 4849,
      "Ġtennis": 4850,
      "Ġorthodox": 4851,
      "34": 4852,
      "bre": 4853,
      "jan": 4854,
      "why": 4855,
      "zo": 4856,
      "Ġmob": 4857,
      "Ġanth": 4858,
      "oms": 4859,
      "imb": 4860,
      "igen": 4861,
      "Ġvia": 4862,
      "ogue": 4863,
      "Ġdesires": 4864,
      "Ġsecondary": 4865,
      "Ġstandard": 4866,
      "Ġconsideration": 4867,
      "Ġantonio": 4868,
      "Ġdeputy": 4869,
      "dist": 4870,
      "icit": 4871,
      "ils": 4872,
      "Ġrio": 4873,
      "Ġjacks": 4874,
      "Ġheritage": 4875,
      "Ġmah": 4876,
      "Ġlocation": 4877,
      "Ġcrew": 4878,
      "Ġjean": 4879,
      "Ġbishops": 4880,
      "Ġvehic": 4881,
      "Ġfavor": 4882,
      "Ġmd": 4883,
      "Ġnine": 4884,
      "isted": 4885,
      "Ġquant": 4886,
      "Ġscar": 4887,
      "Ġpossibilities": 4888,
      "Ġpromoted": 4889,
      "Ġgolden": 4890,
      "Ġteacher": 4891,
      "31": 4892,
      "bit": 4893,
      "ĠÐ": 4894,
      "onic": 4895,
      "Ġperm": 4896,
      "Ġattribut": 4897,
      "Ġattract": 4898,
      "Ġwarm": 4899,
      "Ġladies": 4900,
      "Ġinfantry": 4901,
      "06": 4902,
      "iy": 4903,
      "pa": 4904,
      "Ġurban": 4905,
      "Ġau": 4906,
      "Ġwis": 4907,
      "Ġmort": 4908,
      "dors": 4909,
      "Ġago": 4910,
      "Ġwhereas": 4911,
      "Ġmax": 4912,
      "Ġclaimed": 4913,
      "Ġnormal": 4914,
      "orporated": 4915,
      "Ġcriminal": 4916,
      "Ġadvantage": 4917,
      "Ġfinancial": 4918,
      "Ġanne": 4919,
      "Ġreception": 4920,
      "ilst": 4921,
      "ulous": 4922,
      "Ġjones": 4923,
      "Ġgrig": 4924,
      "Ġempt": 4925,
      "Ġ1974": 4926,
      "Ġauthorities": 4927,
      "Ġbrazilian": 4928,
      "Ġissues": 4929,
      "Ġastronomer": 4930,
      "bb": 4931,
      "house": 4932,
      "ns": 4933,
      "Ġflesh": 4934,
      "Ġstream": 4935,
      "Ġshop": 4936,
      "Ġshame": 4937,
      "Ġ1971": 4938,
      "Ġprofile": 4939,
      "Ġaffir": 4940,
      "Ġsufficient": 4941,
      "Ġcathed": 4942,
      "Ġtreatment": 4943,
      "Ġfrequently": 4944,
      "95": 4945,
      "Ġcities": 4946,
      "Ġmut": 4947,
      "ional": 4948,
      "urally": 4949,
      "Ġchildhood": 4950,
      "Ġ1962": 4951,
      "Ġadvanced": 4952,
      "Ġchoose": 4953,
      "Ġconnected": 4954,
      "Ġderived": 4955,
      "gypt": 4956,
      "Ġglobal": 4957,
      "Ġfinnish": 4958,
      "84": 4959,
      "uv": 4960,
      "Ġax": 4961,
      "Ġlose": 4962,
      "lya": 4963,
      "Ġreflected": 4964,
      "Ġwinter": 4965,
      "Ġadvance": 4966,
      "Ġcritical": 4967,
      "Ġviolence": 4968,
      "Ġarticle": 4969,
      "Ġsurface": 4970,
      "Ġlieutenant": 4971,
      "Ġjackson": 4972,
      "Ġsel": 4973,
      "itory": 4974,
      "Ġunless": 4975,
      "estic": 4976,
      "Ġadmitted": 4977,
      "Ġpurch": 4978,
      "Ġpremi": 4979,
      "Ġcomposer": 4980,
      "Î±": 4981,
      "onents": 4982,
      "Ġbc": 4983,
      "Ġnan": 4984,
      "Ġwhilst": 4985,
      "road": 4986,
      "Ġtrying": 4987,
      "Ġtele": 4988,
      "aterina": 4989,
      "Ġgeneration": 4990,
      "Ġshowed": 4991,
      "Ġobsc": 4992,
      "Ġderby": 4993,
      "Ġimportance": 4994,
      "Ġordinary": 4995,
      "Ġwindow": 4996,
      "Ġconfirmed": 4997,
      "Ġsartre": 4998,
      "Ġwisc": 4999,
      "Ġfant": 5000,
      "ogether": 5001,
      "sibility": 5002,
      "Ġsensible": 5003,
      "Ġqualified": 5004,
      "Ġcontempl": 5005,
      "Ġparticipated": 5006,
      "Ġchicago": 5007,
      "42": 5008,
      "aud": 5009,
      "Ġfounder": 5010,
      "otic": 5011,
      "Ġarist": 5012,
      "Ġspl": 5013,
      "Ġearned": 5014,
      "onsin": 5015,
      "Ġdivisions": 5016,
      "Ġpriest": 5017,
      "Ġdomin": 5018,
      "Ġhabit": 5019,
      "Ġheadquarters": 5020,
      "Ġcommercial": 5021,
      "oring": 5022,
      "Ġegypt": 5023,
      "Ġgul": 5024,
      "Ġgone": 5025,
      "unk": 5026,
      "Ġstan": 5027,
      "establ": 5028,
      "Ġgoals": 5029,
      "Ġ36": 5030,
      "Ġ1983": 5031,
      "Ġpublications": 5032,
      "Ġorganized": 5033,
      "Ġassociated": 5034,
      "Ġdiam": 5035,
      "Ġcatal": 5036,
      "Ġrecognition": 5037,
      "burgh": 5038,
      "Ġwisconsin": 5039,
      "97": 5040,
      ";\"": 5041,
      "ran": 5042,
      "zy": 5043,
      "Ġhay": 5044,
      "asm": 5045,
      "Ġgro": 5046,
      "Ġissue": 5047,
      "Ġnotice": 5048,
      "ishi": 5049,
      "Ġbrig": 5050,
      "Ġblock": 5051,
      "Ġ1981": 5052,
      "Ġmetal": 5053,
      "Ġrecording": 5054,
      "Ġpossession": 5055,
      "Ġduty": 5056,
      "Ġopportunity": 5057,
      "uge": 5058,
      "Ġsri": 5059,
      "amaz": 5060,
      "Ġspot": 5061,
      "asty": 5062,
      "ologist": 5063,
      "Ġmoving": 5064,
      "Ġlimits": 5065,
      "Ġpoetry": 5066,
      "cont": 5067,
      "lav": 5068,
      "Ġsky": 5069,
      "Ġwants": 5070,
      "Ġfell": 5071,
      "asy": 5072,
      "Ġeu": 5073,
      "iles": 5074,
      "cel": 5075,
      "emble": 5076,
      "Ġsees": 5077,
      "Ġ1978": 5078,
      "Ġgetting": 5079,
      "Ġvisit": 5080,
      "Ġnearly": 5081,
      "Ġfederation": 5082,
      "Ġlearning": 5083,
      "mas": 5084,
      "Ġreform": 5085,
      "Ġpossibly": 5086,
      "Ġsynt": 5087,
      "Ġcalls": 5088,
      "book": 5089,
      "Ġofficials": 5090,
      "Ġpropos": 5091,
      "Ġhorse": 5092,
      "Ġfailed": 5093,
      "Ġfeaturing": 5094,
      "bu": 5095,
      "eks": 5096,
      "lv": 5097,
      "Ġsed": 5098,
      "Ġcem": 5099,
      "Ġmast": 5100,
      "Ġkiss": 5101,
      "Ġspite": 5102,
      "Ġcontest": 5103,
      "Ġefforts": 5104,
      "Ġclasses": 5105,
      "Ġcondem": 5106,
      "Ġstatement": 5107,
      "Ġapplied": 5108,
      "Ġperfectly": 5109,
      "Ġscottish": 5110,
      "ram": 5111,
      "rid": 5112,
      "change": 5113,
      "Ġrow": 5114,
      "Ġfinish": 5115,
      "Ġholds": 5116,
      "Ġ1979": 5117,
      "Ġclean": 5118,
      "Ġivanovna": 5119,
      "Ġimmediate": 5120,
      "Ġwait": 5121,
      "Ġcarolina": 5122,
      "Ġaccompl": 5123,
      "will": 5124,
      "Ġstakes": 5125,
      "Ġunjust": 5126,
      "Ġbranch": 5127,
      "187": 5128,
      "Ġsuffer": 5129,
      "Ġqualifying": 5130,
      "Ġpicture": 5131,
      "Ġcolorado": 5132,
      "Ġprosecutor": 5133,
      "],": 5134,
      "dney": 5135,
      "hol": 5136,
      "nier": 5137,
      "Ġwide": 5138,
      "Ġloved": 5139,
      "Ġremaining": 5140,
      "Ġseek": 5141,
      "Ġacknow": 5142,
      "Ġcapacity": 5143,
      "Ġnumbers": 5144,
      "Ġ1942": 5145,
      "Ġdigital": 5146,
      "Ġtaste": 5147,
      "Ġwel": 5148,
      "Ġjim": 5149,
      "ager": 5150,
      "Ġlect": 5151,
      "Ġscreen": 5152,
      "Ġsingh": 5153,
      "Ġpole": 5154,
      "Ġpromotion": 5155,
      "Ġdaniel": 5156,
      "86": 5157,
      "cing": 5158,
      "och": 5159,
      "rom": 5160,
      "ua": 5161,
      "Ġcere": 5162,
      "athe": 5163,
      "Ġstories": 5164,
      "Ġleaves": 5165,
      "Ġmarc": 5166,
      "Ġpolish": 5167,
      "Ġregul": 5168,
      "Ġassigned": 5169,
      "Ġmonaster": 5170,
      "Ġbelongs": 5171,
      "Ġaltogether": 5172,
      "05": 5173,
      "rat": 5174,
      "Ġot": 5175,
      "Ġshare": 5176,
      "Ġupper": 5177,
      "Ġemper": 5178,
      "Ġfacts": 5179,
      "Ġjuan": 5180,
      "Ġ1965": 5181,
      "Ġprofound": 5182,
      "Ġinside": 5183,
      "Ġmalays": 5184,
      "Ġtells": 5185,
      "Ġpictures": 5186,
      "Ġentertainment": 5187,
      "hold": 5188,
      "iny": 5189,
      "Ġbrief": 5190,
      "Ġcomment": 5191,
      "Ġproport": 5192,
      "Ġ75": 5193,
      "Ġhappen": 5194,
      "Ġpresidential": 5195,
      "Ġordered": 5196,
      "Ġislands": 5197,
      "Ġsymbol": 5198,
      "04": 5199,
      "conscious": 5200,
      "wide": 5201,
      "rees": 5202,
      "Ġbomb": 5203,
      "Ġjaland": 5204,
      "Ġcomposition": 5205,
      "rence": 5206,
      "Ġimpul": 5207,
      "Ġcricket": 5208,
      "Ġ1938": 5209,
      "Ġirr": 5210,
      "Ġadvis": 5211,
      "Ġabsence": 5212,
      "Ġdelight": 5213,
      "Ġpatri": 5214,
      "Ġdrawn": 5215,
      "Ġnegative": 5216,
      "Ġcommander": 5217,
      "09": 5218,
      "ging": 5219,
      "part": 5220,
      "rick": 5221,
      "Ġ;": 5222,
      "Ġtask": 5223,
      "aven": 5224,
      "Ġka": 5225,
      "Ġcolumb": 5226,
      "ologists": 5227,
      "Ġhelped": 5228,
      "Ġincreased": 5229,
      "Ġresponse": 5230,
      "rovers": 5231,
      "sk": 5232,
      "Ġsitting": 5233,
      "Ġms": 5234,
      "Ġmand": 5235,
      "Ġsust": 5236,
      "Ġmyst": 5237,
      "Ġsingers": 5238,
      "Ġservant": 5239,
      "Ġconflict": 5240,
      "Ġgrowth": 5241,
      "Ġreasoning": 5242,
      "Ġfalls": 5243,
      "Ġpermanent": 5244,
      "Ġjalandhar": 5245,
      "Ġtam": 5246,
      "ori": 5247,
      "Ġdun": 5248,
      "Ġdro": 5249,
      "icks": 5250,
      "Ġisol": 5251,
      "Ġstock": 5252,
      "Ġalle": 5253,
      "Ġjes": 5254,
      "Ġshad": 5255,
      "Ġrecon": 5256,
      "Ġ1963": 5257,
      "Ġ1952": 5258,
      "Ġpeters": 5259,
      "Ġmiller": 5260,
      "Ġmotor": 5261,
      "Ġships": 5262,
      "Ġcorner": 5263,
      "Ġtraditional": 5264,
      "Ġtransferred": 5265,
      "Ġmultiple": 5266,
      "fs": 5267,
      "vi": 5268,
      "Ġta": 5269,
      "Ġsave": 5270,
      "Ġsons": 5271,
      "Ġwise": 5272,
      "enn": 5273,
      "omatic": 5274,
      "Ġrac": 5275,
      "Ġ1920": 5276,
      "Ġattend": 5277,
      "Ġattitude": 5278,
      "Ġformat": 5279,
      "Ġflore": 5280,
      "Ġleads": 5281,
      "Ġliterary": 5282,
      "Ġassume": 5283,
      "oe": 5284,
      "Ġbond": 5285,
      "Ġhang": 5286,
      "Ġlying": 5287,
      "Ġhell": 5288,
      "Ġconver": 5289,
      "Ġkat": 5290,
      "aints": 5291,
      "Ġpartners": 5292,
      "Ġfinals": 5293,
      "Ġcharge": 5294,
      "Ġdefend": 5295,
      "186": 5296,
      "Ġeliz": 5297,
      "Ġ1975": 5298,
      "Ġ1957": 5299,
      "Ġpassing": 5300,
      "ĠĠĠĠĠĠĠĠĠ": 5301,
      "iliar": 5302,
      "Ġsignificance": 5303,
      "sen": 5304,
      "heast": 5305,
      "Ġreduced": 5306,
      "state": 5307,
      "Ġjon": 5308,
      "Ġcontrovers": 5309,
      "Ġprepar": 5310,
      "Ġ45": 5311,
      "Ġanswered": 5312,
      "2017": 5313,
      "Ġtowns": 5314,
      "bridge": 5315,
      "yers": 5316,
      "itin": 5317,
      "icide": 5318,
      "Ġposit": 5319,
      "Ġemb": 5320,
      "Ġcooper": 5321,
      "Ġaccident": 5322,
      "Ġjoin": 5323,
      "Ġ1933": 5324,
      "Ġ1936": 5325,
      "Ġsilent": 5326,
      "Ġbegins": 5327,
      "Ġacquaint": 5328,
      "Ġnaval": 5329,
      "Ġnarrow": 5330,
      "Ġprisoner": 5331,
      "Ġthinks": 5332,
      "based": 5333,
      "Ġsake": 5334,
      "icial": 5335,
      "utely": 5336,
      "Ġgram": 5337,
      "Ġconsult": 5338,
      "Ġedward": 5339,
      "Ġ1939": 5340,
      "Ġsuffered": 5341,
      "Ġlosing": 5342,
      "Ġtemporal": 5343,
      "Ġextrem": 5344,
      "Ġresistance": 5345,
      "Ġoxford": 5346,
      "Ġinner": 5347,
      "ingly": 5348,
      "Ġandre": 5349,
      "Ġstands": 5350,
      "etts": 5351,
      "Ġbeings": 5352,
      "Ġactresses": 5353,
      "Ġchurches": 5354,
      "Ġmanaged": 5355,
      "Ġpainting": 5356,
      "from": 5357,
      "Ġkolya": 5358,
      "Ġproducts": 5359,
      "Ġspecific": 5360,
      "Ġoblig": 5361,
      "Ġconstructed": 5362,
      "car": 5363,
      "object": 5364,
      "Ġmits": 5365,
      "Ġdub": 5366,
      "Ġforb": 5367,
      "Ġring": 5368,
      "Ġmodes": 5369,
      "Ġsuccession": 5370,
      "Ġlabour": 5371,
      "Ġsucceeded": 5372,
      "equ": 5373,
      "ji": 5374,
      "atively": 5375,
      "Ġhug": 5376,
      "icate": 5377,
      "Ġplants": 5378,
      "Ġuses": 5379,
      "others": 5380,
      "Ġ35": 5381,
      "Ġgrew": 5382,
      "Ġowned": 5383,
      "Ġdemand": 5384,
      "Ġletters": 5385,
      "Ġmiles": 5386,
      "Ġhonours": 5387,
      "Ġmaterials": 5388,
      "Ġreferred": 5389,
      "Ġexhibition": 5390,
      "Ġarrested": 5391,
      "bel": 5392,
      "ui": 5393,
      "Ã¸": 5394,
      "real": 5395,
      "esc": 5396,
      "Ġek": 5397,
      "Ġvs": 5398,
      "tery": 5399,
      "abeth": 5400,
      "Ġyout": 5401,
      "Ġagency": 5402,
      "Ġlawyer": 5403,
      "Ġelectron": 5404,
      "Ġinnoc": 5405,
      "Ġdomestic": 5406,
      "Ġbeetles": 5407,
      "Ġerror": 5408,
      "Ġocean": 5409,
      "Ġgrigory": 5410,
      "02": 5411,
      "Ġsund": 5412,
      "isp": 5413,
      "cio": 5414,
      "Ġattorn": 5415,
      "Ġpref": 5416,
      "Ġsymp": 5417,
      "Ġ1972": 5418,
      "Ġreviews": 5419,
      "Ġpieces": 5420,
      "Ġsanta": 5421,
      "Ġcathedral": 5422,
      "hou": 5423,
      "itate": 5424,
      "omm": 5425,
      "Ġira": 5426,
      "Ġkaterina": 5427,
      "Ġprice": 5428,
      "Ġbrand": 5429,
      "Ġclar": 5430,
      "wealth": 5431,
      "Ġblind": 5432,
      "Ġ1946": 5433,
      "Ġglad": 5434,
      "Ġrepresenting": 5435,
      "2011": 5436,
      "Ġrelationship": 5437,
      "Ġfigures": 5438,
      "Ġridic": 5439,
      "Ġiceland": 5440,
      "Ġdiscoverer": 5441,
      "Ġcrown": 5442,
      "Ġdio": 5443,
      "Ġpeas": 5444,
      "oster": 5445,
      "Ġgrasp": 5446,
      "ensity": 5447,
      "Ġdistin": 5448,
      "Ġparish": 5449,
      "duce": 5450,
      "ika": 5451,
      "Ġpassage": 5452,
      "Ġ1944": 5453,
      "2012": 5454,
      "Ġadvent": 5455,
      "Ġpublication": 5456,
      "Ġpsycho": 5457,
      "Ġconstitutes": 5458,
      "Ġstarring": 5459,
      "Ġjournalist": 5460,
      "96": 5461,
      "Ġbos": 5462,
      "Ġmam": 5463,
      "Ġpit": 5464,
      "Ġnur": 5465,
      "Ġbeach": 5466,
      "Ġexter": 5467,
      "Ġspoke": 5468,
      "iant": 5469,
      "Ġentry": 5470,
      "Ġsimon": 5471,
      "Ġeducated": 5472,
      "Ġnaturally": 5473,
      "Ġprotest": 5474,
      "Ġlabel": 5475,
      "Ġhorror": 5476,
      "Ġfortune": 5477,
      "writer": 5478,
      "Ġphilippine": 5479,
      "Ġforgotten": 5480,
      "Ġconversation": 5481,
      "Ġfrancisco": 5482,
      "Ġpierre": 5483,
      "43": 5484,
      "Ġfit": 5485,
      "ario": 5486,
      "Ġger": 5487,
      "Ġforth": 5488,
      "erse": 5489,
      "aging": 5490,
      "Ġroll": 5491,
      "Ġdesert": 5492,
      "erte": 5493,
      "Ġpoets": 5494,
      "they": 5495,
      "Ġ1966": 5496,
      "Ġslave": 5497,
      "Ġmovie": 5498,
      "Ġshortly": 5499,
      "Ġperceive": 5500,
      "Ġextraord": 5501,
      "Ġvermont": 5502,
      "mus": 5503,
      "Ġ#": 5504,
      "Ġstore": 5505,
      "Ġric": 5506,
      "ills": 5507,
      "Ġ1917": 5508,
      "Ġtheme": 5509,
      "iba": 5510,
      "Ġjoint": 5511,
      "Ġfeelings": 5512,
      "Ġreflective": 5513,
      "Ġprovides": 5514,
      "Ġobservation": 5515,
      "regon": 5516,
      "Ġapplication": 5517,
      "Ġoregon": 5518,
      "Ġpad": 5519,
      "Ġandrew": 5520,
      "aria": 5521,
      "asa": 5522,
      "utation": 5523,
      "roke": 5524,
      "usions": 5525,
      "Ġrain": 5526,
      "ubishi": 5527,
      "Ġexperiences": 5528,
      "Ġsupply": 5529,
      "Ġfamiliar": 5530,
      "Ġauthors": 5531,
      "Ġtechni": 5532,
      "Ġgeorgia": 5533,
      "Ġneeded": 5534,
      "Ġpractical": 5535,
      "Ġnomine": 5536,
      "Ġimpressions": 5537,
      "jeune": 5538,
      "Ġconstituency": 5539,
      "jud": 5540,
      "uff": 5541,
      "etr": 5542,
      "Ġrefuge": 5543,
      "Ġprefer": 5544,
      "Ġholding": 5545,
      "Ġstrateg": 5546,
      "Ġpattern": 5547,
      "Ġlarger": 5548,
      "Ġcommonwealth": 5549,
      "Ġvocal": 5550,
      "\";": 5551,
      "rad": 5552,
      "Ã¦": 5553,
      "atum": 5554,
      "etery": 5555,
      "cience": 5556,
      "Ġspect": 5557,
      "Ġcontain": 5558,
      "Ġsail": 5559,
      "Ġcommitted": 5560,
      "ĠĠĠĠĠ": 5561,
      "Ġlikewise": 5562,
      "Ġdefense": 5563,
      "Ġolder": 5564,
      "Ġcastle": 5565,
      "Ġmoon": 5566,
      "Ġemployed": 5567,
      "Ġswimming": 5568,
      "achusetts": 5569,
      "amazov": 5570,
      "Ġcemetery": 5571,
      "Ġmitsubishi": 5572,
      "ault": 5573,
      "auc": 5574,
      "Î¿": 5575,
      "Ġay": 5576,
      "Ġoil": 5577,
      "orter": 5578,
      "orph": 5579,
      "Ġkim": 5580,
      "Ġkol": 5581,
      "elli": 5582,
      "Ġdism": 5583,
      "raham": 5584,
      "Ġplayoff": 5585,
      "Ġrelative": 5586,
      "Ġcoal": 5587,
      "Ġlisting": 5588,
      "Ġ1948": 5589,
      "force": 5590,
      "Ġvictim": 5591,
      "Ġhotel": 5592,
      "Ġterrible": 5593,
      "Ġobtained": 5594,
      "Ġplatform": 5595,
      "Ġaccompan": 5596,
      "Ġmonastery": 5597,
      "41": 5598,
      "_.": 5599,
      "sky": 5600,
      "Ġtay": 5601,
      "atus": 5602,
      "lel": 5603,
      "Ġraces": 5604,
      "Ġkash": 5605,
      "ails": 5606,
      "Ġlisten": 5607,
      "Ġexamination": 5608,
      "Ġconsequences": 5609,
      "Ġsuggest": 5610,
      "www": 5611,
      "Ġmemorial": 5612,
      "58": 5613,
      "Ġfly": 5614,
      "Ġinit": 5615,
      "ilty": 5616,
      "usal": 5617,
      "Ġrus": 5618,
      "Ġremar": 5619,
      "Ġsimult": 5620,
      "Ġconstantly": 5621,
      "Ġsolution": 5622,
      "Ġcritics": 5623,
      "Ġrecognized": 5624,
      "look": 5625,
      "Ġleadership": 5626,
      "Ġamazon": 5627,
      "Ġresources": 5628,
      "mod": 5629,
      "wal": 5630,
      "Ġwine": 5631,
      "Ġcher": 5632,
      "Ġdanish": 5633,
      "Ġnurs": 5634,
      "Ġwealth": 5635,
      "Ġdisci": 5636,
      "Ġpred": 5637,
      "inton": 5638,
      "Ġbob": 5639,
      "Ġslov": 5640,
      "Ġrepresentation": 5641,
      "Ġcontrast": 5642,
      "Ġdeny": 5643,
      "Ġinstitution": 5644,
      "Ġinstitutions": 5645,
      "Ġdutch": 5646,
      "Ġmassachusetts": 5647,
      "Ġoccurred": 5648,
      "Ġrakitin": 5649,
      "Ġattorney": 5650,
      "lar": 5651,
      "mers": 5652,
      "Ġfel": 5653,
      "alous": 5654,
      "asi": 5655,
      "ilies": 5656,
      "Ġkil": 5657,
      "Ġspread": 5658,
      "Ġpercent": 5659,
      "Ġpersu": 5660,
      "Ġdivided": 5661,
      "Ġcourage": 5662,
      "Ġadvoc": 5663,
      "Ġbreast": 5664,
      "Ġhappens": 5665,
      "Ġregarded": 5666,
      "Ġinspired": 5667,
      "Ġhypot": 5668,
      "foot": 5669,
      "nam": 5670,
      "rine": 5671,
      "rison": 5672,
      "enes": 5673,
      "Ġfate": 5674,
      "Ġfix": 5675,
      "Ġlas": 5676,
      "Ġgain": 5677,
      "ulnier": 5678,
      "Ġselection": 5679,
      "Ġ1914": 5680,
      "Ġalliance": 5681,
      "Ġamount": 5682,
      "Ġmorane": 5683,
      "Ġimpact": 5684,
      "Ġmatt": 5685,
      "Ġ1937": 5686,
      "Ġrealized": 5687,
      "Ġtitles": 5688,
      "ĠÂ£": 5689,
      "Ġinitial": 5690,
      "99": 5691,
      "kov": 5692,
      "Ġtai": 5693,
      "enue": 5694,
      "Ġgained": 5695,
      "Ġist": 5696,
      "using": 5697,
      "Ġroubles": 5698,
      "Ġyellow": 5699,
      "urer": 5700,
      "Ġweeks": 5701,
      "Ġdisturb": 5702,
      "Ġparaly": 5703,
      "Ġrecordings": 5704,
      "Ġhighway": 5705,
      "note": 5706,
      "Ġreveals": 5707,
      "Ġterritory": 5708,
      "nesota": 5709,
      "Ġagreement": 5710,
      "Ġsweet": 5711,
      "Ġthy": 5712,
      "Ġrang": 5713,
      "Ġjour": 5714,
      "Ġker": 5715,
      "Ġsequ": 5716,
      "Ġreports": 5717,
      "Ġrecently": 5718,
      "thetic": 5719,
      "Ġremix": 5720,
      "Ġflat": 5721,
      "Ġguine": 5722,
      "Ġ1954": 5723,
      "shire": 5724,
      "Ġseparated": 5725,
      "Ġimmigr": 5726,
      "Ġconducted": 5727,
      "saulnier": 5728,
      "Ġdangerous": 5729,
      "Ġteaching": 5730,
      "Ġsurround": 5731,
      "Ġpacific": 5732,
      "80": 5733,
      "een": 5734,
      "fort": 5735,
      "ois": 5736,
      "inity": 5737,
      "inals": 5738,
      "Ġkent": 5739,
      "ifies": 5740,
      "Ġdisestabl": 5741,
      "acter": 5742,
      "Ġimages": 5743,
      "Ġtwice": 5744,
      "2018": 5745,
      "Ġ1982": 5746,
      "Ġelim": 5747,
      "Ġelectric": 5748,
      "Ġyounger": 5749,
      "Ġsuperior": 5750,
      "Ġutil": 5751,
      "Ġmountains": 5752,
      "Ġencour": 5753,
      "Ġnihilation": 5754,
      "Ġchallenge": 5755,
      "Ġemperor": 5756,
      "Ġsimultane": 5757,
      "dis": 5758,
      "kins": 5759,
      "po": 5760,
      "vich": 5761,
      "Ġtears": 5762,
      "Ġnap": 5763,
      "iven": 5764,
      "Ġarmed": 5765,
      "ava": 5766,
      "Ġcancer": 5767,
      "Ġquiet": 5768,
      "Ġsubs": 5769,
      "Ġclassification": 5770,
      "Ġprominent": 5771,
      "Ġdraft": 5772,
      "Ġprograms": 5773,
      "Ġspirits": 5774,
      "Ġsixth": 5775,
      "Ġkaramazov": 5776,
      "adesh": 5777,
      "Ġbeetle": 5778,
      "Ġdedicated": 5779,
      "Ġwisdom": 5780,
      "gl": 5781,
      "omon": 5782,
      "Ġnotions": 5783,
      "Ġshut": 5784,
      "iform": 5785,
      "Ġtrouble": 5786,
      "Ġconsum": 5787,
      "Ġchris": 5788,
      "who": 5789,
      "Ġuncertain": 5790,
      "Ġwatch": 5791,
      "Ġcouple": 5792,
      "Ġislamic": 5793,
      "Ġadopted": 5794,
      "Ġprepared": 5795,
      "Ġcomputer": 5796,
      "Ġintellectual": 5797,
      "Ġalleged": 5798,
      "Ġiraq": 5799,
      "Ġfame": 5800,
      "Ġrecip": 5801,
      "Ġweb": 5802,
      "Ġdisplay": 5803,
      "Ġmarked": 5804,
      "Ġsche": 5805,
      "Ġminnesota": 5806,
      "Ġ1947": 5807,
      "Ġnovels": 5808,
      "Ġhighly": 5809,
      "while": 5810,
      "Ġturning": 5811,
      "Ġruns": 5812,
      "Ġnecessarily": 5813,
      "Ġangu": 5814,
      "Ġcircle": 5815,
      "Ġduke": 5816,
      "Ġattempts": 5817,
      "Ġdegrees": 5818,
      "Ġsalv": 5819,
      "Ġbelonging": 5820,
      "Ġmythology": 5821,
      "Ġcontradict": 5822,
      "Ġnikol": 5823,
      "Ġcategory": 5824,
      "igenous": 5825,
      "hann": 5826,
      "ĠâĢ": 5827,
      "isy": 5828,
      "Ġpir": 5829,
      "Ġhors": 5830,
      "Ġhidden": 5831,
      "Ġga": 5832,
      "Ġrisk": 5833,
      "Ġjur": 5834,
      "Ġsuicide": 5835,
      "Ġshout": 5836,
      "Ġplanned": 5837,
      "Ġattacks": 5838,
      "Ġcook": 5839,
      "Ġfool": 5840,
      "Ġsydney": 5841,
      "Ġopposed": 5842,
      "Ġspiritual": 5843,
      "Ġpotential": 5844,
      "Ġstruck": 5845,
      "Ġkashmir": 5846,
      "now": 5847,
      "panch": 5848,
      "Ġsick": 5849,
      "Ġanaly": 5850,
      "star": 5851,
      "Ġhes": 5852,
      "usha": 5853,
      "chant": 5854,
      "idi": 5855,
      "Ġ1918": 5856,
      "ache": 5857,
      "Ġappre": 5858,
      "ccer": 5859,
      "rene": 5860,
      "Ġcolspan": 5861,
      "Ġ1973": 5862,
      "Ġproposed": 5863,
      "Ġwales": 5864,
      "Ġconceived": 5865,
      "Ġmethods": 5866,
      "Ġdetails": 5867,
      "Ġphysician": 5868,
      "Ġdynam": 5869,
      "Ġgarden": 5870,
      "Ġyoutube": 5871,
      "?'": 5872,
      "Ġtu": 5873,
      "erable": 5874,
      "Ġcow": 5875,
      "Ġfen": 5876,
      "roll": 5877,
      "Ġstorm": 5878,
      "Ġarise": 5879,
      "Ġwheel": 5880,
      "Ġabraham": 5881,
      "ologies": 5882,
      "Ġ400": 5883,
      "Ġmostly": 5884,
      "Ġexperienced": 5885,
      "Ġsuppl": 5886,
      "Ġ70": 5887,
      "Ġ1943": 5888,
      "Ġphilosoph": 5889,
      "Ġdenied": 5890,
      "Ġcommonly": 5891,
      "Ġtalking": 5892,
      "Ġmicro": 5893,
      "Ġcontingency": 5894,
      "Ñĥ": 5895,
      "enger": 5896,
      "Ġgon": 5897,
      "Ġjam": 5898,
      "illa": 5899,
      "aki": 5900,
      "Ġpoland": 5901,
      "Ġflag": 5902,
      "Ġowner": 5903,
      "Ġincident": 5904,
      "Ġfamilies": 5905,
      "Ġrealize": 5906,
      "Ġfemin": 5907,
      "Ġextraordinary": 5908,
      "56": 5909,
      "eper": 5910,
      "nic": 5911,
      "Ġsought": 5912,
      "Ġbag": 5913,
      "Ġlam": 5914,
      "char": 5915,
      "Ġleon": 5916,
      "udes": 5917,
      "Ġbrid": 5918,
      "Ġmarry": 5919,
      "Ġemph": 5920,
      "Ġ1955": 5921,
      "Ġsolo": 5922,
      "Ġplanet": 5923,
      "Ġopinions": 5924,
      "Ġindependence": 5925,
      "Ġnominee": 5926,
      "cal": 5927,
      "gans": 5928,
      "nat": 5929,
      "tered": 5930,
      "zen": 5931,
      "Ġray": 5932,
      "resents": 5933,
      "ounts": 5934,
      "ateur": 5935,
      "sey": 5936,
      "Ġcontained": 5937,
      "Ġlines": 5938,
      "Ġdefence": 5939,
      "Ġdirectors": 5940,
      "Ġ1956": 5941,
      "Ġfreder": 5942,
      "Ġprovin": 5943,
      "Ġ1931": 5944,
      "Ġpowerful": 5945,
      "awa": 5946,
      "Ġconstitute": 5947,
      "Ġangry": 5948,
      "ipped": 5949,
      "kyo": 5950,
      "Ġstatus": 5951,
      "Ġdavis": 5952,
      "Ġmaintain": 5953,
      "ĠÏī": 5954,
      "03": 5955,
      "57": 5956,
      "bul": 5957,
      "Ġern": 5958,
      "Ġovers": 5959,
      "Ġeternal": 5960,
      "Ġvic": 5961,
      "Ġuneas": 5962,
      "Ġfrag": 5963,
      "Ġpros": 5964,
      "rial": 5965,
      "Ġneeds": 5966,
      "Ġindones": 5967,
      "Ġindigenous": 5968,
      "Ġdistribution": 5969,
      "Ġ1932": 5970,
      "Ġaffected": 5971,
      "Ġuseful": 5972,
      "Ġcommunication": 5973,
      "Ġbritain": 5974,
      "Ġfacilities": 5975,
      "Ġsurely": 5976,
      "Ġsarpanch": 5977,
      "Ġdrugs": 5978,
      "Ġarticles": 5979,
      "Ġvotes": 5980,
      "Ġneighbor": 5981,
      "jeunea": 5982,
      "present": 5983,
      "Ġhair": 5984,
      "Ġlt": 5985,
      "Ġlover": 5986,
      "otr": 5987,
      "Ġrand": 5988,
      "Ġconsec": 5989,
      "Ġkel": 5990,
      "Ġ2022": 5991,
      "Ġroles": 5992,
      "Ġages": 5993,
      "2019": 5994,
      "Ġillness": 5995,
      "Ġmetaph": 5996,
      "Ġ1958": 5997,
      "Ġmales": 5998,
      "Ġchristianity": 5999,
      "Ġinjust": 6000,
      "Ġteachers": 6001,
      "Ġtypes": 6002,
      "Ġgreyh": 6003,
      "Ġhitherto": 6004,
      ",[": 6005,
      "point": 6006,
      "Ġaid": 6007,
      "Ġrevel": 6008,
      "Ġvac": 6009,
      "Ġ1916": 6010,
      "Ġsoccer": 6011,
      "ibility": 6012,
      "Ġscot": 6013,
      "Ġinterior": 6014,
      "Ġparal": 6015,
      "Ġobst": 6016,
      "Ġmetrop": 6017,
      "Ġ1964": 6018,
      "Ġ1976": 6019,
      "Ġbroke": 6020,
      "Ġ1924": 6021,
      "Ġsilence": 6022,
      "Ġadministrated": 6023,
      "Ġassistance": 6024,
      "Ġsatisfied": 6025,
      "Ġinquiry": 6026,
      "Ġmunicipal": 6027,
      "Ġindifferent": 6028,
      "Ġelizabeth": 6029,
      "kes": 6030,
      "à¤": 6031,
      "Ġ)": 6032,
      "Ġcreek": 6033,
      "org": 6034,
      "Ġech": 6035,
      "Ġreaction": 6036,
      "usc": 6037,
      "cha": 6038,
      "Ġalbert": 6039,
      "isters": 6040,
      "osh": 6041,
      "Ġuninc": 6042,
      "Ġkin": 6043,
      "Ġusa": 6044,
      "Ġexpans": 6045,
      "Ġexisted": 6046,
      "Ġcompetitors": 6047,
      "Ġeducational": 6048,
      "Ġwaiting": 6049,
      "Ġenemy": 6050,
      "Ġcorporation": 6051,
      "Ġtruly": 6052,
      "87": 6053,
      "Ġ+": 6054,
      "Ġom": 6055,
      "Ġsend": 6056,
      "Ġsout": 6057,
      "Ġbare": 6058,
      "Ġpere": 6059,
      "uri": 6060,
      "Ġseed": 6061,
      "Ġmargin": 6062,
      "Ġrepresents": 6063,
      "athy": 6064,
      "Ġconfused": 6065,
      "Ġ1959": 6066,
      "Ġrevol": 6067,
      "Ġharmon": 6068,
      "Ġrend": 6069,
      "Ġbattal": 6070,
      "Ġhosted": 6071,
      "Ġdiscussion": 6072,
      "Ġepisodes": 6073,
      "Ġsweden": 6074,
      "Ġanguish": 6075,
      "Ġunincorporated": 6076,
      ".--": 6077,
      "Ġmol": 6078,
      "Ġhorn": 6079,
      "Ġlod": 6080,
      "lyn": 6081,
      "urge": 6082,
      "Ġrhod": 6083,
      "Ġatl": 6084,
      "wegian": 6085,
      "Ġrecover": 6086,
      "Ġdoesn": 6087,
      "Ġguilty": 6088,
      "Ġ1961": 6089,
      "2010": 6090,
      "Ġdescribe": 6091,
      "Ġsevens": 6092,
      "Ġviolent": 6093,
      "Ġwilson": 6094,
      "Ġagreed": 6095,
      "Ġinjustice": 6096,
      "oo": 6097,
      "vement": 6098,
      "zar": 6099,
      "Ġtokyo": 6100,
      "Ġnick": 6101,
      "idel": 6102,
      "Ġvin": 6103,
      "Ġ1915": 6104,
      "ects": 6105,
      "Ġlev": 6106,
      "Ġtrained": 6107,
      "Ġagent": 6108,
      "Ġearn": 6109,
      "Ġdram": 6110,
      "Ġjeff": 6111,
      "Ġvolley": 6112,
      "Ġdenmark": 6113,
      "Ġallows": 6114,
      "Ġalexey": 6115,
      "Ġrecognize": 6116,
      "Ġambass": 6117,
      "Ġachieved": 6118,
      "hsil": 6119,
      "Ġkorean": 6120,
      "Ġcomparison": 6121,
      "Ġincumbent": 6122,
      "54": 6123,
      "59": 6124,
      "hal": 6125,
      "Ġurg": 6126,
      "Ġcert": 6127,
      "enna": 6128,
      "Ġdin": 6129,
      "Ġlists": 6130,
      "Ġliga": 6131,
      "Ġshel": 6132,
      "Ġundert": 6133,
      "Ġpositions": 6134,
      "ucle": 6135,
      "Ġserves": 6136,
      "haust": 6137,
      "Ġperformances": 6138,
      "Ġreturning": 6139,
      "Ġprotected": 6140,
      "Ġliberal": 6141,
      "Ġintroduction": 6142,
      "Ġinstruments": 6143,
      "world": 6144,
      "Ġenvironmental": 6145,
      "di": 6146,
      "nie": 6147,
      "ooth": 6148,
      "Ð¼": 6149,
      "unning": 6150,
      "owed": 6151,
      "Ġamateur": 6152,
      "Ġtehsil": 6153,
      "Ġquirk": 6154,
      "Ġ1951": 6155,
      "Ġ1928": 6156,
      "Ġvisited": 6157,
      "Ġfemales": 6158,
      "Ġabsolutely": 6159,
      "Ġdistinguish": 6160,
      "Ġcruel": 6161,
      "Ġharmony": 6162,
      "Ġproportion": 6163,
      "gel": 6164,
      "Ġcra": 6165,
      "Ġfond": 6166,
      "Ġhan": 6167,
      "Ġdare": 6168,
      "Ġdanc": 6169,
      "arh": 6170,
      "Ġlyr": 6171,
      "thur": 6172,
      "Ġkhan": 6173,
      "ruc": 6174,
      "Ġmarine": 6175,
      "Ġattain": 6176,
      "Ġ32": 6177,
      "Ġbell": 6178,
      "Ġ177": 6179,
      "Ġsetting": 6180,
      "oyan": 6181,
      "embered": 6182,
      "Ġmotive": 6183,
      "Ġsteps": 6184,
      "Ġcambridge": 6185,
      "Ġaccepted": 6186,
      "Ġcroat": 6187,
      "gium": 6188,
      "Ġrein": 6189,
      "Ġstup": 6190,
      "Ġpercept": 6191,
      "ipe": 6192,
      "Ġresemb": 6193,
      "Ġjohann": 6194,
      "Ġnorwegian": 6195,
      "Ġera": 6196,
      "Ġcyclist": 6197,
      "Ġexcit": 6198,
      "Ġfailure": 6199,
      "Ġinfinity": 6200,
      "Ġfancy": 6201,
      "finals": 6202,
      "Ġhttp": 6203,
      "Ġsafety": 6204,
      "Ġaffirm": 6205,
      "94": 6206,
      "hire": 6207,
      "law": 6208,
      "town": 6209,
      "zi": 6210,
      "Ð´": 6211,
      "Ġsides": 6212,
      "Ġfu": 6213,
      "Ġfilled": 6214,
      "Ġdall": 6215,
      "Ġrenew": 6216,
      "Ġathen": 6217,
      "agn": 6218,
      "season": 6219,
      "Ġworse": 6220,
      "Ġability": 6221,
      "Ġgrat": 6222,
      "Ġoffers": 6223,
      "Ġboat": 6224,
      "Ġremembered": 6225,
      "atherine": 6226,
      "Ġmonarch": 6227,
      "Ġcalling": 6228,
      "Ġcaught": 6229,
      "bec": 6230,
      "Ġmidst": 6231,
      "onym": 6232,
      "Ġpainter": 6233,
      "Ġissued": 6234,
      "Ġgranted": 6235,
      "Ġnigerian": 6236,
      "Ġcrowd": 6237,
      "Ġscarce": 6238,
      "Ġpetersburg": 6239,
      "ais": 6240,
      "hor": 6241,
      "sis": 6242,
      "Ġsize": 6243,
      "Ġmouth": 6244,
      "order": 6245,
      "Ġfresh": 6246,
      "ington": 6247,
      "Ġlap": 6248,
      "olo": 6249,
      "Ġvision": 6250,
      "Ġtrail": 6251,
      "Ġendors": 6252,
      "Ġregions": 6253,
      "Ġartistic": 6254,
      "Ġreceiving": 6255,
      "Ġdeliv": 6256,
      "Ġvolunt": 6257,
      "Ġviews": 6258,
      "Ġanalog": 6259,
      "Ġaustrian": 6260,
      "Ġdestroyed": 6261,
      "Ġvolleyball": 6262,
      "Ġts": 6263,
      "Ġaer": 6264,
      "Ġmcc": 6265,
      "Ġlangu": 6266,
      "imately": 6267,
      "Ġalf": 6268,
      "acles": 6269,
      "esty": 6270,
      "Ġinstinct": 6271,
      "Ġjoe": 6272,
      "Ġestim": 6273,
      "Ġraise": 6274,
      "Ġbroken": 6275,
      "Ġperforming": 6276,
      "Ġ1906": 6277,
      "Ġ1922": 6278,
      "Ġequip": 6279,
      "Ġwalk": 6280,
      "Ġattempted": 6281,
      "Ġdifficulties": 6282,
      "Ġtranscendent": 6283,
      "Ġdefinition": 6284,
      "Ġconcluded": 6285,
      "Ġapparently": 6286,
      "53": 6287,
      "lad": 6288,
      "Ġsr": 6289,
      "Ġgas": 6290,
      "Ġvess": 6291,
      "Ġunique": 6292,
      "Ġjr": 6293,
      "Ġjazz": 6294,
      "Ġsha": 6295,
      "Ġweap": 6296,
      "Ġestate": 6297,
      "phus": 6298,
      "Ġconvin": 6299,
      "Ġexamine": 6300,
      "Ġpenn": 6301,
      "Ġwaters": 6302,
      "Ġconsequence": 6303,
      "Ġlaugh": 6304,
      "Ġschedul": 6305,
      "bourne": 6306,
      "Ġimperial": 6307,
      "Ġcontradiction": 6308,
      "Ġexclus": 6309,
      "91": 6310,
      "hand": 6311,
      "sm": 6312,
      "uan": 6313,
      "Ġtap": 6314,
      "Ġmile": 6315,
      "Ġfab": 6316,
      "Ġdj": 6317,
      "elle": 6318,
      "aver": 6319,
      "illery": 6320,
      "Ġmarsh": 6321,
      "Ġconsp": 6322,
      "Ġpoll": 6323,
      "Ġedin": 6324,
      "Ġ60": 6325,
      "Ġbarb": 6326,
      "white": 6327,
      "Ġpaid": 6328,
      "Ġathlete": 6329,
      "Ġinterests": 6330,
      "Ġutter": 6331,
      "Ġtechnical": 6332,
      "Ġclaims": 6333,
      "Ġlaunch": 6334,
      "Ġsettled": 6335,
      "rayed": 6336,
      "Ġupsurge": 6337,
      "gers": 6338,
      "nan": 6339,
      "Ġsoph": 6340,
      "Ġmigr": 6341,
      "Ġnice": 6342,
      "Ġgib": 6343,
      "Ġkon": 6344,
      "Ġseats": 6345,
      "Ġtraff": 6346,
      "Ġroc": 6347,
      "Ġconscience": 6348,
      "erman": 6349,
      "Ġende": 6350,
      "Ġdecide": 6351,
      "Ġvalu": 6352,
      "Ġharry": 6353,
      "Ġjealous": 6354,
      "Ġtownship": 6355,
      "Ġqualif": 6356,
      "aimed": 6357,
      "Ġpurely": 6358,
      "Ġeconomics": 6359,
      "itzer": 6360,
      "Ġmike": 6361,
      "Ġtarget": 6362,
      "olitan": 6363,
      "Ġabandoned": 6364,
      "Ġmikoyan": 6365,
      "Ġpsychoan": 6366,
      "88": 6367,
      ":#": 6368,
      "election": 6369,
      "Ġbol": 6370,
      "itely": 6371,
      "Ġnerv": 6372,
      "Ġnucle": 6373,
      "Ġvain": 6374,
      "Ġplans": 6375,
      "Ġpride": 6376,
      "Ġsecure": 6377,
      "Ġpool": 6378,
      "Ġowners": 6379,
      "Ġproperties": 6380,
      "Ġgrowing": 6381,
      "Ġproved": 6382,
      "Ġadmir": 6383,
      "Ġ96": 6384,
      "erring": 6385,
      "Ġsevere": 6386,
      "inois": 6387,
      "Ġappeal": 6388,
      "Ġnominated": 6389,
      "Ġphenomena": 6390,
      "Ġensemble": 6391,
      "Ġserbian": 6392,
      "Ġtaylor": 6393,
      "55": 6394,
      "door": 6395,
      "lah": 6396,
      "hew": 6397,
      "Ġbure": 6398,
      "stone": 6399,
      "elve": 6400,
      "uts": 6401,
      "idity": 6402,
      "Ġexchange": 6403,
      "Ġfinland": 6404,
      "lets": 6405,
      "Ġcarbon": 6406,
      "apped": 6407,
      "Ġ1934": 6408,
      "Ġpatients": 6409,
      "Ġnatures": 6410,
      "Ġtitled": 6411,
      "Ġcharacteristics": 6412,
      "Ġ1929": 6413,
      "Ġromanian": 6414,
      "Ġstephen": 6415,
      "Ġassumed": 6416,
      "Ġghana": 6417,
      "Ġratio": 6418,
      "Ġspoken": 6419,
      "Ġequipment": 6420,
      "Ġblow": 6421,
      "itled": 6422,
      "umn": 6423,
      "irs": 6424,
      "terday": 6425,
      "Ġjane": 6426,
      "Ġkier": 6427,
      "class": 6428,
      "Ġscand": 6429,
      "Ġcoaches": 6430,
      "Ġsomeone": 6431,
      "Ġsomewhat": 6432,
      "Ġcorp": 6433,
      "Ġcreature": 6434,
      "Ġclassic": 6435,
      "Ġreadily": 6436,
      "Ġnearby": 6437,
      "Ġjews": 6438,
      "Ġpilot": 6439,
      "Ġbottom": 6440,
      "Ġedinburgh": 6441,
      "Ġendeav": 6442,
      "ez": 6443,
      "father": 6444,
      "Ġast": 6445,
      "Ġbil": 6446,
      "itter": 6447,
      "Ġhast": 6448,
      "thy": 6449,
      "Ġkk": 6450,
      "ogan": 6451,
      "Ġphant": 6452,
      "Ġnewly": 6453,
      "Ġrecall": 6454,
      "Ġcounsel": 6455,
      "ribute": 6456,
      "Ġstudios": 6457,
      "ifications": 6458,
      "Ġproviding": 6459,
      "Ġsuffici": 6460,
      "Ġcharacteristic": 6461,
      "Ġvolume": 6462,
      "Ġsites": 6463,
      "Ġburied": 6464,
      "Ġyesterday": 6465,
      "Ġjournalists": 6466,
      "Ġguardians": 6467,
      "Ġpaintings": 6468,
      "Ġstopped": 6469,
      "Ġsnow": 6470,
      "Ġcolonel": 6471,
      "Ġdistinction": 6472,
      "cest": 6473,
      "cidae": 6474,
      "fit": 6475,
      "uality": 6476,
      "ÑĮ": 6477,
      "Ġsi": 6478,
      "ouri": 6479,
      "Ġnich": 6480,
      "Ġeat": 6481,
      "oman": 6482,
      "urance": 6483,
      "Ġib": 6484,
      "Ġselect": 6485,
      "Ġ1911": 6486,
      "Ġdrag": 6487,
      "Ġconfess": 6488,
      "Ġformerly": 6489,
      "Ġrunner": 6490,
      "Ġ1925": 6491,
      "uese": 6492,
      "Ġreader": 6493,
      "Ġseventh": 6494,
      "Ġuncle": 6495,
      "Ġincreasing": 6496,
      "Ġwalls": 6497,
      "Ġcolonial": 6498,
      "Ġghost": 6499,
      "rupted": 6500,
      "Ġappropri": 6501,
      "Ġexpedition": 6502,
      "Ġjourney": 6503,
      "Ġward": 6504,
      "Ġmak": 6505,
      "Ġgrown": 6506,
      "Ġguru": 6507,
      "Ġhearing": 6508,
      "iller": 6509,
      "Ġdeleg": 6510,
      "Ġtwelve": 6511,
      "Ġmotives": 6512,
      "Ġkinds": 6513,
      "Ġsimilarly": 6514,
      "Ġresponsibility": 6515,
      "Ġforgive": 6516,
      "Ġchemical": 6517,
      "kh": 6518,
      "mont": 6519,
      "net": 6520,
      "Ġille": 6521,
      "Ġapt": 6522,
      "Ġsher": 6523,
      "itated": 6524,
      "Ġnaz": 6525,
      "Ġbrad": 6526,
      "ugu": 6527,
      "athi": 6528,
      "2020": 6529,
      "Ġcoord": 6530,
      "Ġillinois": 6531,
      "Ġsmooth": 6532,
      "Ġconfusion": 6533,
      "Ġwars": 6534,
      "Ġglauc": 6535,
      "Ġdistricts": 6536,
      "Ġtreated": 6537,
      "Ġ1904": 6538,
      "Ġcircuit": 6539,
      "after": 6540,
      "Ġestablishment": 6541,
      "Ġduterte": 6542,
      "Ġimagination": 6543,
      "Ġilusha": 6544,
      "Ġbehavior": 6545,
      "Ġaccompanied": 6546,
      "din": 6547,
      "gure": 6548,
      "kon": 6549,
      "pers": 6550,
      "ront": 6551,
      "Ġale": 6552,
      "Ġpale": 6553,
      "Ġnin": 6554,
      "Ġgaz": 6555,
      "eman": 6556,
      "Ġkir": 6557,
      "agues": 6558,
      "ante": 6559,
      "Ġdreamer": 6560,
      "Ġrod": 6561,
      "Ġroof": 6562,
      "Ġaggreg": 6563,
      "Ġseeking": 6564,
      "Ġinvited": 6565,
      "enez": 6566,
      "2008": 6567,
      "2009": 6568,
      "Ġreplace": 6569,
      "Ġceramby": 6570,
      "Ġinjured": 6571,
      "Ġscientists": 6572,
      "Ġenemies": 6573,
      "Ġobvious": 6574,
      "Ġsituated": 6575,
      "Ġparalymp": 6576,
      "Ġgreyhound": 6577,
      "bal": 6578,
      "ext": 6579,
      "kok": 6580,
      "pan": 6581,
      "Ġsorrow": 6582,
      "Ġalter": 6583,
      "Ġalleg": 6584,
      "Ġunex": 6585,
      "Ġwilling": 6586,
      "Ġresident": 6587,
      "Ġfinance": 6588,
      "Ġ46": 6589,
      "Ġcrimes": 6590,
      "Ġslav": 6591,
      "Ġturns": 6592,
      "Ġtries": 6593,
      "Ġsouls": 6594,
      "Ġprocesses": 6595,
      "Ġsubstit": 6596,
      "Ġargentine": 6597,
      "Ġcerambycidae": 6598,
      "dess": 6599,
      "nc": 6600,
      "Ġtort": 6601,
      "Ġsaints": 6602,
      "Ġsisy": 6603,
      "oni": 6604,
      "Ġgam": 6605,
      "Ġchry": 6606,
      "ounter": 6607,
      "ressing": 6608,
      "Ġpear": 6609,
      "ipa": 6610,
      "Ġclimate": 6611,
      "Ġgrace": 6612,
      "Ġprelim": 6613,
      "Ġmuslim": 6614,
      "Ġincomp": 6615,
      "Ġdepict": 6616,
      "Ġpsychological": 6617,
      "Ġhonors": 6618,
      "Ġxx": 6619,
      "Ġborder": 6620,
      "Ġtemporality": 6621,
      "Ġoneself": 6622,
      "Ġperceived": 6623,
      "Ġneighbour": 6624,
      "Ġanxiety": 6625,
      "Ġempty": 6626,
      "Ġcolumbia": 6627,
      "Ġmetaphys": 6628,
      "Ġsul": 6629,
      "Ġpack": 6630,
      "olis": 6631,
      "Ġrough": 6632,
      "Ġrural": 6633,
      "Ġ1910": 6634,
      "Ġproced": 6635,
      "ocked": 6636,
      "Ġresolution": 6637,
      "Ġrepeat": 6638,
      "weight": 6639,
      "Ġfilmography": 6640,
      "Ġcoff": 6641,
      "Ġfinishing": 6642,
      "Ġimprov": 6643,
      "Ġzone": 6644,
      "Ġguide": 6645,
      "aham": 6646,
      "Ġ1941": 6647,
      "Ġfault": 6648,
      "Ġhyster": 6649,
      "Ġsounds": 6650,
      "Ġrulers": 6651,
      "Ġmaintained": 6652,
      "Ġcredit": 6653,
      "Ġconservation": 6654,
      "Ġnigeria": 6655,
      "Ġportuguese": 6656,
      "Ġagriculture": 6657,
      "Ġsufficiently": 6658,
      "Ġsisyphus": 6659,
      "hist": 6660,
      "tar": 6661,
      "imp": 6662,
      "Ġrational": 6663,
      "Ġbright": 6664,
      "Ġbrings": 6665,
      "Ġaged": 6666,
      "Ġresol": 6667,
      "Ġtransf": 6668,
      "Ġsmile": 6669,
      "Ġ176": 6670,
      "Ġshowing": 6671,
      "Ġthirst": 6672,
      "Ġopponents": 6673,
      "Ġ1908": 6674,
      "Ġfurthermore": 6675,
      "Ġconsiderable": 6676,
      "Ġfalling": 6677,
      "Ġweekly": 6678,
      "Ġaustria": 6679,
      "Ġimplies": 6680,
      "district": 6681,
      "Ġridiculous": 6682,
      "gurevich": 6683,
      "bach": 6684,
      "bishop": 6685,
      "cop": 6686,
      "rane": 6687,
      "uce": 6688,
      "Î¹": 6689,
      "rec": 6690,
      "Ġsor": 6691,
      "uma": 6692,
      "Ġrab": 6693,
      "Ġexcess": 6694,
      "Ġorient": 6695,
      "ardo": 6696,
      "cese": 6697,
      "Ġlaure": 6698,
      "then": 6699,
      "Ġflood": 6700,
      "Ġinvent": 6701,
      "Ġsubt": 6702,
      "Ġthirty": 6703,
      "Ġmoments": 6704,
      "Ġidentified": 6705,
      "Ġmaryland": 6706,
      "Ġnarr": 6707,
      "Ġmiracle": 6708,
      "Ġcarlos": 6709,
      "Ġthorough": 6710,
      "stein": 6711,
      "Ġstrictly": 6712,
      "85": 6713,
      "89": 6714,
      "hon": 6715,
      "water": 6716,
      "Ġthee": 6717,
      "isis": 6718,
      "enance": 6719,
      "Ġdiction": 6720,
      "Ġvul": 6721,
      "Ġuns": 6722,
      "Ġchain": 6723,
      "antly": 6724,
      "Ġappar": 6725,
      "Ġapply": 6726,
      "Ġresign": 6727,
      "Ġphase": 6728,
      "Ġsax": 6729,
      "Ġrecol": 6730,
      "Ġ37": 6731,
      "Ġdepend": 6732,
      "Ġconstituted": 6733,
      "Ġportion": 6734,
      "Ġ1907": 6735,
      "Ġsentence": 6736,
      "Ġlux": 6737,
      "Ġattacked": 6738,
      "Ġpleasures": 6739,
      "Ġempir": 6740,
      "Ġconcerns": 6741,
      "Ġlaughing": 6742,
      "Ġclosely": 6743,
      "Ġbachel": 6744,
      "Ġoklah": 6745,
      "Ġkorea": 6746,
      "Ġremarkable": 6747,
      "Ġexpansion": 6748,
      "iated": 6749,
      "ye": 6750,
      "Ġtall": 6751,
      "Ġbull": 6752,
      "Ġcord": 6753,
      "Ġmp": 6754,
      "Ġanger": 6755,
      "Ġinhab": 6756,
      "alo": 6757,
      "otte": 6758,
      "ersey": 6759,
      "Ġarises": 6760,
      "Ġalien": 6761,
      "Ġuniform": 6762,
      "Ġkun": 6763,
      "Ġseg": 6764,
      "Ġspons": 6765,
      "Ġtracks": 6766,
      "aret": 6767,
      "plicity": 6768,
      "Ġnob": 6769,
      "Ġuseless": 6770,
      "Ġreply": 6771,
      "Ġrecomm": 6772,
      "Ġdrive": 6773,
      "Ġdriver": 6774,
      "Ġconform": 6775,
      "lla": 6776,
      "Ġmeters": 6777,
      "Ġretire": 6778,
      "Ġfunctions": 6779,
      "Ġjudges": 6780,
      "Ġ1923": 6781,
      "Ġvisible": 6782,
      "Ġstandings": 6783,
      "Ġdetermination": 6784,
      "Ġawaken": 6785,
      "iii": 6786,
      "Ġsemif": 6787,
      "Ġignorance": 6788,
      "Ġpremiered": 6789,
      "Ġdallas": 6790,
      ":-": 6791,
      "lov": 6792,
      "Ġtan": 6793,
      "onent": 6794,
      "Ġcos": 6795,
      "Ġdrop": 6796,
      "olas": 6797,
      "Ġgrav": 6798,
      "Ġusual": 6799,
      "Ġremote": 6800,
      "ĠĠĠĠĠĠ": 6801,
      "ribed": 6802,
      "Ġconfront": 6803,
      "Ġconsidering": 6804,
      "Ġsigns": 6805,
      "Ġafford": 6806,
      "Ġdesigns": 6807,
      "2005": 6808,
      "Ġgets": 6809,
      "coming": 6810,
      "Ġathletic": 6811,
      "Ġhills": 6812,
      "Ġpossessed": 6813,
      "Ġlogic": 6814,
      "Ġsuggested": 6815,
      "Ġfocus": 6816,
      "Ġtower": 6817,
      "Ġquantity": 6818,
      "Ġattributed": 6819,
      "Ġconvinced": 6820,
      "mb": 6821,
      "mi": 6822,
      "non": 6823,
      "upp": 6824,
      "Ġbought": 6825,
      "oration": 6826,
      "ander": 6827,
      "Ġ1900": 6828,
      "Ġ1919": 6829,
      "Ġworst": 6830,
      "Ġrober": 6831,
      "ensions": 6832,
      "Ġwherein": 6833,
      "Ġzh": 6834,
      "Ġ1935": 6835,
      "Ġpenal": 6836,
      "Ġdemocracy": 6837,
      "Ġwindows": 6838,
      "Ġsatisfaction": 6839,
      "Ġaudience": 6840,
      "Ġsoftware": 6841,
      "Ġsuspic": 6842,
      "Ġtroops": 6843,
      "Ġontological": 6844,
      "Ġmathematics": 6845,
      "Ġoklahoma": 6846,
      "%.": 6847,
      "ded": 6848,
      "down": 6849,
      "rical": 6850,
      "ï¼": 6851,
      "Ġcog": 6852,
      "atures": 6853,
      "Ġdat": 6854,
      "Ġgy": 6855,
      "ifice": 6856,
      "Ġintu": 6857,
      "Ġreputation": 6858,
      "Ġformula": 6859,
      "Ġpassions": 6860,
      "Ġ1949": 6861,
      "Ġharv": 6862,
      "Ġ1927": 6863,
      "Ġpressure": 6864,
      "Ġguns": 6865,
      "Ġfaculties": 6866,
      "gaard": 6867,
      "Ġsacred": 6868,
      "Ġwithdraw": 6869,
      "Ġdismiss": 6870,
      "Ġsimultaneously": 6871,
      "500": 6872,
      "div": 6873,
      "eating": 6874,
      "ju": 6875,
      "Ġegg": 6876,
      "omat": 6877,
      "Ġariz": 6878,
      "Ġviz": 6879,
      "Ġexception": 6880,
      "Ġsphere": 6881,
      "Ġrefused": 6882,
      "Ġgran": 6883,
      "Ġadult": 6884,
      "Ġintermedi": 6885,
      "Ġfounding": 6886,
      "Ġgoddess": 6887,
      "Ġdemands": 6888,
      "sylv": 6889,
      "Ġfinding": 6890,
      "Ġviet": 6891,
      "Ġvienna": 6892,
      "Ġdesignated": 6893,
      "Ġarrive": 6894,
      "Ġ1893": 6895,
      "Ġpunishment": 6896,
      "going": 6897,
      "iami": 6898,
      "Ġsymph": 6899,
      "Ġwilliams": 6900,
      "background": 6901,
      "Ġvoters": 6902,
      "Ġextreme": 6903,
      "Ġtunis": 6904,
      "Ġcinema": 6905,
      "Ġpyotr": 6906,
      "Ġentrance": 6907,
      "asmuch": 6908,
      "ĠâĢ¢": 6909,
      "ruccio": 6910,
      "Ġexcitement": 6911,
      "'.": 6912,
      "92": 6913,
      "uci": 6914,
      "Ġcraft": 6915,
      "Ġpair": 6916,
      "Ġness": 6917,
      "Ġwhit": 6918,
      "istered": 6919,
      "Ġjersey": 6920,
      "ishments": 6921,
      "grad": 6922,
      "Ġpasses": 6923,
      "Ġabsent": 6924,
      "Ġassociate": 6925,
      "Ġbreed": 6926,
      "Ġtrees": 6927,
      "Ġtreas": 6928,
      "Ġmagic": 6929,
      "Ġjee": 6930,
      "Ġamongst": 6931,
      "Ġrequires": 6932,
      "Ġcaptured": 6933,
      "Ġorders": 6934,
      "Ġlaughed": 6935,
      "Ġowing": 6936,
      "!'": 6937,
      "%,": 6938,
      "iable": 6939,
      "lan": 6940,
      "long": 6941,
      "when": 6942,
      "western": 6943,
      "Ġsell": 6944,
      "onian": 6945,
      "Ġbold": 6946,
      "Ġbacter": 6947,
      "Ġfish": 6948,
      "Ġgay": 6949,
      "ivals": 6950,
      "Ġexhaust": 6951,
      "Ġfright": 6952,
      "Ġartillery": 6953,
      "Ġtransition": 6954,
      "Ġguest": 6955,
      "Ġrestrict": 6956,
      "Ġmainly": 6957,
      "Ġdrawing": 6958,
      "Ġlevels": 6959,
      "Ġmechanism": 6960,
      "Ġsynthesis": 6961,
      "Ġbattalion": 6962,
      "Ġbureau": 6963,
      "100": 6964,
      "des": 6965,
      "happ": 6966,
      "jun": 6967,
      "rim": 6968,
      "Ġtony": 6969,
      "Ġsom": 6970,
      "Ġfro": 6971,
      "Ġhate": 6972,
      "Ġhuss": 6973,
      "Ġny": 6974,
      "Ġrhy": 6975,
      "agement": 6976,
      "Ġworship": 6977,
      "Ġaccur": 6978,
      "Ġloan": 6979,
      "Ġmusician": 6980,
      "Ġlawyers": 6981,
      "zek": 6982,
      "Ġmilan": 6983,
      "Ġcastruccio": 6984,
      "Ġarchae": 6985,
      "eca": 6986,
      "Ġregarding": 6987,
      "Ġinjury": 6988,
      "Ġcombined": 6989,
      "Ġhomer": 6990,
      "Ġdisappear": 6991,
      "Ġphilosophical": 6992,
      "Ġemphas": 6993,
      "iot": 6994,
      "Ġwing": 6995,
      "Ġflying": 6996,
      "Ġpag": 6997,
      "Ġinasmuch": 6998,
      "igo": 6999,
      "igarh": 7000,
      "Ġwaste": 7001,
      "Ġvert": 7002,
      "ulate": 7003,
      "vert": 7004,
      "aba": 7005,
      "Ġproud": 7006,
      "Ġfilip": 7007,
      "Ġworldwide": 7008,
      "Ġfolk": 7009,
      "Ġcenturies": 7010,
      "Ġlooks": 7011,
      "Ġcertainty": 7012,
      "Ġaffili": 7013,
      "2001": 7014,
      "Ġsteve": 7015,
      "Ġmaine": 7016,
      "Ġbusinessman": 7017,
      "Ġrenamed": 7018,
      "Ġsales": 7019,
      "Ġ1884": 7020,
      "Ġgunn": 7021,
      "Ġcombat": 7022,
      "Ġencounter": 7023,
      "Ġsurprised": 7024,
      "Ġrejected": 7025,
      "Ġexperimental": 7026,
      "Ġpursuit": 7027,
      "Ġashamed": 7028,
      "Ġdocumentary": 7029,
      "Ġmasters": 7030,
      "itzerland": 7031,
      "life": 7032,
      "Ġaqu": 7033,
      "hetic": 7034,
      "iner": 7035,
      "Ġhans": 7036,
      "Ġhaz": 7037,
      "level": 7038,
      "Ġego": 7039,
      "Ġlind": 7040,
      "Ġlise": 7041,
      "Ġron": 7042,
      "Ġrising": 7043,
      "istani": 7044,
      "Ġvel": 7045,
      "emic": 7046,
      "Ġjury": 7047,
      "Ġkit": 7048,
      "ainian": 7049,
      "Ġshah": 7050,
      "ocks": 7051,
      "ruption": 7052,
      "Ġgrave": 7053,
      "Ġmeanwhile": 7054,
      "Ġinstruct": 7055,
      "uced": 7056,
      "Ġza": 7057,
      "Ġsubm": 7058,
      "Ġbaron": 7059,
      "Ġrunners": 7060,
      "Ġtrip": 7061,
      "Ġdevil": 7062,
      "Ġstronger": 7063,
      "Ġindustrial": 7064,
      "ographic": 7065,
      "Ġcriticism": 7066,
      "Ġacknowled": 7067,
      "Ġpreliminary": 7068,
      "dc": 7069,
      "Ġsisters": 7070,
      "Ġbost": 7071,
      "iser": 7072,
      "Ġmiami": 7073,
      "Ġanna": 7074,
      "icing": 7075,
      "Ġlag": 7076,
      "entially": 7077,
      "raction": 7078,
      "Ġresigned": 7079,
      "Ġcrisis": 7080,
      "Ġmonk": 7081,
      "Ġlegend": 7082,
      "Ġbread": 7083,
      "2000": 7084,
      "Ġalexa": 7085,
      "Ġpenetr": 7086,
      "Ġrespectively": 7087,
      "Ġmrs": 7088,
      "Ġmunicipality": 7089,
      "Ġchandigarh": 7090,
      "Ġgymnast": 7091,
      "Ġimpulse": 7092,
      "Ġbridges": 7093,
      "dam": 7094,
      "pent": 7095,
      "Ġbord": 7096,
      "omy": 7097,
      "Ġgor": 7098,
      "Ġheight": 7099,
      "igue": 7100,
      "Ġyards": 7101,
      "Ġ1913": 7102,
      "Ġenqu": 7103,
      "clf": 7104,
      "raf": 7105,
      "Ġblame": 7106,
      "Ġcarri": 7107,
      "Ġdrunk": 7108,
      "ographer": 7109,
      "Ġphysi": 7110,
      "Ġvalues": 7111,
      "2003": 7112,
      "Ġ1905": 7113,
      "Ġ1909": 7114,
      "Ġkilling": 7115,
      "Ġanimated": 7116,
      "Ġfriendship": 7117,
      "Ġprobable": 7118,
      "Ġfocused": 7119,
      "Ġoccupied": 7120,
      "Ġemergency": 7121,
      "footnote": 7122,
      "Ġmetropolitan": 7123,
      "Ġlanguages": 7124,
      "Ġchrys": 7125,
      "Ġarizona": 7126,
      "ture": 7127,
      "Ġaston": 7128,
      "Ġbot": 7129,
      "Ġpione": 7130,
      "Ġhond": 7131,
      "Ġdrew": 7132,
      "Ġnak": 7133,
      "urt": 7134,
      "umes": 7135,
      "igu": 7136,
      "Ġveter": 7137,
      "Ġky": 7138,
      "Ġ1921": 7139,
      "aga": 7140,
      "abad": 7141,
      "Ġtra": 7142,
      "udi": 7143,
      "Ġcontempt": 7144,
      "Ġoutstanding": 7145,
      "Ġliqu": 7146,
      "Ġremov": 7147,
      "pected": 7148,
      "Ġbreath": 7149,
      "Ġbrook": 7150,
      "Ġvisual": 7151,
      "Ġsmaller": 7152,
      "Ġresear": 7153,
      "Ġmadame": 7154,
      "Ġdiego": 7155,
      "Ġcontributed": 7156,
      "Ġinstrumental": 7157,
      "Ġconclude": 7158,
      "Ġrevelation": 7159,
      "mes": 7160,
      "Ġwrest": 7161,
      "Ġbeng": 7162,
      "Ġcoc": 7163,
      "Ġfinger": 7164,
      "Ġgil": 7165,
      "amin": 7166,
      "osa": 7167,
      "Ġcha": 7168,
      "Ġchile": 7169,
      "erences": 7170,
      "othing": 7171,
      "Ġcolour": 7172,
      "Ġameric": 7173,
      "Ġfeels": 7174,
      "Ġcreating": 7175,
      "Ġswiss": 7176,
      "Ġswitzerland": 7177,
      "Ġ80": 7178,
      "pective": 7179,
      "Ġheads": 7180,
      "Ġsumm": 7181,
      "anny": 7182,
      "Ġpatrick": 7183,
      "Ġsonic": 7184,
      "Ġtruths": 7185,
      "Ġplease": 7186,
      "Ġrequest": 7187,
      "Ġrespond": 7188,
      "Ġballet": 7189,
      "Ġthousands": 7190,
      "Ġapprehended": 7191,
      "Ġbanks": 7192,
      "Ġflee": 7193,
      "Ġbacon": 7194,
      "Ġsurprise": 7195,
      "filment": 7196,
      "ĠâĪ": 7197,
      "Ġukraine": 7198,
      "Ġukrainian": 7199,
      "Ġboston": 7200,
      "cu": 7201,
      "iations": 7202,
      "nik": 7203,
      "tv": 7204,
      "Ġtang": 7205,
      "Ġwy": 7206,
      "Ġbbc": 7207,
      "Ġcode": 7208,
      "Ġpod": 7209,
      "Ġinaug": 7210,
      "alam": 7211,
      "uther": 7212,
      "chair": 7213,
      "Ġrivers": 7214,
      "Ġkings": 7215,
      "Ġsho": 7216,
      "quet": 7217,
      "Ġplane": 7218,
      "Ġdesired": 7219,
      "Ġphr": 7220,
      "Ġaccused": 7221,
      "Ġassent": 7222,
      "Ġcreative": 7223,
      "Ġtempt": 7224,
      "Ġarchbishop": 7225,
      "Ġ1926": 7226,
      "Ġequival": 7227,
      "Ġradical": 7228,
      "Ġvirtues": 7229,
      "Ġwritings": 7230,
      "Ġduties": 7231,
      "Ġdaught": 7232,
      "ylum": 7233,
      "Ġkrist": 7234,
      "Ġpakistani": 7235,
      "Ġultimately": 7236,
      "Ġmurdered": 7237,
      "Ġignorant": 7238,
      "Ġdoctrine": 7239,
      "mund": 7240,
      "Ġwet": 7241,
      "Ġwounded": 7242,
      "Ġbath": 7243,
      "Ġpp": 7244,
      "Ġgate": 7245,
      "oto": 7246,
      "Ġarc": 7247,
      "Ġchose": 7248,
      "Ġorgans": 7249,
      "Ġ1912": 7250,
      "abled": 7251,
      "Ġplut": 7252,
      "Ġtraged": 7253,
      "Ġcoinc": 7254,
      "Ġresulted": 7255,
      "Ġrestaur": 7256,
      "Ġ1902": 7257,
      "Ġprogramming": 7258,
      "Ġinteresting": 7259,
      "Ġliteracy": 7260,
      "Ġdestruction": 7261,
      "Ġapprehension": 7262,
      "Ġfighting": 7263,
      "Ġmachine": 7264,
      "Ġappropriate": 7265,
      "Ġexercise": 7266,
      "Ġelectronic": 7267,
      "Ġinnocent": 7268,
      "Ġdaughters": 7269,
      "82": 7270,
      "bury": 7271,
      "gas": 7272,
      "hus": 7273,
      "view": 7274,
      "wall": 7275,
      "ĠÑģ": 7276,
      "Ġahead": 7277,
      "Ġcatherine": 7278,
      "Ġfisher": 7279,
      "Ġparent": 7280,
      "Ġdign": 7281,
      "roe": 7282,
      "Ġrival": 7283,
      "Ġhumanity": 7284,
      "ishna": 7285,
      "Ġgraham": 7286,
      "Ġinstalled": 7287,
      "Ġoutdoor": 7288,
      "Ġeverywhere": 7289,
      "Ġcorrel": 7290,
      "Ġglory": 7291,
      "Ġiranian": 7292,
      "Ġcompete": 7293,
      "Ġoccurs": 7294,
      "Ġconvention": 7295,
      "Ġsupporting": 7296,
      "Ġinnov": 7297,
      "Ġstephan": 7298,
      "Ġimmort": 7299,
      "Ġkarl": 7300,
      "Ġdocuments": 7301,
      "Ġekst": 7302,
      "Ġlyrics": 7303,
      "81": 7304,
      "ä¸": 7305,
      "Ġmig": 7306,
      "Ġpoc": 7307,
      "Ġdil": 7308,
      "icable": 7309,
      "ilton": 7310,
      "Ġgross": 7311,
      "Ġonto": 7312,
      "Ġasks": 7313,
      "Ġasylum": 7314,
      "ema": 7315,
      "Ġnoticed": 7316,
      "ucky": 7317,
      "Ġcolomb": 7318,
      "Ġ33": 7319,
      "Ġpersonality": 7320,
      "Ġslaves": 7321,
      "aneous": 7322,
      "Ġsubjectivity": 7323,
      "Ġreveal": 7324,
      "Ġinterested": 7325,
      "Ġmerc": 7326,
      "Ġcollections": 7327,
      "Ġtransportation": 7328,
      "Ġhaun": 7329,
      "Ġministers": 7330,
      "Ġmistake": 7331,
      "Ġvictoria": 7332,
      "Ġcollaboration": 7333,
      "Ġarranged": 7334,
      "Ġdrums": 7335,
      "Ġisaac": 7336,
      "Ġmobile": 7337,
      "Ġmarcus": 7338,
      "Ġglaucon": 7339,
      "Ġbachelor": 7340,
      "-\"": 7341,
      "93": 7342,
      "dem": 7343,
      "morrow": 7344,
      "Ġgest": 7345,
      "ceeds": 7346,
      "istry": 7347,
      "Ġadapt": 7348,
      "Ġmarie": 7349,
      "Ġscale": 7350,
      "Ġseneca": 7351,
      "onto": 7352,
      "Ġsets": 7353,
      "Ġpsychology": 7354,
      "Ġ1903": 7355,
      "Ġgradually": 7356,
      "Ġcomposers": 7357,
      "Ġindicate": 7358,
      "Ġobtain": 7359,
      "Ġnamely": 7360,
      "Ġportugal": 7361,
      "Ġpurchased": 7362,
      "Ġshadow": 7363,
      "good": 7364,
      "mony": 7365,
      "ping": 7366,
      "ras": 7367,
      "such": 7368,
      "Ġpand": 7369,
      "alysis": 7370,
      "amorph": 7371,
      "Ġstating": 7372,
      "Ġkaz": 7373,
      "Ġcomfort": 7374,
      "Ġusers": 7375,
      "Ġemigr": 7376,
      "Ġformations": 7377,
      "Ġprincess": 7378,
      "Ġbelgium": 7379,
      "Ġmetamorph": 7380,
      "Ġofficially": 7381,
      "Ġresulting": 7382,
      "Ġesp": 7383,
      "Ġdescribing": 7384,
      "Ġobservatory": 7385,
      "Ġtelling": 7386,
      "Ġwalking": 7387,
      "Ġengineers": 7388,
      "Ġtestim": 7389,
      "Ġcopies": 7390,
      "Ġregularly": 7391,
      "Ġwooden": 7392,
      "Ġclosest": 7393,
      "Ġaims": 7394,
      "Ġscholar": 7395,
      "Ġevidently": 7396,
      "Ġdynasty": 7397,
      "Ġcontingent": 7398,
      "Ġbernard": 7399,
      "Ġpreceding": 7400,
      "Ġkierke": 7401,
      ".]": 7402,
      "fri": 7403,
      "song": 7404,
      "eration": 7405,
      "anna": 7406,
      "Ġbou": 7407,
      "Ġbid": 7408,
      "Ġbart": 7409,
      "Ġhart": 7410,
      "Ġrestr": 7411,
      "iva": 7412,
      "oli": 7413,
      "ads": 7414,
      "Ġrot": 7415,
      "Ġfrances": 7416,
      "Ġdean": 7417,
      "Ġspont": 7418,
      "Ġcompass": 7419,
      "Ġattached": 7420,
      "Ġflame": 7421,
      "Ġoperating": 7422,
      "Ġmissouri": 7423,
      "boat": 7424,
      "Ġrooms": 7425,
      "Ġrichmond": 7426,
      "Ġeconomy": 7427,
      "Ġterritor": 7428,
      "Ġabsurdity": 7429,
      "Ġsections": 7430,
      "Ġtimber": 7431,
      "iciency": 7432,
      "Ġcabinet": 7433,
      "Ġconstituencies": 7434,
      "Ġenterpr": 7435,
      "Ġbattery": 7436,
      "Ġalternative": 7437,
      "music": 7438,
      "sylvania": 7439,
      "iest": 7440,
      "oz": 7441,
      "rav": 7442,
      "rated": 7443,
      "Ñı": 7444,
      "anbul": 7445,
      "Ġboss": 7446,
      "Ġinher": 7447,
      "Ġdass": 7448,
      "Ġster": 7449,
      "Ġarthur": 7450,
      "Ġrah": 7451,
      "Ġnep": 7452,
      "Ġmyster": 7453,
      "Ġpartner": 7454,
      "Ġscript": 7455,
      "Ġdistribut": 7456,
      "Ġaccustom": 7457,
      "icking": 7458,
      "Ġdefeat": 7459,
      "Ġworthy": 7460,
      "Ġromantic": 7461,
      "2006": 7462,
      "Ġsentiment": 7463,
      "Ġfulf": 7464,
      "Ġfifteen": 7465,
      "Ġfleet": 7466,
      "Ġsurnames": 7467,
      "Ġloves": 7468,
      "Ġescapes": 7469,
      "Ġsustain": 7470,
      "Ġistanbul": 7471,
      "Ġuneasiness": 7472,
      "mal": 7473,
      "mid": 7474,
      "top": 7475,
      "Â°": 7476,
      "Ġsle": 7477,
      "Ġwik": 7478,
      "Ġcel": 7479,
      "edia": 7480,
      "Ġdread": 7481,
      "Ġeun": 7482,
      "iveness": 7483,
      "Ġryan": 7484,
      "Ġvit": 7485,
      "agre": 7486,
      "Ġrefuse": 7487,
      "Ġug": 7488,
      "Ġcollected": 7489,
      "Ġpoem": 7490,
      "Ġhoward": 7491,
      "Ġexpert": 7492,
      "Ġinsult": 7493,
      "Ġbasic": 7494,
      "Ġoperated": 7495,
      "Ġproducing": 7496,
      "Ġqualification": 7497,
      "comm": 7498,
      "Ġepic": 7499,
      "colspan": 7500,
      "Ġrender": 7501,
      "Ġdeparture": 7502,
      "ursday": 7503,
      "Ġgraduate": 7504,
      "Ġsettlement": 7505,
      "Ġpraise": 7506,
      "Ġargentina": 7507,
      ";\"|": 7508,
      "Ġceremony": 7509,
      "Ġmalaysia": 7510,
      "Ġsurrounding": 7511,
      "Ġhorses": 7512,
      "Ġsoutheast": 7513,
      "pres": 7514,
      "wo": 7515,
      "Ġbent": 7516,
      "Ġdol": 7517,
      "Ġaside": 7518,
      "chief": 7519,
      "ete": 7520,
      "Ġconne": 7521,
      "Ġwhence": 7522,
      "Ġpartly": 7523,
      "Ġcontaining": 7524,
      "Ġadap": 7525,
      "Ġphill": 7526,
      "Ġexperiments": 7527,
      "Ġ500": 7528,
      "Ġwarri": 7529,
      "Ġdepends": 7530,
      "Ġlegs": 7531,
      "Ġvisitors": 7532,
      "Ġmerchant": 7533,
      "Ġnether": 7534,
      "Ġcensor": 7535,
      "works": 7536,
      "Ġhttps": 7537,
      "Ġstruggle": 7538,
      "Ġcondemned": 7539,
      "Ġjesus": 7540,
      "Ġpeasant": 7541,
      "Ġnikolay": 7542,
      "Ġltd": 7543,
      "Ġecho": 7544,
      "Ġscheduled": 7545,
      "Ġcogito": 7546,
      "jar": 7547,
      "ration": 7548,
      "was": 7549,
      "wart": 7550,
      "Ġsie": 7551,
      "ancy": 7552,
      "oria": 7553,
      "left": 7554,
      "Ġnons": 7555,
      "stit": 7556,
      "Ġhegel": 7557,
      "emed": 7558,
      "Ġyield": 7559,
      "illing": 7560,
      "Ġarena": 7561,
      "anta": 7562,
      "Ġcla": 7563,
      "Ġquint": 7564,
      "Ġ34": 7565,
      "Ġservants": 7566,
      "Ġguar": 7567,
      "Ġ57": 7568,
      "Ġnorway": 7569,
      "Ġsmart": 7570,
      "Ġproperly": 7571,
      "Ġglo": 7572,
      "Ġchron": 7573,
      "2004": 7574,
      "Ġelectoral": 7575,
      "Ġnegot": 7576,
      "Ġsoldier": 7577,
      "Ġadministrative": 7578,
      "Ġranking": 7579,
      "Ġsynthetic": 7580,
      "Ġpraised": 7581,
      "Ġperpetually": 7582,
      "Ġhungary": 7583,
      "Ġlicon": 7584,
      "Ġvehicles": 7585,
      "Ġdiamond": 7586,
      "Ġintuition": 7587,
      "66": 7588,
      "lers": 7589,
      "Ġtul": 7590,
      "rem": 7591,
      "Ġsang": 7592,
      "Ġwolf": 7593,
      "anes": 7594,
      "Ġpains": 7595,
      "Ġezek": 7596,
      "ental": 7597,
      "Ġheb": 7598,
      "Ġasleep": 7599,
      "Ġalger": 7600,
      "Ġ(;": 7601,
      "Ġvig": 7602,
      "Ġjord": 7603,
      "rik": 7604,
      "india": 7605,
      "Ġknight": 7606,
      "Ġdeserv": 7607,
      "Ġgoods": 7608,
      "Ġreverse": 7609,
      "Ġinternet": 7610,
      "iterrane": 7611,
      "Ġoldest": 7612,
      "Ġputting": 7613,
      "Ġmoham": 7614,
      "Ġprimarily": 7615,
      "Ġceo": 7616,
      "Ġspeaker": 7617,
      "Ġseparation": 7618,
      "Ġranked": 7619,
      "Ġholly": 7620,
      "Ġmagazines": 7621,
      "Ġcontributions": 7622,
      "Ġdiversity": 7623,
      "Ġtropical": 7624,
      "ãĢĬ": 7625,
      "Ġisolated": 7626,
      "Ġgonz": 7627,
      "Ġscarcely": 7628,
      "Ġsemifinals": 7629,
      "Ġkierkegaard": 7630,
      "Ġezekiel": 7631,
      "gie": 7632,
      "lon": 7633,
      "oi": 7634,
      "Ġsorts": 7635,
      "itants": 7636,
      "Ġfred": 7637,
      "Ġpull": 7638,
      "iday": 7639,
      "Ġvlad": 7640,
      "Ġlew": 7641,
      "Ġcontents": 7642,
      "Ġresidence": 7643,
      "athan": 7644,
      "Ġrecru": 7645,
      "Ġbelgian": 7646,
      "Ġfactor": 7647,
      "Ġextinct": 7648,
      "Ġpointed": 7649,
      "Ġswan": 7650,
      "Ġhistorian": 7651,
      "Ġsensations": 7652,
      "Ġtenness": 7653,
      "Ġanticip": 7654,
      "Ġapproved": 7655,
      "isca": 7656,
      "Ġfellows": 7657,
      "Ġmelbourne": 7658,
      "Ġrobin": 7659,
      "ÑĢÐ°": 7660,
      "Ġultimate": 7661,
      "Ġconfirm": 7662,
      "Ġhatred": 7663,
      "ãĢĭ": 7664,
      "Ġobscure": 7665,
      "dum": 7666,
      "hard": 7667,
      "nce": 7668,
      "sl": 7669,
      "ti": 7670,
      "ÅĤ": 7671,
      "anne": 7672,
      "Ġcd": 7673,
      "Ġpist": 7674,
      "Ġpanch": 7675,
      "Ġdoug": 7676,
      "Ġthursday": 7677,
      "Ġunhapp": 7678,
      "Ġchor": 7679,
      "Ġshr": 7680,
      "oda": 7681,
      "ovic": 7682,
      "Ġcontribution": 7683,
      "Ġexpanded": 7684,
      "inted": 7685,
      "Ġgenius": 7686,
      "Ġmediterrane": 7687,
      "Ġmaur": 7688,
      "Ġseriously": 7689,
      "Ġgreatly": 7690,
      "text": 7691,
      "Ġdeter": 7692,
      "Ġdeliber": 7693,
      "Ġdonald": 7694,
      "2007": 7695,
      "Ġaviation": 7696,
      "Ġcontinues": 7697,
      "Ġpainful": 7698,
      "Ġplanning": 7699,
      "related": 7700,
      "Ġindicated": 7701,
      "Ġconsisting": 7702,
      "Ġmechanical": 7703,
      "Ġaristot": 7704,
      "Ġpropositions": 7705,
      "Ġextremely": 7706,
      "Ġhondur": 7707,
      "spe": 7708,
      "vo": 7709,
      "Ġfitness": 7710,
      "Ġpin": 7711,
      "align": 7712,
      "Ġdh": 7713,
      "Ġnest": 7714,
      "Ġrear": 7715,
      "Ġbears": 7716,
      "irt": 7717,
      "ista": 7718,
      "Ġvas": 7719,
      "Ġuniversities": 7720,
      "Ġanyone": 7721,
      "Ġspec": 7722,
      "Ġmining": 7723,
      "Ġthras": 7724,
      "Ġinsc": 7725,
      "attle": 7726,
      "Ġharris": 7727,
      "elfare": 7728,
      "Ġmembership": 7729,
      "Ġsuperf": 7730,
      "Ġcease": 7731,
      "Ġhyd": 7732,
      "Ġluci": 7733,
      "Ġimmun": 7734,
      "Ġpapers": 7735,
      "Ġkeeping": 7736,
      "Ġstrike": 7737,
      "reflect": 7738,
      "Ġmathematical": 7739,
      "Ġjacob": 7740,
      "consciousness": 7741,
      "Ġunexpected": 7742,
      "Ġapparatus": 7743,
      "Ġnetherlands": 7744,
      "bgcolor": 7745,
      "fen": 7746,
      "gh": 7747,
      "tical": 7748,
      "wick": 7749,
      "zz": 7750,
      "Ġted": 7751,
      "Ġsib": 7752,
      "Ġsale": 7753,
      "itudes": 7754,
      "Ġpic": 7755,
      "ami": 7756,
      "chang": 7757,
      "Ġkid": 7758,
      "ando": 7759,
      "abet": 7760,
      "angel": 7761,
      "Ġbrick": 7762,
      "Ġclot": 7763,
      "Ġmarvel": 7764,
      "Ġsinging": 7765,
      "Ġcouldn": 7766,
      "Ġshape": 7767,
      "liest": 7768,
      "Ġorganis": 7769,
      "Ġarchive": 7770,
      "Ġ1890": 7771,
      "Ġsuccessfully": 7772,
      "Ġsettle": 7773,
      "Ġlogical": 7774,
      "Ġconsisted": 7775,
      "Ġperpetual": 7776,
      "Ġterrorist": 7777,
      "Ġpatriarch": 7778,
      "Ġsunday": 7779,
      "Ġneighborhood": 7780,
      "Ġtennessee": 7781,
      "\"),": 7782,
      "51": 7783,
      "bas": 7784,
      "cas": 7785,
      "right": 7786,
      "si": 7787,
      "âĪ": 7788,
      "Ġwicked": 7789,
      "Ġpill": 7790,
      "Ġbeast": 7791,
      "Ġgolf": 7792,
      "adel": 7793,
      "etime": 7794,
      "Ġarbit": 7795,
      "Ġ(_": 7796,
      "Ġvast": 7797,
      "Ġexert": 7798,
      "Ġtrace": 7799,
      "Ġpron": 7800,
      "Ġsheet": 7801,
      "Ġchanging": 7802,
      "Ġscenes": 7803,
      "Ġgeography": 7804,
      "Ġwhereby": 7805,
      "Ġdriving": 7806,
      "Ġcape": 7807,
      "Ġhousehold": 7808,
      "Ġcounties": 7809,
      "Ġdelay": 7810,
      "Ġdeveloping": 7811,
      "Ġchristians": 7812,
      "Ġarrival": 7813,
      "Ġfallen": 7814,
      "Ġinvolving": 7815,
      "Ġstrongly": 7816,
      "Ġparticipate": 7817,
      "Ġpurposes": 7818,
      "Ġcommissioned": 7819,
      "Ġtranslated": 7820,
      "Ġlaboratory": 7821,
      "Ġhungarian": 7822,
      "Ġcaval": 7823,
      "Ġappreci": 7824,
      "Ġvoluntary": 7825,
      "best": 7826,
      "fol": 7827,
      "nor": 7828,
      "pie": 7829,
      "Ġily": 7830,
      "Ġbrian": 7831,
      "Ġlions": 7832,
      "umar": 7833,
      "orted": 7834,
      "Ġpradesh": 7835,
      "Ġknock": 7836,
      "ĠĠĠĠĠĠĠ": 7837,
      "Ġdefine": 7838,
      "Ġappearing": 7839,
      "Ġslowly": 7840,
      "Ġproduces": 7841,
      "Ġpsychiat": 7842,
      "box": 7843,
      "Ġsteel": 7844,
      "Ġ1901": 7845,
      "Ġeps": 7846,
      "Ġcheck": 7847,
      "Ġcausing": 7848,
      "Ġmerit": 7849,
      "Ġelsewhere": 7850,
      "Ġtoronto": 7851,
      "Ġlegislation": 7852,
      "Ġdamage": 7853,
      "Ġbaby": 7854,
      "Ġmessage": 7855,
      "reprene": 7856,
      "Ġexcellent": 7857,
      "Ġmystery": 7858,
      "usalem": 7859,
      "Ġdiscipl": 7860,
      "Ġvaluable": 7861,
      "Ġempirical": 7862,
      "64": 7863,
      "final": 7864,
      "ml": 7865,
      "mill": 7866,
      "set": 7867,
      "Ġbak": 7868,
      "Ġcn": 7869,
      "Ġcant": 7870,
      "Ġfern": 7871,
      "also": 7872,
      "Ġdry": 7873,
      "icism": 7874,
      "Ġetern": 7875,
      "story": 7876,
      "Ġasking": 7877,
      "Ġva": 7878,
      "Ġcompr": 7879,
      "Ġclimb": 7880,
      "Ġconsol": 7881,
      "ansas": 7882,
      "2021": 7883,
      "Ġeditions": 7884,
      "Ġslim": 7885,
      "Ġcompeting": 7886,
      "2002": 7887,
      "Ġreturns": 7888,
      "Ġfacility": 7889,
      "Ġfields": 7890,
      "Ġinvestment": 7891,
      "Ġprivile": 7892,
      "Ġdespair": 7893,
      "Ġcombination": 7894,
      "Ġoccasions": 7895,
      "Ġbillboard": 7896,
      "Ġsleeping": 7897,
      "Ġcitizen": 7898,
      "Ġohio": 7899,
      "Ġsprint": 7900,
      "Ġbitter": 7901,
      "Ġjerusalem": 7902,
      "Ġplayoffs": 7903,
      "Ġscotland": 7904,
      "Ġretirement": 7905,
      "Ġtestimony": 7906,
      "60": 7907,
      "bra": 7908,
      "list": 7909,
      "mm": 7910,
      "person": 7911,
      "sal": 7912,
      "Ð³": 7913,
      "Ġtum": 7914,
      "Ġtied": 7915,
      "Ġdal": 7916,
      "Ġanderson": 7917,
      "Ġnord": 7918,
      "oming": 7919,
      "Ġstages": 7920,
      "Ġrig": 7921,
      "istical": 7922,
      "Ġyu": 7923,
      "Ġchipp": 7924,
      "Ġkam": 7925,
      "agan": 7926,
      "agen": 7927,
      "Ġembr": 7928,
      "Ġlibert": 7929,
      "Ġdiscography": 7930,
      "Ġedge": 7931,
      "Ġ42": 7932,
      "Ġ44": 7933,
      "Ġdriven": 7934,
      "Ġsecondly": 7935,
      "Ġconfeder": 7936,
      "Ġoffices": 7937,
      "Ġinsist": 7938,
      "Ġpromot": 7939,
      "Ġhoriz": 7940,
      "Ġexcited": 7941,
      "Ġcommissioner": 7942,
      "Ġbringing": 7943,
      "Ġdealing": 7944,
      "Ġflowers": 7945,
      "Ġindicates": 7946,
      "Ġisraeli": 7947,
      "Ġconclusions": 7948,
      "Ġmistaken": 7949,
      "Ġwidely": 7950,
      "Ġfirmly": 7951,
      "Ġcarrying": 7952,
      "Ġmuisca": 7953,
      "Ġpaso": 7954,
      "Ġhawai": 7955,
      "Ġkentucky": 7956,
      "Ġjuris": 7957,
      "Ġprovincial": 7958,
      "Ġearnest": 7959,
      "Ġaggregate": 7960,
      "Ġrecollection": 7961,
      "Ġplutarch": 7962,
      "Ġpocket": 7963,
      "Ġmetamorphosis": 7964,
      "Ġaccustomed": 7965,
      "77": 7966,
      "sive": 7967,
      "Ġtas": 7968,
      "Ġsid": 7969,
      "Ġwelfare": 7970,
      "Ġfasc": 7971,
      "Ġpush": 7972,
      "Ġstab": 7973,
      "Ġja": 7974,
      "Ġjail": 7975,
      "Ġspart": 7976,
      "Ġmanuel": 7977,
      "ibly": 7978,
      "ucci": 7979,
      "Ġsafe": 7980,
      "Ġpresc": 7981,
      "Ġpolling": 7982,
      "Ġfox": 7983,
      "Ġentitled": 7984,
      "Ġpresentation": 7985,
      "Ġdesignation": 7986,
      "Ġavenue": 7987,
      "Ġdeputies": 7988,
      "Ġtendency": 7989,
      "Ġvehicle": 7990,
      "Ã°": 7991,
      "Ġtheore": 7992,
      "erate": 7993,
      "Ġwit": 7994,
      "Ġwed": 7995,
      "Ġwished": 7996,
      "Ġming": 7997,
      "Ġinex": 7998,
      "Ġthrown": 7999,
      "ctic": 8000,
      "Ġasp": 8001,
      "Ġalive": 8002,
      "Ġrud": 8003,
      "Ġrick": 8004,
      "Ġseized": 8005,
      "Ġplate": 8006,
      "Ġbrut": 8007,
      "Ġpeer": 8008,
      "Ġgraph": 8009,
      "enses": 8010,
      "Ġeman": 8011,
      "Ġpolar": 8012,
      "Ġlink": 8013,
      "Ġentering": 8014,
      "Ġbird": 8015,
      "Ġrevival": 8016,
      "Ġpromise": 8017,
      "Ġviolin": 8018,
      "ighth": 8019,
      "Ġapplications": 8020,
      "adox": 8021,
      "Ġinitiative": 8022,
      "Ġpreserve": 8023,
      "Ġimperfect": 8024,
      "Ġdeeply": 8025,
      "Ġcovers": 8026,
      "Ġpulled": 8027,
      "Ġdialect": 8028,
      "Ġcontemplation": 8029,
      "osterone": 8030,
      "Ġexteriority": 8031,
      "natural": 8032,
      "Ġdancer": 8033,
      "Ġqualifier": 8034,
      "ban": 8035,
      "lines": 8036,
      "uate": 8037,
      "Ġcic": 8038,
      "itals": 8039,
      "enic": 8040,
      "Ġincap": 8041,
      "Ġbegg": 8042,
      "rob": 8043,
      "acc": 8044,
      "Ġspin": 8045,
      "Ġwhenever": 8046,
      "ogor": 8047,
      "Ġtea": 8048,
      "Ġinstall": 8049,
      "Ġreferendum": 8050,
      "Ġformal": 8051,
      "Ġscoring": 8052,
      "Ġlinked": 8053,
      "Ġmines": 8054,
      "Ġfathers": 8055,
      "Ġinspect": 8056,
      "Ġdecor": 8057,
      "Ġerd": 8058,
      "Ġprecise": 8059,
      "Ġreaching": 8060,
      "Ġsurpassing": 8061,
      "Ġcuba": 8062,
      "Ġaspects": 8063,
      "Ġtamil": 8064,
      "Ġvictims": 8065,
      "Ġrecipients": 8066,
      "Ġstupid": 8067,
      "Ġpennsylvania": 8068,
      "Ġrhyth": 8069,
      "gger": 8070,
      "Ñĩ": 8071,
      "Ġ{": 8072,
      "Ġul": 8073,
      "Ġtender": 8074,
      "Ġaster": 8075,
      "includ": 8076,
      "Ġcited": 8077,
      "Ġfought": 8078,
      "Ġfiba": 8079,
      "Ġeag": 8080,
      "Ġlis": 8081,
      "unte": 8082,
      "ading": 8083,
      "Ġalas": 8084,
      "Ġry": 8085,
      "Ġfried": 8086,
      "Ġprohib": 8087,
      "Ġmayors": 8088,
      "Ġprague": 8089,
      "ocated": 8090,
      "ensation": 8091,
      "Ġoffering": 8092,
      "Ġjoining": 8093,
      "Ġassign": 8094,
      "Ġminim": 8095,
      "Ġentreprene": 8096,
      "Ġbuff": 8097,
      "Ġstudying": 8098,
      "Ġsurge": 8099,
      "Ġextensive": 8100,
      "Ġwins": 8101,
      "Ġiran": 8102,
      "Ġpursue": 8103,
      "Ġclever": 8104,
      "Ġfaced": 8105,
      "truth": 8106,
      "1999": 8107,
      "Ġstreets": 8108,
      "Ġgrounds": 8109,
      "Ġveget": 8110,
      "Ġguardian": 8111,
      "Ġpainters": 8112,
      "Ġborrow": 8113,
      "Ġtranslation": 8114,
      "Ġbulgar": 8115,
      "Ġbegun": 8116,
      "Ġsplit": 8117,
      "Ġdiocese": 8118,
      "Ġambassador": 8119,
      "Ġhebrew": 8120,
      "Ġpanchay": 8121,
      "Ġmediterranean": 8122,
      "52": 8123,
      "72": 8124,
      "iya": 8125,
      "mn": 8126,
      "mo": 8127,
      "put": 8128,
      "ische": 8129,
      "Ġmath": 8130,
      "Ġpel": 8131,
      "Ġgab": 8132,
      "Ġstol": 8133,
      "Ġkurd": 8134,
      "agar": 8135,
      "Ġtruck": 8136,
      "Ġabund": 8137,
      "Ġclin": 8138,
      "Ġbless": 8139,
      "Ġfungi": 8140,
      "Ġexistent": 8141,
      "leton": 8142,
      "Ġseeks": 8143,
      "Ġtransm": 8144,
      "Ġseconds": 8145,
      "Ġconfined": 8146,
      "Ġincorpor": 8147,
      "Ġmovements": 8148,
      "Ġstef": 8149,
      "Ġconvict": 8150,
      "Ġdetermines": 8151,
      "Ġconnectivity": 8152,
      "Ġtalked": 8153,
      "Ġprimitive": 8154,
      "Ġdispute": 8155,
      "Ġsympt": 8156,
      "Ġreserves": 8157,
      "Ġlacking": 8158,
      "Ġmathematic": 8159,
      "Ġsuspended": 8160,
      "Ġwitnesses": 8161,
      "69": 8162,
      ";-": 8163,
      "kar": 8164,
      "night": 8165,
      "oly": 8166,
      "vis": 8167,
      "zh": 8168,
      "Ġthesis": 8169,
      "Ġwings": 8170,
      "Ġmall": 8171,
      "esh": 8172,
      "Ġhath": 8173,
      "Ġnay": 8174,
      "Ġlips": 8175,
      "Ġjav": 8176,
      "appe": 8177,
      "Ġintent": 8178,
      "Ġinters": 8179,
      "Ġabd": 8180,
      "Ġenforce": 8181,
      "cles": 8182,
      "thew": 8183,
      "Ġparadox": 8184,
      "Ġincidents": 8185,
      "Ġcourses": 8186,
      "Ġkevin": 8187,
      "Ġbelieves": 8188,
      "Ġvolunte": 8189,
      "Ġpleased": 8190,
      "Ġ1898": 8191,
      "Ġroads": 8192,
      "Ġmotions": 8193,
      "Ġceased": 8194,
      "tracks": 8195,
      "Ġproductions": 8196,
      "Ġappointment": 8197,
      "Ġcontinuous": 8198,
      "Ġvenet": 8199,
      "Ġpalace": 8200,
      "Ġencount": 8201,
      "Ġpretty": 8202,
      "Ġsuspected": 8203,
      "Ġbenefit": 8204,
      "Ġventure": 8205,
      "Ġadventure": 8206,
      "Ġfrederick": 8207,
      "Ġkelly": 8208,
      "\").": 8209,
      "yard": 8210,
      "Ñĸ": 8211,
      "Ġoaks": 8212,
      "Ġbapt": 8213,
      "enz": 8214,
      "Ġfoss": 8215,
      "Ġpor": 8216,
      "Ġdress": 8217,
      "Ġdick": 8218,
      "Ġnac": 8219,
      "unes": 8220,
      "usa": 8221,
      "Ġrav": 8222,
      "Ġ(),": 8223,
      "ulsion": 8224,
      "Ġexclud": 8225,
      "Ġunp": 8226,
      "Ġcompelled": 8227,
      "Ġenable": 8228,
      "Ġpresents": 8229,
      "Ġillum": 8230,
      "Ġthrust": 8231,
      "Ġbirds": 8232,
      "Ġadvice": 8233,
      "Ġhonest": 8234,
      "Ġportra": 8235,
      "aux": 8236,
      "Ġactivist": 8237,
      "Ġfighter": 8238,
      "Ð½Ð°": 8239,
      "Ġbeside": 8240,
      "Ġdimin": 8241,
      "Ġnewspapers": 8242,
      "Ġweakness": 8243,
      "Ġdrinking": 8244,
      "Ġbehavi": 8245,
      "human": 8246,
      "Ġscheme": 8247,
      "Ġnonsense": 8248,
      "Ġerdogan": 8249,
      "cat": 8250,
      "chers": 8251,
      "gb": 8252,
      "Ð±": 8253,
      "Ġtanz": 8254,
      "inating": 8255,
      "Ġoak": 8256,
      "Ġcp": 8257,
      "Ġcass": 8258,
      "Ġdish": 8259,
      "Ġeug": 8260,
      "Ġlun": 8261,
      "Ġalg": 8262,
      "Ġrif": 8263,
      "Ġvik": 8264,
      "Ġku": 8265,
      "Ġsuitable": 8266,
      "akia": 8267,
      "ifer": 8268,
      "Ġspecul": 8269,
      "orship": 8270,
      "Ġremind": 8271,
      "Ġcargo": 8272,
      "Ġflu": 8273,
      "Ġconsiders": 8274,
      "Ġ90": 8275,
      "Ġorganisation": 8276,
      "Ġdescribes": 8277,
      "Ġstarts": 8278,
      "Ġsteep": 8279,
      "Ġsatell": 8280,
      "Ġconnections": 8281,
      "Ġarguments": 8282,
      "Ġproposition": 8283,
      "Ġwinds": 8284,
      "Ġassumption": 8285,
      "gregation": 8286,
      "Ġobviously": 8287,
      "Ġauction": 8288,
      "Ġsympathy": 8289,
      "ef": 8290,
      "eff": 8291,
      "mel": 8292,
      "oir": 8293,
      "rum": 8294,
      "xion": 8295,
      "yev": 8296,
      "Ġtie": 8297,
      "Ġfart": 8298,
      "Ġancest": 8299,
      "Ġnu": 8300,
      "Ġerect": 8301,
      "eld": 8302,
      "Ġitems": 8303,
      "Ġ1000": 8304,
      "etic": 8305,
      "Ġjay": 8306,
      "apore": 8307,
      "seg": 8308,
      "Ġweather": 8309,
      "Ġevolution": 8310,
      "oka": 8311,
      "Ġprejud": 8312,
      "Ġcommit": 8313,
      "Ġcolumn": 8314,
      "Ġcarries": 8315,
      "Ġinfr": 8316,
      "Ġbeloved": 8317,
      "Ġzoss": 8318,
      "Ġretain": 8319,
      "attered": 8320,
      "Ġcalm": 8321,
      "chester": 8322,
      "Ġobservations": 8323,
      "Ġtrium": 8324,
      "Ġgreeks": 8325,
      "Ġargued": 8326,
      "Ġ1899": 8327,
      "Ġdevoted": 8328,
      "Ġduo": 8329,
      "Ġcamer": 8330,
      "Ġcircumstance": 8331,
      "Ġfrequent": 8332,
      "Ġpreserved": 8333,
      "Ġcardinal": 8334,
      "Ġcharlotte": 8335,
      "Ġdropped": 8336,
      "Ġjaneiro": 8337,
      "Ġharvard": 8338,
      "Ġzossima": 8339,
      "fall": 8340,
      "vent": 8341,
      "Ġtir": 8342,
      "Ġsig": 8343,
      "erp": 8344,
      "eries": 8345,
      "Ġbam": 8346,
      "Ġberg": 8347,
      "Ġces": 8348,
      "Ġpian": 8349,
      "Ġhc": 8350,
      "arter": 8351,
      "Ġreduce": 8352,
      "ilia": 8353,
      "Ġgord": 8354,
      "rose": 8355,
      "eterm": 8356,
      "Ġvenez": 8357,
      "Ġatm": 8358,
      "Ġdoors": 8359,
      "Ġdischar": 8360,
      "actor": 8361,
      "Ġenvelop": 8362,
      "Ġenlar": 8363,
      "Ġindoor": 8364,
      "Ġroster": 8365,
      "Ġemma": 8366,
      "Ġrelief": 8367,
      "Ġsingapore": 8368,
      "Ġfores": 8369,
      "lete": 8370,
      "Ġeveryone": 8371,
      "Ġdefending": 8372,
      "Ġsurren": 8373,
      "Ġcorruption": 8374,
      "Ġprovision": 8375,
      "Ġoperate": 8376,
      "Ġhandball": 8377,
      "Ġexplicit": 8378,
      "Ġviii": 8379,
      "exist": 8380,
      "Ġexamined": 8381,
      "Ġdebuted": 8382,
      "Ġinfluenced": 8383,
      "Ġdispos": 8384,
      "Ġsatisfy": 8385,
      "Ġcustoms": 8386,
      "Ġgiov": 8387,
      "Ġslightly": 8388,
      "Ġstimuli": 8389,
      "Ġaxi": 8390,
      "Ġotto": 8391,
      "Ġflorent": 8392,
      "Î¿Ï": 8393,
      "Ġhypothesis": 8394,
      "Ġeliminated": 8395,
      "Ġconsecutive": 8396,
      "Ġequivalent": 8397,
      "Ġtragedy": 8398,
      "Ġjurisd": 8399,
      "bro": 8400,
      "fast": 8401,
      "fiction": 8402,
      "god": 8403,
      "his": 8404,
      "named": 8405,
      "rist": 8406,
      "rac": 8407,
      "vision": 8408,
      "Ġtak": 8409,
      "herent": 8410,
      "enia": 8411,
      "Ġhack": 8412,
      "Ġnel": 8413,
      "Ġthail": 8414,
      "adi": 8415,
      "ird": 8416,
      "acious": 8417,
      "ounced": 8418,
      "Ġshang": 8419,
      "cca": 8420,
      "Ġade": 8421,
      "Ġagencies": 8422,
      "Ġmarks": 8423,
      "Ġ300": 8424,
      "rett": 8425,
      "Ġartific": 8426,
      "Ġgenu": 8427,
      "aza": 8428,
      "Ġprincip": 8429,
      "Ġsurg": 8430,
      "Ġdepth": 8431,
      "Ġdivor": 8432,
      "Ġdemography": 8433,
      "Ġsignal": 8434,
      "Ġdecay": 8435,
      "Ġsolar": 8436,
      "Ġdesigner": 8437,
      "Ġputs": 8438,
      "Ġmoh": 8439,
      "Ġallowing": 8440,
      "Ġrankings": 8441,
      "general": 8442,
      "Ġdarkness": 8443,
      "ijing": 8444,
      "Ġlovers": 8445,
      "Ġconverted": 8446,
      "Ġcontroversy": 8447,
      "Ġsymphony": 8448,
      "Ġkitchen": 8449,
      "Ġaristotle": 8450,
      "Ġthailand": 8451,
      "''": 8452,
      "called": 8453,
      "eenth": 8454,
      "jac": 8455,
      "lik": 8456,
      "maker": 8457,
      "Ġtorn": 8458,
      "Ġsket": 8459,
      "orous": 8460,
      "organ": 8461,
      "Ġpi": 8462,
      "Ġdwell": 8463,
      "otions": 8464,
      "ape": 8465,
      "agger": 8466,
      "arer": 8467,
      "isha": 8468,
      "Ġperc": 8469,
      "Ġclim": 8470,
      "Ġblues": 8471,
      "iley": 8472,
      "Ġwayne": 8473,
      "Ġ47": 8474,
      "Ġzam": 8475,
      "Ġearliest": 8476,
      "Ġmedium": 8477,
      "Ġsenators": 8478,
      "Ġmodels": 8479,
      "Ġvalid": 8480,
      "Ġaffair": 8481,
      "Ġtriple": 8482,
      "Ġanimation": 8483,
      "Ġmotiv": 8484,
      "Ġsubstant": 8485,
      "Ġ1870": 8486,
      "Ġverse": 8487,
      "Ġautonom": 8488,
      "Ġqing": 8489,
      "Ġparliamentary": 8490,
      "Ġcrypt": 8491,
      "Ġburning": 8492,
      "Ġadopt": 8493,
      "Ġindifference": 8494,
      "Ġtyrant": 8495,
      "Ġremarks": 8496,
      "Ġathens": 8497,
      "Ġalfred": 8498,
      "Ġchippew": 8499,
      "ogorgia": 8500,
      "cill": 8501,
      "course": 8502,
      "df": 8503,
      "master": 8504,
      "xi": 8505,
      "inus": 8506,
      "Ġbio": 8507,
      "Ġmerg": 8508,
      "enberg": 8509,
      "Ġdoll": 8510,
      "Ġreward": 8511,
      "ampt": 8512,
      "Ġjag": 8513,
      "Ġcomic": 8514,
      "Ġspend": 8515,
      "see": 8516,
      "uda": 8517,
      "Ġcler": 8518,
      "Ġrodr": 8519,
      "Ġattained": 8520,
      "Ġsao": 8521,
      "Ġrecur": 8522,
      "Ġinterf": 8523,
      "Ġparks": 8524,
      "Ġparfen": 8525,
      "ructure": 8526,
      "Ġassured": 8527,
      "Ġmaid": 8528,
      "Ġengagement": 8529,
      "Ġfunding": 8530,
      "Ġstrang": 8531,
      "Ġadding": 8532,
      "Ġ846": 8533,
      "Ġirre": 8534,
      "Ġhistorians": 8535,
      "Ġfriendly": 8536,
      "Ġcampus": 8537,
      "Ġprompt": 8538,
      "Ġstatue": 8539,
      "Ġspeaks": 8540,
      "Ġolig": 8541,
      "Ġmaintenance": 8542,
      "ophone": 8543,
      "Ġsaved": 8544,
      "ÐºÐ¸": 8545,
      "Ġsubsequent": 8546,
      "Ġarrangement": 8547,
      "Ġrevolutionary": 8548,
      "Ġescaped": 8549,
      "Ġsacrifice": 8550,
      "Ġfilipino": 8551,
      "Ġnephew": 8552,
      "Ġjordan": 8553,
      "Ġarbitr": 8554,
      "Ġparfenovitch": 8555,
      "\"--": 8556,
      "ski": 8557,
      "vant": 8558,
      "Ġ*": 8559,
      "Ġå": 8560,
      "Ġtong": 8561,
      "heim": 8562,
      "Ġtheories": 8563,
      "Ġott": 8564,
      "itus": 8565,
      "Ġll": 8566,
      "ilation": 8567,
      "Ġgang": 8568,
      "adors": 8569,
      "irst": 8570,
      "Ġunlike": 8571,
      "Ġjos": 8572,
      "illes": 8573,
      "oping": 8574,
      "Ġintense": 8575,
      "Ġbran": 8576,
      "Ġbrun": 8577,
      "Ġrecre": 8578,
      "Ġrecovered": 8579,
      "Ġgene": 8580,
      "Ġdefeating": 8581,
      "Ġaddress": 8582,
      "Ġdelicate": 8583,
      "Ġbreaking": 8584,
      "chell": 8585,
      "Ġchoosing": 8586,
      "Ġ1894": 8587,
      "Ġinformed": 8588,
      "Ġmichel": 8589,
      "Ġhunting": 8590,
      "Ġcasual": 8591,
      "Ġeleven": 8592,
      "Ġthorium": 8593,
      "Ġcelebrated": 8594,
      "Ġfavourite": 8595,
      "Ġbrigade": 8596,
      "Ġdisestablished": 8597,
      "Ġparallel": 8598,
      "Ġillegal": 8599,
      "Ġresidential": 8600,
      "Ġconnexion": 8601,
      "Ġadapted": 8602,
      "cs": 8603,
      "died": 8604,
      "nia": 8605,
      "Ġscious": 8606,
      "Ġcum": 8607,
      "Ġgather": 8608,
      "unct": 8609,
      "imir": 8610,
      "tha": 8611,
      "Ġki": 8612,
      "Ġdeity": 8613,
      "Ġ\"_": 8614,
      "acher": 8615,
      "Ġabstra": 8616,
      "Ġpeak": 8617,
      "ocol": 8618,
      "Ġconsent": 8619,
      "olds": 8620,
      "Ġwouldn": 8621,
      "Ġdistant": 8622,
      "Ġdistances": 8623,
      "Ġpover": 8624,
      "Ġbush": 8625,
      "Ġflo": 8626,
      "Ġmatthew": 8627,
      "Ġdragon": 8628,
      "Ġeste": 8629,
      "Ġlocations": 8630,
      "Ġwarner": 8631,
      "comp": 8632,
      "Ġtalent": 8633,
      "Ġhohl": 8634,
      "Ġskills": 8635,
      "Ġindepend": 8636,
      "Ġdeclined": 8637,
      "Ġbillion": 8638,
      "ographical": 8639,
      "Ġkrishna": 8640,
      "Ġchalleng": 8641,
      "Ġunfortun": 8642,
      "Ġexcellence": 8643,
      ".--_": 8644,
      "Ġrhode": 8645,
      "Ġeternity": 8646,
      "Ġpanchayati": 8647,
      "appeared": 8648,
      "68": 8649,
      "burn": 8650,
      "gro": 8651,
      "uj": 8652,
      "inter": 8653,
      "Ġtheology": 8654,
      "anim": 8655,
      "Ġmild": 8656,
      "Ġmail": 8657,
      "Ġdying": 8658,
      "aro": 8659,
      "Ġnand": 8660,
      "Ġlac": 8661,
      "Ġlope": 8662,
      "omen": 8663,
      "Ġreci": 8664,
      "Ġrejo": 8665,
      "Ġstones": 8666,
      "Ġconcent": 8667,
      "Ġsector": 8668,
      "Ġneck": 8669,
      "eller": 8670,
      "Ġabol": 8671,
      "Ġgrade": 8672,
      "Ġgraves": 8673,
      "Ġroger": 8674,
      "Ġadela": 8675,
      "Ġunderground": 8676,
      "Ġplaywr": 8677,
      "ensis": 8678,
      "ensed": 8679,
      "Ġ38": 8680,
      "Ġpoems": 8681,
      "Ġremove": 8682,
      "Ġedited": 8683,
      "Ġparas": 8684,
      "Ġassists": 8685,
      "Ġmetro": 8686,
      "Ġsubdiv": 8687,
      "Ġdescend": 8688,
      "Ġsummit": 8689,
      "Ġromans": 8690,
      "Ġqualify": 8691,
      "Ġhearts": 8692,
      "Ð¾Ð²": 8693,
      "Ġpanel": 8694,
      "Ġlegislature": 8695,
      "Ġphotography": 8696,
      "riptions": 8697,
      "Ġhopes": 8698,
      "Ġfurnish": 8699,
      "Ġontario": 8700,
      "Ġcollective": 8701,
      "Ġprinting": 8702,
      "Ġtechniques": 8703,
      "Ġunhappy": 8704,
      "Ġjurisdiction": 8705,
      "Ġhohlakov": 8706,
      "fi": 8707,
      "gio": 8708,
      "listed": 8709,
      "post": 8710,
      "wing": 8711,
      "Î·": 8712,
      "Ġum": 8713,
      "erl": 8714,
      "Ġcou": 8715,
      "Ġcous": 8716,
      "Ġpant": 8717,
      "Ġpick": 8718,
      "Ġhide": 8719,
      "Ġhaven": 8720,
      "Ġdressed": 8721,
      "Ġeighth": 8722,
      "Ġstamp": 8723,
      "igible": 8724,
      "Ġrum": 8725,
      "emen": 8726,
      "Ġfruit": 8727,
      "Ġkick": 8728,
      "Ġshield": 8729,
      "arted": 8730,
      "Ġnobody": 8731,
      "Ġteen": 8732,
      "Ġemotions": 8733,
      "Ġcolours": 8734,
      "Ġfinite": 8735,
      "Ġtransp": 8736,
      "Ġmedals": 8737,
      "Ġguy": 8738,
      "Ġannihil": 8739,
      "Ġeffective": 8740,
      "rehensible": 8741,
      "....\"": 8742,
      "Ġ1892": 8743,
      "Ġ1896": 8744,
      "Ġessay": 8745,
      "Ġtechnologies": 8746,
      "Ġpriori": 8747,
      "Ġcornwall": 8748,
      "Ġrebell": 8749,
      "Ġfalsehood": 8750,
      "Ġoccupation": 8751,
      "Ġconservative": 8752,
      "Ġfatal": 8753,
      "Ġagricultural": 8754,
      "Ġattracted": 8755,
      "Ġpreparation": 8756,
      "Ġacquainted": 8757,
      "Ġweapons": 8758,
      "Ġdictionary": 8759,
      "Ġpoverty": 8760,
      "gn": 8761,
      "tim": 8762,
      "zing": 8763,
      "Ð¿": 8764,
      "itious": 8765,
      "Ġhip": 8766,
      "Ġhaste": 8767,
      "Ġdas": 8768,
      "Ġdnc": 8769,
      "Ġng": 8770,
      "Ġthick": 8771,
      "Ġalp": 8772,
      "Ġkm": 8773,
      "Ġsuit": 8774,
      "aksh": 8775,
      "iah": 8776,
      "Ġprote": 8777,
      "Ġmarg": 8778,
      "Ġresidents": 8779,
      "Ġconsul": 8780,
      "Ġouter": 8781,
      "Ġimplement": 8782,
      "issy": 8783,
      "Ġ48": 8784,
      "Ġcars": 8785,
      "Ġending": 8786,
      "Ġincons": 8787,
      "Ġobjection": 8788,
      "Ġcourts": 8789,
      "Ġaffection": 8790,
      "Ġcommunications": 8791,
      "ipping": 8792,
      "Ġtrials": 8793,
      "Ġmanagers": 8794,
      "Ġrespir": 8795,
      "Ġwalked": 8796,
      "Ġvideos": 8797,
      "Ġgrande": 8798,
      "Ġcompositions": 8799,
      "Ġbiggest": 8800,
      "Ġemployees": 8801,
      "Ġdiscussed": 8802,
      "Ġcongressional": 8803,
      "Ġsolely": 8804,
      "Ġinferior": 8805,
      "Ġregulations": 8806,
      "Ġhanging": 8807,
      "Ġpositively": 8808,
      "Ġcoalition": 8809,
      "Ġpredict": 8810,
      "Ġindonesia": 8811,
      "Ġlopez": 8812,
      "75": 8813,
      "lif": 8814,
      "xual": 8815,
      "Ġæ": 8816,
      "Ġwake": 8817,
      "aning": 8818,
      "isition": 8819,
      "iters": 8820,
      "Ġfbi": 8821,
      "stal": 8822,
      "oty": 8823,
      "eline": 8824,
      "ivable": 8825,
      "Ġ120": 8826,
      "Ġsty": 8827,
      "china": 8828,
      "idia": 8829,
      "Ġfrig": 8830,
      "abase": 8831,
      "ripp": 8832,
      "Ġtrif": 8833,
      "Ġclay": 8834,
      "oked": 8835,
      "Ġemer": 8836,
      "Ġassault": 8837,
      "Ġenthus": 8838,
      "Ġincarn": 8839,
      "Ġdepr": 8840,
      "brand": 8841,
      "Ġwanting": 8842,
      "Ġrounds": 8843,
      "Ġapproval": 8844,
      "Ġcatch": 8845,
      "Ġeric": 8846,
      "1994": 8847,
      "Ġrailroad": 8848,
      "Ġcommanded": 8849,
      "Ġruler": 8850,
      "Ġruled": 8851,
      "Ġfestivals": 8852,
      "Ġtorres": 8853,
      "Ġballot": 8854,
      "Ġspecifically": 8855,
      "Ġdiseases": 8856,
      "Ġdefinite": 8857,
      "Ġcomprehension": 8858,
      "Ġpartnership": 8859,
      "Ġtechnique": 8860,
      "Ġprocedure": 8861,
      "Ġterritories": 8862,
      "Ġasteroid": 8863,
      "Ġinfrast": 8864,
      "Ġvenezuel": 8865,
      "Ġatmosp": 8866,
      "iade": 8867,
      "mate": 8868,
      "mother": 8869,
      "rus": 8870,
      "ss": 8871,
      "Ġtail": 8872,
      "rection": 8873,
      "reve": 8874,
      "rell": 8875,
      "Ġble": 8876,
      "enh": 8877,
      "asion": 8878,
      "Ġbeating": 8879,
      "Ġgif": 8880,
      "Ġheide": 8881,
      "agh": 8882,
      "Ġmeets": 8883,
      "sely": 8884,
      "Ġfever": 8885,
      "Ġindex": 8886,
      "Ġagents": 8887,
      "Ġpredom": 8888,
      "erto": 8889,
      "Ġcarpent": 8890,
      "Ġpublisher": 8891,
      "Ġsupposes": 8892,
      "Ġretained": 8893,
      "Ġelabor": 8894,
      "Ġrevenge": 8895,
      "ducing": 8896,
      "archy": 8897,
      "Ġoperates": 8898,
      "Ġassociations": 8899,
      "Ġexplos": 8900,
      "Ġprevail": 8901,
      "aeus": 8902,
      "Ġdiagn": 8903,
      "Ġdenom": 8904,
      "Ġwalker": 8905,
      "Ġheavily": 8906,
      "1997": 8907,
      "Ġ1861": 8908,
      "Ġprobability": 8909,
      "Ġkeeps": 8910,
      "profit": 8911,
      "Ġgentleman": 8912,
      "Ġlifetime": 8913,
      "Ġaccommod": 8914,
      "Ġmurderer": 8915,
      "Ġsurrounded": 8916,
      "Ġbangl": 8917,
      "Ġthreatened": 8918,
      "Ġsculptures": 8919,
      "Ġimprove": 8920,
      "Ġreproach": 8921,
      "Ġobliged": 8922,
      "Ġtaiwan": 8923,
      "Ġguineas": 8924,
      "Ġperez": 8925,
      "Ġendorsements": 8926,
      "Ġpsychoanalysis": 8927,
      "aa": 8928,
      "cos": 8929,
      "iast": 8930,
      "lance": 8931,
      "tem": 8932,
      "Î½": 8933,
      "Ġ%": 8934,
      "Ġtate": 8935,
      "Ġtren": 8936,
      "Ġaired": 8937,
      "Ġou": 8938,
      "Ġcad": 8939,
      "Ġcunning": 8940,
      "iture": 8941,
      "Ġpushed": 8942,
      "Ġhired": 8943,
      "Ġtob": 8944,
      "Ġnad": 8945,
      "Ġnaked": 8946,
      "Ġlion": 8947,
      "stan": 8948,
      "Ġisn": 8949,
      "Ġstroke": 8950,
      "Ġri": 8951,
      "oslav": 8952,
      "Ġunsu": 8953,
      "avian": 8954,
      "Ġyam": 8955,
      "Ġkos": 8956,
      "Ġkant": 8957,
      "Ġplus": 8958,
      "ello": 8959,
      "oundrel": 8960,
      "Ġdisgu": 8961,
      "Ġadvert": 8962,
      "Ġmemories": 8963,
      "Ġreckon": 8964,
      "Ġ39": 8965,
      "Ġexistential": 8966,
      "Ġsomewhere": 8967,
      "Ġconfer": 8968,
      "Ġinvitation": 8969,
      "Ġcreator": 8970,
      "Ġcurt": 8971,
      "Ġcurios": 8972,
      "insky": 8973,
      "Ġdeceived": 8974,
      "Ġstandards": 8975,
      "Ġyoungest": 8976,
      "Ġessentially": 8977,
      "load": 8978,
      "Ġsoundtrack": 8979,
      "Ġwrites": 8980,
      "Ġpleasant": 8981,
      "Ġwatching": 8982,
      "Ġflower": 8983,
      "Ġwidow": 8984,
      "Ġelli": 8985,
      "Ġtribe": 8986,
      "Ġrarely": 8987,
      "Ġsprings": 8988,
      "Ġbangkok": 8989,
      "holm": 8990,
      "Ġtraffic": 8991,
      "Ġslavery": 8992,
      "Ġresignation": 8993,
      "Ġintermediate": 8994,
      "Ġilyitch": 8995,
      "Ġstolen": 8996,
      "free": 8997,
      "gust": 8998,
      "gely": 8999,
      "Îµ": 9000,
      "Ġaux": 9001,
      "inder": 9002,
      "Ġozar": 9003,
      "Ġcore": 9004,
      "atically": 9005,
      "Ġmond": 9006,
      "Ġfans": 9007,
      "eda": 9008,
      "Ġhamp": 9009,
      "Ġreign": 9010,
      "illy": 9011,
      "othe": 9012,
      "uting": 9013,
      "ersion": 9014,
      "Ġfranch": 9015,
      "Ġkw": 9016,
      "iao": 9017,
      "Ġamid": 9018,
      "Ġuniversiade": 9019,
      "Ġpeop": 9020,
      "Ġshell": 9021,
      "Ġmorgan": 9022,
      "ials": 9023,
      "grace": 9024,
      "fulness": 9025,
      "Ġcoat": 9026,
      "Ġcool": 9027,
      "Ġovercome": 9028,
      "Ġ43": 9029,
      "haw": 9030,
      "Ġmonks": 9031,
      "Ġmonument": 9032,
      "Ġdetect": 9033,
      "Ġpatron": 9034,
      "Ġpromised": 9035,
      "Ġsanct": 9036,
      "Ġchiefly": 9037,
      "Ġruling": 9038,
      "Ġ1880": 9039,
      "Ġvenice": 9040,
      "Ġindustries": 9041,
      "Ġjunction": 9042,
      "Ġdistinctly": 9043,
      "Ġlowest": 9044,
      "Ġoccasionally": 9045,
      "Ġfantasy": 9046,
      "Ġaccomplished": 9047,
      "Ġnurse": 9048,
      "Ġfeminine": 9049,
      "Ġcroatian": 9050,
      "Ġvessel": 9051,
      "Ġinhabitants": 9052,
      "friend": 9053,
      "Ġfarther": 9054,
      "Ġozarin": 9055,
      "gun": 9056,
      "hin": 9057,
      "spr": 9058,
      "Ġbah": 9059,
      "atch": 9060,
      "Ġpages": 9061,
      "alf": 9062,
      "Ġhou": 9063,
      "oust": 9064,
      "Ġeager": 9065,
      "Ġlingu": 9066,
      "stream": 9067,
      "uration": 9068,
[...]
