{
  "version": "1.0",
  "truncation": null,
  "padding": null,
  "added_tokens": [
    {
      "id": 0,
      "content": "<pad>",
      "single_word": false,
      "lstrip": false,
      "rstrip": false,
      "normalized": false,
      "special": true
    },
    {
      "id": 1,
      "content": "<unk>",
      "single_word": false,
      "lstrip": false,
      "rstrip": false,
      "normalized": false,
      "special": true
    },
    {
      "id": 2,
      "content": "<bos>",
      "single_word": false,
      "lstrip": false,
      "rstrip": false,
      "normalized": false,
      "special": true
    },
    {
      "id": 3,
      "content": "<eos>",
      "single_word": false,
      "lstrip": false,
      "rstrip": false,
      "normalized": false,
      "special": true
    }
  ],
  "normalizer": {
    "type": "Sequence",
    "normalizers": [
      {
        "type": "NFD"
      },
      {
        "type": "Lowercase"
      },
      {
        "type": "StripAccents"
      }
    ]
  },
  "pre_tokenizer": {
    "type": "ByteLevel",
    "add_prefix_space": true,
    "trim_offsets": true,
    "use_regex": true
  },
  "post_processor": {
    "type": "TemplateProcessing",
    "single": [
      {
        "SpecialToken": {
          "id": "<bos>",
          "type_id": 0
        }
      },
      {
        "Sequence": {
          "id": "A",
          "type_id": 0
        }
      },
      {
        "SpecialToken": {
          "id": "<eos>",
          "type_id": 0
        }
      }
    ],
    "pair": [
      {
        "SpecialToken": {
          "id": "<bos>",
          "type_id": 0
        }
      },
      {
        "Sequence": {
          "id": "A",
          "type_id": 0
        }
      },
      {
        "SpecialToken": {
          "id": "<eos>",
          "type_id": 0
        }
      },
      {
        "SpecialToken": {
          "id": "<bos>",
          "type_id": 0
        }
      },
      {
        "Sequence": {
          "id": "B",
          "type_id": 1
        }
      },
      {
        "SpecialToken": {
          "id": "<eos>",
          "type_id": 1
        }
      }
    ],
    "special_tokens": {
      "<bos>": {
        "id": "<bos>",
        "ids": [
          2
        ],
        "tokens": [
          "<bos>"
        ]
      },
      "<eos>": {
        "id": "<eos>",
        "ids": [
          3
        ],
        "tokens": [
          "<eos>"
        ]
      }
    }
  },
  "decoder": {
    "type": "ByteLevel",
    "add_prefix_space": true,
    "trim_offsets": true,
    "use_regex": true
  },
  "model": {
    "type": "BPE",
    "dropout": null,
    "unk_token": "<unk>",
    "continuing_subword_prefix": null,
    "end_of_word_suffix": null,
    "fuse_unk": false,
    "byte_fallback": false,
    "ignore_merges": false,
    "vocab": {
      "<pad>": 0,
      "<unk>": 1,
      "<bos>": 2,
      "<eos>": 3,
      "!": 4,
      "\"": 5,
      "#": 6,
      "'": 7,
      "(": 8,
      ")": 9,
      "+": 10,
      ",": 11,
      "-": 12,
      ".": 13,
      "/": 14,
      "0": 15,
      "1": 16,
      "2": 17,
      "3": 18,
      "4": 19,
      "5": 20,
      "6": 21,
      "7": 22,
      "8": 23,
      "9": 24,
      ":": 25,
      ";": 26,
      "=": 27,
      "?": 28,
      "[": 29,
      "]": 30,
      "_": 31,
      "a": 32,
      "b": 33,
      "c": 34,
      "d": 35,
      "e": 36,
      "f": 37,
      "g": 38,
      "h": 39,
      "i": 40,
      "j": 41,
      "k": 42,
      "l": 43,
      "m": 44,
      "n": 45,
      "o": 46,
      "p": 47,
      "q": 48,
      "r": 49,
      "s": 50,
      "t": 51,
      "u": 52,
      "v": 53,
      "w": 54,
      "x": 55,
      "y": 56,
      "z": 57,
      "±": 58,
      "²": 59,
      "µ": 60,
      "¹": 61,
      "º": 62,
      "½": 63,
      "¾": 64,
      "¿": 65,
      "Î": 66,
      "Ï": 67,
      "â": 68,
      "Ċ": 69,
      "č": 70,
      "Ġ": 71,
      "Ģ": 72,
      "ģ": 73,
      "Ĥ": 74,
      "ĥ": 75,
      "Ħ": 76,
      "ħ": 77,
      "Ĩ": 78,
      "ĩ": 79,
      "ī": 80,
      "Ķ": 81,
      "ĺ": 82,
      "Ļ": 83,
      "ľ": 84,
      "Ŀ": 85,
      "Ġt": 86,
      "he": 87,
      "Ġa": 88,
      "čĊ": 89,
      "Ġthe": 90,
      "Ġo": 91,
      "in": 92,
      "re": 93,
      "Ġw": 94,
      "Ġs": 95,
      "nd": 96,
      "Ġof": 97,
      "at": 98,
      "is": 99,
      "er": 100,
      "Ġb": 101,
      "Ġand": 102,
      "Ġm": 103,
      "on": 104,
      "es": 105,
      "Ġh": 106,
      "en": 107,
      "Ġp": 108,
      "it": 109,
      "Ġin": 110,
      "Ġc": 111,
      "Ġto": 112,
      "ou": 113,
      "Ġf": 114,
      "Ġth": 115,
      "an": 116,
      "ed": 117,
      "Ġn": 118,
      "ic": 119,
      "ing": 120,
      "Ġd": 121,
      "or": 122,
      "ll": 123,
      "Ġbe": 124,
      "Ġwh": 125,
      "ar": 126,
      "st": 127,
      "Ġis": 128,
      "Ġl": 129,
      "Ġe": 130,
      "Ġi": 131,
      "ion": 132,
      "ĠčĊ": 133,
      "Ġhe": 134,
      "ot": 135,
      "om": 136,
      "Ġg": 137,
      "as": 138,
      "al": 139,
      "le": 140,
      "Ġre": 141,
      "se": 142,
      "Ġthat": 143,
      "ly": 144,
      "ve": 145,
      "ut": 146,
      "her": 147,
      "ow": 148,
      "ich": 149,
      "ce": 150,
      "Ġwhich": 151,
      "Ġon": 152,
      "Ġas": 153,
      "Ġnot": 154,
      "ir": 155,
      "Ġha": 156,
      "ent": 157,
      "Ġu": 158,
      "ct": 159,
      "Ġor": 160,
      "Ġan": 161,
      "ay": 162,
      "Ġwe": 163,
      "ld": 164,
      "im": 165,
      "ver": 166,
      "id": 167,
      "Ġy": 168,
      "âĢ": 169,
      "Ġare": 170,
      "gh": 171,
      "Ġfor": 172,
      "ur": 173,
      "od": 174,
      "ill": 175,
      "Ġst": 176,
      "et": 177,
      "ain": 178,
      "Ġthey": 179,
      "ess": 180,
      "Ġsu": 181,
      "ith": 182,
      "il": 183,
      "ch": 184,
      "Ġit": 185,
      "Ġr": 186,
      "Ġpr": 187,
      "Ġwith": 188,
      "ust": 189,
      "Ġsa": 190,
      "Ġyou": 191,
      "Ġhave": 192,
      "Ġwill": 193,
      "Ġcon": 194,
      "ght": 195,
      "Ġthem": 196,
      "Ġli": 197,
      "Ġbut": 198,
      "ation": 199,
      "Ġhis": 200,
      "ul": 201,
      "os": 202,
      "Ġtr": 203,
      "Ġby": 204,
      "Ġwho": 205,
      "th": 206,
      "Ġman": 207,
      "op": 208,
      "ke": 209,
      "Ġat": 210,
      "Ġall": 211,
      "Ġex": 212,
      "ther": 213,
      "ould": 214,
      "ure": 215,
      "all": 216,
      "est": 217,
      "ate": 218,
      "Ġmo": 219,
      "us": 220,
      "qu": 221,
      "Ġfr": 222,
      "Ġse": 223,
      "Ġthere": 224,
      "ad": 225,
      "Ġwhe": 226,
      "ble": 227,
      "pp": 228,
      "ter": 229,
      "Ġde": 230,
      "ity": 231,
      "Ġal": 232,
      "fe": 233,
      "Ġsh": 234,
      "Ġone": 235,
      "Ġtheir": 236,
      "Ġthis": 237,
      "ge": 238,
      "ist": 239,
      "Ġv": 240,
      "Ġgo": 241,
      "Ġhas": 242,
      "Ġso": 243,
      "iv": 244,
      "Ġne": 245,
      "Ġcom": 246,
      "mp": 247,
      "ous": 248,
      "Ġk": 249,
      "Ġhim": 250,
      "Ġme": 251,
      "li": 252,
      "ci": 253,
      "sel": 254,
      "Ġdo": 255,
      "Ġfrom": 256,
      "Ġsaid": 257,
      "Ġother": 258,
      "ers": 259,
      "--": 260,
      "Ġar": 261,
      "just": 262,
      "pe": 263,
      "Ġint": 264,
      "Ġun": 265,
      "Ġno": 266,
      "ue": 267,
      "um": 268,
      "Ġwhat": 269,
      "ind": 270,
      "if": 271,
      "Ġwor": 272,
      "res": 273,
      "âĢĻ": 274,
      "ol": 275,
      "ant": 276,
      "Ġch": 277,
      "Ġmore": 278,
      "Ġany": 279,
      "Ġmay": 280,
      "very": 281,
      "ard": 282,
      "Ġif": 283,
      "Ġwhen": 284,
      "ra": 285,
      "ak": 286,
      "me": 287,
      "now": 288,
      "Ġour": 289,
      "ight": 290,
      "de": 291,
      "Ġwas": 292,
      "ig": 293,
      "ast": 294,
      "reat": 295,
      "Ġonly": 296,
      "Ġpl": 297,
      "âĢĶ": 298,
      "ence": 299,
      "ive": 300,
      "Ġgood": 301,
      "Ġab": 302,
      "ĠĠ": 303,
      "Ġ\"": 304,
      "ice": 305,
      "tain": 306,
      "ong": 307,
      "ment": 308,
      "and": 309,
      "red": 310,
      "ren": 311,
      "Ġcan": 312,
      "ose": 313,
      "Ġknow": 314,
      "art": 315,
      "ies": 316,
      "Ġph": 317,
      "Ġev": 318,
      "Ġjust": 319,
      "ome": 320,
      "Ġwould": 321,
      "Ġthen": 322,
      "Ġdis": 323,
      "our": 324,
      "Ġsay": 325,
      "self": 326,
      "âĢĺ": 327,
      "ions": 328,
      "Ġthan": 329,
      "Ġstate": 330,
      "Ġper": 331,
      "ĠâĢĺ": 332,
      "ally": 333,
      "out": 334,
      "Ġgreat": 335,
      "Ġpro": 336,
      "Ġus": 337,
      "Ġlike": 338,
      "Ġfa": 339,
      "ect": 340,
      "Ġqu": 341,
      "Ġbeen": 342,
      "au": 343,
      "Ġnat": 344,
      "ear": 345,
      "Ġen": 346,
      "able": 347,
      "Ġag": 348,
      "Ġsuch": 349,
      "ance": 350,
      "so": 351,
      "cr": 352,
      "Ġmy": 353,
      "Ġdes": 354,
      "Ġtrue": 355,
      "ag": 356,
      "ort": 357,
      "Ġlo": 358,
      "Ġmust": 359,
      "ilos": 360,
      "ilosop": 361,
      "ings": 362,
      "Ġrep": 363,
      "Ġ(": 364,
      "Ġphilosop": 365,
      "ree": 366,
      "ves": 367,
      "Ġsee": 368,
      "ian": 369,
      "Ġwere": 370,
      "Ġsou": 371,
      "ap": 372,
      "Ġmen": 373,
      "Ġshould": 374,
      "Ġup": 375,
      "Ġinto": 376,
      "nder": 377,
      "ake": 378,
      "Ġsp": 379,
      "ie": 380,
      "Ġalso": 381,
      "cc": 382,
      "ass": 383,
      "Ġhow": 384,
      "ough": 385,
      "Ġpo": 386,
      "Ġow": 387,
      "ine": 388,
      "Ġapp": 389,
      "Ġim": 390,
      "ac": 391,
      "ness": 392,
      "uth": 393,
      "Ġam": 394,
      "ertain": 395,
      "ore": 396,
      "other": 397,
      "ious": 398,
      "ond": 399,
      "led": 400,
      "Ġad": 401,
      "Ġhad": 402,
      "Ġbec": 403,
      "un": 404,
      "Ġtim": 405,
      "Ġsome": 406,
      "irst": 407,
      "the": 408,
      "Ġown": 409,
      "hing": 410,
      "ates": 411,
      "ound": 412,
      "Ġnature": 413,
      "Ġpre": 414,
      "pt": 415,
      "Ġnow": 416,
      "Ġsoul": 417,
      "ise": 418,
      "ical": 419,
      "Ġlife": 420,
      "ult": 421,
      "Ġob": 422,
      "ire": 423,
      "Ġimp": 424,
      "Ġmost": 425,
      "Ġthese": 426,
      "iz": 427,
      "Ġpart": 428,
      "ink": 429,
      "Ġte": 430,
      "Ġdif": 431,
      "Ġexp": 432,
      "ither": 433,
      "Ġcertain": 434,
      "act": 435,
      "ary": 436,
      "Ġevery": 437,
      "Ġsame": 438,
      "Ġspe": 439,
      "Ġide": 440,
      "Ġaf": 441,
      "Ġfirst": 442,
      "Ġmean": 443,
      "ib": 444,
      "Ġyes": 445,
      "ok": 446,
      "Ġart": 447,
      "ud": 448,
      "ens": 449,
      "Ġvery": 450,
      "Ġunder": 451,
      "are": 452,
      "Ġanother": 453,
      "bl": 454,
      "fect": 455,
      "Ġplat": 456,
      "one": 457,
      "mon": 458,
      "Ġle": 459,
      "Ġfe": 460,
      "Ġout": 461,
      "Ġtruth": 462,
      "Ġabout": 463,
      "Ġind": 464,
      "fore": 465,
      "hy": 466,
      "Ġcont": 467,
      "Ġcomp": 468,
      "ject": 469,
      "ces": 470,
      "way": 471,
      "Ġla": 472,
      "ual": 473,
      "ledge": 474,
      "Ġagain": 475,
      "Ġmany": 476,
      "ite": 477,
      "ms": 478,
      "Ġeven": 479,
      "Ġthose": 480,
      "Ġbet": 481,
      "Ġstr": 482,
      "Ġcons": 483,
      "oss": 484,
      "Ġhimself": 485,
      "og": 486,
      "ason": 487,
      "age": 488,
      "Ġbeing": 489,
      "ach": 490,
      "Ġplato": 491,
      "ang": 492,
      "cess": 493,
      "cip": 494,
      "Ġgen": 495,
      "Ġgod": 496,
      "Ġjustice": 497,
      "ated": 498,
      "ace": 499,
      "uc": 500,
      "Ġacc": 501,
      "Ġher": 502,
      "Ġwell": 503,
      "Ġreason": 504,
      "Ġknowledge": 505,
      "ause": 506,
      "Ġmind": 507,
      "selves": 508,
      "ĠĠĠĠ": 509,
      "ations": 510,
      "feren": 511,
      "ition": 512,
      "ought": 513,
      "Ġlet": 514,
      "Ġgr": 515,
      "ful": 516,
      "Ġop": 517,
      "ible": 518,
      "uch": 519,
      "Ġtw": 520,
      "Ġthings": 521,
      "ving": 522,
      "Ġway": 523,
      "erm": 524,
      "Ġcl": 525,
      "Ġworld": 526,
      "Ġfo": 527,
      "ower": 528,
      "Ġthink": 529,
      "Ġinte": 530,
      "Ġbr": 531,
      "Ġtime": 532,
      "Ġpres": 533,
      "Ġord": 534,
      "Ġres": 535,
      "lied": 536,
      "cl": 537,
      "ather": 538,
      "Ġple": 539,
      "ry": 540,
      "Ġinst": 541,
      "te": 542,
      "Ġrem": 543,
      "Ġsupp": 544,
      "we": 545,
      "ily": 546,
      "ted": 547,
      "Ġright": 548,
      "ade": 549,
      "ish": 550,
      "eri": 551,
      "irt": 552,
      "ber": 553,
      "Ġj": 554,
      "Ġdist": 555,
      "oral": 556,
      "Ġits": 557,
      "asure": 558,
      "fic": 559,
      "Ġmake": 560,
      "Ġphilosopher": 561,
      "Ġprin": 562,
      "ction": 563,
      "Ġpers": 564,
      "omet": 565,
      "Ġtwo": 566,
      "ord": 567,
      "Ġevil": 568,
      "Ġprincip": 569,
      "not": 570,
      "Ġwhether": 571,
      "Ġpass": 572,
      "ame": 573,
      "Ġvirt": 574,
      "Ġhum": 575,
      "ern": 576,
      "Ġshall": 577,
      "oun": 578,
      "am": 579,
      "Ġform": 580,
      "ress": 581,
      "mo": 582,
      "Ġsub": 583,
      "aking": 584,
      "Ġprop": 585,
      "Ġgener": 586,
      "atter": 587,
      "nds": 588,
      "Ġstill": 589,
      "Ġposs": 590,
      "Ġthr": 591,
      "ide": 592,
      "hed": 593,
      "Ġear": 594,
      "ild": 595,
      "Ġlaw": 596,
      "em": 597,
      "Ġover": 598,
      "Ġfar": 599,
      "irit": 600,
      "av": 601,
      "Ġword": 602,
      "Ġreplied": 603,
      "Ġcertainly": 604,
      "lie": 605,
      "ward": 606,
      "Ġpe": 607,
      "ep": 608,
      "ty": 609,
      "Ġbod": 610,
      "Ġdifferen": 611,
      "Ġmoral": 612,
      "Ġinf": 613,
      "Ġnever": 614,
      "Ġdisc": 615,
      "aps": 616,
      "Ġupon": 617,
      "Ġorder": 618,
      "ro": 619,
      "Ġmuch": 620,
      "Ġthought": 621,
      "ase": 622,
      "Ġref": 623,
      "Ġreg": 624,
      "Ġquest": 625,
      "ways": 626,
      "con": 627,
      "Ġspirit": 628,
      "Ġafter": 629,
      "less": 630,
      "Ġty": 631,
      "Ġmod": 632,
      "Ġdoes": 633,
      "Ġhuman": 634,
      "cept": 635,
      "Ġass": 636,
      "haps": 637,
      "Ġalways": 638,
      "Ġtoo": 639,
      "Ġnothing": 640,
      "Ġbecause": 641,
      "Ġpower": 642,
      "Ġopin": 643,
      "educ": 644,
      "ivid": 645,
      "Ġnum": 646,
      "ors": 647,
      "Ġphilosophy": 648,
      "cy": 649,
      "Ġnor": 650,
      "urn": 651,
      "les": 652,
      "Ġbelie": 653,
      "Ġlong": 654,
      "Ġyour": 655,
      "Ġnecess": 656,
      "pect": 657,
      "Ġcall": 658,
      "Ġyet": 659,
      "Ġwom": 660,
      "Ġhapp": 661,
      "Ġpleasure": 662,
      "ved": 663,
      "Ġmight": 664,
      "el": 665,
      "Ġthemselves": 666,
      "Ġchar": 667,
      ",\"": 668,
      "Ġsim": 669,
      "lig": 670,
      "iness": 671,
      "Ġsomet": 672,
      ".âĢĻ": 673,
      "ied": 674,
      "ts": 675,
      "Ġmade": 676,
      "Ġend": 677,
      "Ġuse": 678,
      "Ġwithout": 679,
      "Ġgu": 680,
      "Ġpoet": 681,
      "Ġappear": 682,
      "ial": 683,
      "oth": 684,
      "Ġperhaps": 685,
      "Ġhon": 686,
      "ab": 687,
      "ile": 688,
      "Ġcle": 689,
      "ians": 690,
      "Ġbest": 691,
      "Ġrul": 692,
      "Ġothers": 693,
      "Ġcould": 694,
      "ans": 695,
      "thing": 696,
      "Ġcannot": 697,
      "Ġperson": 698,
      "Ġeduc": 699,
      "Ġbeg": 700,
      "ood": 701,
      "ym": 702,
      "Ġhig": 703,
      "ict": 704,
      "Ġgl": 705,
      "als": 706,
      "Ġold": 707,
      "ense": 708,
      "ory": 709,
      "Ġfrie": 710,
      "Ġamong": 711,
      "hes": 712,
      "Ġinter": 713,
      "Ġwhere": 714,
      "Ġcomm": 715,
      "Ġwhole": 716,
      "Ġsec": 717,
      "ign": 718,
      "Ġreal": 719,
      "vers": 720,
      "Ġkind": 721,
      "Ġquestion": 722,
      "ner": 723,
      "Ġact": 724,
      "llow": 725,
      "Ġbetter": 726,
      "Ġtherefore": 727,
      "itt": 728,
      "Ġfound": 729,
      "Ġwhom": 730,
      "Ġsci": 731,
      "Ġindivid": 732,
      "Ġbo": 733,
      "ents": 734,
      "ubl": 735,
      "Ġtake": 736,
      "ined": 737,
      "Ġhar": 738,
      "Ġexist": 739,
      "Ġindividual": 740,
      "ities": 741,
      "Ġsocr": 742,
      "Ġopp": 743,
      "Ġboth": 744,
      "arr": 745,
      "Ġnew": 746,
      "ove": 747,
      "Ġac": 748,
      "stand": 749,
      "Ġwork": 750,
      "Ġchild": 751,
      "ics": 752,
      "Ġtyr": 753,
      "Ġsort": 754,
      "Ġimag": 755,
      "Ġmus": 756,
      "Ġrel": 757,
      "Ġlight": 758,
      "Ġequ": 759,
      "Ġeither": 760,
      "Ġwr": 761,
      "Ġbl": 762,
      "own": 763,
      "Ġhaving": 764,
      "crib": 765,
      "ute": 766,
      "Ġcommon": 767,
      "Ġagainst": 768,
      "Ġsocrates": 769,
      "Ġlove": 770,
      "fer": 771,
      "Ġbody": 772,
      "ublic": 773,
      "ever": 774,
      "Ġdr": 775,
      "str": 776,
      "akes": 777,
      "Ġsubject": 778,
      "Ġcond": 779,
      "Ġsuf": 780,
      "ount": 781,
      "wards": 782,
      "ys": 783,
      "Ġbefore": 784,
      "Ġitself": 785,
      "Ġgiv": 786,
      "Ġans": 787,
      ",âĢĻ": 788,
      "Ġask": 789,
      "Ġopinion": 790,
      "Ġrather": 791,
      "Ġwords": 792,
      "Ġless": 793,
      "ments": 794,
      "Ġperfect": 795,
      "Ġent": 796,
      "Ġpain": 797,
      "Ġplace": 798,
      "Ġpresent": 799,
      "),": 800,
      "Ġlear": 801,
      "Ġshe": 802,
      "Ġpur": 803,
      "Ġthus": 804,
      "ange": 805,
      "Ġclass": 806,
      "rest": 807,
      "Ġsense": 808,
      "Ġvirtue": 809,
      "Ġlearn": 810,
      "Ġfind": 811,
      "Ġdiv": 812,
      "Ġhere": 813,
      "old": 814,
      "Ġcor": 815,
      "ope": 816,
      "Ġobject": 817,
      "to": 818,
      "Ġser": 819,
      "ism": 820,
      "Ġey": 821,
      "osed": 822,
      "Ġregard": 823,
      "Ġsomething": 824,
      "Ġeducation": 825,
      "ught": 826,
      "ished": 827,
      "ark": 828,
      "ip": 829,
      "ten": 830,
      "Ġcr": 831,
      "mit": 832,
      "Ġpol": 833,
      "Ġrec": 834,
      "ceiv": 835,
      "ady": 836,
      "Ġguard": 837,
      "Ġinv": 838,
      "alth": 839,
      "Ġnumber": 840,
      "arch": 841,
      "Ġlast": 842,
      "Ġever": 843,
      "ave": 844,
      "ences": 845,
      "ficult": 846,
      "Ġdifficult": 847,
      "Ġunderstand": 848,
      "Ġdifferent": 849,
      "Ġcharact": 850,
      "Ġ1": 851,
      "Ġrequ": 852,
      "Ġansw": 853,
      "ues": 854,
      "ently": 855,
      "ider": 856,
      "Ġnatur": 857,
      "iew": 858,
      "Ġclear": 859,
      "ution": 860,
      "Ġidea": 861,
      "ath": 862,
      "Ġarg": 863,
      "Ġprinciple": 864,
      "inct": 865,
      "Ġtemp": 866,
      "Ġbegin": 867,
      "for": 868,
      "oc": 869,
      "Ġmis": 870,
      "Ġthing": 871,
      "Ġheav": 872,
      "Ġmanner": 873,
      "Ġpeop": 874,
      "ull": 875,
      "Ġsy": 876,
      "Ġview": 877,
      "Ġfollow": 878,
      "Ġwant": 879,
      "Ġneither": 880,
      "Ġimit": 881,
      "Ġ2": 882,
      "Ġcit": 883,
      "Ġlook": 884,
      "Ġsecond": 885,
      "Ġought": 886,
      "Ġfl": 887,
      "int": 888,
      "Ġinde": 889,
      "ceed": 890,
      "ular": 891,
      "Ġgreater": 892,
      "Ġmusic": 893,
      "wh": 894,
      "Ġmatter": 895,
      "ention": 896,
      "ility": 897,
      "ating": 898,
      "err": 899,
      "Ġhard": 900,
      "Ġdet": 901,
      "Ġru": 902,
      "Ġconsider": 903,
      "Ġpeople": 904,
      "ced": 905,
      "ific": 906,
      "Ġsl": 907,
      "ative": 908,
      "Ġinc": 909,
      "Ġsup": 910,
      "justice": 911,
      "igin": 912,
      "Ġbook": 913,
      "Ġcitiz": 914,
      "Ġunjust": 915,
      "Ġquite": 916,
      "Ġinterest": 917,
      "ires": 918,
      "Ġorigin": 919,
      "Ġstates": 920,
      "Ġatt": 921,
      "Ġgreatest": 922,
      "Ġbecome": 923,
      "Ġideas": 924,
      "Ġaccord": 925,
      "Ġhonour": 926,
      "vern": 927,
      "ser": 928,
      "oub": 929,
      "Ġdang": 930,
      "Ġele": 931,
      "Ġallow": 932,
      "ack": 933,
      "Ġjud": 934,
      "get": 935,
      "Ġable": 936,
      "Ġcity": 937,
      "Ġcharacter": 938,
      "med": 939,
      "Ġwar": 940,
      "ick": 941,
      "Ġwhy": 942,
      "Ġabs": 943,
      "Ġsuppose": 944,
      "Ġinjustice": 945,
      "Ġhand": 946,
      "Ġext": 947,
      "Ġadv": 948,
      "Ġintell": 949,
      "aut": 950,
      "be": 951,
      "oy": 952,
      "Ġturn": 953,
      "Ġmet": 954,
      "oura": 955,
      "Ġthough": 956,
      "Ġgerm": 957,
      "Ġhowever": 958,
      "Ġpolit": 959,
      "lf": 960,
      "Ġins": 961,
      "Ġeach": 962,
      "Ġdescrib": 963,
      "ween": 964,
      "Ġage": 965,
      "Ġco": 966,
      "Ġfur": 967,
      "Ġday": 968,
      "Ġel": 969,
      "ists": 970,
      "Ġspeak": 971,
      "Ġbetween": 972,
      "most": 973,
      "Ġconf": 974,
      "Ġgovern": 975,
      "reek": 976,
      "Ġprev": 977,
      "Ġgeneral": 978,
      "Ġharmon": 979,
      "amp": 980,
      "Ġbad": 981,
      "Ġdid": 982,
      "Ġlitt": 983,
      "Ġgive": 984,
      "ows": 985,
      "ceive": 986,
      "Ġsaying": 987,
      "Ġphilosophers": 988,
      "Ġhigher": 989,
      "Ġanswer": 990,
      "Ġself": 991,
      "Ġcome": 992,
      "Ġfeel": 993,
      "Ġcontr": 994,
      "Ġstrong": 995,
      "Ġchildren": 996,
      "Ġlittle": 997,
      "its": 998,
      "Ġdra": 999,
      "Ġfact": 1000,
      "Ġmeans": 1001,
      "Ġgods": 1002,
      "ne": 1003,
      "Ġprof": 1004,
      "Ġexperi": 1005,
      "ired": 1006,
      "Ġyouth": 1007,
      "Ġremain": 1008,
      "Ġheart": 1009,
      "Ġonce": 1010,
      "Ġrest": 1011,
      "Ġmodern": 1012,
      "ument": 1013,
      "Ġtell": 1014,
      "Ġexpress": 1015,
      "ception": 1016,
      "Ġglau": 1017,
      "lic": 1018,
      "up": 1019,
      "uct": 1020,
      "Ġthree": 1021,
      "Ġwhile": 1022,
      "that": 1023,
      "aken": 1024,
      "Ġthrough": 1025,
      "man": 1026,
      "Ġwis": 1027,
      "Ġbeaut": 1028,
      "Ġef": 1029,
      "Ġanything": 1030,
      "Ġcitizens": 1031,
      "Ġglaucon": 1032,
      "ety": 1033,
      "Ġwomen": 1034,
      "Ġoppos": 1035,
      "ix": 1036,
      "Ġeur": 1037,
      "aste": 1038,
      "ourse": 1039,
      "Ġqual": 1040,
      "Ġenough": 1041,
      "Ġsimp": 1042,
      "Ġfurther": 1043,
      "here": 1044,
      "Ġocc": 1045,
      "Ġearth": 1046,
      "gn": 1047,
      "kind": 1048,
      "Ġaway": 1049,
      "Ġeas": 1050,
      "though": 1051,
      "Ġideal": 1052,
      "erior": 1053,
      "ably": 1054,
      "Ġdanger": 1055,
      "reed": 1056,
      "Ġson": 1057,
      "Ġcase": 1058,
      "Ġdoub": 1059,
      "Ġmankind": 1060,
      "Ġalthough": 1061,
      "Ġobser": 1062,
      "Ġproper": 1063,
      ",âĢĶ": 1064,
      "Ġoften": 1065,
      "Ġrelig": 1066,
      "Ġbelieve": 1067,
      "ared": 1068,
      "olog": 1069,
      "'s": 1070,
      "Ġbel": 1071,
      "Ġneed": 1072,
      "Ġpoint": 1073,
      "Ġnatural": 1074,
      "Ġsm": 1075,
      "Ġfin": 1076,
      "Ġreally": 1077,
      "Ġrespect": 1078,
      "Ġcare": 1079,
      "Ġfal": 1080,
      "ird": 1081,
      "Ġdesire": 1082,
      "Ġpossess": 1083,
      "Ġut": 1084,
      "ances": 1085,
      "Ġill": 1086,
      "Ġanim": 1087,
      "Ġval": 1088,
      "light": 1089,
      "Ġeurope": 1090,
      "ting": 1091,
      "ude": 1092,
      "Ġfam": 1093,
      "ĠĠĠĠĠĠĠĠ": 1094,
      "Ġfriends": 1095,
      "..": 1096,
      "ready": 1097,
      "Ġsc": 1098,
      "ision": 1099,
      "vel": 1100,
      "Ġhear": 1101,
      "Ġalready": 1102,
      "Ġabove": 1103,
      "Ġtimes": 1104,
      "Ġaccording": 1105,
      "Ġelse": 1106,
      "Ġfalse": 1107,
      "ann": 1108,
      "ured": 1109,
      "Ġdemo": 1110,
      "Ġwoman": 1111,
      "dom": 1112,
      "hen": 1113,
      "Ġhom": 1114,
      "eness": 1115,
      "Ġhel": 1116,
      "Ġconst": 1117,
      "Ġdeg": 1118,
      "Ġarist": 1119,
      "Ġlaws": 1120,
      "Ġnecessary": 1121,
      "Ġscience": 1122,
      "Ġindeed": 1123,
      "know": 1124,
      "Ġsight": 1125,
      "Ġput": 1126,
      "Ġcir": 1127,
      "Ġret": 1128,
      "Ġsat": 1129,
      "ised": 1130,
      "ract": 1131,
      "Ġagree": 1132,
      "Ġseems": 1133,
      "Ġcalled": 1134,
      "Ġyear": 1135,
      "Ġstud": 1136,
      "Ġalmost": 1137,
      "Ġproceed": 1138,
      "Ġadd": 1139,
      "ail": 1140,
      "ning": 1141,
      "Ġmat": 1142,
      "Ġdep": 1143,
      "ized": 1144,
      "Ġgerman": 1145,
      "Ġsens": 1146,
      "Ġfear": 1147,
      "Ġign": 1148,
      "Ġenem": 1149,
      "xt": 1150,
      "Ġoff": 1151,
      "ises": 1152,
      "Ġmed": 1153,
      "Ġmakes": 1154,
      "lect": 1155,
      "Ġdesires": 1156,
      "Ġrepublic": 1157,
      "oney": 1158,
      "lu": 1159,
      "Ġes": 1160,
      "ides": 1161,
      "ained": 1162,
      "Ġpract": 1163,
      "Ġvar": 1164,
      "Ġpossible": 1165,
      "Ġrulers": 1166,
      "Ġargument": 1167,
      "\"--": 1168,
      "ng": 1169,
      "Ġatte": 1170,
      "Ġdef": 1171,
      "Ġpleasures": 1172,
      "Ġguardians": 1173,
      "und": 1174,
      "Ġexpl": 1175,
      "Ġrule": 1176,
      "cise": 1177,
      "ret": 1178,
      "ited": 1179,
      "Ġyoung": 1180,
      "Ġarr": 1181,
      "Ġphys": 1182,
      "Ġdisp": 1183,
      "Ġprinciples": 1184,
      "Ġfriend": 1185,
      "Ġhomer": 1186,
      "Ġcirc": 1187,
      ").": 1188,
      "igh": 1189,
      "ru": 1190,
      "Ġmast": 1191,
      "Ġfather": 1192,
      "Ġtyrant": 1193,
      "Ġsmall": 1194,
      "Ġauth": 1195,
      "Ġpa": 1196,
      "Ġfree": 1197,
      "Ġfull": 1198,
      "Ġget": 1199,
      "Ġacqu": 1200,
      "Ġdoubt": 1201,
      "ually": 1202,
      "Ġest": 1203,
      "atic": 1204,
      "isf": 1205,
      "Ġsure": 1206,
      "Ġnoble": 1207,
      "olute": 1208,
      "Ġadmit": 1209,
      "Ġgiven": 1210,
      "ceived": 1211,
      "Ġexperience": 1212,
      "gth": 1213,
      "Ġsoci": 1214,
      "Ġaff": 1215,
      "Ġarts": 1216,
      "Ġmorality": 1217,
      "Ġhappiness": 1218,
      "Ġjudg": 1219,
      "Ġhelp": 1220,
      "su": 1221,
      "Ġsin": 1222,
      "Ġthird": 1223,
      "Ġhist": 1224,
      "Ġmyself": 1225,
      "Ġspeaking": 1226,
      "cul": 1227,
      "ft": 1228,
      "Ġke": 1229,
      "Ġsing": 1230,
      "Ġconc": 1231,
      "Ġtru": 1232,
      "Ġseen": 1233,
      "Ġconsci": 1234,
      "Ġlonger": 1235,
      "Ġexistence": 1236,
      "Ġtal": 1237,
      "Ġdest": 1238,
      "verse": 1239,
      "usion": 1240,
      "Ġheaven": 1241,
      "Ġhardly": 1242,
      "Ġeffect": 1243,
      "ient": 1244,
      "ius": 1245,
      "Ġtaste": 1246,
      "Ġmoney": 1247,
      "Ġcap": 1248,
      "Ġtoget": 1249,
      "Ġtogether": 1250,
      "rist": 1251,
      "hest": 1252,
      "inary": 1253,
      "ars": 1254,
      "Ġpoets": 1255,
      "bit": 1256,
      "Ġden": 1257,
      "Ġdown": 1258,
      "Ġmere": 1259,
      "Ġpersons": 1260,
      "Ġeyes": 1261,
      "Ġclearly": 1262,
      "Ġdraw": 1263,
      "Ġignor": 1264,
      "Ġmaking": 1265,
      "Ġourselves": 1266,
      "Ġseem": 1267,
      "Ġtyrann": 1268,
      "Ġdre": 1269,
      "ives": 1270,
      "racy": 1271,
      "Ġseek": 1272,
      "Ġyears": 1273,
      "men": 1274,
      "Ġgra": 1275,
      "Ġgreek": 1276,
      "idd": 1277,
      "Ġbecom": 1278,
      "Ġeverything": 1279,
      "achus": 1280,
      "Ġremark": 1281,
      "ymn": 1282,
      "Ġauthor": 1283,
      "of": 1284,
      "ying": 1285,
      "Ġmain": 1286,
      "Ġca": 1287,
      "Ġfall": 1288,
      "Ġem": 1289,
      "ilar": 1290,
      "Ġexamp": 1291,
      "Ġchrist": 1292,
      "Ġlead": 1293,
      "Ġinflu": 1294,
      "Ġtemper": 1295,
      "Ġabsolute": 1296,
      "sion": 1297,
      "Ġerr": 1298,
      "Ġpar": 1299,
      "Ġcount": 1300,
      "Ġdial": 1301,
      "Ġir": 1302,
      "asym": 1303,
      "tern": 1304,
      "mpt": 1305,
      "Ġsays": 1306,
      "Ġcommun": 1307,
      "Ġdifficulty": 1308,
      "Ġopposite": 1309,
      "Ġsatisf": 1310,
      "asymachus": 1311,
      "Ġade": 1312,
      "Ġhither": 1313,
      "Ġfour": 1314,
      "mpl": 1315,
      "aught": 1316,
      "Ġinstinct": 1317,
      "Ġdeterm": 1318,
      "by": 1319,
      "Ġincl": 1320,
      "Ġwhose": 1321,
      "ately": 1322,
      "Ġprob": 1323,
      "Ġthrasymachus": 1324,
      "arri": 1325,
      "Ġsch": 1326,
      "Ġwithin": 1327,
      "Ġunt": 1328,
      "angu": 1329,
      "Ġsimilar": 1330,
      "ged": 1331,
      "sp": 1332,
      "Ġmot": 1333,
      "Ġattain": 1334,
      "rent": 1335,
      "Ġpartic": 1336,
      "Ġleast": 1337,
      "Ġvirtues": 1338,
      "Ġnecessity": 1339,
      "Ġimagine": 1340,
      "ourage": 1341,
      "Ġwisdom": 1342,
      "Ġconstit": 1343,
      "yond": 1344,
      "ines": 1345,
      "ingu": 1346,
      "lly": 1347,
      "Ġant": 1348,
      "Ġrepres": 1349,
      "Ġhighest": 1350,
      "Ġgovernment": 1351,
      "ivers": 1352,
      "Ġterm": 1353,
      "Ġaw": 1354,
      "Ġset": 1355,
      "Ġlangu": 1356,
      "Ġread": 1357,
      "Ġanci": 1358,
      "Ġfac": 1359,
      "Ġnatures": 1360,
      "ize": 1361,
      "Ġgrow": 1362,
      "Ġwrit": 1363,
      "Ġpublic": 1364,
      "itude": 1365,
      "Ġtowards": 1366,
      "Ġname": 1367,
      "Ġgymn": 1368,
      "ases": 1369,
      "sequ": 1370,
      "Ġstren": 1371,
      "Ġlive": 1372,
      "Ġfew": 1373,
      "ogn": 1374,
      "Ġequally": 1375,
      "Ġintellect": 1376,
      "Ġcircum": 1377,
      "ger": 1378,
      "Ġsent": 1379,
      "orr": 1380,
      "Ġhealth": 1381,
      "ality": 1382,
      "Ġrid": 1383,
      "Ġpriv": 1384,
      "Ġconv": 1385,
      "Ġsol": 1386,
      "Ġdifference": 1387,
      "Ġsur": 1388,
      "ene": 1389,
      "Ġcourse": 1390,
      "Ġbeyond": 1391,
      "Ġtrans": 1392,
      "Ġformer": 1393,
      "Ġsuffer": 1394,
      "Ġeye": 1395,
      "Ġharmony": 1396,
      "Ġmaster": 1397,
      "Ġconcern": 1398,
      "Ġhitherto": 1399,
      "ament": 1400,
      "bers": 1401,
      "over": 1402,
      "Ġwise": 1403,
      "ator": 1404,
      "itions": 1405,
      "Ġsun": 1406,
      "osition": 1407,
      "Ġsever": 1408,
      "Ġdec": 1409,
      "Ġconte": 1410,
      "Ġpoetry": 1411,
      "Ġgymnast": 1412,
      ":âĢĶ": 1413,
      "Ġfig": 1414,
      "Ġro": 1415,
      "Ġshad": 1416,
      "Ġnext": 1417,
      "Ġlikely": 1418,
      "ages": 1419,
      "Ġimm": 1420,
      "Ġdrink": 1421,
      "Ġqualities": 1422,
      "Ġlanguage": 1423,
      "Ġtaken": 1424,
      "Ġolig": 1425,
      "Ġcause": 1426,
      "Ġcourage": 1427,
      "ank": 1428,
      "Ġstand": 1429,
      "Ġrich": 1430,
      "Ġexer": 1431,
      "Ġshort": 1432,
      "like": 1433,
      "Ġplay": 1434,
      "Ġobjects": 1435,
      "Ġfacult": 1436,
      "Ġoligarch": 1437,
      "pl": 1438,
      "Ġve": 1439,
      "nded": 1440,
      "ater": 1441,
      "Ġhold": 1442,
      "Ġcreat": 1443,
      "Ġfut": 1444,
      "ician": 1445,
      "Ġbeh": 1446,
      "Ġweak": 1447,
      "imes": 1448,
      "Ġchange": 1449,
      "Ġparticular": 1450,
      "Ġforms": 1451,
      "Ġconsequ": 1452,
      "Ġcomes": 1453,
      "Ġminds": 1454,
      "Ġfuture": 1455,
      "eus": 1456,
      "Ġdone": 1457,
      "Ġhell": 1458,
      "odu": 1459,
      "Ġworth": 1460,
      "mem": 1461,
      "ours": 1462,
      "iously": 1463,
      "Ġappears": 1464,
      "Ġsciences": 1465,
      "Ġbeauty": 1466,
      "Ġeasily": 1467,
      "abl": 1468,
      "par": 1469,
      "hem": 1470,
      "Ġaction": 1471,
      "ising": 1472,
      "Ġgain": 1473,
      "Ġpra": 1474,
      "Ġlives": 1475,
      "Ġrelation": 1476,
      "Ġcondition": 1477,
      "Ġsuffic": 1478,
      "Ġdivine": 1479,
      "Ġmiser": 1480,
      "Ġsymp": 1481,
      "ature": 1482,
      "imant": 1483,
      "Ġconception": 1484,
      "oph": 1485,
      "Ġdev": 1486,
      "ants": 1487,
      "Ġspeci": 1488,
      "Ġsingle": 1489,
      "Ġtruly": 1490,
      "Ġadeimant": 1491,
      "Ġfigure": 1492,
      "Ġadeimantus": 1493,
      ".\"": 1494,
      "ia": 1495,
      "orn": 1496,
      "Ġcomple": 1497,
      "Ġdistingu": 1498,
      "Ġcommand": 1499,
      "rupt": 1500,
      "Ġsince": 1501,
      "Ġexample": 1502,
      "Ġcircumst": 1503,
      "use": 1504,
      "Ġsil": 1505,
      "Ġcar": 1506,
      "ster": 1507,
      "Ġremem": 1508,
      "uted": 1509,
      "Ġsty": 1510,
      "ters": 1511,
      "Ġmeaning": 1512,
      "Ġthoughts": 1513,
      "Ġrecogn": 1514,
      "Ġhistory": 1515,
      "Ġancient": 1516,
      "Ġrev": 1517,
      "Ġshow": 1518,
      "ived": 1519,
      "Ġknows": 1520,
      "Ġserv": 1521,
      "reedom": 1522,
      "Ġstrength": 1523,
      "will": 1524,
      "ination": 1525,
      "Ġside": 1526,
      "Ġbus": 1527,
      "Ġback": 1528,
      "Ġhands": 1529,
      "Ġconcl": 1530,
      "Ġprecise": 1531,
      "Ġcontin": 1532,
      "Ġbrought": 1533,
      "what": 1534,
      "Ġsuper": 1535,
      "Ġanimals": 1536,
      "Ġdegree": 1537,
      "gg": 1538,
      "Ġsk": 1539,
      "ancy": 1540,
      "Ġlatter": 1541,
      "Ġones": 1542,
      "osing": 1543,
      "Ġexact": 1544,
      "Ġalone": 1545,
      "Ġabst": 1546,
      "Ġblood": 1547,
      "Ġadvant": 1548,
      "Ġstudy": 1549,
      "Ġmaintain": 1550,
      "wise": 1551,
      "ury": 1552,
      "Ġfair": 1553,
      "Ġadm": 1554,
      "Ġaccount": 1555,
      "Ġresult": 1556,
      "Ġopinions": 1557,
      "Ġindividuals": 1558,
      "Ġdescribed": 1559,
      "Ġenemies": 1560,
      "Ġinfluence": 1561,
      "Ġuntil": 1562,
      "Ġrepresent": 1563,
      "iar": 1564,
      "Ġav": 1565,
      "Ġwish": 1566,
      "nding": 1567,
      "Ġdut": 1568,
      "ale": 1569,
      "Ġwealth": 1570,
      "Ġdeath": 1571,
      "Ġcho": 1572,
      "Ġdise": 1573,
      "Ġfail": 1574,
      "Ġenqu": 1575,
      "they": 1576,
      "Ġimposs": 1577,
      "Ġgenerally": 1578,
      "Ġdemoc": 1579,
      "ternal": 1580,
      "ened": 1581,
      "ency": 1582,
      "Ġpure": 1583,
      "pend": 1584,
      "Ġeng": 1585,
      "Ġcompan": 1586,
      "Ġsupposed": 1587,
      "Ġdistinct": 1588,
      "Ġacknow": 1589,
      "Ġpursu": 1590,
      "Ġbeginning": 1591,
      "Ġsimple": 1592,
      "Ġreligion": 1593,
      "ology": 1594,
      "Ġbelong": 1595,
      "hood": 1596,
      "ier": 1597,
      "ring": 1598,
      "Ġmon": 1599,
      "iter": 1600,
      "itable": 1601,
      "Ġlar": 1602,
      "Ġunless": 1603,
      "ief": 1604,
      "aces": 1605,
      "Ġleg": 1606,
      "Ġpassion": 1607,
      "Ġregarded": 1608,
      "Ġmeth": 1609,
      "Ġproperty": 1610,
      "Ġsociety": 1611,
      "Ġkeep": 1612,
      "Ġprobably": 1613,
      "where": 1614,
      "Ġfore": 1615,
      "ustom": 1616,
      "Ġgold": 1617,
      "Ġparts": 1618,
      "Ġbelief": 1619,
      "medi": 1620,
      "Ġbecomes": 1621,
      "Ġstyle": 1622,
      "Ġmethod": 1623,
      "hip": 1624,
      "tle": 1625,
      "vation": 1626,
      "Ġess": 1627,
      "Ġho": 1628,
      "arily": 1629,
      "Ġanal": 1630,
      "Ġcompe": 1631,
      "Ġimport": 1632,
      "Ġaffect": 1633,
      "Ġwhereas": 1634,
      "Ġexpression": 1635,
      "Ġdangerous": 1636,
      "Ġcaus": 1637,
      "Ġchristian": 1638,
      "Ġremember": 1639,
      "Ġbas": 1640,
      "Ġmist": 1641,
      "Ġcent": 1642,
      "Ġcol": 1643,
      "ays": 1644,
      "aining": 1645,
      "Ġvi": 1646,
      "Ġintr": 1647,
      "Ġunivers": 1648,
      "Ġworse": 1649,
      "olution": 1650,
      "ortion": 1651,
      "Ġappro": 1652,
      "Ġimage": 1653,
      "ibility": 1654,
      "Ġinterp": 1655,
      "Ġsla": 1656,
      "Ġpolitics": 1657,
      "Ġstronger": 1658,
      "Ġdemocracy": 1659,
      "ead": 1660,
      "fort": 1661,
      "iod": 1662,
      "iety": 1663,
      "lt": 1664,
      "Ġhigh": 1665,
      "orm": 1666,
      "lled": 1667,
      "irm": 1668,
      "aint": 1669,
      "ccess": 1670,
      "Ġsouls": 1671,
      "Ġthinking": 1672,
      "Ġcorrupt": 1673,
      "Ġrequire": 1674,
      "Ġallowed": 1675,
      "Ġaristot": 1676,
      "Ġreturn": 1677,
      "Ġconscience": 1678,
      "Ġbusiness": 1679,
      "Ġprecisely": 1680,
      ".--": 1681,
      "ax": 1682,
      "bod": 1683,
      "ati": 1684,
      "Ġfreedom": 1685,
      "aring": 1686,
      "Ġlower": 1687,
      "Ġgent": 1688,
      "ided": 1689,
      "Ġprov": 1690,
      "unt": 1691,
      "Ġimper": 1692,
      "Ġinstance": 1693,
      "Ġsometimes": 1694,
      "Ġreality": 1695,
      "Ġintellig": 1696,
      "Ġmathem": 1697,
      "Ġprivate": 1698,
      "Ġgymnastic": 1699,
      "but": 1700,
      "bour": 1701,
      "rib": 1702,
      "ison": 1703,
      "Ġcur": 1704,
      "Ġcoun": 1705,
      "cell": 1706,
      "istic": 1707,
      "Ġdog": 1708,
      "aged": 1709,
      "Ġground": 1710,
      "iction": 1711,
      "Ġsubjects": 1712,
      "Ġfamily": 1713,
      "Ġtemperance": 1714,
      "orrow": 1715,
      "Ġimpossible": 1716,
      "athy": 1717,
      "Ġbene": 1718,
      "Ġmult": 1719,
      "Ġmention": 1720,
      "Ġhy": 1721,
      "Ġcult": 1722,
      "Ġra": 1723,
      "Ġrank": 1724,
      "Ġconce": 1725,
      "Ġexcell": 1726,
      "Ġthereby": 1727,
      "Ġkne": 1728,
      "ified": 1729,
      "Ġages": 1730,
      "Ġdesign": 1731,
      "Ġgenius": 1732,
      "Ġequal": 1733,
      "Ġentire": 1734,
      "Ġpurp": 1735,
      "?âĢĻ": 1736,
      "sy": 1737,
      "Ġcre": 1738,
      "Ġsuccess": 1739,
      "Ġprot": 1740,
      "Ġconstr": 1741,
      "Ġsoon": 1742,
      "Ġdisg": 1743,
      "Ġassum": 1744,
      "Ġwrong": 1745,
      "Ġgives": 1746,
      "Ġpolitical": 1747,
      "Ġfeeling": 1748,
      "ixed": 1749,
      "Ġmedic": 1750,
      "Ġdestro": 1751,
      "Ġintellectual": 1752,
      "Ġtreat": 1753,
      "Ġtakes": 1754,
      "Ġbes": 1755,
      "ouse": 1756,
      "Ġnarr": 1757,
      "Ġhes": 1758,
      "Ġreve": 1759,
      "Ġrare": 1760,
      "ulous": 1761,
      "Ġdelight": 1762,
      "Ġknown": 1763,
      "uced": 1764,
      "Ġdiscove": 1765,
      "Ġfinally": 1766,
      "Ġvalue": 1767,
      "Ġdialect": 1768,
      "Ġaristotle": 1769,
      "uous": 1770,
      "Ġ3": 1771,
      "Ġap": 1772,
      "Ġmarri": 1773,
      "Ġdire": 1774,
      "Ġlim": 1775,
      "Ġhead": 1776,
      "Ġge": 1777,
      "ims": 1778,
      "Ġforce": 1779,
      "Ġgoing": 1780,
      "Ġmeasure": 1781,
      "iful": 1782,
      "Ġpoor": 1783,
      "Ġbring": 1784,
      "Ġuseful": 1785,
      "velop": 1786,
      "app": 1787,
      "ered": 1788,
      "gr": 1789,
      "pr": 1790,
      "Ġbre": 1791,
      "Ġce": 1792,
      "ilit": 1793,
      "Ġsacr": 1794,
      "Ġlie": 1795,
      "ational": 1796,
      "Ġexcept": 1797,
      "Ġmem": 1798,
      "Ġphilosoph": 1799,
      "Ġinstr": 1800,
      "Ġinstead": 1801,
      "Ġcontrary": 1802,
      "Ġignorance": 1803,
      "Ġridic": 1804,
      ",--": 1805,
      "atical": 1806,
      "Ġinj": 1807,
      "Ġnone": 1808,
      "ask": 1809,
      "asion": 1810,
      "Ġready": 1811,
      "this": 1812,
      "Ġdecl": 1813,
      "Ġdoing": 1814,
      "peci": 1815,
      "Ġchang": 1816,
      "Ġprocess": 1817,
      "Ġpeace": 1818,
      "Ġdiscus": 1819,
      "Ġreflect": 1820,
      "Ġnumbers": 1821,
      "Ġhappy": 1822,
      "Ġappearance": 1823,
      "Ġclasses": 1824,
      "Ġrequired": 1825,
      "form": 1826,
      "Ġsuperior": 1827,
      "Ġsympathy": 1828,
      "Ġgeomet": 1829,
      "iest": 1830,
      "no": 1831,
      "Ġtest": 1832,
      "Ġmom": 1833,
      "Ġmother": 1834,
      "Ġpop": 1835,
      "Ġhabit": 1836,
      "Ġye": 1837,
      "uring": 1838,
      "Ġcontain": 1839,
      "Ġexpect": 1840,
      "Ġnear": 1841,
      "lies": 1842,
      "rents": 1843,
      "Ġfav": 1844,
      "Ġenj": 1845,
      "Ġappe": 1846,
      "Ġsyst": 1847,
      "undament": 1848,
      "Ġerror": 1849,
      "Ġconstitution": 1850,
      ";âĢĶ": 1851,
      "Ġcame": 1852,
      "icism": 1853,
      "lem": 1854,
      "iment": 1855,
      "Ġstep": 1856,
      "Ġsake": 1857,
      "Ġking": 1858,
      "Ġunity": 1859,
      "Ġproble": 1860,
      "Ġlover": 1861,
      "Ġleft": 1862,
      "Ġruler": 1863,
      "Ġespeci": 1864,
      "Ġsurely": 1865,
      "Ġauthority": 1866,
      "Ġcountry": 1867,
      "Ġseveral": 1868,
      "Ġadvantage": 1869,
      "Ġmedicine": 1870,
      "Ġespecially": 1871,
      ":--": 1872,
      "under": 1873,
      "Ġterr": 1874,
      "Ġwo": 1875,
      "isl": 1876,
      "Ġbu": 1877,
      "Ġbar": 1878,
      "Ġhal": 1879,
      "Ġpay": 1880,
      "Ġfundament": 1881,
      "ices": 1882,
      "Ġreceive": 1883,
      "ime": 1884,
      "amed": 1885,
      "Ġgeneration": 1886,
      "Ġinferior": 1887,
      "Ġactions": 1888,
      "Ġlearned": 1889,
      "Ġoriginal": 1890,
      "Ġbeautiful": 1891,
      "...": 1892,
      "Ġdemocr": 1893,
      "Ġtyranny": 1894,
      "Ġfaculty": 1895,
      "Ġlegisl": 1896,
      "Ġdiscovered": 1897,
      "aw": 1898,
      "ex": 1899,
      "greek": 1900,
      "omp": 1901,
      "iments": 1902,
      "Ġfort": 1903,
      "Ġrun": 1904,
      "Ġwholly": 1905,
      "Ġdevelop": 1906,
      "Ġvis": 1907,
      "Ġvice": 1908,
      "Ġvision": 1909,
      "ivil": 1910,
      "Ġunc": 1911,
      "Ġdiscip": 1912,
      "Ġpreser": 1913,
      "Ġdiscover": 1914,
      "Ġunderstanding": 1915,
      "Ġobserve": 1916,
      "Ġshadows": 1917,
      "Ġcircumstances": 1918,
      "Ġknew": 1919,
      "air": 1920,
      "pond": 1921,
      "Ġsqu": 1922,
      "Ġsign": 1923,
      "Ġsoph": 1924,
      "erms": 1925,
      "Ġhouse": 1926,
      "Ġheard": 1927,
      "cend": 1928,
      "iry": 1929,
      "Ġprom": 1930,
      "Ġworst": 1931,
      "oken": 1932,
      "Ġhero": 1933,
      "ference": 1934,
      "Ġopen": 1935,
      "Ġordinary": 1936,
      "Ġtype": 1937,
      "Ġimitation": 1938,
      "Ġmatters": 1939,
      "Ġextra": 1940,
      "Ġremains": 1941,
      "Ġoccur": 1942,
      "Ġbelow": 1943,
      "Ġutter": 1944,
      "Ġesc": 1945,
      "Ġparents": 1946,
      "Ġmerely": 1947,
      "Ġexactly": 1948,
      "Ġuniversal": 1949,
      "00": 1950,
      "ling": 1951,
      "ph": 1952,
      "Ġtaking": 1953,
      "ins": 1954,
      "ators": 1955,
      "ert": 1956,
      "Ġliter": 1957,
      "Ġhen": 1958,
      "sem": 1959,
      "Ġstars": 1960,
      "Ġdoct": 1961,
      "Ġstrange": 1962,
      "Ġfood": 1963,
      "ock": 1964,
      "Ġattrib": 1965,
      "Ġelement": 1966,
      "Ġdefin": 1967,
      "Ġcommunity": 1968,
      "go": 1969,
      "ners": 1970,
      "rs": 1971,
      "Ġ4": 1972,
      "Ġmag": 1973,
      "Ġpun": 1974,
      "Ġtold": 1975,
      "Ġdark": 1976,
      "Ġland": 1977,
      "Ġgif": 1978,
      "Ġrepe": 1979,
      "Ġwilling": 1980,
      "Ġtraining": 1981,
      "atever": 1982,
      "used": 1983,
      "olunt": 1984,
      "Ġfaith": 1985,
      "well": 1986,
      "cons": 1987,
      "Ġkinds": 1988,
      "Ġasked": 1989,
      "Ġincre": 1990,
      "Ġelements": 1991,
      "Ġattempt": 1992,
      "Ġdream": 1993,
      "Ġhellen": 1994,
      "how": 1995,
      "per": 1996,
      "ven": 1997,
      "Ġterms": 1998,
      "het": 1999,
      "Ġsw": 2000,
      "Ġpast": 2001,
      "Ġcases": 2002,
      "Ġcivil": 2003,
      "Ġder": 2004,
      "Ġwhatever": 2005,
      "Ġlau": 2006,
      "Ġempl": 2007,
      "Ġnotion": 2008,
      "Ġrace": 2009,
      "Ġprodu": 2010,
      "Ġdem": 2011,
      "Ġtend": 2012,
      "Ġgrad": 2013,
      "Ġdistance": 2014,
      "Ġmorals": 2015,
      "Ġserious": 2016,
      "Ġprevail": 2017,
      "Ġprofound": 2018,
      "body": 2019,
      "Ġgentle": 2020,
      "Ġdestroy": 2021,
      "Ġhence": 2022,
      "nect": 2023,
      "ri": 2024,
      "ons": 2025,
      "onic": 2026,
      "Ġhome": 2027,
      "Ġhope": 2028,
      "Ġpy": 2029,
      "Ġinn": 2030,
      "Ġdi": 2031,
      "Ġled": 2032,
      "Ġund": 2033,
      "imate": 2034,
      "ident": 2035,
      "Ġsaw": 2036,
      "Ġliber": 2037,
      "Ġtrou": 2038,
      "adays": 2039,
      "cious": 2040,
      "seless": 2041,
      "aker": 2042,
      "Ġspo": 2043,
      "Ġje": 2044,
      "Ġpersu": 2045,
      "Ġquestions": 2046,
      "Ġmode": 2047,
      "Ġcorre": 2048,
      "Ġpossession": 2049,
      "Ġanimal": 2050,
      "Ġjudgment": 2051,
      "iddle": 2052,
      "Ġhyp": 2053,
      "Ġpurpose": 2054,
      "Ġmarriage": 2055,
      "bar": 2056,
      "ipt": 2057,
      "ses": 2058,
      "ux": 2059,
      "Ġ5": 2060,
      "Ġpat": 2061,
      "Ġfight": 2062,
      "Ġfancy": 2063,
      "Ġorg": 2064,
      "ures": 2065,
      "ousand": 2066,
      "respond": 2067,
      "cript": 2068,
      "Ġlog": 2069,
      "Ġlost": 2070,
      "acher": 2071,
      "Ġdivision": 2072,
      "Ġcorrespond": 2073,
      "Ġbegins": 2074,
      "Ġfollows": 2075,
      "ourable": 2076,
      "Ġprevent": 2077,
      "Ġenemy": 2078,
      "Ġpractice": 2079,
      "Ġsufficient": 2080,
      "Ġabstract": 2081,
      "Ġcauses": 2082,
      "Ġemploy": 2083,
      "ias": 2084,
      "oid": 2085,
      "ocr": 2086,
      "tr": 2087,
      "Ġz": 2088,
      "itive": 2089,
      "oud": 2090,
      "Ġthousand": 2091,
      "stood": 2092,
      "Ġlot": 2093,
      "Ġlater": 2094,
      "Ġemp": 2095,
      "Ġreverse": 2096,
      "Ġrhy": 2097,
      "Ġconceive": 2098,
      "Ġliving": 2099,
      "oses": 2100,
      "Ġsees": 2101,
      "Ġquar": 2102,
      "une": 2103,
      "Ġcompre": 2104,
      "Ġways": 2105,
      "Ġthinks": 2106,
      "Ġpassed": 2107,
      "Ġguardian": 2108,
      "Ġjudge": 2109,
      "Ġignorant": 2110,
      "Ġbesides": 2111,
      "ges": 2112,
      "Ġhus": 2113,
      "oured": 2114,
      "Ġep": 2115,
      "Ġid": 2116,
      "Ġsum": 2117,
      "Ġrom": 2118,
      "Ġconnect": 2119,
      "Ġdeem": 2120,
      "Ġvict": 2121,
      "Ġneg": 2122,
      "Ġmeet": 2123,
      "Ġperiod": 2124,
      "Ġspart": 2125,
      "aches": 2126,
      "Ġnowadays": 2127,
      "Ġimpro": 2128,
      "Ġreasons": 2129,
      "Ġfool": 2130,
      "Ġearly": 2131,
      "Ġassured": 2132,
      "Ġcharm": 2133,
      "Ġperfection": 2134,
      "upid": 2135,
      "Ġoccasion": 2136,
      "Ġeasy": 2137,
      "Ġobserved": 2138,
      "Ġreligious": 2139,
      "Ġmotion": 2140,
      "Ġdisease": 2141,
      "Ġengl": 2142,
      "Ġridiculous": 2143,
      "ape": 2144,
      "aeus": 2145,
      "band": 2146,
      "rop": 2147,
      "ub": 2148,
      "Ġtaught": 2149,
      "inction": 2150,
      "reg": 2151,
      "Ġbed": 2152,
      "Ġpath": 2153,
      "ites": 2154,
      "Ġfill": 2155,
      "icians": 2156,
      "ash": 2157,
      "lection": 2158,
      "Ġmanif": 2159,
      "Ġexcess": 2160,
      "Ġexternal": 2161,
      "uments": 2162,
      "Ġbrother": 2163,
      "idered": 2164,
      "Ġbodily": 2165,
      "Ġconditions": 2166,
      "Ġlearning": 2167,
      "Ġnaturally": 2168,
      "Ġheavens": 2169,
      "icked": 2170,
      "Ġmetap": 2171,
      "Ġprofess": 2172,
      "Ġsons": 2173,
      "Ġsenses": 2174,
      "Ġadmitted": 2175,
      "Ġcontempl": 2176,
      "Ġpraise": 2177,
      "Ġconclusion": 2178,
      "Ġconceal": 2179,
      "Ġdialectic": 2180,
      "Ġenjoy": 2181,
      "Ġhusband": 2182,
      "!--": 2183,
      "den": 2184,
      "hib": 2185,
      "ike": 2186,
      "line": 2187,
      "met": 2188,
      "Ġmad": 2189,
      "Ġcarr": 2190,
      "Ġthirst": 2191,
      "Ġlist": 2192,
      "Ġang": 2193,
      "ains": 2194,
      "ustr": 2195,
      "Ġsepar": 2196,
      "Ġdeal": 2197,
      "Ġsold": 2198,
      "Ġdiss": 2199,
      "Ġdesp": 2200,
      "ortal": 2201,
      "Ġlovers": 2202,
      "Ġdistinction": 2203,
      "ames": 2204,
      "Ġears": 2205,
      "Ġslave": 2206,
      "Ġhonours": 2207,
      "Ġphysician": 2208,
      "Ġsuffering": 2209,
      "mediate": 2210,
      "Ġcompelled": 2211,
      "Ġslaves": 2212,
      "Ġwonder": 2213,
      "Ġpyth": 2214,
      "Ġhypot": 2215,
      "Ġrhyth": 2216,
      "Ġver": 2217,
      "Ġapt": 2218,
      "Ġastr": 2219,
      "Ġsix": 2220,
      "Ġbra": 2221,
      "Ġmiddle": 2222,
      "ones": 2223,
      "Ġpil": 2224,
      "Ġpict": 2225,
      "let": 2226,
      "utes": 2227,
      "utions": 2228,
      "Ġtry": 2229,
      "Ġdeep": 2230,
      "Ġarter": 2231,
      "dered": 2232,
      "ively": 2233,
      "Ġdesir": 2234,
      "Ġpolem": 2235,
      "Ġowing": 2236,
      "aced": 2237,
      "ached": 2238,
      "ization": 2239,
      "Ġartist": 2240,
      "Ġtruths": 2241,
      "Ġlabour": 2242,
      "Ġconsidered": 2243,
      "Ġproportion": 2244,
      "Ġhonest": 2245,
      "Ġruling": 2246,
      "Ġharm": 2247,
      "which": 2248,
      "Ġdescribing": 2249,
      "Ġattemp": 2250,
      "Ġestabl": 2251,
      "Ġcapable": 2252,
      "Ġsatisfact": 2253,
      "Ġconvin": 2254,
      "Ġexerc": 2255,
      "Ġcompany": 2256,
      "Ġimperfect": 2257,
      "Ġphilosophical": 2258,
      "Ġmoment": 2259,
      "Ġhalf": 2260,
      "day": 2261,
      "king": 2262,
      "Ġwicked": 2263,
      "Ġmar": 2264,
      "Ġmilit": 2265,
      "Ġfine": 2266,
      "Ġfixed": 2267,
      "Ġnations": 2268,
      "aries": 2269,
      "Ġreach": 2270,
      "Ġasc": 2271,
      "Ġuseless": 2272,
      "Ġforget": 2273,
      "Ġstupid": 2274,
      "ths": 2275,
      "Ġdelic": 2276,
      "Ġshown": 2277,
      "Ġcomb": 2278,
      "Ġarm": 2279,
      "arer": 2280,
      "Ġplatonic": 2281,
      "Ġcompar": 2282,
      "Ġcompared": 2283,
      "Ġevils": 2284,
      "Ġbodies": 2285,
      "Ġspirits": 2286,
      "Ġnecessarily": 2287,
      "ability": 2288,
      "Ġinterv": 2289,
      "Ġsecret": 2290,
      "itting": 2291,
      "Ġperfectly": 2292,
      "Ġinvent": 2293,
      "archus": 2294,
      "Ġbooks": 2295,
      "Ġextre": 2296,
      "Ġturned": 2297,
      "Ġseeking": 2298,
      "Ġiron": 2299,
      "Ġsatisfied": 2300,
      "Ġconcerned": 2301,
      "Ġconsequently": 2302,
      "Ġduty": 2303,
      "Ġessent": 2304,
      "Ġviol": 2305,
      "sych": 2306,
      "Ġpolemarchus": 2307,
      ");": 2308,
      "oice": 2309,
      "rust": 2310,
      "Ġswe": 2311,
      "ishes": 2312,
      "Ġbless": 2313,
      "Ġcustom": 2314,
      "Ġtouch": 2315,
      "Ġfive": 2316,
      "Ġnay": 2317,
      "omy": 2318,
      "ased": 2319,
      "Ġnotions": 2320,
      "enth": 2321,
      "iliar": 2322,
      "Ġtrad": 2323,
      "Ġtraged": 2324,
      "Ġunable": 2325,
      "Ġchief": 2326,
      "rence": 2327,
      "Ġseeing": 2328,
      "Ġpartly": 2329,
      "ibly": 2330,
      "hys": 2331,
      "Ġrightly": 2332,
      "Ġspiritual": 2333,
      "Ġworks": 2334,
      "Ġimages": 2335,
      "Ġcrit": 2336,
      "Ġextent": 2337,
      "Ġtermed": 2338,
      "Ġaware": 2339,
      "Ġmiserable": 2340,
      "Ġenquiry": 2341,
      "Ġsystem": 2342,
      "Ġdoctr": 2343,
      "Ġquarre": 2344,
      "Ġpythag": 2345,
      "?--": 2346,
      "iently": 2347,
      "ool": 2348,
      "Ġsick": 2349,
      "Ġbat": 2350,
      "ener": 2351,
      "Ġnur": 2352,
      "ories": 2353,
      "orical": 2354,
      "Ġeth": 2355,
      "Ġnote": 2356,
      "Ġround": 2357,
      "Ġlik": 2358,
      "Ġmove": 2359,
      "Ġsex": 2360,
      "Ġgoes": 2361,
      "ival": 2362,
      "Ġchur": 2363,
      "Ġprove": 2364,
      "Ġsphere": 2365,
      "acy": 2366,
      "Ġoblig": 2367,
      "Ġafterwards": 2368,
      "Ġfinds": 2369,
      "ceiving": 2370,
      "Ġimitate": 2371,
      "Ġinterests": 2372,
      "Ġquality": 2373,
      "Ġfalsehood": 2374,
      "Ġmedi": 2375,
      "Ġsocial": 2376,
      "Ġdialog": 2377,
      "Ġdetermine": 2378,
      "Ġwritings": 2379,
      "Ġexercise": 2380,
      "Ġoligarchy": 2381,
      "Ġbehold": 2382,
      "Ġcarry": 2383,
      "Ġlarge": 2384,
      "Ġprotect": 2385,
      "Ġproblem": 2386,
      "Ġdemand": 2387,
      "Ġmilitary": 2388,
      "af": 2389,
      "ait": 2390,
      "ches": 2391,
      "ev": 2392,
      "jud": 2393,
      "ls": 2394,
      "ler": 2395,
      "with": 2396,
      "Ġx": 2397,
      "Ġwild": 2398,
      "Ġwarri": 2399,
      "Ġoffer": 2400,
      "Ġbir": 2401,
      "Ġhun": 2402,
      "Ġnight": 2403,
      "Ġbear": 2404,
      "Ġlack": 2405,
      "ote": 2406,
      "iring": 2407,
      "idence": 2408,
      "Ġforg": 2409,
      "Ġexception": 2410,
      "Ġshare": 2411,
      "antly": 2412,
      "Ġquick": 2413,
      "Ġpoin": 2414,
      "Ġpreced": 2415,
      "Ġspecul": 2416,
      "Ġconsist": 2417,
      "Ġherself": 2418,
      "fulness": 2419,
      "Ġpassing": 2420,
      "Ġregul": 2421,
      "Ġcontrad": 2422,
      "licity": 2423,
      "Ġvari": 2424,
      "Ġvarious": 2425,
      "Ġdeny": 2426,
      "Ġinclud": 2427,
      "Ġcomplete": 2428,
      "Ġhesit": 2429,
      "Ġdirect": 2430,
      "Ġgeometry": 2431,
      "Ġlaugh": 2432,
      "Ġenglish": 2433,
      "?âĢĶ": 2434,
      "ems": 2435,
      "oin": 2436,
      "ugg": 2437,
      "wor": 2438,
      "when": 2439,
      "Ġslight": 2440,
      "Ġsorrow": 2441,
      "ishing": 2442,
      "Ġborn": 2443,
      "Ġpsych": 2444,
      "Ġcal": 2445,
      "edi": 2446,
      "inger": 2447,
      "Ġdivid": 2448,
      "Ġdwell": 2449,
      "Ġbeast": 2450,
      "Ġlen": 2451,
      "imin": 2452,
      "urd": 2453,
      "Ġexam": 2454,
      "Ġalong": 2455,
      "Ġmeant": 2456,
      "Ġintention": 2457,
      "Ġdescript": 2458,
      "Ġspoken": 2459,
      "acity": 2460,
      "Ġamb": 2461,
      "there": 2462,
      "Ġprefer": 2463,
      "Ġfolly": 2464,
      "ishment": 2465,
      "Ġrefined": 2466,
      "Ġrelations": 2467,
      "Ġpains": 2468,
      "Ġdays": 2469,
      "Ġdetermined": 2470,
      "Ġskill": 2471,
      "Ġacknowled": 2472,
      "Ġacknowledge": 2473,
      "Ġanalog": 2474,
      "Ġinterpret": 2475,
      "Ġterrible": 2476,
      "Ġfundamental": 2477,
      "ashion": 2478,
      "Ġpythagore": 2479,
      "az": 2480,
      "br": 2481,
      "fr": 2482,
      "sh": 2483,
      "ture": 2484,
      "Ġ=": 2485,
      "Ġtask": 2486,
      "Ġaim": 2487,
      "ining": 2488,
      "inte": 2489,
      "atch": 2490,
      "Ġban": 2491,
      "Ġhor": 2492,
      "Ġnames": 2493,
      "lling": 2494,
      "Ġly": 2495,
      "Ġlose": 2496,
      "Ġheld": 2497,
      "Ġforth": 2498,
      "Ġstage": 2499,
      "Ġpray": 2500,
      "Ġathen": 2501,
      "cies": 2502,
      "Ġarise": 2503,
      "raid": 2504,
      "Ġmyth": 2505,
      "Ġimpul": 2506,
      "Ġimpress": 2507,
      "izing": 2508,
      "Ġunderstood": 2509,
      "Ġfem": 2510,
      "Ġindif": 2511,
      "Ġcontent": 2512,
      "Ġcla": 2513,
      "Ġsecondly": 2514,
      "Ġprevious": 2515,
      "Ġoccup": 2516,
      "ĠĠĠĠĠĠĠĠĠĠĠĠĠĠĠĠ": 2517,
      "Ġexplain": 2518,
      "Ġconscious": 2519,
      "Ġtale": 2520,
      "Ġabsolutely": 2521,
      "aughter": 2522,
      "Ġschool": 2523,
      "Ġsolid": 2524,
      "Ġspecial": 2525,
      "Ġdistinguished": 2526,
      "Ġsilver": 2527,
      "Ġchoose": 2528,
      "Ġvisible": 2529,
      "Ġcarried": 2530,
      "Ġlisten": 2531,
      "Ġhypothes": 2532,
      "bits": 2533,
      "gress": 2534,
      "hal": 2535,
      "Ġsle": 2536,
      "iss": 2537,
      "Ġbound": 2538,
      "Ġma": 2539,
      "Ġcities": 2540,
      "Ġfast": 2541,
      "ane": 2542,
      "ically": 2543,
      "Ġgot": 2544,
      "Ġretain": 2545,
      "Ġreceived": 2546,
      "ils": 2547,
      "Ġconvers": 2548,
      "Ġconceived": 2549,
      "ulg": 2550,
      "Ġexte": 2551,
      "Ġdear": 2552,
      "Ġvan": 2553,
      "ouses": 2554,
      "Ġknowing": 2555,
      "Ġperp": 2556,
      "Ġperceive": 2557,
      "Ġproof": 2558,
      "soci": 2559,
      "Ġsought": 2560,
      "Ġprep": 2561,
      "Ġteach": 2562,
      "Ġafraid": 2563,
      "Ġstrugg": 2564,
      "Ġinstit": 2565,
      "Ġsupposing": 2566,
      "Ġbelieved": 2567,
      "Ġactual": 2568,
      "Ġconduct": 2569,
      "Ġdivis": 2570,
      "mitted": 2571,
      "ocracy": 2572,
      "Ġwants": 2573,
      "who": 2574,
      "ification": 2575,
      "Ġeuropean": 2576,
      "known": 2577,
      "Ġtyrannical": 2578,
      "Ġcentury": 2579,
      "Ġbenef": 2580,
      "Ġpopular": 2581,
      "Ġbarbar": 2582,
      "Ġescape": 2583,
      "oluntary": 2584,
      "Ġliberty": 2585,
      "Ġcorrect": 2586,
      "Ġassuredly": 2587,
      "Ġmetaphys": 2588,
      "Ġlength": 2589,
      ".)": 2590,
      "com": 2591,
      "dden": 2592,
      "gen": 2593,
      "good": 2594,
      "ially": 2595,
      "ook": 2596,
      "requ": 2597,
      "Ġwall": 2598,
      "Ġwater": 2599,
      "Ġmer": 2600,
      "Ġtor": 2601,
      "icious": 2602,
      "icip": 2603,
      "Ġdom": 2604,
      "owers": 2605,
      "Ġult": 2606,
      "Ġsudden": 2607,
      "Ġprod": 2608,
      "Ġtrained": 2609,
      "Ġneigh": 2610,
      "uel": 2611,
      "Ġused": 2612,
      "Ġmyster": 2613,
      "Ġupwards": 2614,
      "Ġappre": 2615,
      "Ġleave": 2616,
      "Ġlaid": 2617,
      "Ġgrant": 2618,
      "Ġrelative": 2619,
      "Ġgiving": 2620,
      "Ġenter": 2621,
      "Ġentertain": 2622,
      "Ġincap": 2623,
      "being": 2624,
      "Ġfamous": 2625,
      "Ġexplan": 2626,
      "idden": 2627,
      "Ġparad": 2628,
      "Ġinstincts": 2629,
      "Ġsufficiently": 2630,
      "ggest": 2631,
      "Ġduties": 2632,
      "Ġimportant": 2633,
      "Ġculture": 2634,
      "Ġsacrific": 2635,
      "Ġchanges": 2636,
      "Ġliterature": 2637,
      "Ġmagn": 2638,
      "Ġinnoc": 2639,
      "land": 2640,
      "ox": 2641,
      "oved": 2642,
      "pent": 2643,
      "enced": 2644,
      "Ġpowers": 2645,
      "Ġtook": 2646,
      "Ġfashion": 2647,
      "icated": 2648,
      "llect": 2649,
      "Ġlest": 2650,
      "Ġste": 2651,
      "Ġsuc": 2652,
      "Ġsuggest": 2653,
      "Ġpride": 2654,
      "kept": 2655,
      "Ġdeb": 2656,
      "Ġdefe": 2657,
      "Ġvoice": 2658,
      "Ġcoming": 2659,
      "ously": 2660,
      "Ġnobl": 2661,
      "Ġchance": 2662,
      "rast": 2663,
      "Ġlikewise": 2664,
      "Ġapply": 2665,
      "Ġapplic": 2666,
      "Ġobtain": 2667,
      "Ġteacher": 2668,
      "Ġspee": 2669,
      "Ġfellow": 2670,
      "Ġcontrast": 2671,
      "Ġaccom": 2672,
      "Ġoper": 2673,
      "Ġpassions": 2674,
      "Ġsubtle": 2675,
      "Ġpossibility": 2676,
      "itten": 2677,
      "Ġelev": 2678,
      "Ġgermans": 2679,
      "Ġvalu": 2680,
      "Ġaddition": 2681,
      "Ġbecoming": 2682,
      "Ġemot": 2683,
      "Ġfaculties": 2684,
      "willing": 2685,
      "Ġpursuits": 2686,
      "Ġmistaken": 2687,
      "Ġintrodu": 2688,
      "Ġcorruption": 2689,
      "Ġintelligence": 2690,
      "Ġbreak": 2691,
      "Ġproduce": 2692,
      "Ġastron": 2693,
      "Ġsweet": 2694,
      "Ġchurch": 2695,
      "Ġpoints": 2696,
      "cing": 2697,
      "do": 2698,
      "hon": 2699,
      "law": 2700,
      "spect": 2701,
      "Ġ7": 2702,
      "Ġten": 2703,
      "Ġskept": 2704,
      "Ġhund": 2705,
      "Ġpie": 2706,
      "Ġposition": 2707,
      "Ġcast": 2708,
      "Ġfif": 2709,
      "Ġfire": 2710,
      "Ġred": 2711,
      "Ġresem": 2712,
      "Ġassoci": 2713,
      "Ġric": 2714,
      "Ġrational": 2715,
      "Ġselect": 2716,
      "aded": 2717,
      "pper": 2718,
      "Ġdepend": 2719,
      "Ġshame": 2720,
      "Ġvent": 2721,
      "iving": 2722,
      "Ġotherwise": 2723,
      "Ġaround": 2724,
      "Ġarises": 2725,
      "Ġgoods": 2726,
      "Ġfault": 2727,
      "Ġfaire": 2728,
      "Ġsounds": 2729,
      "theless": 2730,
      "ounded": 2731,
      "bles": 2732,
      "Ġbran": 2733,
      "cles": 2734,
      "Ġsorts": 2735,
      "Ġcruel": 2736,
      "Ġanswers": 2737,
      "Ġindepend": 2738,
      "Ġcob": 2739,
      "Ġillustr": 2740,
      "Ġdepart": 2741,
      "Ġdrawn": 2742,
      "Ġgrand": 2743,
      "Ġemb": 2744,
      "Ġfourth": 2745,
      "Ġschol": 2746,
      "Ġanticip": 2747,
      "Ġsentiment": 2748,
      "Ġspecies": 2749,
      "Ġdistinguish": 2750,
      "Ġbelongs": 2751,
      "Ġdisgu": 2752,
      "Ġtrouble": 2753,
      "Ġangry": 2754,
      "Ġdelicate": 2755,
      "Ġbirth": 2756,
      "Ġdescription": 2757,
      "Ġhundred": 2758,
      "!\"": 2759,
      ";âĢĻ": 2760,
      "aed": 2761,
      "arent": 2762,
      "nat": 2763,
      "you": 2764,
      "Ġer": 2765,
      "ats": 2766,
      "ission": 2767,
      "Ġmin": 2768,
      "Ġmark": 2769,
      "Ġmaker": 2770,
      "Ġhouses": 2771,
      "Ġpen": 2772,
      "Ġcep": 2773,
      "Ġfest": 2774,
      "ordered": 2775,
      "Ġeternal": 2776,
      "utation": 2777,
      "Ġhabits": 2778,
      "Ġprose": 2779,
      "Ġsav": 2780,
      "Ġsearch": 2781,
      "Ġunf": 2782,
      "Ġunknown": 2783,
      "ifice": 2784,
      "race": 2785,
      "raction": 2786,
      "Ġadap": 2787,
      "Ġprejud": 2788,
      "Ġobe": 2789,
      "Ġbetr": 2790,
      "Ġpasses": 2791,
      "Ġnevertheless": 2792,
      "Ġmoder": 2793,
      "Ġassist": 2794,
      "Ġnumer": 2795,
      "Ġhappens": 2796,
      "Ġintermediate": 2797,
      "Ġexisted": 2798,
      "Ġopposed": 2799,
      "standing": 2800,
      "Ġwritten": 2801,
      "Ġblind": 2802,
      "cribed": 2803,
      "Ġpainter": 2804,
      "Ġmisunder": 2805,
      "ully": 2806,
      "Ġfeelings": 2807,
      "Ġpossessed": 2808,
      "Ġdisposed": 2809,
      "Ġshadow": 2810,
      "Ġforeign": 2811,
      "Ġbasis": 2812,
      "Ġexcellence": 2813,
      "Ġentirely": 2814,
      "Ġdiscuss": 2815,
      "Ġfavour": 2816,
      "Ġappeared": 2817,
      "Ġgifts": 2818,
      "Ġspoke": 2819,
      "Ġcomprehe": 2820,
      "Ġdoctrine": 2821,
      "Ġdivided": 2822,
      "halus": 2823,
      "Ġcephalus": 2824,
      "ec": 2825,
      "ho": 2826,
      "iers": 2827,
      "Ġ6": 2828,
      "rers": 2829,
      "Ġwit": 2830,
      "Ġcra": 2831,
      "Ġcour": 2832,
      "Ġfurn": 2833,
      "Ġlay": 2834,
      "Ġforb": 2835,
      "Ġsto": 2836,
      "Ġstart": 2837,
      "Ġsusp": 2838,
      "ithmet": 2839,
      "Ġmanners": 2840,
      "Ġexcl": 2841,
      "Ġdeed": 2842,
      "Ġdead": 2843,
      "Ġdemon": 2844,
      "Ġdeceived": 2845,
      "Ġalike": 2846,
      "Ġvain": 2847,
      "Ġkings": 2848,
      "Ġarithmet": 2849,
      "Ġunp": 2850,
      "Ġunse": 2851,
      "Ġunwilling": 2852,
      "ify": 2853,
      "Ġplaces": 2854,
      "Ġgreatly": 2855,
      "Ġenc": 2856,
      "Ġobv": 2857,
      "Ġpleas": 2858,
      "ficial": 2859,
      "Ġpassage": 2860,
      "Ġformul": 2861,
      "Ġearn": 2862,
      "Ġpecul": 2863,
      "Ġinfin": 2864,
      "Ġinfer": 2865,
      "Ġassign": 2866,
      "Ġende": 2867,
      "Ġeducated": 2868,
      "Ġcondem": 2869,
      "Ġstatesman": 2870,
      "Ġcharacteristic": 2871,
      "Ġdescribe": 2872,
      "Ġspeaks": 2873,
      "Ġsimplicity": 2874,
      "Ġmateri": 2875,
      "ruction": 2876,
      "Ġacquired": 2877,
      "Ġaffirm": 2878,
      "Ġanti": 2879,
      "Ġgrowth": 2880,
      "Ġoligarchical": 2881,
      "Ġweakness": 2882,
      "Ġworthy": 2883,
      "Ġrevolution": 2884,
      "Ġcontinue": 2885,
      "Ġmultip": 2886,
      "Ġexcellent": 2887,
      "Ġdiscussion": 2888,
      "Ġdemocratic": 2889,
      "Ġuncertain": 2890,
      "Ġgradually": 2891,
      "Ġzeus": 2892,
      "Ġdeemed": 2893,
      "Ġrhythm": 2894,
      "Ġcomparison": 2895,
      "Ġbattle": 2896,
      "ĠĠĠĠĠĠĠĠĠĠĠĠĠĠĠĠĠĠĠĠ": 2897,
      "Ġhypotheses": 2898,
      "Ġsucceed": 2899,
      "Ġcobbl": 2900,
      "Ġpeculiar": 2901,
      "fully": 2902,
      "ps": 2903,
      "ries": 2904,
      "vag": 2905,
      "Ġ'": 2906,
      "Ġtre": 2907,
      "Ġwent": 2908,
      "Ġpu": 2909,
      "Ġfit": 2910,
      "Ġfan": 2911,
      "Ġfren": 2912,
      "otten": 2913,
      "asm": 2914,
      "Ġrewards": 2915,
      "herd": 2916,
      "enty": 2917,
      "Ġupper": 2918,
      "Ġsuspect": 2919,
      "Ġrate": 2920,
      "Ġprim": 2921,
      "Ġsafe": 2922,
      "Ġexc": 2923,
      "Ġdefect": 2924,
      "Ġplan": 2925,
      "Ġgoodness": 2926,
      "ĠĠĠ": 2927,
      "Ġdishon": 2928,
      "Ġprogress": 2929,
      "Ġseemed": 2930,
      "Ġspect": 2931,
      "Ġartists": 2932,
      "Ġaccustom": 2933,
      "Ġclose": 2934,
      "Ġdistrust": 2935,
      "Ġdiscern": 2936,
      "Ġreflection": 2937,
      "Ġaccept": 2938,
      "Ġdifficulties": 2939,
      "Ġruin": 2940,
      "Ġabsurd": 2941,
      "Ġfacts": 2942,
      "Ġwishes": 2943,
      "Ġoffsp": 2944,
      "Ġexplained": 2945,
      "Ġarrived": 2946,
      "Ġparent": 2947,
      "Ġaffair": 2948,
      "Ġgrace": 2949,
      "Ġconcerning": 2950,
      "Ġmisery": 2951,
      "Ġcarpent": 2952,
      "Ġrecognized": 2953,
      "Ġservice": 2954,
      "Ġresults": 2955,
      "Ġenquire": 2956,
      "Ġintrod": 2957,
      "Ġmathematical": 2958,
      "Ġassume": 2959,
      "Ġnearly": 2960,
      "Ġlegislator": 2961,
      "Ġhellenic": 2962,
      "Ġneglect": 2963,
      "Ġpicture": 2964,
      "Ġtragedy": 2965,
      "Ġdivisions": 2966,
      "requently": 2967,
      "Ġincapable": 2968,
      "Ġparadox": 2969,
      "Ġspeech": 2970,
      "Ġaccompl": 2971,
      "Ġearnest": 2972,
      "Ġendeav": 2973,
      "Ġoffspring": 2974,
      ".).": 2975,
      "fers": 2976,
      "god": 2977,
      "moral": 2978,
      "sc": 2979,
      "ug": 2980,
      "Ġ8": 2981,
      "Ġtast": 2982,
      "Ġsym": 2983,
      "atics": 2984,
      "Ġmass": 2985,
      "Ġhur": 2986,
      "Ġhop": 2987,
      "Ġpatter": 2988,
      "Ġcy": 2989,
      "Ġcub": 2990,
      "Ġfirm": 2991,
      "Ġfinger": 2992,
      "Ġlord": 2993,
      "Ġstory": 2994,
      "ets": 2995,
      "ether": 2996,
      "Ġrise": 2997,
      "Ġsail": 2998,
      "Ġliable": 2999,
      "osen": 3000,
      "Ġalt": 3001,
      "Ġunlike": 3002,
      "olved": 3003,
      "Ġagreed": 3004,
      "Ġapparent": 3005,
      "Ġamid": 3006,
      "then": 3007,
      "Ġfelt": 3008,
      "Ġindign": 3009,
      "Ġcompl": 3010,
      "Ġstrain": 3011,
      "Ġresist": 3012,
      "tered": 3013,
      "Ġremoved": 3014,
      "Ġpropos": 3015,
      "Ġpowerful": 3016,
      "Ġyourself": 3017,
      "elf": 3018,
      "Ġrules": 3019,
      "Ġinterc": 3020,
      "Ġrealized": 3021,
      "Ġexists": 3022,
      "Ġimagination": 3023,
      "Ġinvest": 3024,
      "Ġharmonies": 3025,
      "Ġacquire": 3026,
      "Ġheavenly": 3027,
      "Ġfallen": 3028,
      "Ġleads": 3029,
      "Ġirr": 3030,
      "Ġattained": 3031,
      "Ġreadily": 3032,
      "Ġfigures": 3033,
      "Ġbased": 3034,
      "Ġmultitude": 3035,
      "Ġapart": 3036,
      "Ġcontained": 3037,
      "Ġextraord": 3038,
      "Ġextravag": 3039,
      "Ġderived": 3040,
      "Ġimprove": 3041,
      "Ġmanifest": 3042,
      "Ġcontemplation": 3043,
      "Ġpilot": 3044,
      "Ġquarrel": 3045,
      "Ġacknowledged": 3046,
      "Ġvanity": 3047,
      "Ġstruggle": 3048,
      "Ġcondemn": 3049,
      "Ġcarpenter": 3050,
      "Ġpattern": 3051,
      "\";": 3052,
      "der": 3053,
      "equ": 3054,
      "mod": 3055,
      "overy": 3056,
      "Ġair": 3057,
      "Ġwatch": 3058,
      "Ġsit": 3059,
      "Ġsal": 3060,
      "Ġbreed": 3061,
      "Ġmor": 3062,
      "Ġpred": 3063,
      "Ġport": 3064,
      "Ġincons": 3065,
      "Ġfiction": 3066,
      "orious": 3067,
      "Ġbeings": 3068,
      "Ġlux": 3069,
      "Ġgave": 3070,
      "oward": 3071,
      "entific": 3072,
      "ural": 3073,
      "uries": 3074,
      "ilt": 3075,
      "iled": 3076,
      "thr": 3077,
      "Ġsho": 3078,
      "Ġshows": 3079,
      "Ġarms": 3080,
      "Ġchap": 3081,
      "Ġchosen": 3082,
      "Ġwhenever": 3083,
      "Ġours": 3084,
      "Ġplaced": 3085,
      "Ġface": 3086,
      "Ġens": 3087,
      "Ġloves": 3088,
      "Ġreputation": 3089,
      "Ġimmedi": 3090,
      "acle": 3091,
      "Ġadop": 3092,
      "Ġtimaeus": 3093,
      "Ġcertainty": 3094,
      "Ġeverywhere": 3095,
      "Ġcomposed": 3096,
      "Ġgrows": 3097,
      "Ġplease": 3098,
      "Ġprincipal": 3099,
      "Ġhappen": 3100,
      "Ġbegan": 3101,
      "Ġfoundation": 3102,
      "Ġlesser": 3103,
      "Ġregards": 3104,
      "ceives": 3105,
      "Ġrequires": 3106,
      "Ġclearness": 3107,
      "Ġfollowing": 3108,
      "Ġattract": 3109,
      "Ġturning": 3110,
      "Ġinsp": 3111,
      "Ġcontrol": 3112,
      "Ġexperiences": 3113,
      "ucted": 3114,
      "Ġrespecting": 3115,
      "Ġvariety": 3116,
      "Ġphysical": 3117,
      "Ġmasters": 3118,
      "Ġeste": 3119,
      "Ġseeks": 3120,
      "Ġsentiments": 3121,
      "Ġsurpr": 3122,
      "Ġformerly": 3123,
      "Ġbehind": 3124,
      "Ġweaker": 3125,
      "Ġavoid": 3126,
      "Ġpursuit": 3127,
      "Ġlarger": 3128,
      "Ġcolours": 3129,
      "Ġcounsel": 3130,
      "Ġdogs": 3131,
      "Ġreverence": 3132,
      "ground": 3133,
      "Ġbuild": 3134,
      "Ġfortune": 3135,
      "Ġsquare": 3136,
      "Ġattributed": 3137,
      "Ġtendency": 3138,
      "Ġjew": 3139,
      "Ġorgan": 3140,
      "Ġroman": 3141,
      "Ġsatisfaction": 3142,
      "edience": 3143,
      "Ġanalogy": 3144,
      "Ġinterpretation": 3145,
      "Ġexplanation": 3146,
      "Ġastronomy": 3147,
      "Ġdemonstr": 3148,
      "Ġextraordinary": 3149,
      "Ġimmediately": 3150,
      ".),": 3151,
      "ae": 3152,
      "ios": 3153,
      "ife": 3154,
      "mn": 3155,
      "whe": 3156,
      "Ġwives": 3157,
      "Ġpal": 3158,
      "Ġpity": 3159,
      "Ġfun": 3160,
      "Ġeag": 3161,
      "Ġheat": 3162,
      "oted": 3163,
      "Ġasp": 3164,
      "Ġascend": 3165,
      "iding": 3166,
      "âĢľ": 3167,
      "âĢĿ": 3168,
      "Ġstra": 3169,
      "Ġalle": 3170,
      "Ġexec": 3171,
      "usions": 3172,
      "Ġtherein": 3173,
      "Ġperform": 3174,
      "Ġsound": 3175,
      "Ġappet": 3176,
      "ung": 3177,
      "unity": 3178,
      "Ġobedience": 3179,
      "Ġmeanness": 3180,
      "Ġlevel": 3181,
      "Ġstrang": 3182,
      "ferent": 3183,
      "Ġfoot": 3184,
      "Ġpresence": 3185,
      "wered": 3186,
      "Ġassert": 3187,
      "Ġcalls": 3188,
      "Ġhonourable": 3189,
      "Ġexisting": 3190,
      "Ġseriously": 3191,
      "Ġcharacters": 3192,
      "Ġfollowed": 3193,
      "Ġ21": 3194,
      "Ġlooking": 3195,
      "Ġsupre": 3196,
      "Ġattention": 3197,
      "Ġaccordance": 3198,
      "Ġutility": 3199,
      "Ġadded": 3200,
      "Ġdepth": 3201,
      "Ġarrange": 3202,
      "Ġseeming": 3203,
      "Ġwriters": 3204,
      "Ġtransl": 3205,
      "Ġcontemp": 3206,
      "Ġhellas": 3207,
      "Ġcomplex": 3208,
      "Ġfairly": 3209,
      "Ġanalys": 3210,
      "Ġimportance": 3211,
      "Ġslavery": 3212,
      "Ġmemory": 3213,
      "Ġinstrument": 3214,
      "Ġdefinite": 3215,
      "Ġincrease": 3216,
      "Ġlogic": 3217,
      "Ġsoldiers": 3218,
      "Ġestablished": 3219,
      "Ġconvinced": 3220,
      "Ġstupidity": 3221,
      "Ġpythagorean": 3222,
      "Ġsleep": 3223,
      "Ġnumerous": 3224,
      "Ġfrench": 3225,
      "Ġinvestig": 3226,
      "ares": 3227,
      "bol": 3228,
      "ched": 3229,
      "gy": 3230,
      "ium": 3231,
      "name": 3232,
      "pherd": 3233,
      "such": 3234,
      "uce": 3235,
      "rees": 3236,
      "Ġwal": 3237,
      "Ġwind": 3238,
      "Ġwait": 3239,
      "isc": 3240,
      "Ġbur": 3241,
      "Ġmut": 3242,
      "Ġpot": 3243,
      "Ġcold": 3244,
      "Ġcoward": 3245,
      "edy": 3246,
      "omen": 3247,
      "Ġreject": 3248,
      "Ġreached": 3249,
      "iration": 3250,
      "Ġforward": 3251,
      "change": 3252,
      "Ġroy": 3253,
      "Ġprison": 3254,
      "Ġexhib": 3255,
      "Ġintim": 3256,
      "Ġuns": 3257,
      "Ġplain": 3258,
      "Ġphaed": 3259,
      "Ġusually": 3260,
      "Ġdesired": 3261,
      "Ġreply": 3262,
      "Ġbecame": 3263,
      "Ġprepar": 3264,
      "izes": 3265,
      "Ġspend": 3266,
      "Ġartis": 3267,
      "bling": 3268,
      "ogether": 3269,
      "Ġdiscovery": 3270,
      "Ġmodes": 3271,
      "Ġclever": 3272,
      "Ġwherever": 3273,
      "Ġactually": 3274,
      "Ġscientific": 3275,
      "Ġbold": 3276,
      "Ġimagined": 3277,
      "Ġanswered": 3278,
      "Ġenth": 3279,
      "Ġinvention": 3280,
      "Ġargue": 3281,
      "Ġimitator": 3282,
      "Ġflatter": 3283,
      "Ġcitizen": 3284,
      "Ġdangers": 3285,
      "necess": 3286,
      "Ġfinal": 3287,
      "Ġfamiliar": 3288,
      "Ġestim": 3289,
      "Ġtalk": 3290,
      "Ġtales": 3291,
      "bitr": 3292,
      "Ġgreeks": 3293,
      "Ġremarkable": 3294,
      "Ġcountries": 3295,
      "Ġinclined": 3296,
      "Ġgymnastics": 3297,
      "Ġimmortal": 3298,
      "ables": 3299,
      "Ġcircumstance": 3300,
      "Ġoneself": 3301,
      "Ġmaintained": 3302,
      "Ġrepresented": 3303,
      "Ġchoice": 3304,
      "Ġpassionate": 3305,
      "Ġessence": 3306,
      "Ġaffected": 3307,
      "Ġchristianity": 3308,
      "Ġprovided": 3309,
      "Ġmathematics": 3310,
      "Ġlimit": 3311,
      "Ġsacrifice": 3312,
      "Ġsuperiority": 3313,
      "Ġexpected": 3314,
      "Ġdevelopment": 3315,
      "Ġsophist": 3316,
      "Ġheroes": 3317,
      "Ġutterly": 3318,
      "conscious": 3319,
      "Ġcorresponding": 3320,
      "Ġattempts": 3321,
      "Ġethics": 3322,
      "Ġforgotten": 3323,
      "Ġcalcul": 3324,
      "Ġhorse": 3325,
      "Ġindifferent": 3326,
      "Ġclaim": 3327,
      "Ġcruelty": 3328,
      "asmuch": 3329,
      "Ġaltogether": 3330,
      "Ġintercourse": 3331,
      "Ġinconsist": 3332,
      "Ġchapter": 3333,
      "Ġesteem": 3334,
      "Ġcontempor": 3335,
      "Ġroyal": 3336,
      ";--": 3337,
      "?\"": 3338,
      "bed": 3339,
      "ha": 3340,
      "hau": 3341,
      "ior": 3342,
      "iet": 3343,
      "kin": 3344,
      "pons": 3345,
      "rog": 3346,
      "ship": 3347,
      "ued": 3348,
      "uine": 3349,
      "ĠâĢľ": 3350,
      "Ġakin": 3351,
      "Ġod": 3352,
      "Ġsed": 3353,
      "atives": 3354,
      "Ġmou": 3355,
      "Ġmal": 3356,
      "Ġmax": 3357,
      "Ġhat": 3358,
      "iting": 3359,
      "Ġinh": 3360,
      "Ġcut": 3361,
      "Ġfat": 3362,
      "Ġful": 3363,
      "Ġthou": 3364,
      "icr": 3365,
      "arian": 3366,
      "Ġii": 3367,
      "Ġheight": 3368,
      "Ġgre": 3369,
      "lex": 3370,
      "Ġrender": 3371,
      "Ġrestr": 3372,
      "owing": 3373,
      "Ġaspect": 3374,
      "vert": 3375,
      "etr": 3376,
      "Ġris": 3377,
      "Ġraces": 3378,
      "que": 3379,
      "Ġframe": 3380,
      "iven": 3381,
      "Ġarbitr": 3382,
      "Ġunre": 3383,
      "Ġevents": 3384,
      "Ġdisord": 3385,
      "Ġdisapp": 3386,
      "Ġpermitted": 3387,
      "Ġdeser": 3388,
      "Ġapplied": 3389,
      "Ġdiffer": 3390,
      "Ġgenuine": 3391,
      "Ġherd": 3392,
      "Ġgrat": 3393,
      "Ġjo": 3394,
      "Ġdiscourse": 3395,
      "Ġrefuse": 3396,
      "Ġregular": 3397,
      "ceptions": 3398,
      "Ġhonoured": 3399,
      "Ġopport": 3400,
      "Ġequality": 3401,
      "Ġblame": 3402,
      "Ġcommonly": 3403,
      "Ġdrones": 3404,
      "Ġshepherd": 3405,
      "Ġwanting": 3406,
      "Ġ27": 3407,
      "Ġdeterior": 3408,
      "Ġadvance": 3409,
      "Ġtells": 3410,
      "Ġeffort": 3411,
      "Ġopposition": 3412,
      "Ġsimply": 3413,
      "Ġproceeds": 3414,
      "Ġdepr": 3415,
      "Ġgermany": 3416,
      "Ġdread": 3417,
      "Ġdrinking": 3418,
      "Ġconsequences": 3419,
      "Ġsuperficial": 3420,
      "Ġcompanions": 3421,
      "Ġmistake": 3422,
      "Ġapproach": 3423,
      "Ġinterpre": 3424,
      "Ġhighly": 3425,
      "Ġintelligible": 3426,
      "Ġcultiv": 3427,
      "Ġcreation": 3428,
      "Ġhesiod": 3429,
      "Ġdirection": 3430,
      "Ġkingdom": 3431,
      "Ġdiscipline": 3432,
      "Ġhellenes": 3433,
      "Ġdesirable": 3434,
      "Ġessential": 3435,
      "Ġdialogues": 3436,
      "Ġambition": 3437,
      "Ġmythology": 3438,
      "Ġmagnific": 3439,
      "Ġfairest": 3440,
      "Ġaccustomed": 3441,
      "Ġensl": 3442,
      "namely": 3443,
      "ck": 3444,
      "iver": 3445,
      "lus": 3446,
      "liness": 3447,
      "ric": 3448,
      "sue": 3449,
      "uction": 3450,
      "read": 3451,
      "Ġwag": 3452,
      "Ġming": 3453,
      "ont": 3454,
      "oned": 3455,
      "Ġhour": 3456,
      "enhau": 3457,
      "Ġinasmuch": 3458,
      "Ġnation": 3459,
      "Ġda": 3460,
      "Ġdue": 3461,
      "Ġdig": 3462,
      "Ġdie": 3463,
      "Ġdare": 3464,
      "Ġduring": 3465,
      "Ġlying": 3466,
      "Ġet": 3467,
      "Ġgone": 3468,
      "owed": 3469,
      "Ġaside": 3470,
      "ayed": 3471,
      "urable": 3472,
      "urance": 3473,
      "urious": 3474,
      "Ġrap": 3475,
      "Ġrog": 3476,
      "Ġrhet": 3477,
      "ulation": 3478,
      "openhau": 3479,
      "Ġexceed": 3480,
      "Ġsea": 3481,
      "Ġsev": 3482,
      "Ġdel": 3483,
      "fered": 3484,
      "Ġvol": 3485,
      "mper": 3486,
      "resh": 3487,
      "âĢĻ;": 3488,
      "olence": 3489,
      "Ġwhence": 3490,
      "ourne": 3491,
      "Ġdescend": 3492,
      "Ġspr": 3493,
      "Ġambit": 3494,
      "unate": 3495,
      "Ġfeed": 3496,
      "Ġlab": 3497,
      "Ġaccomp": 3498,
      "tedly": 3499,
      "Ġpassages": 3500,
      "Ġvirtuous": 3501,
      "Ġsubst": 3502,
      "Ġrefine": 3503,
      "Ġhumanity": 3504,
      "els": 3505,
      "Ġpersonal": 3506,
      "Ġasks": 3507,
      "formed": 3508,
      "Ġconsiderable": 3509,
      "Ġslow": 3510,
      "oubtedly": 3511,
      "Ġinsist": 3512,
      "Ġconfusion": 3513,
      "ological": 3514,
      "Ġscale": 3515,
      "Ġhearing": 3516,
      "Ġdegener": 3517,
      "Ġgets": 3518,
      "Ġafford": 3519,
      "Ġjudges": 3520,
      "Ġcapacity": 3521,
      "Ġexamples": 3522,
      "Ġawake": 3523,
      "Ġvein": 3524,
      "Ġcreature": 3525,
      "Ġconsequence": 3526,
      "Ġrevol": 3527,
      "Ġservant": 3528,
      "Ġdiseases": 3529,
      "Ġfails": 3530,
      "Ġhost": 3531,
      "Ġcenturies": 3532,
      "Ġmentioned": 3533,
      "Ġraised": 3534,
      "Ġheads": 3535,
      "Ġrepeated": 3536,
      "perhaps": 3537,
      "Ġorgans": 3538,
      "Ġepic": 3539,
      "Ġbrothers": 3540,
      "Ġbrave": 3541,
      "Ġextreme": 3542,
      "Ġlikeness": 3543,
      "Ġobliged": 3544,
      "Ġhunger": 3545,
      "Ġbenefit": 3546,
      "Ġultimate": 3547,
      "Ġsacrifices": 3548,
      "Ġdefend": 3549,
      "Ġemotions": 3550,
      "laws": 3551,
      "Ġriches": 3552,
      "natural": 3553,
      "Ġobey": 3554,
      "Ġaffairs": 3555,
      "Ġsymbol": 3556,
      "Ġeager": 3557,
      "openhauer": 3558,
      "Ġambitious": 3559,
      "Ġaccompan": 3560,
      "\"!": 3561,
      "cp": 3562,
      "cred": 3563,
      "come": 3564,
      "hamed": 3565,
      "lod": 3566,
      "mast": 3567,
      "mission": 3568,
      "nal": 3569,
      "ost": 3570,
      "sis": 3571,
      "uit": 3572,
      "uation": 3573,
      "Ġ9": 3574,
      "Ġast": 3575,
      "Ġach": 3576,
      "Ġtheory": 3577,
      "Ġsis": 3578,
      "Ġborrow": 3579,
      "Ġmir": 3580,
      "Ġmixed": 3581,
      "Ġhidden": 3582,
      "ening": 3583,
      "Ġpos": 3584,
      "Ġinher": 3585,
      "Ġinex": 3586,
      "Ġingen": 3587,
      "Ġche": 3588,
      "Ġcens": 3589,
      "Ġtow": 3590,
      "Ġfain": 3591,
      "Ġfals": 3592,
      "aning": 3593,
      "arious": 3594,
      "Ġlate": 3595,
      "Ġlud": 3596,
      "Ġeight": 3597,
      "Ġends": 3598,
      "asing": 3599,
      "lep": 3600,
      "Ġrej": 3601,
      "Ġrend": 3602,
      "Ġashamed": 3603,
      "ldom": 3604,
      "ids": 3605,
      "Ġsubl": 3606,
      "Ġproud": 3607,
      "usted": 3608,
      "Ġsacred": 3609,
      "Ġtrade": 3610,
      "esty": 3611,
      "using": 3612,
      "Ġseldom": 3613,
      "Ġdeceive": 3614,
      "Ġves": 3615,
      "Ġnearer": 3616,
      "Ġunconscious": 3617,
      "indle": 3618,
      "Ġprohib": 3619,
      "Ġenv": 3620,
      "aped": 3621,
      "Ġobsc": 3622,
      "Ġparty": 3623,
      "Ġartific": 3624,
      "Ġstrict": 3625,
      "uck": 3626,
      "Ġclum": 3627,
      "Ġremind": 3628,
      "Ġrights": 3629,
      "Ġjest": 3630,
      "Ġjourne": 3631,
      "ressed": 3632,
      "Ġearli": 3633,
      "Ġdifferences": 3634,
      "Ġrefer": 3635,
      "Ġappearances": 3636,
      "Ġdrop": 3637,
      "Ġpainful": 3638,
      "Ġpresented": 3639,
      "Ġsheep": 3640,
      "Ġrequest": 3641,
      "Ġviews": 3642,
      "Ġconsideration": 3643,
      "Ġconfined": 3644,
      "Ġfeels": 3645,
      "Ġprofit": 3646,
      "Ġthroughout": 3647,
      "Ġfiner": 3648,
      "Ġoffice": 3649,
      "Ġpractise": 3650,
      "Ġarrive": 3651,
      "Ġhistorical": 3652,
      "Ġfalls": 3653,
      "Ġschopenhauer": 3654,
      "Ġrepresents": 3655,
      "place": 3656,
      "Ġsilence": 3657,
      "Ġadvantages": 3658,
      "Ġcolour": 3659,
      "Ġcurios": 3660,
      "Ġcounter": 3661,
      "Ġdefinition": 3662,
      "Ġdestroyed": 3663,
      "Ġundoubtedly": 3664,
      "Ġpersuade": 3665,
      "Ġempire": 3666,
      "Ġsparta": 3667,
      "Ġfoolish": 3668,
      "Ġcharming": 3669,
      "ropri": 3670,
      "Ġfilled": 3671,
      "Ġprofession": 3672,
      "Ġconcealed": 3673,
      "Ġsixth": 3674,
      "Ġasclep": 3675,
      "Ġarmy": 3676,
      "Ġinterval": 3677,
      "Ġextrem": 3678,
      "Ġwarrior": 3679,
      "Ġcontradiction": 3680,
      "Ġpsycholog": 3681,
      "Ġsuddenly": 3682,
      "Ġneighbour": 3683,
      "Ġinnocent": 3684,
      "Ġobvious": 3685,
      "ĠĠĠĠĠĠĠĠĠĠĠĠĠĠĠĠĠĠĠĠĠĠ": 3686,
      "modern": 3687,
      "Ġstraight": 3688,
      "Ġanalysis": 3689,
      "Ġenthus": 3690,
      "necessary": 3691,
      "Ġhatred": 3692,
      "Ġrisk": 3693,
      "Ġludicr": 3694,
      "Ġjourney": 3695,
      "Ġcuriosity": 3696,
      "aves": 3697,
      "cest": 3698,
      "dra": 3699,
      "free": 3700,
      "iour": 3701,
      "mer": 3702,
      "side": 3703,
      "uing": 3704,
      "yes": 3705,
      "ylus": 3706,
      "zz": 3707,
      "Ġath": 3708,
      "Ġthee": 3709,
      "inations": 3710,
      "rep": 3711,
      "rer": 3712,
      "Ġsan": 3713,
      "Ġsour": 3714,
      "Ġsmo": 3715,
      "ering": 3716,
      "Ġbal": 3717,
      "Ġbird": 3718,
      "Ġmask": 3719,
      "Ġhate": 3720,
      "Ġcure": 3721,
      "Ġtoday": 3722,
      "Ġtoler": 3723,
      "Ġfrequently": 3724,
      "anced": 3725,
      "iced": 3726,
      "icate": 3727,
      "Ġdivers": 3728,
      "arp": 3729,
      "Ġline": 3730,
      "aling": 3731,
      "alous": 3732,
      "ley": 3733,
      "Ġreceiving": 3734,
      "Ġancest": 3735,
      "urity": 3736,
      "Ġsuitable": 3737,
      "ilty": 3738,
      "Ġpriest": 3739,
      "Ġconqu": 3740,
      "Ġconverse": 3741,
      "Ġconceptions": 3742,
      "Ġtrag": 3743,
      "Ġtrial": 3744,
      "alled": 3745,
      "ush": 3746,
      "Ġfrance": 3747,
      "Ġfrag": 3748,
      "Ġship": 3749,
      "Ġvulg": 3750,
      "Ġunited": 3751,
      "ift": 3752,
      "Ġmoreover": 3753,
      "Ġevent": 3754,
      "Ġgreatness": 3755,
      "Ġproved": 3756,
      "Ġenable": 3757,
      "agger": 3758,
      "Ġspace": 3759,
      "Ġspindle": 3760,
      "ield": 3761,
      "these": 3762,
      "Ġimplied": 3763,
      "Ġimplies": 3764,
      "Ġexper": 3765,
      "Ġfeast": 3766,
      "Ġletters": 3767,
      "Ġintended": 3768,
      "Ġreser": 3769,
      "Ġresolution": 3770,
      "Ġpossibly": 3771,
      "Ġdiscord": 3772,
      "Ġreform": 3773,
      "Ġregion": 3774,
      "Ġassent": 3775,
      "Ġhappened": 3776,
      "Ġguilty": 3777,
      "Ġinternal": 3778,
      "Ġimaginary": 3779,
      "Ġheavy": 3780,
      "Ġmusician": 3781,
      "Ġinteresting": 3782,
      "Ġcoar": 3783,
      "Ġconfess": 3784,
      "Ġdram": 3785,
      "Ġprofitable": 3786,
      "Ġremaining": 3787,
      "Ġneeds": 3788,
      "Ġneeded": 3789,
      "Ġsensual": 3790,
      "Ġphysi": 3791,
      "Ġfathers": 3792,
      "Ġtyrants": 3793,
      "Ġacquis": 3794,
      "Ġjudgments": 3795,
      "Ġkept": 3796,
      "Ġremarks": 3797,
      "Ġuntr": 3798,
      "Ġprivile": 3799,
      "Ġseverity": 3800,
      "Ġdecided": 3801,
      "Ġimmoral": 3802,
      "Ġimmense": 3803,
      "Ġstandard": 3804,
      "Ġrecognize": 3805,
      "Ġservants": 3806,
      "Ġabstraction": 3807,
      "Ġraise": 3808,
      "Ġnarrative": 3809,
      "Ġrarely": 3810,
      "Ġcease": 3811,
      "Ġinstruments": 3812,
      "Ġfundamentally": 3813,
      "Ġcivilized": 3814,
      "Ġabstractions": 3815,
      "ocratic": 3816,
      "Ġident": 3817,
      "Ġspartan": 3818,
      "Ġseparate": 3819,
      "Ġhonesty": 3820,
      "Ġessentially": 3821,
      "Ġblessed": 3822,
      "Ġtradition": 3823,
      "Ġpreceding": 3824,
      "Ġmaj": 3825,
      "Ġgranted": 3826,
      "Ġskepticism": 3827,
      "Ġillustration": 3828,
      "Ġsuspic": 3829,
      "Ġinfinite": 3830,
      "Ġintroduced": 3831,
      "Ġhurt": 3832,
      "Ġjews": 3833,
      "Ġalleg": 3834,
      "Ġopportunity": 3835,
      "Ġvessel": 3836,
      "Ġasclepius": 3837,
      "Ġvulgar": 3838,
      ".\"--": 3839,
      "ams": 3840,
      "ef": 3841,
      "ew": 3842,
      "iation": 3843,
      "iant": 3844,
      "look": 3845,
      "nthe": 3846,
      "rus": 3847,
      "right": 3848,
      "ube": 3849,
      "ye": 3850,
      "Ġaver": 3851,
      "Ġwine": 3852,
      "Ġwished": 3853,
      "Ġwave": 3854,
      "Ġsir": 3855,
      "Ġsong": 3856,
      "Ġbind": 3857,
      "Ġphen": 3858,
      "Ġinference": 3859,
      "Ġinev": 3860,
      "Ġcav": 3861,
      "Ġdaughter": 3862,
      "Ġlic": 3863,
      "Ġloss": 3864,
      "Ġeld": 3865,
      "Ġeating": 3866,
      "Ġiv": 3867,
      "omin": 3868,
      "Ġgame": 3869,
      "Ġren": 3870,
      "uting": 3871,
      "Ġhast": 3872,
      "Ġanger": 3873,
      "verty": 3874,
      "ilities": 3875,
      "cho": 3876,
      "Ġprior": 3877,
      "Ġconform": 3878,
      "ulsion": 3879,
      "Ġexagger": 3880,
      "ades": 3881,
      "Ġkn": 3882,
      "--\"": 3883,
      "Ġunnecessary": 3884,
      "astic": 3885,
      "Ġevidence": 3886,
      "Ġenlight": 3887,
      "Ġspite": 3888,
      "Ġpoverty": 3889,
      "Ġtimocracy": 3890,
      "Ġprel": 3891,
      "Ġideals": 3892,
      "Ġfeet": 3893,
      "angled": 3894,
      "Ġaccur": 3895,
      "Ġreasoning": 3896,
      "Ġthinker": 3897,
      "Ġbright": 3898,
      "Ġbrings": 3899,
      "Ġprescribed": 3900,
      "Ġrespons": 3901,
      "Ġsupport": 3902,
      "wealth": 3903,
      "Ġinform": 3904,
      "Ġglad": 3905,
      "Ġcommit": 3906,
      "Ġcommence": 3907,
      "version": 3908,
      "Ġcommonwealth": 3909,
      "Ġasking": 3910,
      "Ġlearnt": 3911,
      "Ġcrown": 3912,
      "Ġinvoluntary": 3913,
      "Ġ12": 3914,
      "Ġ16": 3915,
      "Ġ18": 3916,
      "Ġarguments": 3917,
      "Ġfollowers": 3918,
      "Ġflat": 3919,
      "Ġinsati": 3920,
      "Ġcollect": 3921,
      "Ġconfused": 3922,
      "Ġharmonious": 3923,
      "uctive": 3924,
      "Ġobservation": 3925,
      "Ġutop": 3926,
      "Ġvalues": 3927,
      "Ġdegrees": 3928,
      "Ġdefined": 3929,
      "Ġcircle": 3930,
      "Ġgetting": 3931,
      "Ġcaptain": 3932,
      "Ġdraws": 3933,
      "Ġremarked": 3934,
      "Ġinfluences": 3935,
      "Ġparall": 3936,
      "Ġadequ": 3937,
      "Ġmotives": 3938,
      "Ġhealthy": 3939,
      "Ġrob": 3940,
      "Ġcourageous": 3941,
      "Ġstanding": 3942,
      "Ġholds": 3943,
      "Ġcreated": 3944,
      "Ġpraises": 3945,
      "Ġmonster": 3946,
      "Ġholy": 3947,
      "Ġdisgrace": 3948,
      "Ġnarrow": 3949,
      "Ġmembers": 3950,
      "Ġchanged": 3951,
      "Ġreflections": 3952,
      "Ġsystems": 3953,
      "Ġsteps": 3954,
      "Ġproblems": 3955,
      "Ġdisciples": 3956,
      "Ġsophists": 3957,
      "Ġpunished": 3958,
      "Ġjealous": 3959,
      "regard": 3960,
      "Ġmanifold": 3961,
      "Ġartery": 3962,
      "Ġexercised": 3963,
      "Ġintervals": 3964,
      "Ġsexes": 3965,
      "Ġwarriors": 3966,
      "Ġlacking": 3967,
      "ointed": 3968,
      "interest": 3969,
      "Ġimpulse": 3970,
      "Ġfemale": 3971,
      "Ġconversation": 3972,
      "Ġperplex": 3973,
      "Ġbarbarians": 3974,
      "Ġmysterious": 3975,
      "Ġapplication": 3976,
      "Ġteachers": 3977,
      "Ġpiece": 3978,
      "Ġfestival": 3979,
      "Ġadapted": 3980,
      "Ġpleasant": 3981,
      "Ġformula": 3982,
      "Ġcubed": 3983,
      "whether": 3984,
      "Ġseventh": 3985,
      "Ġsource": 3986,
      "Ġtragic": 3987,
      "Ġphenomen": 3988,
      "acc": 3989,
      "acious": 3990,
      "bu": 3991,
      "bly": 3992,
      "cle": 3993,
      "eous": 3994,
      "fo": 3995,
      "fty": 3996,
      "gu": 3997,
      "lant": 3998,
      "min": 3999,
      "nature": 4000,
      "oint": 4001,
      "ron": 4002,
      "rical": 4003,
      "umpt": 4004,
      "Ġtable": 4005,
      "hered": 4006,
      "Ġaes": 4007,
      "Ġaux": 4008,
      "inity": 4009,
      "rew": 4010,
      "Ġsides": 4011,
      "Ġbreat": 4012,
      "Ġmid": 4013,
      "Ġpubl": 4014,
      "Ġportion": 4015,
      "Ġinqu": 4016,
      "Ġthither": 4017,
      "Ġdress": 4018,
      "Ġdaring": 4019,
      "ority": 4020,
      "Ġlust": 4021,
      "Ġgar": 4022,
      "asp": 4023,
      "lying": 4024,
      "irmed": 4025,
      "ental": 4026,
      "imil": 4027,
      "Ġconver": 4028,
      "Ġlies": 4029,
      "Ġtrain": 4030,
      "Ġwhoever": 4031,
      "Ġsem": 4032,
      "Ġvoluntary": 4033,
      "Ġunfort": 4034,
      "ifying": 4035,
      "Ġjustly": 4036,
      "Ġthence": 4037,
      "Ġench": 4038,
      "Ġago": 4039,
      "Ġagame": 4040,
      "Ġrepro": 4041,
      "Ġappropri": 4042,
      "Ġamount": 4043,
      "iousness": 4044,
      "Ġtext": 4045,
      "uded": 4046,
      "Ġinduced": 4047,
      "Ġaccident": 4048,
      "Ġintemper": 4049,
      "Ġjoy": 4050,
      "Ġspirited": 4051,
      "orses": 4052,
      "Ġbelieves": 4053,
      "Ġcalling": 4054,
      "Ġclearer": 4055,
      "Ġkindred": 4056,
      "Ġoppon": 4057,
      "Ġequals": 4058,
      "Ġdriven": 4059,
      "Ġobjection": 4060,
      "Ġobjections": 4061,
      "Ġcrimin": 4062,
      "Ġreck": 4063,
      "Ġ100": 4064,
      "Ġsynthe": 4065,
      "Ġlooked": 4066,
      "Ġabsence": 4067,
      "Ġinsight": 4068,
      "Ġcontrib": 4069,
      "Ġillusion": 4070,
      "Ġeuropeans": 4071,
      "Ġelsewhere": 4072,
      "hens": 4073,
      "Ġaristocracy": 4074,
      "Ġsensible": 4075,
      "Ġphysicians": 4076,
      "Ġdreams": 4077,
      "Ġerrors": 4078,
      "Ġsolitude": 4079,
      "Ġveins": 4080,
      "ableness": 4081,
      "Ġconclusions": 4082,
      "Ġavar": 4083,
      "atience": 4084,
      "Ġlimited": 4085,
      "Ġinjured": 4086,
      "Ġinjury": 4087,
      "Ġmothers": 4088,
      "Ġpayment": 4089,
      "Ġpreserve": 4090,
      "Ġdarkness": 4091,
      "Ġrepeat": 4092,
      "Ġhusbandman": 4093,
      "Ġwonderful": 4094,
      "Ġexercises": 4095,
      "Ġdialogue": 4096,
      "worth": 4097,
      "Ġathenian": 4098,
      "Ġinstitutions": 4099,
      "Ġdebt": 4100,
      "Ġfifth": 4101,
      "Ġventure": 4102,
      "Ġscholars": 4103,
      "Ġmaterial": 4104,
      "Ġcobbler": 4105,
      "Ġaccomplished": 4106,
      "Ġtastes": 4107,
      "Ġproposal": 4108,
      "mnon": 4109,
      "Ġappetites": 4110,
      "Ġwalk": 4111,
      "Ġphaedrus": 4112,
      "Ġpreparation": 4113,
      "Ġfulf": 4114,
      "Ġdeprived": 4115,
      "Ġdreadful": 4116,
      "Ġwagner": 4117,
      "Ġludicrous": 4118,
      "Ġexperiments": 4119,
      "Ġacquisition": 4120,
      "Ġmajority": 4121,
      "Ġagamemnon": 4122,
      "\":": 4123,
      ".,": 4124,
      "aus": 4125,
      "first": 4126,
      "face": 4127,
      "father": 4128,
      "fied": 4129,
      "ipp": 4130,
      "lar": 4131,
      "lest": 4132,
      "lict": 4133,
      "leness": 4134,
      "och": 4135,
      "ored": 4136,
      "tation": 4137,
      "yr": 4138,
      "herent": 4139,
      "Ġaims": 4140,
      "Ġoh": 4141,
      "inc": 4142,
      "reci": 4143,
      "Ġwaking": 4144,
      "Ġmine": 4145,
      "Ġmach": 4146,
      "Ġmortal": 4147,
      "onism": 4148,
      "Ġhind": 4149,
      "Ġhorr": 4150,
      "Ġhorses": 4151,
      "Ġpup": 4152,
      "itably": 4153,
      "Ġcop": 4154,
      "Ġcry": 4155,
      "Ġcro": 4156,
      "Ġcove": 4157,
      "Ġcamp": 4158,
      "Ġcube": 4159,
      "Ġtouc": 4160,
      "Ġfle": 4161,
      "Ġfix": 4162,
      "Ġthor": 4163,
      "Ġnon": 4164,
      "Ġded": 4165,
      "oras": 4166,
      "orous": 4167,
      "Ġbeat": 4168,
      "Ġlat": 4169,
      "Ġlion": 4170,
      "Ġlaughter": 4171,
      "Ġecon": 4172,
      "oman": 4173,
      "Ġreward": 4174,
      "Ġrevel": 4175,
      "vere": 4176,
      "Ġasce": 4177,
      "ctions": 4178,
      "Ġanew": 4179,
      "verb": 4180,
      "urb": 4181,
      "Ġstar": 4182,
      "iles": 4183,
      "ilful": 4184,
      "Ġlived": 4185,
      "Ġtrust": 4186,
      "Ġtrave": 4187,
      "Ġselection": 4188,
      "Ġalas": 4189,
      "Ġalter": 4190,
      "Ġsharp": 4191,
      "istr": 4192,
      "Ġsole": 4193,
      "iveness": 4194,
      "Ġkant": 4195,
      "Ġanybody": 4196,
      "Ġpho": 4197,
      "Ġdisregard": 4198,
      "Ġperception": 4199,
      "Ġperceived": 4200,
      "Ġproves": 4201,
      "Ġproverb": 4202,
      "ortions": 4203,
      "ortality": 4204,
      "Ġspring": 4205,
      "Ġowes": 4206,
      "unk": 4207,
      "Ġpret": 4208,
      "Ġnowhere": 4209,
      "Ġimpart": 4210,
      "Ġeverybody": 4211,
      "ensive": 4212,
      "Ġindul": 4213,
      "Ġcontest": 4214,
      "Ġcontract": 4215,
      "Ġcompare": 4216,
      "Ġlament": 4217,
      "anged": 4218,
      "Ġreasonings": 4219,
      "Ġgrown": 4220,
      "Ġtwenty": 4221,
      "Ġbrass": 4222,
      "Ġpress": 4223,
      "Ġproportions": 4224,
      "lessness": 4225,
      "Ġlonging": 4226,
      "Ġendure": 4227,
      "Ġolder": 4228,
      "Ġchildhood": 4229,
      "Ġmusical": 4230,
      "Ġreluct": 4231,
      "Ġpursue": 4232,
      "ceivable": 4233,
      "Ġ13": 4234,
      "Ġtempo": 4235,
      "Ġwanted": 4236,
      "Ġimitative": 4237,
      "Ġ25": 4238,
      "Ġelevation": 4239,
      "beian": 4240,
      "belie": 4241,
      "Ġturns": 4242,
      "Ġcost": 4243,
      "Ġreligions": 4244,
      "Ġaccordingly": 4245,
      "Ġconstant": 4246,
      "Ġagreeable": 4247,
      "Ġattend": 4248,
      "Ġdefence": 4249,
      "Ġeffected": 4250,
      "Ġparable": 4251,
      "Ġconstitutions": 4252,
      "Ġantag": 4253,
      "Ġwriter": 4254,
      "Ġconven": 4255,
      "Ġsolution": 4256,
      "Ġdecay": 4257,
      "Ġparticulars": 4258,
      "Ġcommands": 4259,
      "Ġavail": 4260,
      "Ġgolden": 4261,
      "Ġvii": 4262,
      "Ġmathematic": 4263,
      "Ġcurious": 4264,
      "Ġbeneath": 4265,
      "Ġcreate": 4266,
      "Ġassumed": 4267,
      "Ġtreated": 4268,
      "Ġdecline": 4269,
      "Ġmoments": 4270,
      "Ġappeal": 4271,
      "Ġdeveloped": 4272,
      "Ġpreserved": 4273,
      "Ġsignific": 4274,
      "Ġpromise": 4275,
      "riot": 4276,
      "Ġdiam": 4277,
      "Ġtroubles": 4278,
      "Ġpatient": 4279,
      "Ġfighting": 4280,
      "Ġconnected": 4281,
      "Ġhusbandmen": 4282,
      "Ġdeeply": 4283,
      "Ġviolence": 4284,
      "Ġcustoms": 4285,
      "Ġchiefly": 4286,
      "after": 4287,
      "Ġspeculations": 4288,
      "Ġdirected": 4289,
      "Ġimpulses": 4290,
      "Ġinstitution": 4291,
      "Ġmetaphysical": 4292,
      "Ġnoblest": 4293,
      "Ġvaluations": 4294,
      "Ġdependent": 4295,
      "Ġbranch": 4296,
      "Ġbranches": 4297,
      "Ġcomprehended": 4298,
      "Ġarithmetic": 4299,
      "Ġprimitive": 4300,
      "Ġapparently": 4301,
      "Ġextravagant": 4302,
      "Ġluxury": 4303,
      "Ġcalculation": 4304,
      "Ġcontemporaries": 4305,
      "Ġrhetor": 4306,
      "Ġsuspicion": 4307,
      "Ġthorough": 4308,
      "cal": 4309,
      "called": 4310,
      "ging": 4311,
      "mity": 4312,
      "matter": 4313,
      "ump": 4314,
      "val": 4315,
      "war": 4316,
      "why": 4317,
      "Ġverse": 4318,
      "Ġtit": 4319,
      "iny": 4320,
      "Ġwits": 4321,
      "Ġoffic": 4322,
      "atory": 4323,
      "isible": 4324,
      "Ġmale": 4325,
      "Ġmental": 4326,
      "ony": 4327,
      "Ġhym": 4328,
      "Ġpet": 4329,
      "Ġpess": 4330,
      "Ġincon": 4331,
      "Ġinner": 4332,
      "Ġinherent": 4333,
      "Ġcave": 4334,
      "Ġtoil": 4335,
      "Ġfate": 4336,
      "Ġfict": 4337,
      "anim": 4338,
      "Ġnour": 4339,
      "icer": 4340,
      "icus": 4341,
      "icles": 4342,
      "Ġdou": 4343,
      "Ġwhor": 4344,
      "armon": 4345,
      "Ġgather": 4346,
      "Ġgreg": 4347,
      "Ġrecon": 4348,
      "see": 4349,
      "Ġnotes": 4350,
      "Ġnotwith": 4351,
      "Ġstories": 4352,
      "ethe": 4353,
      "ainted": 4354,
      "chylus": 4355,
      "Ġrad": 4356,
      "Ġrati": 4357,
      "Ġsad": 4358,
      "Ġtrying": 4359,
      "Ġexchange": 4360,
      "uses": 4361,
      "Ġseven": 4362,
      "Ġthereof": 4363,
      "Ġdeli": 4364,
      "Ġshr": 4365,
      "Ġshut": 4366,
      "Ġsoil": 4367,
      "Ġcomedy": 4368,
      "Ġard": 4369,
      "Ġunite": 4370,
      "Ġunequ": 4371,
      "Ġunnatural": 4372,
      "umn": 4373,
      "Ġcha": 4374,
      "Ġevident": 4375,
      "Ġprocl": 4376,
      "Ġquant": 4377,
      "Ġener": 4378,
      "Ġenact": 4379,
      "Ġenmity": 4380,
      "Ġreplies": 4381,
      "Ġspot": 4382,
      "Ġappointed": 4383,
      "Ġprete": 4384,
      "oked": 4385,
      "ension": 4386,
      "Ġfeature": 4387,
      "Ġthinkers": 4388,
      "Ġresolved": 4389,
      "Ġplebeian": 4390,
      "irty": 4391,
      "Ġrefr": 4392,
      "contr": 4393,
      "Ġtyp": 4394,
      "Ġassurance": 4395,
      "educated": 4396,
      "abit": 4397,
      "Ġinterrog": 4398,
      "Ġrealize": 4399,
      "Ġdrone": 4400,
      "Ġdrunk": 4401,
      "Ġfinding": 4402,
      "Ġserve": 4403,
      "Ġreco": 4404,
      "Ġ10": 4405,
      "Ġ15": 4406,
      "Ġtemples": 4407,
      "ocre": 4408,
      "Ġmisfort": 4409,
      "Ġlooks": 4410,
      "Ġdetail": 4411,
      "Ġattach": 4412,
      "Ġattack": 4413,
      "Ġwarm": 4414,
      "Ġgoverned": 4415,
      "Ġstrongest": 4416,
      "Ġhearts": 4417,
      "Ġfinished": 4418,
      "Ġrespects": 4419,
      "Ġutmost": 4420,
      "Ġsche": 4421,
      "Ġhears": 4422,
      "Ġconstantly": 4423,
      "Ġstudies": 4424,
      "Ġsensation": 4425,
      "Ġigno": 4426,
      "Ġdisposition": 4427,
      "Ġsmaller": 4428,
      "Ġtalking": 4429,
      "Ġdestruction": 4430,
      "Ġeffects": 4431,
      "Ġcapt": 4432,
      "Ġdrawing": 4433,
      "Ġgram": 4434,
      "Ġleading": 4435,
      "Ġleaders": 4436,
      "Ġtemperate": 4437,
      "Ġsatisfy": 4438,
      "Ġmotive": 4439,
      "Ġreader": 4440,
      "Ġancients": 4441,
      "Ġcontempt": 4442,
      "Ġimmortality": 4443,
      "Ġstands": 4444,
      "Ġcreator": 4445,
      "Ġcompleted": 4446,
      "Ġengaged": 4447,
      "Ġdistinctly": 4448,
      "Ġaffection": 4449,
      "Ġcorrupted": 4450,
      "Ġprovide": 4451,
      "Ġraising": 4452,
      "Ġsuccession": 4453,
      "Ġreflected": 4454,
      "Ġoccurred": 4455,
      "Ġescaped": 4456,
      "Ġlands": 4457,
      "Ġcivilization": 4458,
      "Ġseriousness": 4459,
      "Ġlogical": 4460,
      "Ġlots": 4461,
      "Ġconnection": 4462,
      "Ġvictory": 4463,
      "achesis": 4464,
      "Ġenjoyment": 4465,
      "Ġsoldier": 4466,
      "Ġrhythms": 4467,
      "Ġpilgr": 4468,
      "Ġarteries": 4469,
      "iliaries": 4470,
      "Ġspirituality": 4471,
      "Ġmovement": 4472,
      "Ġmediocre": 4473,
      "Ġregulations": 4474,
      "Ġcontradict": 4475,
      "Ġvariance": 4476,
      "Ġincluded": 4477,
      "Ġcompletely": 4478,
      "Ġexamination": 4479,
      "from": 4480,
      "Ġprepared": 4481,
      "coming": 4482,
      "Ġdomin": 4483,
      "Ġdisguise": 4484,
      "Ġprejudices": 4485,
      "Ġbetray": 4486,
      "Ġdiscussed": 4487,
      "Ġwitness": 4488,
      "Ġassigned": 4489,
      "Ġsafely": 4490,
      "morality": 4491,
      "Ġirrational": 4492,
      "Ġimprovement": 4493,
      "Ġcondemned": 4494,
      "Ġmouth": 4495,
      "Ġdisorder": 4496,
      "Ġrefinement": 4497,
      "Ġeighth": 4498,
      "Ġaverage": 4499,
      "Ġparallel": 4500,
      "guard": 4501,
      "Ġaeschylus": 4502,
      "Ġpessim": 4503,
      "Ġgregarious": 4504,
      "Ġnotwithstanding": 4505,
      "!\"--": 4506,
      "aving": 4507,
      "dog": 4508,
      "every": 4509,
      "gle": 4510,
      "great": 4511,
      "hor": 4512,
      "hand": 4513,
      "happ": 4514,
      "io": 4515,
      "iate": 4516,
      "iump": 4517,
      "kes": 4518,
      "ma": 4519,
      "ole": 4520,
      "ocles": 4521,
      "pers": 4522,
      "pass": 4523,
      "ule": 4524,
      "uces": 4525,
      "uated": 4526,
      "Ġ+": 4527,
      "inine": 4528,
      "Ġwin": 4529,
      "Ġwaste": 4530,
      "Ġsaint": 4531,
      "Ġsitting": 4532,
      "atisf": 4533,
      "athered": 4534,
      "ery": 4535,
      "Ġbow": 4536,
      "Ġmas": 4537,
      "Ġmess": 4538,
      "onides": 4539,
      "encies": 4540,
      "Ġpau": 4541,
      "itation": 4542,
      "itious": 4543,
      "Ġfond": 4544,
      "Ġthy": 4545,
      "Ġthirty": 4546,
      "Ġnap": 4547,
      "org": 4548,
      "llo": 4549,
      "Ġbearing": 4550,
      "Ġlow": 4551,
      "Ġetern": 4552,
      "Ġhege": 4553,
      "Ġhered": 4554,
      "oms": 4555,
      "Ġgathered": 4556,
      "Ġreceives": 4557,
      "Ġassem": 4558,
      "Ġnotice": 4559,
      "Ġur": 4560,
      "Ġoracle": 4561,
      "idently": 4562,
      "Ġforces": 4563,
      "Ġforced": 4564,
      "ode": 4565,
      "Ġstre": 4566,
      "eth": 4567,
      "Ġsuited": 4568,
      "chan": 4569,
      "Ġrig": 4570,
      "Ġlif": 4571,
      "uls": 4572,
      "osp": 4573,
      "osit": 4574,
      "Ġtriump": 4575,
      "think": 4576,
      "Ġmanage": 4577,
      "Ġmob": 4578,
      "Ġmoving": 4579,
      "uss": 4580,
      "Ġven": 4581,
      "Ġvast": 4582,
      "Ġgoal": 4583,
      "Ġgoethe": 4584,
      "Ġsoft": 4585,
      "Ġsolem": 4586,
      "Ġcomfort": 4587,
      "Ġmelod": 4588,
      "Ġmechan": 4589,
      "Ġarch": 4590,
      "âĢĻâĢĶ": 4591,
      "Ġstatement": 4592,
      "Ġuses": 4593,
      "ected": 4594,
      "Ġque": 4595,
      "aud": 4596,
      "Ġenlar": 4597,
      "Ġdesce": 4598,
      "Ġloved": 4599,
      "Ġlofty": 4600,
      "Ġposter": 4601,
      "Ġtimid": 4602,
      "Ġsomewhat": 4603,
      "Ġprec": 4604,
      "Ġprecept": 4605,
      "action": 4606,
      "arest": 4607,
      "Ġcontro": 4608,
      "Ġcompr": 4609,
      "Ġcompet": 4610,
      "Ġstrike": 4611,
      "Ġconsists": 4612,
      "Ġreasonable": 4613,
      "Ġgrasp": 4614,
      "Ġtwice": 4615,
      "Ġclot": 4616,
      "Ġbrut": 4617,
      "Ġinstances": 4618,
      "Ġsupply": 4619,
      "Ġjoin": 4620,
      "Ġdisturb": 4621,
      "Ġperspect": 4622,
      "ression": 4623,
      "Ġpropose": 4624,
      "Ġgenerations": 4625,
      "Ġovercome": 4626,
      "Ġasser": 4627,
      "Ġyourselves": 4628,
      "Ġhappiest": 4629,
      "Ġsimonides": 4630,
      "Ġglory": 4631,
      "Ġacting": 4632,
      "Ġsocratic": 4633,
      "Ġlightly": 4634,
      "Ġblack": 4635,
      "Ġlearns": 4636,
      "Ġseries": 4637,
      "Ġcrow": 4638,
      "Ġcrimes": 4639,
      "Ġinvol": 4640,
      "archy": 4641,
      "Ġdifferently": 4642,
      "Ġ11": 4643,
      "Ġ14": 4644,
      "Ġ17": 4645,
      "Ġ19": 4646,
      "Ġimitations": 4647,
      "Ġ23": 4648,
      "Ġ24": 4649,
      "Ġflow": 4650,
      "Ġflute": 4651,
      "Ġflows": 4652,
      "Ġdescribes": 4653,
      "Ġgovernors": 4654,
      "Ġgovernments": 4655,
      "Ġstrongly": 4656,
      "Ġdrag": 4657,
      "nex": 4658,
      "Ġremained": 4659,
      "Ġexpressed": 4660,
      "Ġexpressly": 4661,
      "ixture": 4662,
      "Ġearthly": 4663,
      "Ġproperly": 4664,
      "Ġutilit": 4665,
      "hension": 4666,
      "Ġaristocratic": 4667,
      "Ġstudied": 4668,
      "Ġadding": 4669,
      "Ġdepreci": 4670,
      "Ġpractical": 4671,
      "Ġpractised": 4672,
      "Ġhomeric": 4673,
      "Ġpaid": 4674,
      "Ġfreemen": 4675,
      "Ġfully": 4676,
      "Ġacquaint": 4677,
      "Ġacquainted": 4678,
      "Ġthirdly": 4679,
      "Ġtruer": 4680,
      "Ġembod": 4681,
      "Ġcommunic": 4682,
      "Ġinclude": 4683,
      "Ġprobable": 4684,
      "spirit": 4685,
      "Ġwriting": 4686,
      "Ġconviction": 4687,
      "Ġsurface": 4688,
      "Ġroad": 4689,
      "Ġcreative": 4690,
      "Ġdevil": 4691,
      "Ġsilent": 4692,
      "Ġrecognise": 4693,
      "Ġreven": 4694,
      "Ġcontinued": 4695,
      "Ġkeeps": 4696,
      "Ġapprove": 4697,
      "Ġrequirements": 4698,
      "Ġranks": 4699,
      "Ġconstraint": 4700,
      "Ġconstructed": 4701,
      "Ġreveal": 4702,
      "Ġlimits": 4703,
      "Ġbreast": 4704,
      "Ġpopulation": 4705,
      "Ġcontains": 4706,
      "Ġdemocratical": 4707,
      "going": 4708,
      "Ġpunishment": 4709,
      "Ġincreasing": 4710,
      "Ġswift": 4711,
      "Ġprofoundly": 4712,
      "Ġgentlemen": 4713,
      "Ġpersuaded": 4714,
      "Ġpatriot": 4715,
      "Ġemployed": 4716,
      "Ġdesirous": 4717,
      "Ġmarry": 4718,
      "Ġinvented": 4719,
      "Ġirony": 4720,
      "Ġdemands": 4721,
      "Ġquickly": 4722,
      "Ġpreceded": 4723,
      "Ġconsistent": 4724,
      "Ġincluding": 4725,
      "Ġhesitating": 4726,
      "work": 4727,
      "Ġpsychology": 4728,
      "Ġathens": 4729,
      "Ġcontented": 4730,
      "Ġdomain": 4731,
      "Ġappreci": 4732,
      "Ġsuggested": 4733,
      "Ġpieces": 4734,
      "Ġreduced": 4735,
      "Ġindependence": 4736,
      "Ġscholar": 4737,
      "Ġfurnish": 4738,
      "Ġexclus": 4739,
      "Ġpuzz": 4740,
      "Ġfanci": 4741,
      "Ġspectator": 4742,
      "Ġfirmly": 4743,
      "Ġsailors": 4744,
      "Ġadopted": 4745,
      "Ġorganization": 4746,
      "Ġsupreme": 4747,
      "Ġartisans": 4748,
      "Ġinhabit": 4749,
      "Ġsprings": 4750,
      "Ġhostile": 4751,
      "Ġaston": 4752,
      "Ġclumsy": 4753,
      "Ġbirds": 4754,
      "Ġallegory": 4755,
      "Ġelder": 4756,
      "Ġinsatiable": 4757,
      "interested": 4758,
      "Ġauxiliaries": 4759,
      "worthy": 4760,
      "Ġmathematician": 4761,
      "Ġthoroughly": 4762,
      "Ġrefrain": 4763,
      "Ġrecollect": 4764,
      "Ġgramm": 4765,
      "Ġsolemn": 4766,
      "Ġposterity": 4767,
      "aest": 4768,
      "aive": 4769,
      "bus": 4770,
      "bled": 4771,
      "born": 4772,
      "cil": 4773,
      "flu": 4774,
      "freedom": 4775,
      "germ": 4776,
      "his": 4777,
      "has": 4778,
      "hum": 4779,
      "iable": 4780,
      "lers": 4781,
      "long": 4782,
      "ming": 4783,
      "ollo": 4784,
      "round": 4785,
      "some": 4786,
      "tous": 4787,
      "uf": 4788,
      "woman": 4789,
      "Ġax": 4790,
      "Ġamp": 4791,
      "Ġaug": 4792,
      "Ġthesis": 4793,
      "inth": 4794,
      "Ġbit": 4795,
      "Ġbond": 4796,
      "Ġpit": 4797,
      "Ġpan": 4798,
      "Ġpull": 4799,
      "itary": 4800,
      "Ġcat": 4801,
      "Ġcred": 4802,
      "Ġcicer": 4803,
      "Ġfier": 4804,
      "Ġthreat": 4805,
      "Ġner": 4806,
      "icy": 4807,
      "Ġdon": 4808,
      "Ġdion": 4809,
      "Ġdil": 4810,
      "arn": 4811,
      "Ġlines": 4812,
      "Ġlung": 4813,
      "Ġlachesis": 4814,
      "Ġeat": 4815,
      "Ġecho": 4816,
      "Ġgree": 4817,
      "Ġgained": 4818,
      "lebr": 4819,
      "Ġrebu": 4820,
      "set": 4821,
      "utr": 4822,
      "imul": 4823,
      "Ġyield": 4824,
      "illed": 4825,
      "Ġstir": 4826,
      "Ġstern": 4827,
      "Ġstages": 4828,
      "Ġstimul": 4829,
      "Ġring": 4830,
      "Ġrough": 4831,
      "Ġwithdra": 4832,
      "Ġsave": 4833,
      "Ġsaved": 4834,
      "Ġtrian": 4835,
      "Ġtrib": 4836,
      "Ġtrace": 4837,
      "Ġathe": 4838,
      "Ġexal": 4839,
      "Ġexile": 4840,
      "Ġaltern": 4841,
      "Ġvac": 4842,
      "Ġsoot": 4843,
      "Ġunion": 4844,
      "Ġnovel": 4845,
      "umer": 4846,
      "Ġworship": 4847,
      "ante": 4848,
      "asting": 4849,
      "Ġplants": 4850,
      "âĢĶâĢĺ": 4851,
      "ander": 4852,
      "Ġmyst": 4853,
      "Ġdesc": 4854,
      "agoras": 4855,
      "Ġloose": 4856,
      "ondition": 4857,
      "unately": 4858,
      "ounds": 4859,
      "Ġimply": 4860,
      "Ġimplant": 4861,
      "Ġteaches": 4862,
      "actions": 4863,
      "Ġspeed": 4864,
      "blance": 4865,
      "Ġoutward": 4866,
      "Ġoutside": 4867,
      "Ġindulg": 4868,
      "Ġaccus": 4869,
      "Ġbroken": 4870,
      "terers": 4871,
      "Ġremote": 4872,
      "Ġdistant": 4873,
      "Ġformed": 4874,
      "Ġprophet": 4875,
      "Ġoverthr": 4876,
      "aved": 4877,
      "lessly": 4878,
      "Ġmodel": 4879,
      "Ġglor": 4880,
      "ignity": 4881,
      "Ġmuses": 4882,
      "Ġrelax": 4883,
      "Ġwrite": 4884,
      "Ġsuffers": 4885,
      "Ġregarding": 4886,
      "Ġcriter": 4887,
      "Ġinvisible": 4888,
      "Ġimitators": 4889,
      "Ġ22": 4890,
      "Ġ26": 4891,
      "Ġ28": 4892,
      "Ġconsidering": 4893,
      "Ġconsiderations": 4894,
      "Ġoriginally": 4895,
      "bell": 4896,
      "Ġcoll": 4897,
      "Ġspeaker": 4898,
      "Ġconflict": 4899,
      "Ġexperienced": 4900,
      "Ġremainder": 4901,
      "Ġtelling": 4902,
      "Ġfriendship": 4903,
      "Ġscene": 4904,
      "Ġdegr": 4905,
      "Ġariston": 4906,
      "Ġputting": 4907,
      "Ġretail": 4908,
      "Ġauthors": 4909,
      "Ġdoubtful": 4910,
      "Ġdoubtless": 4911,
      "Ġaffirmed": 4912,
      "Ġjudged": 4913,
      "Ġjudging": 4914,
      "Ġtruest": 4915,
      "Ġcares": 4916,
      "Ġirre": 4917,
      "Ġattains": 4918,
      "Ġnamely": 4919,
      "Ġstreng": 4920,
      "Ġtransition": 4921,
      "Ġroot": 4922,
      "Ġholding": 4923,
      "ophon": 4924,
      "Ġdevoted": 4925,
      "Ġsuperst": 4926,
      "Ġpursued": 4927,
      "Ġhollow": 4928,
      "Ġimperative": 4929,
      "Ġgrounds": 4930,
      "Ġdesigned": 4931,
      "Ġapollo": 4932,
      "Ġmarriages": 4933,
      "Ġcelebr": 4934,
      "Ġtests": 4935,
      "Ġfavourable": 4936,
      "Ġenjo": 4937,
      "Ġlegislation": 4938,
      "Ġfortunate": 4939,
      "Ġsquared": 4940,
      "Ġsigns": 4941,
      "Ġgifted": 4942,
      "oluntarily": 4943,
      "Ġcorrel": 4944,
      "iasm": 4945,
      "truth": 4946,
      "Ġcomprehens": 4947,
      "Ġoccasionally": 4948,
      "Ġpaths": 4949,
      "Ġexcessive": 4950,
      "Ġpictures": 4951,
      "Ġconvince": 4952,
      "Ġwickedness": 4953,
      "Ġascertain": 4954,
      "Ġtouching": 4955,
      "Ġethical": 4956,
      "Ġmedium": 4957,
      "Ġmediocr": 4958,
      "Ġspeculation": 4959,
      "Ġhesitation": 4960,
      "Ġpythagoreans": 4961,
      "Ġimpression": 4962,
      "Ġfeminine": 4963,
      "Ġindifference": 4964,
      "Ġclaims": 4965,
      "Ġoccupied": 4966,
      "Ġconsciousness": 4967,
      "Ġsolids": 4968,
      "Ġfellows": 4969,
      "Ġelevate": 4970,
      "Ġadditional": 4971,
      "Ġintroduce": 4972,
      "Ġbreaks": 4973,
      "Ġindependent": 4974,
      "Ġminis": 4975,
      "Ġmarket": 4976,
      "Ġpenetr": 4977,
      "Ġmoderation": 4978,
      "Ġcourt": 4979,
      "Ġcourts": 4980,
      "Ġdeeds": 4981,
      "Ġunseen": 4982,
      "Ġneglected": 4983,
      "Ġhopes": 4984,
      "Ġindignant": 4985,
      "Ġsituation": 4986,
      "Ġsalvation": 4987,
      "Ġinspired": 4988,
      "Ġdemonstrations": 4989,
      "Ġfunctions": 4990,
      "Ġmutual": 4991,
      "Ġesteemed": 4992,
      "Ġmaxims": 4993,
      "Ġinterpreter": 4994,
      "Ġenslaved": 4995,
      "Ġsubstance": 4996,
      "Ġborrowed": 4997,
      "Ġinherited": 4998,
      "Ġrendered": 4999,
      "Ġsublime": 5000,
      "Ġenvy": 5001,
      "Ġextremes": 5002,
      "Ġpsychologist": 5003,
      "Ġenthusiasm": 5004,
      "Ġreserved": 5005,
      "Ġcoarse": 5006,
      "Ġdramatic": 5007,
      "Ġrenoun": 5008,
      "Ġpriori": 5009,
      "Ġcommencement": 5010,
      "Ġphenomena": 5011,
      "Ġenchant": 5012,
      "Ġintemperance": 5013,
      "Ġcovetous": 5014,
      "Ġdiamet": 5015,
      "Ġdouble": 5016,
      "Ġratio": 5017,
      "Ġchaos": 5018,
      "control": 5019,
      "Ġmisfortune": 5020,
      "Ġscheme": 5021,
      "Ġignoble": 5022,
      "Ġnapole": 5023,
      "Ġcrowd": 5024,
      "Ġinhabitants": 5025,
      "Ġdionys": 5026,
      "Ġgreece": 5027,
      "Ġwithdraw": 5028,
      "Ġtriangle": 5029,
      "Ġcriterion": 5030,
      "\"?": 5031,
      ",'": 5032,
      "che": 5033,
      "can": 5034,
      "fa": 5035,
      "gation": 5036,
      "have": 5037,
      "iot": 5038,
      "my": 5039,
      "more": 5040,
      "macy": 5041,
      "pol": 5042,
      "peri": 5043,
      "ror": 5044,
      "riety": 5045,
      "tic": 5046,
      "tled": 5047,
      "uits": 5048,
      "vous": 5049,
      "would": 5050,
      "Ġed": 5051,
      "Ġvers": 5052,
      "Ġted": 5053,
      "Ġtables": 5054,
      "Ġaut": 5055,
      "Ġaid": 5056,
      "Ġaud": 5057,
      "Ġtheology": 5058,
      "inous": 5059,
      "Ġoffered": 5060,
      "isen": 5061,
      "isure": 5062,
      "isms": 5063,
      "Ġbot": 5064,
      "Ġbac": 5065,
      "Ġmur": 5066,
      "Ġhoney": 5067,
      "Ġhours": 5068,
      "Ġpomp": 5069,
      "itute": 5070,
      "Ġinfect": 5071,
      "Ġinward": 5072,
      "Ġfaint": 5073,
      "ica": 5074,
      "Ġdull": 5075,
      "Ġdimin": 5076,
      "arce": 5077,
      "ariness": 5078,
      "Ġlosing": 5079,
      "Ġegy": 5080,
      "Ġix": 5081,
      "Ġhealing": 5082,
      "otion": 5083,
      "omme": 5084,
      "Ġreference": 5085,
      "vey": 5086,
      "utable": 5087,
      "Ġasia": 5088,
      "Ġascribed": 5089,
      "Ġweight": 5090,
      "imately": 5091,
      "idly": 5092,
      "Ġstat": 5093,
      "Ġsting": 5094,
      "Ġstay": 5095,
      "iling": 5096,
      "ching": 5097,
      "Ġrange": 5098,
      "Ġriver": 5099,
      "Ġprud": 5100,
      "Ġconnex": 5101,
      "keep": 5102,
      "Ġexpe": 5103,
      "ushed": 5104,
      "quity": 5105,
      "Ġframed": 5106,
      "Ġsell": 5107,
      "Ġseason": 5108,
      "ading": 5109,
      "Ġdeline": 5110,
      "Ġtheirs": 5111,
      "Ġvig": 5112,
      "Ġvoy": 5113,
      "Ġvices": 5114,
      "Ġmeals": 5115,
      "lian": 5116,
      "Ġarose": 5117,
      "Ġarisen": 5118,
      "Ġunav": 5119,
      "Ġnobody": 5120,
      "ume": 5121,
      "ifies": 5122,
      "antom": 5123,
      "Ġchose": 5124,
      "akers": 5125,
      "Ġjustified": 5126,
      "Ġdisag": 5127,
      "Ġpermit": 5128,
      "Ġquiet": 5129,
      "Ġenorm": 5130,
      "Ġaged": 5131,
      "aging": 5132,
      "Ġrepose": 5133,
      "Ġ(âĢĺ": 5134,
      "Ġamuse": 5135,
      "Ġparties": 5136,
      "Ġpartial": 5137,
      "Ġtender": 5138,
      "Ġtends": 5139,
      "Ġexpedi": 5140,
      "ibilities": 5141,
      "Ġundert": 5142,
      "Ġleaves": 5143,
      "Ġleisure": 5144,
      "Ġfell": 5145,
      "Ġindustr": 5146,
      "Ġindicated": 5147,
      "Ġstrife": 5148,
      "Ġconsp": 5149,
      "ferences": 5150,
      "Ġbrutes": 5151,
      "Ġprescrib": 5152,
      "Ġinstruction": 5153,
      "Ġsupplied": 5154,
      "Ġjes": 5155,
      "nothing": 5156,
      "aming": 5157,
      "Ġsubd": 5158,
      "Ġprophe": 5159,
      "Ġproposition": 5160,
      "Ġthrow": 5161,
      "Ġoverlook": 5162,
      "Ġfarther": 5163,
      "aviour": 5164,
      "Ġmodest": 5165,
      "Ġassimil": 5166,
      "Ġnorth": 5167,
      "lesh": 5168,
      "Ġbelieving": 5169,
      "Ġlongest": 5170,
      "Ġhappier": 5171,
      "Ġmighty": 5172,
      "Ġcharms": 5173,
      "Ġruled": 5174,
      "Ġglorious": 5175,
      "Ġsecure": 5176,
      "Ġsuffe": 5177,
      "Ġpainting": 5178,
      "Ġhereafter": 5179,
      "Ġobjective": 5180,
      "Ġrecur": 5181,
      "Ġinval": 5182,
      "athol": 5183,
      "Ġ20": 5184,
      "Ġflour": 5185,
      "Ġflock": 5186,
      "while": 5187,
      "Ġattached": 5188,
      "Ġwars": 5189,
      "Ġabsor": 5190,
      "Ġinsists": 5191,
      "Ġinsolence": 5192,
      "Ġcoinc": 5193,
      "Ġconfidence": 5194,
      "Ġpreviously": 5195,
      "Ġbadly": 5196,
      "ucture": 5197,
      "uctions": 5198,
      "Ġqualified": 5199,
      "Ġfinest": 5200,
      "Ġcareful": 5201,
      "Ġscorn": 5202,
      "Ġscarce": 5203,
      "knowledge": 5204,
      "Ġputs": 5205,
      "Ġsensitive": 5206,
      "Ġarranged": 5207,
      "Ġdispl": 5208,
      "Ġkeen": 5209,
      "Ġsingular": 5210,
      "Ġleader": 5211,
      "Ġgrowing": 5212,
      "Ġdecide": 5213,
      "Ġpraised": 5214,
      "Ġmiserly": 5215,
      "Ġskilful": 5216,
      "Ġadmire": 5217,
      "Ġadmitting": 5218,
      "Ġwealthy": 5219,
      "Ġfailed": 5220,
      "Ġpurely": 5221,
      "Ġmonstr": 5222,
      "Ġcompel": 5223,
      "Ġreturning": 5224,
      "Ġcurrent": 5225,
      "Ġdogm": 5226,
      "Ġcreations": 5227,
      "Ġsooner": 5228,
      "Ġdisgust": 5229,
      "Ġassuming": 5230,
      "Ġtreatise": 5231,
      "Ġdelighted": 5232,
      "Ġdeclare": 5233,
      "Ġgeometrical": 5234,
      "Ġyea": 5235,
      "Ġuncondition": 5236,
      "Ġdiscoveries": 5237,
      "philosop": 5238,
      "Ġwillingly": 5239,
      "Ġhencefor": 5240,
      "Ġfools": 5241,
      "Ġconcealment": 5242,
      "Ġmadness": 5243,
      "Ġseparates": 5244,
      "Ġdissolution": 5245,
      "Ġdespise": 5246,
      "letes": 5247,
      "Ġdeeper": 5248,
      "Ġattempting": 5249,
      "Ġestablish": 5250,
      "Ġimperfection": 5251,
      "Ġmarvel": 5252,
      "Ġcombined": 5253,
      "Ġcomparative": 5254,
      "Ġblessings": 5255,
      "Ġcriticism": 5256,
      "Ġsickly": 5257,
      "Ġnurture": 5258,
      "Ġcarrying": 5259,
      "Ġexceptional": 5260,
      "Ġlaughing": 5261,
      "Ġdwelling": 5262,
      "Ġexamine": 5263,
      "Ġbanish": 5264,
      "Ġoccupation": 5265,
      "Ġschools": 5266,
      "Ġperpet": 5267,
      "Ġprepare": 5268,
      "Ġmerc": 5269,
      "Ġneighb": 5270,
      "Ġapprehe": 5271,
      "Ġentertained": 5272,
      "Ġinnocence": 5273,
      "lands": 5274,
      "Ġemotion": 5275,
      "Ġintroduction": 5276,
      "Ġfifty": 5277,
      "Ġdisguised": 5278,
      "Ġprejudice": 5279,
      "Ġmoderate": 5280,
      "Ġmisunderstanding": 5281,
      "holy": 5282,
      "Ġcraft": 5283,
      "Ġforbidden": 5284,
      "Ġencoura": 5285,
      "Ġmaterials": 5286,
      "Ġabsurdity": 5287,
      "Ġindignation": 5288,
      "Ġshoem": 5289,
      "Ġadopt": 5290,
      "Ġsurprising": 5291,
      "Ġassertion": 5292,
      "Ġ216": 5293,
      "Ġsupremacy": 5294,
      "Ġtranslated": 5295,
      "Ġinconsistency": 5296,
      "hausted": 5297,
      "Ġmagnificence": 5298,
      "Ġdaily": 5299,
      "Ġslowly": 5300,
      "master": 5301,
      "Ġsister": 5302,
      "Ġmirror": 5303,
      "Ġingenious": 5304,
      "Ġtown": 5305,
      "Ġrejo": 5306,
      "Ġearlier": 5307,
      "Ġathletes": 5308,
      "Ġcavity": 5309,
      "Ġlicent": 5310,
      "Ġflatterers": 5311,
      "umption": 5312,
      "Ġreckoned": 5313,
      "Ġcrooked": 5314,
      "Ġrevelation": 5315,
      "Ġsolely": 5316,
      "Ġcontracts": 5317,
      "belief": 5318,
      "Ġantagonism": 5319,
      "Ġwhorl": 5320,
      "dogs": 5321,
      "Ġmelody": 5322,
      "Ġbrutal": 5323,
      "Ġutilitarian": 5324,
      "Ġrecollection": 5325,
      "german": 5326,
      "Ġcicero": 5327,
      "Ġlungs": 5328,
      "Ġnapoleon": 5329,
      "Ġbacon": 5330,
      "Ġegypt": 5331,
      "Ġunavoid": 5332,
      "):": 5333,
      ",âĢĿ": 5334,
      "29": 5335,
      "?\"--": 5336,
      "aits": 5337,
      "book": 5338,
      "cher": 5339,
      "cause": 5340,
      "eal": 5341,
      "eared": 5342,
      "ien": 5343,
      "ked": 5344,
      "mind": 5345,
      "might": 5346,
      "nant": 5347,
      "oom": 5348,
      "oke": 5349,
      "pres": 5350,
      "pro": 5351,
      "sm": 5352,
      "tom": 5353,
      "tim": 5354,
      "ties": 5355,
      "xious": 5356,
      "Ġtill": 5357,
      "Ġtear": 5358,
      "Ġtact": 5359,
      "Ġtenth": 5360,
      "Ġtheat": 5361,
      "Ġoly": 5362,
      "Ġomitted": 5363,
      "iner": 5364,
      "inent": 5365,
      "Ġwret": 5366,
      "Ġbase": 5367,
      "Ġburn": 5368,
      "Ġmill": 5369,
      "onists": 5370,
      "Ġhymn": 5371,
      "enment": 5372,
      "Ġpig": 5373,
      "Ġpour": 5374,
      "Ġpatience": 5375,
      "ital": 5376,
      "iture": 5377,
      "itate": 5378,
      "itated": 5379,
      "Ġcaste": 5380,
      "Ġcogn": 5381,
      "Ġthie": 5382,
      "anes": 5383,
      "Ġnaive": 5384,
      "icted": 5385,
      "icide": 5386,
      "Ġdor": 5387,
      "Ġdignity": 5388,
      "Ġisol": 5389,
      "Ġlink": 5390,
      "Ġecc": 5391,
      "Ġego": 5392,
      "Ġgaz": 5393,
      "lete": 5394,
      "leep": 5395,
      "irable": 5396,
      "Ġug": 5397,
      "Ġorn": 5398,
      "Ġordered": 5399,
      "Ġann": 5400,
      "Ġwear": 5401,
      "Ġweep": 5402,
      "Ġweaken": 5403,
      "imp": 5404,
      "idious": 5405,
      "ills": 5406,
      "Ġstings": 5407,
      "Ġstock": 5408,
      "Ġstones": 5409,
      "Ġsust": 5410,
      "char": 5411,
      "Ġpros": 5412,
      "Ġwills": 5413,
      "Ġtheme": 5414,
      "Ġtried": 5415,
      "Ġally": 5416,
      "Ġallusion": 5417,
      "ests": 5418,
      "ateful": 5419,
      "Ġmoon": 5420,
      "quence": 5421,
      "Ġsend": 5422,
      "Ġsevere": 5423,
      "Ġwheel": 5424,
      "Ġdepe": 5425,
      "Ġdefic": 5426,
      "Ġdeception": 5427,
      "Ġdeceiving": 5428,
      "Ġshakes": 5429,
      "istics": 5430,
      "Ġviz": 5431,
      "Ġsof": 5432,
      "oused": 5433,
      "Ġuncon": 5434,
      "Ġunholy": 5435,
      "umes": 5436,
      "aked": 5437,
      "Ġabund": 5438,
      "tains": 5439,
      "Ġphil": 5440,
      "Ġevidently": 5441,
      "Ġdiscl": 5442,
      "Ġproc": 5443,
      "Ġenab": 5444,
      "socr": 5445,
      "Ġpoems": 5446,
      "acing": 5447,
      "Ġowners": 5448,
      "Ġprem": 5449,
      "Ġimpose": 5450,
      "Ġimpiety": 5451,
      "inking": 5452,
      "Ġexped": 5453,
      "Ġartistic": 5454,
      "udes": 5455,
      "ensed": 5456,
      "Ġfee": 5457,
      "Ġindis": 5458,
      "Ġcompulsion": 5459,
      "Ġstrive": 5460,
      "Ġstrings": 5461,
      "Ġstrains": 5462,
      "Ġstruck": 5463,
      "Ġstructure": 5464,
      "Ġconsent": 5465,
      "ucing": 5466,
      "Ġcloud": 5467,
      "Ġfoll": 5468,
      "Ġbride": 5469,
      "Ġbrief": 5470,
      "Ġorders": 5471,
      "Ġinstant": 5472,
      "Ġremnant": 5473,
      "Ġsupposition": 5474,
      "ishness": 5475,
      "Ġdistract": 5476,
      "note": 5477,
      "Ġsubmit": 5478,
      "Ġproposes": 5479,
      "Ġpropriety": 5480,
      "Ġthrice": 5481,
      "Ġthrows": 5482,
      "Ġlawless": 5483,
      "Ġrefusing": 5484,
      "Ġcharge": 5485,
      "Ġguess": 5486,
      "Ġpoetical": 5487,
      "ilebus": 5488,
      "Ġinterl": 5489,
      "Ġinterrupt": 5490,
      "Ġacts": 5491,
      "Ġactor": 5492,
      "Ġactive": 5493,
      "Ġfounders": 5494,
      "Ġworkers": 5495,
      "Ġrelates": 5496,
      "Ġrelated": 5497,
      "Ġlighter": 5498,
      "Ġblamed": 5499,
      "ferred": 5500,
      "Ġsubjection": 5501,
      "Ġlesson": 5502,
      "Ġpurity": 5503,
      "tenance": 5504,
      "Ġcrime": 5505,
      "Ġpolity": 5506,
      "Ġrecently": 5507,
      "Ġlastly": 5508,
      "Ġrequiring": 5509,
      "Ġtemple": 5510,
      "Ġmisch": 5511,
      "Ġsympt": 5512,
      "Ġwanton": 5513,
      "Ġincomp": 5514,
      "Ġstatesmen": 5515,
      "Ġattitude": 5516,
      "Ġcharacteristics": 5517,
      "Ġadvice": 5518,
      "Ġpoliticians": 5519,
      "Ġinsens": 5520,
      "Ġcover": 5521,
      "Ġcook": 5522,
      "Ġanswering": 5523,
      "Ġexpressions": 5524,
      "Ġsimplest": 5525,
      "Ġfamil": 5526,
      "Ġaristoph": 5527,
      "Ġsights": 5528,
      "Ġstudents": 5529,
      "Ġproceeding": 5530,
      "Ġaddress": 5531,
      "Ġvariously": 5532,
      "Ġdefine": 5533,
      "Ġyounger": 5534,
      "Ġdispute": 5535,
      "suf": 5536,
      "Ġtalent": 5537,
      "Ġdestiny": 5538,
      "Ġdenied": 5539,
      "Ġdownwards": 5540,
      "idding": 5541,
      "Ġmaintenance": 5542,
      "Ġcommunism": 5543,
      "Ġdetermining": 5544,
      "Ġprobability": 5545,
      "Ġmotley": 5546,
      "Ġconstituted": 5547,
      "Ġsentence": 5548,
      "orrows": 5549,
      "Ġsolon": 5550,
      "Ġsurm": 5551,
      "Ġsurround": 5552,
      "Ġsufferings": 5553,
      "Ġseverally": 5554,
      "Ġdecis": 5555,
      "Ġdecision": 5556,
      "Ġroom": 5557,
      "Ġrichard": 5558,
      "Ġveil": 5559,
      "Ġbehaviour": 5560,
      "Ġgains": 5561,
      "Ġpraising": 5562,
      "Ġsympath": 5563,
      "Ġspecially": 5564,
      "Ġcontinually": 5565,
      "Ġcontinuous": 5566,
      "Ġadmin": 5567,
      "Ġrepresentation": 5568,
      "Ġdistinctions": 5569,
      "Ġkeeping": 5570,
      "Ġcompels": 5571,
      "Ġcolumn": 5572,
      "Ġuniversals": 5573,
      "Ġreturns": 5574,
      "Ġmentioning": 5575,
      "Ġsuccessful": 5576,
      "Ġconstrained": 5577,
      "Ġdestroying": 5578,
      "Ġnarration": 5579,
      "Ġbringing": 5580,
      "noble": 5581,
      "Ġdemocrat": 5582,
      "Ġlegislators": 5583,
      "Ġrunning": 5584,
      "Ġprompt": 5585,
      "Ġopenly": 5586,
      "Ġattribute": 5587,
      "Ġpunish": 5588,
      "Ġderive": 5589,
      "Ġproduction": 5590,
      "Ġprevails": 5591,
      "Ġdiverse": 5592,
      "ocratical": 5593,
      "Ġromant": 5594,
      "Ġbeds": 5595,
      "Ġcombinations": 5596,
      "Ġviolent": 5597,
      "Ġviolation": 5598,
      "Ġcustomary": 5599,
      "Ġnurse": 5600,
      "Ġincludes": 5601,
      "Ġhesitate": 5602,
      "Ġbeasts": 5603,
      "frie": 5604,
      "Ġbanished": 5605,
      "Ġretains": 5606,
      "Ġretained": 5607,
      "Ġextended": 5608,
      "Ġteaching": 5609,
      "Ġproduced": 5610,
      "Ġsacrificed": 5611,
      "Ġdebts": 5612,
      "Ġnobler": 5613,
      "Ġgrandfather": 5614,
      "Ġsavage": 5615,
      "Ġmisunderstood": 5616,
      "Ġfavourite": 5617,
      "Ġstarting": 5618,
      "Ġsuspicious": 5619,
      "Ġantiquity": 5620,
      "Ġsucceeded": 5621,
      "Ġfitted": 5622,
      "Ġfancies": 5623,
      "Ġprimary": 5624,
      "Ġdefects": 5625,
      "Ġdishonour": 5626,
      "Ġclosely": 5627,
      "Ġendeavour": 5628,
      "Ġhoped": 5629,
      "Ġsailor": 5630,
      "Ġcomplain": 5631,
      "Ġattracted": 5632,
      "aemon": 5633,
      "Ġexecution": 5634,
      "Ġstranger": 5635,
      "Ġarrangement": 5636,
      "Ġinvestigation": 5637,
      "Ġprisoners": 5638,
      "Ġunsk": 5639,
      "Ġartisan": 5640,
      "Ġmaxim": 5641,
      "Ġiii": 5642,
      "Ġarbitrary": 5643,
      "Ġmagnificent": 5644,
      "Ġenslave": 5645,
      "Ġprohibited": 5646,
      "Ġartificial": 5647,
      "Ġsanction": 5648,
      "Ġancestors": 5649,
      "Ġhurtful": 5650,
      "Ġvessels": 5651,
      "Ġbinding": 5652,
      "Ġinevitably": 5653,
      "Ġresponsibility": 5654,
      "foot": 5655,
      "Ġbreath": 5656,
      "Ġmidst": 5657,
      "Ġsemi": 5658,
      "Ġappropriate": 5659,
      "Ġaccidental": 5660,
      "Ġopponents": 5661,
      "Ġcriminal": 5662,
      "Ġfulfil": 5663,
      "ipped": 5664,
      "Ġtouches": 5665,
      "Ġsignificance": 5666,
      "Ġtroublesome": 5667,
      "Ġhymene": 5668,
      "Ġmascul": 5669,
      "Ġhegel": 5670,
      "Ġtriumph": 5671,
      "Ġprecepts": 5672,
      "Ġaxis": 5673,
      "Ġaugust": 5674,
      "Ġcelebrated": 5675,
      "Ġmediocrity": 5676,
      "Ġconnexion": 5677,
      "Ġdisagree": 5678,
      "Ġprophets": 5679,
      "Ġolymp": 5680,
      "Ġenabled": 5681,
      "!âĢĻ": 5682,
      "\".": 5683,
      ")--": 5684,
      ".;": 5685,
      "ais": 5686,
      "bre": 5687,
      "certain": 5688,
      "cular": 5689,
      "end": 5690,
      "ego": 5691,
      "even": 5692,
      "fig": 5693,
      "ghed": 5694,
      "hist": 5695,
      "harmon": 5696,
      "iast": 5697,
      "iance": 5698,
      "lasting": 5699,
      "rance": 5700,
      "sing": 5701,
      "sci": 5702,
      "ugn": 5703,
      "vent": 5704,
      "vest": 5705,
      "vable": 5706,
      "ze": 5707,
      "Î±": 5708,
      "Ġ[": 5709,
      "Ġ...": 5710,
      "Ġomit": 5711,
      "Ġomission": 5712,
      "ref": 5713,
      "Ġwat": 5714,
      "Ġwol": 5715,
      "Ġwings": 5716,
      "Ġwide": 5717,
      "Ġwounded": 5718,
      "Ġsen": 5719,
      "Ġsic": 5720,
      "Ġsorrows": 5721,
      "Ġoffe": 5722,
      "atient": 5723,
      "isy": 5724,
      "Ġbast": 5725,
      "Ġbids": 5726,
      "Ġhire": 5727,
      "Ġhated": 5728,
      "Ġpul": 5729,
      "Ġpious": 5730,
      "Ġparr": 5731,
      "Ġpale": 5732,
      "Ġpush": 5733,
      "itan": 5734,
      "itus": 5735,
      "Ġinse": 5736,
      "Ġinversion": 5737,
      "Ġcou": 5738,
      "Ġcured": 5739,
      "Ġcaught": 5740,
      "Ġcatch": 5741,
      "Ġcathol": 5742,
      "Ġtool": 5743,
      "Ġtoils": 5744,
      "Ġfing": 5745,
      "Ġflesh": 5746,
      "Ġthread": 5747,
      "ancing": 5748,
      "edies": 5749,
      "Ġnaked": 5750,
      "Ġdy": 5751,
      "Ġdance": 5752,
      "oration": 5753,
      "orus": 5754,
      "orter": 5755,
      "orms": 5756,
      "orily": 5757,
      "Ġbears": 5758,
      "Ġwhis": 5759,
      "Ġloud": 5760,
      "Ġheir": 5761,
      "Ġhera": 5762,
      "otes": 5763,
      "Ġgho": 5764,
      "asuring": 5765,
      "ald": 5766,
      "alty": 5767,
      "lend": 5768,
      "Ġrecl": 5769,
      "Ġreign": 5770,
      "Ġreapp": 5771,
      "uteness": 5772,
      "Ġasleep": 5773,
      "entive": 5774,
      "iders": 5775,
      "illes": 5776,
      "illing": 5777,
      "Ġstone": 5778,
      "Ġstamp": 5779,
      "Ġital": 5780,
      "Ġrage": 5781,
      "Ġrising": 5782,
      "Ġrival": 5783,
      "Ġlips": 5784,
      "Ġtroy": 5785,
      "Ġatrop": 5786,
      "Ġmoved": 5787,
      "Ġfruit": 5788,
      "Ġfractions": 5789,
      "ads": 5790,
      "Ġalo": 5791,
      "ivis": 5792,
      "Ġmeasuring": 5793,
      "life": 5794,
      "Ġdoors": 5795,
      "Ġintu": 5796,
      "Ġunex": 5797,
      "Ġunworthy": 5798,
      "Ġchains": 5799,
      "racies": 5800,
      "Ġplant": 5801,
      "Ġplenty": 5802,
      "Ġabode": 5803,
      "Ġdisen": 5804,
      "Ġperv": 5805,
      "Ġpermission": 5806,
      "Ġusing": 5807,
      "Ġenge": 5808,
      "Ġenumer": 5809,
      "ague": 5810,
      "Ġloft": 5811,
      "Ġreport": 5812,
      "Ġrepud": 5813,
      "Ġsouth": 5814,
      "Ġspent": 5815,
      "Ġpoison": 5816,
      "Ġapplies": 5817,
      "unci": 5818,
      "Ġsomewhere": 5819,
      "Ġprey": 5820,
      "irect": 5821,
      "Ġimpatient": 5822,
      "Ġpartners": 5823,
      "Ġteeth": 5824,
      "Ġdiff": 5825,
      "Ġexpand": 5826,
      "Ġspell": 5827,
      "uding": 5828,
      "arers": 5829,
      "Ġoutline": 5830,
      "Ġindic": 5831,
      "Ġcontention": 5832,
      "Ġcompose": 5833,
      "Ġcompares": 5834,
      "Ġevening": 5835,
      "Ġstri": 5836,
      "Ġconsiders": 5837,
      "Ġaccum": 5838,
      "Ġgrief": 5839,
      "Ġcloth": 5840,
      "Ġclosed": 5841,
      "Ġpleased": 5842,
      "Ġdistrib": 5843,
      "Ġpersist": 5844,
      "Ġhumble": 5845,
      "ounted": 5846,
      "Ġgenerated": 5847,
      "Ġthrown": 5848,
      "Ġovert": 5849,
      "Ġmoralists": 5850,
      "Ġorderly": 5851,
      "Ġyours": 5852,
      "Ġappearing": 5853,
      "Ġglance": 5854,
      "Ġrealm": 5855,
      "Ġactors": 5856,
      "Ġboast": 5857,
      "Ġharsh": 5858,
      "Ġnewly": 5859,
      "Ġworking": 5860,
      "Ġimagines": 5861,
      "ysse": 5862,
      "Ġlessons": 5863,
      "Ġpurgation": 5864,
      "Ġdivide": 5865,
      "Ġpolicy": 5866,
      "Ġeverlasting": 5867,
      "Ġargues": 5868,
      "Ġtempers": 5869,
      "Ġmission": 5870,
      "Ġpeoples": 5871,
      "Ġimitating": 5872,
      "Ġ29": 5873,
      "Ġsecondary": 5874,
      "Ġflower": 5875,
      "Ġmusicians": 5876,
      "erring": 5877,
      "Ġslain": 5878,
      "Ġwarlike": 5879,
      "Ġextingu": 5880,
      "Ġadvoc": 5881,
      "Ġmetre": 5882,
      "Ġelic": 5883,
      "Ġbadness": 5884,
      "Ġrestored": 5885,
      "Ġexpresses": 5886,
      "Ġwisest": 5887,
      "Ġopposites": 5888,
      "Ġdoubted": 5889,
      "Ġobserving": 5890,
      "Ġrespectable": 5891,
      "Ġcareless": 5892,
      "Ġcarefully": 5893,
      "Ġfalsely": 5894,
      "Ġproceeded": 5895,
      "Ġdepths": 5896,
      "Ġsensations": 5897,
      "supp": 5898,
      "Ġsins": 5899,
      "Ġhistor": 5900,
      "Ġdestitute": 5901,
      "Ġdenial": 5902,
      "Ġfalling": 5903,
      "Ġchristians": 5904,
      "Ġerrone": 5905,
      "Ġinstinctively": 5906,
      "Ġinclination": 5907,
      "Ġmotions": 5908,
      "Ġattaining": 5909,
      "Ġantit": 5910,
      "Ġsets": 5911,
      "Ġsetting": 5912,
      "Ġsettled": 5913,
      "Ġconvention": 5914,
      "Ġtransferred": 5915,
      "Ġmastery": 5916,
      "Ġconcerns": 5917,
      "Ġwisely": 5918,
      "Ġplays": 5919,
      "play": 5920,
      "Ġveiled": 5921,
      "Ġdevotion": 5922,
      "iaeus": 5923,
      "Ġdistinguishes": 5924,
      "Ġcommanding": 5925,
      "Ġshowing": 5926,
      "Ġsuperflu": 5927,
      "Ġsky": 5928,
      "Ġadmission": 5929,
      "Ġfailure": 5930,
      "Ġcompanion": 5931,
      "Ġforeground": 5932,
      "Ġbeliefs": 5933,
      "Ġanaly": 5934,
      "Ġaffections": 5935,
      "Ġcaused": 5936,
      "Ġcentre": 5937,
      "Ġapproved": 5938,
      "Ġprovision": 5939,
      "until": 5940,
      "Ġcounse": 5941,
      "Ġdesigns": 5942,
      "Ġdesignated": 5943,
      "Ġprotest": 5944,
      "Ġprotagoras": 5945,
      "Ġconstruction": 5946,
      "Ġassumes": 5947,
      "Ġdelights": 5948,
      "Ġdialectical": 5949,
      "Ġdialectician": 5950,
      "Ġmemor": 5951,
      "Ġtested": 5952,
      "Ġadvantageous": 5953,
      "Ġbuy": 5954,
      "Ġbarren": 5955,
      "Ġpreserves": 5956,
      "Ġpreservation": 5957,
      "Ġsophocles": 5958,
      "Ġopening": 5959,
      "Ġoccurs": 5960,
      "000": 5961,
      "Ġliterally": 5962,
      "Ġattributes": 5963,
      "Ġgift": 5964,
      "Ġincreased": 5965,
      "Ġprevailed": 5966,
      "Ġinnate": 5967,
      "Ġpersuasion": 5968,
      "Ġ50": 5969,
      "Ġprevented": 5970,
      "Ġemployments": 5971,
      "Ġvictim": 5972,
      "Ġcontemplate": 5973,
      "Ġdissatisf": 5974,
      "Ġdespair": 5975,
      "Ġverb": 5976,
      "Ġverily": 5977,
      "Ġaptitude": 5978,
      "Ġarterial": 5979,
      "Ġsatisfactory": 5980,
      "Ġreaching": 5981,
      "Ġascent": 5982,
      "Ġforgetfulness": 5983,
      "Ġcombination": 5984,
      "Ġtragedians": 5985,
      "Ġcritic": 5986,
      "Ġnurses": 5987,
      "Ġlikes": 5988,
      "Ġprotector": 5989,
      "Ġprotection": 5990,
      "Ġoffering": 5991,
      "Ġhunting": 5992,
      "Ġspeculative": 5993,
      "Ġregulate": 5994,
      "Ġambig": 5995,
      "Ġskilled": 5996,
      "Ġlyd": 5997,
      "Ġfastidious": 5998,
      "Ġconversion": 5999,
      "Ġextend": 6000,
      "Ġultimately": 6001,
      "Ġmystery": 6002,
      "Ġapprehension": 6003,
      "Ġapplications": 6004,
      "Ġoperates": 6005,
      "Ġsubtlety": 6006,
      "Ġintroduces": 6007,
      "Ġassociated": 6008,
      "Ġricher": 6009,
      "Ġembra": 6010,
      "Ġanticipation": 6011,
      "Ġmarked": 6012,
      "Ġbetrays": 6013,
      "Ġassistance": 6014,
      "Ġmisunderstand": 6015,
      "Ġcomprehend": 6016,
      "Ġfurnishes": 6017,
      "Ġforbid": 6018,
      "Ġinfinity": 6019,
      "Ġinferred": 6020,
      "Ġparadoxes": 6021,
      "Ġendeavor": 6022,
      "Ġtasted": 6023,
      "equality": 6024,
      "Ġcounsels": 6025,
      "Ġaspir": 6026,
      "Ġstrangers": 6027,
      "Ġexhibit": 6028,
      "Ġplainly": 6029,
      "Ġboldly": 6030,
      "Ġestimates": 6031,
      "Ġinconsistent": 6032,
      "Ġodysse": 6033,
      "Ġfatal": 6034,
      "Ġaspects": 6035,
      "Ġdeteriorated": 6036,
      "Ġefforts": 6037,
      "Ġcultivated": 6038,
      "Ġmingled": 6039,
      "Ġrogues": 6040,
      "Ġlabours": 6041,
      "Ġlaborious": 6042,
      "Ġsymbols": 6043,
      "Ġsisters": 6044,
      "Ġpositive": 6045,
      "Ġcensure": 6046,
      "Ġearliest": 6047,
      "Ġreferred": 6048,
      "Ġsmooth": 6049,
      "Ġphysiological": 6050,
      "Ġuntrue": 6051,
      "righteous": 6052,
      "Ġprelude": 6053,
      "Ġcrowned": 6054,
      "Ġutopia": 6055,
      "Ġadequate": 6056,
      "Ġadequately": 6057,
      "Ġconverted": 6058,
      "Ġunfortunately": 6059,
      "Ġreproach": 6060,
      "Ġavarice": 6061,
      "Ġpupils": 6062,
      "Ġflee": 6063,
      "Ġeconom": 6064,
      "Ġphoen": 6065,
      "Ġrhetoric": 6066,
      "Ġtitle": 6067,
      "Ġpetty": 6068,
      "Ġardiaeus": 6069,
      "Ġquantity": 6070,
      "Ġdominion": 6071,
      "Ġacquaintance": 6072,
      "Ġrevenge": 6073,
      "Ġrevealed": 6074,
      "Ġappreciate": 6075,
      "human": 6076,
      "Ġdilig": 6077,
      "Ġsoothing": 6078,
      "Ġstrengthen": 6079,
      "Ġsuperstition": 6080,
      "Ġenjoys": 6081,
      "Ġcomprehensive": 6082,
      "Ġverses": 6083,
      "Ġbottom": 6084,
      "Ġsufferers": 6085,
      "Ġabsorbed": 6086,
      "Ġscarcely": 6087,
      "Ġhenceforth": 6088,
      "Ġmercen": 6089,
      "Ġthieves": 6090,
      "Ġornament": 6091,
      "Ġweeping": 6092,
      "Ġfeeble": 6093,
      "Ġfamilies": 6094,
      "Ġromanticism": 6095,
      "Ġmasculine": 6096,
      "Ġaugustine": 6097,
      "Ġfingers": 6098,
      "Ġghost": 6099,
      "Ġatropos": 6100,
      "Ġclotho": 6101,
      "\"),": 6102,
      ".]": 6103,
      "aver": 6104,
      "bs": 6105,
      "bad": 6106,
      "bra": 6107,
      "bility": 6108,
      "cus": 6109,
      "dis": 6110,
      "dess": 6111,
      "dest": 6112,
      "fl": 6113,
      "fin": 6114,
      "fts": 6115,
      "fold": 6116,
      "gro": 6117,
      "hn": 6118,
      "hr": 6119,
      "ipe": 6120,
      "iated": 6121,
      "iours": 6122,
      "kward": 6123,
      "mus": 6124,
      "making": 6125,
      "maker": 6126,
      "ob": 6127,
      "oz": 6128,
      "ped": 6129,
      "pur": 6130,
      "pens": 6131,
      "she": 6132,
      "ta": 6133,
      "tw": 6134,
      "tis": 6135,
      "upp": 6136,
      "uity": 6137,
      "vity": 6138,
      "zled": 6139,
      "ÏĦ": 6140,
      "Ġtree": 6141,
      "Ġtie": 6142,
      "Ġtension": 6143,
      "held": 6144,
      "Ġaught": 6145,
      "Ġtheolog": 6146,
      "Ġtheories": 6147,
      "insp": 6148,
      "remon": 6149,
      "Ġwon": 6150,
      "Ġwax": 6151,
      "Ġsn": 6152,
      "Ġsme": 6153,
      "Ġsang": 6154,
      "Ġsize": 6155,
      "Ġband": 6156,
      "Ġmould": 6157,
      "Ġmuse": 6158,
      "Ġmixture": 6159,
      "Ġhol": 6160,
      "Ġpind": 6161,
      "Ġpier": 6162,
      "itophon": 6163,
      "Ġcess": 6164,
      "Ġcaut": 6165,
      "ounder": 6166,
      "Ġfly": 6167,
      "Ġfil": 6168,
      "Ġthin": 6169,
      "Ġthick": 6170,
      "eds": 6171,
      "Ġnational": 6172,
      "Ġnons": 6173,
      "icle": 6174,
      "Ġdu": 6175,
      "Ġdim": 6176,
      "Ġdeduc": 6177,
      "Ġdict": 6178,
      "lls": 6179,
      "Ġwhite": 6180,
      "still": 6181,
      "states": 6182,
      "Ġlaced": 6183,
      "Ġlinger": 6184,
      "Ġeast": 6185,
      "Ġeman": 6186,
      "Ġheph": 6187,
      "Ġhearers": 6188,
      "asions": 6189,
      "alf": 6190,
      "ales": 6191,
      "lement": 6192,
      "Ġrele": 6193,
      "Ġreaches": 6194,
      "Ġreaction": 6195,
      "sec": 6196,
      "utors": 6197,
      "entions": 6198,
      "Ġorient": 6199,
      "Ġwel": 6200,
      "iden": 6201,
      "Ġstood": 6202,
      "Ġstead": 6203,
      "Ġstorm": 6204,
      "etime": 6205,
      "Ġrome": 6206,
      "Ġrav": 6207,
      "Ġrock": 6208,
      "Ġruss": 6209,
      "Ġprize": 6210,
      "Ġprime": 6211,
      "Ġsag": 6212,
      "Ġsaving": 6213,
      "Ġconject": 6214,
      "Ġconceivable": 6215,
      "ulace": 6216,
      "oser": 6217,
      "osite": 6218,
      "ositions": 6219,
      "osium": 6220,
      "Ġtraces": 6221,
      "Ġexhausted": 6222,
      "thern": 6223,
      "aller": 6224,
      "estion": 6225,
      "Ġfrank": 6226,
      "adow": 6227,
      "Ġdece": 6228,
      "Ġalive": 6229,
      "Ġshop": 6230,
      "Ġshape": 6231,
      "Ġvo": 6232,
      "Ġvot": 6233,
      "Ġvivid": 6234,
      "Ġvoluntarily": 6235,
      "ivals": 6236,
      "Ġneck": 6237,
      "Ġnearest": 6238,
      "Ġmeats": 6239,
      "pection": 6240,
      "Ġintimate": 6241,
      "Ġuni": 6242,
      "Ġunw": 6243,
      "Ġunin": 6244,
      "Ġunhapp": 6245,
      "Ġunrighteous": 6246,
      "Ġnoise": 6247,
      "Ġnobility": 6248,
      "umbling": 6249,
      "iform": 6250,
      "respect": 6251,
      "Ġchast": 6252,
      "Ġchines": 6253,
      "Ġanywhere": 6254,
      "meaning": 6255,
      "igation": 6256,
      "Ġplot": 6257,
      "Ġability": 6258,
      "Ġphr": 6259,
      "Ġphilebus": 6260,
      "Ġthank": 6261,
      "Ġperish": 6262,
      "Ġperman": 6263,
      "Ġproving": 6264,
      "Ġfaces": 6265,
      "ecture": 6266,
      "Ġenfor": 6267,
      "crup": 6268,
      "Ġloc": 6269,
      "Ġrepay": 6270,
      "Ġreputed": 6271,
      "Ġrepugn": 6272,
      "Ġspangled": 6273,
      "Ġpoem": 6274,
      "Ġappl": 6275,
      "Ġimmediate": 6276,
      "nesses": 6277,
      "Ġpreacher": 6278,
      "Ġoblong": 6279,
      "Ġimposed": 6280,
      "Ġdiffers": 6281,
      "Ġexplic": 6282,
      "Ġspending": 6283,
      "Ġmeanwhile": 6284,
      "ensity": 6285,
      "Ġunderground": 6286,
      "Ġleaving": 6287,
      "Ġouter": 6288,
      "Ġinduce": 6289,
      "Ġindirect": 6290,
      "Ġstriving": 6291,
      "Ġgoddess": 6292,
      "Ġlets": 6293,
      "ermost": 6294,
      "Ġclim": 6295,
      "clus": 6296,
      "class": 6297,
      "Ġremedies": 6298,
      "Ġsupposes": 6299,
      "Ġrighteous": 6300,
      "Ġju": 6301,
      "Ġdistress": 6302,
      "Ġinfancy": 6303,
      "Ġinfirm": 6304,
      "Ġordering": 6305,
      "Ġrefuses": 6306,
      "Ġmodesty": 6307,
      "Ġassure": 6308,
      "Ġendowed": 6309,
      "about": 6310,
      "abund": 6311,
      "Ġclean": 6312,
      "Ġcleitophon": 6313,
      "Ġeducate": 6314,
      "Ġeducating": 6315,
      "Ġglo": 6316,
      "Ġsecre": 6317,
      "Ġrealities": 6318,
      "Ġquestionable": 6319,
      "Ġfounded": 6320,
      "Ġfoundations": 6321,
      "Ġbox": 6322,
      "Ġworkman": 6323,
      "Ġchildish": 6324,
      "cribe": 6325,
      "Ġcommonplace": 6326,
      "Ġsuff": 6327,
      "Ġsuffered": 6328,
      "ounting": 6329,
      "Ġentered": 6330,
      "Ġpaint": 6331,
      "Ġpainters": 6332,
      "Ġpresently": 6333,
      "Ġpuritan": 6334,
      "Ġdivinity": 6335,
      "too": 6336,
      "Ġrecord": 6337,
      "Ġrecover": 6338,
      "Ġlasting": 6339,
      "aths": 6340,
      "Ġarguing": 6341,
      "Ġtempt": 6342,
      "Ġtemptation": 6343,
      "Ġviewed": 6344,
      "Ġimitated": 6345,
      "Ġflo": 6346,
      "Ġflood": 6347,
      "Ġflowing": 6348,
      "Ġdetected": 6349,
      "Ġoriginate": 6350,
      "Ġeleg": 6351,
      "Ġadvise": 6352,
      "Ġadvanced": 6353,
      "because": 6354,
      "Ġelo": 6355,
      "Ġgoverning": 6356,
      "Ġdraught": 6357,
      "Ġwiser": 6358,
      "Ġoccasions": 6359,
      "Ġoftener": 6360,
      "Ġrespective": 6361,
      "Ġpossessing": 6362,
      "Ġvaliant": 6363,
      "anny": 6364,
      "Ġagreement": 6365,
      "Ġadds": 6366,
      "Ġmature": 6367,
      "Ġdeposit": 6368,
      "Ġvaried": 6369,
      "Ġexplo": 6370,
      "retion": 6371,
      "Ġacquiring": 6372,
      "Ġaffinity": 6373,
      "Ġhelping": 6374,
      "Ġsingly": 6375,
      "Ġgrave": 6376,
      "Ġtemperament": 6377,
      "Ġinclines": 6378,
      "Ġattainment": 6379,
      "Ġparticip": 6380,
      "Ġconstitutes": 6381,
      "Ġawaken": 6382,
      "Ġawkward": 6383,
      "Ġreading": 6384,
      "Ġlively": 6385,
      "Ġsurpass": 6386,
      "Ġplaying": 6387,
      "Ġveh": 6388,
      "Ġcreates": 6389,
      "Ġbehalf": 6390,
      "parable": 6391,
      "Ġdevote": 6392,
      "Ġrecognizes": 6393,
      "Ġbusy": 6394,
      "Ġbackground": 6395,
      "Ġskin": 6396,
      "Ġadmirable": 6397,
      "Ġavow": 6398,
      "Ġchoosing": 6399,
      "Ġdiseased": 6400,
      "Ġimpossibility": 6401,
      "Ġpurer": 6402,
      "Ġbelonging": 6403,
      "Ġlarg": 6404,
      "Ġforest": 6405,
      "Ġreturned": 6406,
      "Ġsuccessfully": 6407,
      "Ġusefulness": 6408,
      "Ġbreaking": 6409,
      "Ġceased": 6410,
      "Ġceremon": 6411,
      "Ġexceptions": 6412,
      "Ġridicule": 6413,
      "Ġinjurious": 6414,
      "Ġchanging": 6415,
      "Ġtestament": 6416,
      "Ġpopulace": 6417,
      "Ġcontaining": 6418,
      "Ġfavor": 6419,
      "Ġbuilt": 6420,
      "awn": 6421,
      "Ġdisciple": 6422,
      "Ġdiscovering": 6423,
      "Ġheroic": 6424,
      "Ġliterary": 6425,
      "Ġdoctor": 6426,
      "Ġstrangely": 6427,
      "Ġmagistr": 6428,
      "Ġlaughed": 6429,
      "Ġgentleman": 6430,
      "Ġdiet": 6431,
      "Ġundet": 6432,
      "Ġepoch": 6433,
      "Ġidle": 6434,
      "Ġvictims": 6435,
      "Ġnegation": 6436,
      "Ġmeets": 6437,
      "Ġengland": 6438,
      "Ġcarries": 6439,
      "Ġangles": 6440,
      "Ġdealings": 6441,
      "Ġdespised": 6442,
      "Ġexercising": 6443,
      "Ġimperfectly": 6444,
      "Ġforgets": 6445,
      "Ġsecretly": 6446,
      "Ġinventive": 6447,
      "Ġblessing": 6448,
      "Ġtrader": 6449,
      "Ġcritics": 6450,
      "Ġdoctrines": 6451,
      "Ġquarrelling": 6452,
      "Ġsickness": 6453,
      "Ġobligation": 6454,
      "Ġprotected": 6455,
      "Ġdemanded": 6456,
      "Ġxen": 6457,
      "Ġdirectly": 6458,
      "Ġdwells": 6459,
      "Ġexamined": 6460,
      "Ġintentionally": 6461,
      "Ġpreferred": 6462,
      "azzled": 6463,
      "Ġprayer": 6464,
      "Ġoccupations": 6465,
      "Ġextends": 6466,
      "Ġextending": 6467,
      "Ġbarbarous": 6468,
      "Ġcorrectly": 6469,
      "Ġmetaphysics": 6470,
      "Ġmerch": 6471,
      "Ġtort": 6472,
      "Ġexplanations": 6473,
      "Ġfashioning": 6474,
      "Ġobtained": 6475,
      "Ġoperate": 6476,
      "Ġelevated": 6477,
      "Ġelevating": 6478,
      "Ġ729": 6479,
      "Ġresemble": 6480,
      "Ġassociate": 6481,
      "Ġembro": 6482,
      "Ġanticipate": 6483,
      "Ġminute": 6484,
      "Ġsaviour": 6485,
      "Ġsaviours": 6486,
      "Ġunfav": 6487,
      "Ġobeying": 6488,
      "Ġdiscussions": 6489,
      "Ġlaying": 6490,
      "Ġarithmetical": 6491,
      "Ġunpro": 6492,
      "Ġencourage": 6493,
      "Ġobviously": 6494,
      "Ġmultiplied": 6495,
      "Ġmultiplicity": 6496,
      "Ġuncertainty": 6497,
      "Ġcobblers": 6498,
      "Ġexcuse": 6499,
      "Ġplanets": 6500,
      "Ġcyn": 6501,
      "Ġcycle": 6502,
      "Ġextravagance": 6503,
      "Ġmanifests": 6504,
      "Ġbreeding": 6505,
      "Ġmorning": 6506,
      "Ġportra": 6507,
      "Ġportions": 6508,
      "Ġluxurious": 6509,
      "Ġshoes": 6510,
      "Ġsurprised": 6511,
      "Ġorganic": 6512,
      "Ġaspiration": 6513,
      "Ġascendancy": 6514,
      "Ġperformance": 6515,
      "Ġcowardice": 6516,
      "Ġrejected": 6517,
      "Ġspendthr": 6518,
      "Ġcontemporary": 6519,
      "Ġmouths": 6520,
      "Ġheights": 6521,
      "Ġgrey": 6522,
      "Ġrestrained": 6523,
      "Ġdisorders": 6524,
      "Ġdisappeared": 6525,
      "Ġgratitude": 6526,
      "Ġcultivation": 6527,
      "Ġdamon": 6528,
      "Ġetc": 6529,
      "Ġdelusion": 6530,
      "Ġepicure": 6531,
      "Ġextremely": 6532,
      "masters": 6533,
      "Ġachilles": 6534,
      "Ġrejoice": 6535,
      "Ġsublim": 6536,
      "Ġunconsciously": 6537,
      "Ġobscure": 6538,
      "Ġstrictly": 6539,
      "Ġreminded": 6540,
      "Ġathlete": 6541,
      "Ġeventually": 6542,
      "Ġsensuality": 6543,
      "effect": 6544,
      "Ġinevitable": 6545,
      "Ġenlightened": 6546,
      "Ġcommitted": 6547,
      "Ġutopians": 6548,
      "Ġjealousy": 6549,
      "Ġperplexed": 6550,
      "Ġunfortunate": 6551,
      "Ġsynthesis": 6552,
      "Ġavaricious": 6553,
      "Ġlatest": 6554,
      "Ġpretty": 6555,
      "warf": 6556,
      "Ġoffices": 6557,
      "Ġinconceivable": 6558,
      "Ġfictions": 6559,
      "Ġnourishment": 6560,
      "Ġradically": 6561,
      "Ġunequal": 6562,
      "Ġprocla": 6563,
      "Ġenergy": 6564,
      "Ġenactments": 6565,
      "Ġtypes": 6566,
      "Ġdrunken": 6567,
      "Ġdetails": 6568,
      "Ġpilgrims": 6569,
      "Ġmessen": 6570,
      "Ġlifetime": 6571,
      "Ġmanagement": 6572,
      "Ġvenous": 6573,
      "Ġmechanical": 6574,
      "Ġenlarge": 6575,
      "Ġdisturbing": 6576,
      "Ġperspectives": 6577,
      "Ġasserted": 6578,
      "Ġpatriotism": 6579,
      "Ġfanciful": 6580,
      "Ġastonished": 6581,
      "aestus": 6582,
      "Ġbitter": 6583,
      "Ġathene": 6584,
      "Ġvacant": 6585,
      "Ġcolle": 6586,
      "Ġministers": 6587,
      "faith": 6588,
      "Ġtedious": 6589,
      "Ġvoyage": 6590,
      "Ġamusement": 6591,
      "Ġexpediency": 6592,
      "Ġmonstrous": 6593,
      "Ġdogmat": 6594,
      "Ġneighbours": 6595,
      "Ġencouraged": 6596,
      "Ġshoemaker": 6597,
      "minded": 6598,
      "Ġtactics": 6599,
      "Ġwretched": 6600,
      "Ġshakespe": 6601,
      "socrates": 6602,
      "Ġindispens": 6603,
      "Ġclouds": 6604,
      "Ġfollies": 6605,
      "Ġbridegro": 6606,
      "Ġmischief": 6607,
      "Ġinsensibly": 6608,
      "Ġaristophanes": 6609,
      "suffic": 6610,
      "footnote": 6611,
      "Ġhymeneal": 6612,
      "Ġbastard": 6613,
      "Ġcatholic": 6614,
      "Ġtools": 6615,
      "Ġpartnership": 6616,
      "Ġerroneous": 6617,
      "Ġantithes": 6618,
      "Ġconventional": 6619,
      "Ġsuperfluous": 6620,
      "Ġcounsell": 6621,
      "Ġlydian": 6622,
      "Ġtheologians": 6623,
      "Ġpindar": 6624,
      "Ġcessation": 6625,
      "Ġnonsense": 6626,
      "Ġlacedaemon": 6627,
      "Ġemancip": 6628,
      "Ġhephaestus": 6629,
      "Ġmagistrates": 6630,
      "Ġindispensable": 6631,
      "\")": 6632,
      "\",": 6633,
      ".âĢĿ": 6634,
      "?)": 6635,
      "bet": 6636,
      "back": 6637,
      "comp": 6638,
      "ee": 6639,
      "eenth": 6640,
      "gl": 6641,
      "hold": 6642,
      "iac": 6643,
      "iency": 6644,
      "la": 6645,
      "lings": 6646,
      "love": 6647,
      "may": 6648,
      "mist": 6649,
      "miss": 6650,
      "mosp": 6651,
      "nay": 6652,
      "oad": 6653,
      "ple": 6654,
      "son": 6655,
      "sed": 6656,
      "tt": 6657,
      "uci": 6658,
      "uish": 6659,
      "uber": 6660,
      "virt": 6661,
      "vative": 6662,
      "yges": 6663,
      "zy": 6664,
      "zard": 6665,
      "Î¿": 6666,
      "Ġ_": 6667,
      "Ġtent": 6668,
      "Ġtet": 6669,
      "Ġtame": 6670,
      "Ġtax": 6671,
      "Ġawe": 6672,
      "Ġaye": 6673,
      "Ġtheft": 6674,
      "ina": 6675,
      "inst": 6676,
      "inate": 6677,
      "inence": 6678,
      "into": 6679,
      "rejud": 6680,
      "Ġwander": 6681,
      "Ġsie": 6682,
      "Ġscript": 6683,
      "ato": 6684,
      "atus": 6685,
      "attered": 6686,
      "iser": 6687,
      "erable": 6688,
      "Ġbon": 6689,
      "Ġbent": 6690,
      "Ġbos": 6691,
      "Ġbite": 6692,
      "Ġbull": 6693,
      "Ġmart": 6694,
      "Ġmire": 6695,
      "Ġmurd": 6696,
      "Ġhot": 6697,
      "Ġhive": 6698,
      "enn": 6699,
      "Ġped": 6700,
      "Ġpir": 6701,
      "Ġpamp": 6702,
      "Ġpiety": 6703,
      "itance": 6704,
      "itory": 6705,
      "iteness": 6706,
      "Ġinit": 6707,
      "Ġinno": 6708,
      "Ġinferences": 6709,
      "Ġcard": 6710,
      "Ġcert": 6711,
      "Ġfed": 6712,
      "Ġfade": 6713,
      "Ġfert": 6714,
      "Ġfresh": 6715,
      "Ġflying": 6716,
      "Ġthom": 6717,
      "Ġthunder": 6718,
      "any": 6719,
      "Ġnu": 6720,
      "Ġnav": 6721,
      "icable": 6722,
      "Ġdies": 6723,
      "Ġdying": 6724,
      "Ġdaught": 6725,
      "Ġdante": 6726,
      "Ġdwarf": 6727,
      "orously": 6728,
      "lla": 6729,
      "llig": 6730,
      "Ġbew": 6731,
      "Ġbeet": 6732,
      "Ġbeheld": 6733,
      "arist": 6734,
      "sto": 6735,
      "stered": 6736,
      "Ġloses": 6737,
      "Ġere": 6738,
      "oter": 6739,
      "oting": 6740,
      "omise": 6741,
      "Ġgal": 6742,
      "Ġgard": 6743,
      "Ġgently": 6744,
      "Ġgorg": 6745,
      "Ġgyges": 6746,
      "lements": 6747,
      "Ġreins": 6748,
      "Ġrebell": 6749,
      "vered": 6750,
      "hers": 6751,
      "Ġashes": 6752,
      "Ġnoted": 6753,
      "Ġham": 6754,
      "ctor": 6755,
      "Ġanx": 6756,
      "Ġante": 6757,
      "Ġanarchy": 6758,
      "Ġweap": 6759,
      "iminary": 6760,
      "imony": 6761,
      "idge": 6762,
      "idance": 6763,
      "idents": 6764,
      "Ġforty": 6765,
      "urs": 6766,
      "uration": 6767,
      "Ġstop": 6768,
      "etch": 6769,
      "eties": 6770,
      "iths": 6771,
      "Ġrain": 6772,
      "Ġrack": 6773,
      "ustry": 6774,
      "Ġsand": 6775,
      "ulpt": 6776,
      "Ġtro": 6777,
      "thou": 6778,
      "thlod": 6779,
      "Ġmanly": 6780,
      "ops": 6781,
      "Ġatmosp": 6782,
      "Ġallure": 6783,
      "Ġallies": 6784,
      "Ġalliance": 6785,
      "Ġexpend": 6786,
      "Ġexuber": 6787,
      "ateg": 6788,
      "Ġmood": 6789,
      "usal": 6790,
      "Ġfright": 6791,
      "Ġfruits": 6792,
      "Ġseat": 6793,
      "Ġsequence": 6794,
      "Ġthereto": 6795,
      "Ġtherewith": 6796,
      "Ġdeities": 6797,
      "Ġdeform": 6798,
      "Ġaltered": 6799,
      "femin": 6800,
      "Ġshade": 6801,
      "Ġshorter": 6802,
      "Ġvill": 6803,
      "Ġvivis": 6804,
      "ivity": 6805,
      "Ġneutr": 6806,
      "Ġmel": 6807,
      "Ġmend": 6808,
      "Ġmellow": 6809,
      "Ġmeadow": 6810,
      "lier": 6811,
      "cible": 6812,
      "ersed": 6813,
      "Ġarouse": 6814,
      "Ġaroused": 6815,
      "Ġintentions": 6816,
      "Ġunbe": 6817,
      "Ġunsu": 6818,
      "Ġunlaw": 6819,
      "Ġunchange": 6820,
      "Ġnoisy": 6821,
      "uming": 6822,
      "umann": 6823,
      "Ġworn": 6824,
      "olve": 6825,
      "olent": 6826,
      "olving": 6827,
      "aster": 6828,
      "Ġplane": 6829,
      "Ġabiding": 6830,
      "Ġevolution": 6831,
      "Ġdislike": 6832,
      "Ġdisordered": 6833,
      "Ġdisinterested": 6834,
      "Ġperished": 6835,
      "Ġperformed": 6836,
      "Ġpertains": 6837,
      "Ġusual": 6838,
      "Ġfame": 6839,
      "Ġfabr": 6840,
      "Ġnative": 6841,
      "Ġenig": 6842,
      "agues": 6843,
      "aping": 6844,
      "Ġspin": 6845,
      "Ġpost": 6846,
      "Ġowe": 6847,
      "Ġappar": 6848,
      "Ġappoint": 6849,
      "ache": 6850,
      "acles": 6851,
      "Ġamer": 6852,
      "Ġadvers": 6853,
      "unes": 6854,
      "Ġtimocratical": 6855,
      "Ġprecip": 6856,
      "ulture": 6857,
      "ultane": 6858,
      "Ġobed": 6859,
      "Ġimpe": 6860,
      "Ġimpr": 6861,
      "Ġimpati": 6862,
      "Ġimpatience": 6863,
      "izations": 6864,
      "Ġpartially": 6865,
      "Ġtended": 6866,
      "ibus": 6867,
      "udence": 6868,
      "enses": 6869,
      "Ġfeared": 6870,
      "Ġtruthfulness": 6871,
      "Ġindolence": 6872,
      "Ġindustry": 6873,
      "Ġcomplic": 6874,
      "Ġcomposition": 6875,
      "Ġcomposite": 6876,
      "asonable": 6877,
      "angs": 6878,
      "Ġaccess": 6879,
      "Ġherod": 6880,
      "Ġgrateful": 6881,
      "Ġopened": 6882,
      "Ġfold": 6883,
      "Ġfores": 6884,
      "Ġfoster": 6885,
      "Ġfostered": 6886,
      "Ġbrib": 6887,
      "Ġpresupp": 6888,
      "Ġresides": 6889,
      "Ġresolute": 6890,
      "Ġremedy": 6891,
      "Ġdistraction": 6892,
      "ording": 6893,
      "Ġhumour": 6894,
      "Ġshallow": 6895,
      "Ġforming": 6896,
      "Ġproposed": 6897,
      "Ġgenerous": 6898,
      "Ġpossibilities": 6899,
      "Ġlawful": 6900,
      "Ġinfall": 6901,
      "Ġinfrequently": 6902,
      "roclus": 6903,
      "Ġrefute": 6904,
      "Ġrefuted": 6905,
      "Ġrefused": 6906,
      "Ġassail": 6907,
      "Ġhappily": 6908,
      "Ġmightiest": 6909,
      "Ġsimultane": 6910,
      ".âĢĻ)": 6911,
      "Ġendless": 6912,
      "Ġendured": 6913,
      "Ġguided": 6914,
      "Ġguidance": 6915,
      "Ġcleave": 6916,
      "Ġbegg": 6917,
      "Ġbegun": 6918,
      "Ġwhereby": 6919,
      "Ġharp": 6920,
      "Ġnewsp": 6921,
      "Ġworkmen": 6922,
      "Ġmuscles": 6923,
      "Ġrelatives": 6924,
      "Ġlights": 6925,
      "Ġblows": 6926,
      "strong": 6927,
      "Ġperfected": 6928,
      "Ġentreat": 6929,
      "Ġdivined": 6930,
      "Ġcorn": 6931,
      "Ġcorp": 6932,
      "Ġcorner": 6933,
      "Ġcross": 6934,
      "Ġrecourse": 6935,
      "Ġinvar": 6936,
      "Ġunderstands": 6937,
      "ocation": 6938,
      "Ġsyll": 6939,
      "Ġhardness": 6940,
      "Ġrub": 6941,
      "ifices": 6942,
      "atively": 6943,
      "Ġincor": 6944,
      "Ġincom": 6945,
      "Ġincred": 6946,
      "Ġincident": 6947,
      "Ġincentive": 6948,
      "Ġoriginates": 6949,
      "Ġallows": 6950,
      "Ġallowing": 6951,
      "Ġadvent": 6952,
      "Ġadvances": 6953,
      "bered": 6954,
      "Ġpolitician": 6955,
      "Ġcoat": 6956,
      "Ġconfound": 6957,
      "Ġconfounded": 6958,
      "Ġpreval": 6959,
      "Ġyouthful": 6960,
      "Ġrests": 6961,
      "Ġresting": 6962,
      "Ġexpressive": 6963,
      "upisc": 6964,
      "Ġeffemin": 6965,
      "Ġoppositions": 6966,
      "Ġeurip": 6967,
      "Ġeasier": 6968,
      "Ġdoubts": 6969,
      "Ġpossesses": 6970,
      "....": 6971,
      "Ġscattered": 6972,
      "Ġsculpt": 6973,
      "Ġcircles": 6974,
      "Ġretal": 6975,
      "Ġretire": 6976,
      "Ġstudent": 6977,
      "Ġoffers": 6978,
      "Ġmedd": 6979,
      "undity": 6980,
      "Ġexplains": 6981,
      "Ġarrives": 6982,
      "Ġfatherland": 6983,
      "atically": 6984,
      "Ġadmits": 6985,
      "Ġhelpless": 6986,
      "Ġkeener": 6987,
      "Ġconcupisc": 6988,
      "Ġconsciences": 6989,
      "Ġdenies": 6990,
      "Ġtyrannies": 6991,
      "Ġcaution": 6992,
      "Ġcommunicated": 6993,
      "Ġinstinctive": 6994,
      "Ġdetermines": 6995,
      "Ġschumann": 6996,
      "Ġawait": 6997,
      "Ġsentences": 6998,
      "Ġsurv": 6999,
      "Ġtransp": 7000,
      "Ġsunk": 7001,
      "Ġveget": 7002,
      "Ġsymposium": 7003,
      "Ġdevour": 7004,
      "Ġcommanded": 7005,
      "Ġcommanders": 7006,
      "Ġconcluded": 7007,
      "Ġcontinuing": 7008,
      "Ġsketch": 7009,
      "Ġmaintains": 7010,
      "Ġmaintaining": 7011,
      "Ġadmiss": 7012,
      "Ġadmiration": 7013,
      "Ġrepresenting": 7014,
      "Ġengage": 7015,
      "Ġmonths": 7016,
      "Ġlegs": 7017,
      "Ġlegit": 7018,
      "Ġapproaches": 7019,
      "Ġgentleness": 7020,
      "Ġbeneficial": 7021,
      "Ġconceals": 7022,
      "Ġconceited": 7023,
      "Ġknees": 7024,
      "Ġpurple": 7025,
      "Ġpurposes": 7026,
      "symp": 7027,
      "Ġconstruct": 7028,
      "Ġmedicines": 7029,
      "Ġtreatment": 7030,
      "Ġbeside": 7031,
      "Ġrarefied": 7032,
      "Ġinstructed": 7033,
      "Ġridicul": 7034,
      "Ġinjure": 7035,
      "Ġinjuring": 7036,
      "Ġdeclaring": 7037,
      "Ġexpectation": 7038,
      "Ġappeals": 7039,
      "Ġterror": 7040,
      "Ġruns": 7041,
      "Ġdiscipl": 7042,
      "Ġpromised": 7043,
      "Ġoccurring": 7044,
      "Ġrepeating": 7045,
      "Ġdreaming": 7046,
      "Ġproduces": 7047,
      "Ġgradations": 7048,
      "barbar": 7049,
      "Ġpatroclus": 7050,
      "Ġcorresponds": 7051,
      "Ġemployment": 7052,
      "Ġthousands": 7053,
      "Ġidiot": 7054,
      "Ġsummer": 7055,
      "Ġspartans": 7056,
      "Ġmetaphor": 7057,
      "Ġmadame": 7058,
      "Ġthirsty": 7059,
      "Ġdealing": 7060,
      "Ġbravest": 7061,
      "Ġforgetting": 7062,
      "Ġarmies": 7063,
      "Ġtrades": 7064,
      "Ġcritias": 7065,
      "Ġsexual": 7066,
      "Ġbirths": 7067,
      "Ġconsisted": 7068,
      "Ġconsistency": 7069,
      "Ġvariations": 7070,
      "Ġenglishman": 7071,
      "world": 7072,
      "Ġacknowledges": 7073,
      "intellig": 7074,
      "Ġpraying": 7075,
      "Ġimpressions": 7076,
      "Ġhypothesis": 7077,
      "Ġwalls": 7078,
      "Ġtorment": 7079,
      "Ġproduct": 7080,
      "Ġmysteries": 7081,
      "Ġvaluable": 7082,
      "Ġastronom": 7083,
      "Ġresembles": 7084,
      "Ġresemblance": 7085,
      "Ġpenalty": 7086,
      "Ġfestivals": 7087,
      "Ġprosec": 7088,
      "Ġbetrayed": 7089,
      "hoven": 7090,
      "Ġcrafts": 7091,
      "Ġstoics": 7092,
      "Ġstarts": 7093,
      "Ġexclude": 7094,
      "Ġunseem": 7095,
      "Ġpupp": 7096,
      "Ġexcite": 7097,
      "Ġspectators": 7098,
      "Ġspectacle": 7099,
      "Ġcubes": 7100,
      "Ġbuilder": 7101,
      "Ġbuilding": 7102,
      "Ġfunction": 7103,
      "Ġexecute": 7104,
      "Ġarrangements": 7105,
      "Ġseemingly": 7106,
      "Ġwalking": 7107,
      "Ġwaiting": 7108,
      "Ġburden": 7109,
      "Ġpotter": 7110,
      "Ġcowardly": 7111,
      "Ġphaedo": 7112,
      "Ġpreparing": 7113,
      "Ġodour": 7114,
      "Ġarbitrarily": 7115,
      "Ġdeserve": 7116,
      "Ġherding": 7117,
      "Ġjoined": 7118,
      "Ġshepherds": 7119,
      "Ġdeterioration": 7120,
      "Ġrapidly": 7121,
      "Ġrogue": 7122,
      "reshold": 7123,
      "Ġdefenders": 7124,
      "Ġaccompanied": 7125,
      "Ġachie": 7126,
      "Ġrenders": 7127,
      "Ġsacredness": 7128,
      "Ġobscurity": 7129,
      "Ġclums": 7130,
      "Ġpsychologists": 7131,
      "Ġsmoke": 7132,
      "Ġbald": 7133,
      "Ġconquer": 7134,
      "Ġfragments": 7135,
      "Ġreformation": 7136,
      "Ġcoarser": 7137,
      "Ġphysiolog": 7138,
      "Ġuntruth": 7139,
      "Ġprivilege": 7140,
      "Ġprivileges": 7141,
      "Ġtraditional": 7142,
      "Ġhasty": 7143,
      "Ġexaggeration": 7144,
      "Ġknife": 7145,
      "Ġenlightenment": 7146,
      "Ġpreliminary": 7147,
      "Ġaccurate": 7148,
      "Ġaccuracy": 7149,
      "Ġgladly": 7150,
      "Ġdisgraceful": 7151,
      "according": 7152,
      "Ġlusts": 7153,
      "Ġgarlands": 7154,
      "Ġopponent": 7155,
      "Ġcriminals": 7156,
      "Ġsynthetic": 7157,
      "Ġmachines": 7158,
      "Ġhorror": 7159,
      "Ġpupil": 7160,
      "Ġcopy": 7161,
      "Ġbeaten": 7162,
      "Ġlatin": 7163,
      "Ġeconomy": 7164,
      "Ġascending": 7165,
      "istration": 7166,
      "Ġlamentation": 7167,
      "Ġreluctant": 7168,
      "Ġreluctance": 7169,
      "Ġviii": 7170,
      "animal": 7171,
      "Ġpretend": 7172,
      "Ġtypical": 7173,
      "Ġinterrogation": 7174,
      "Ġattacks": 7175,
      "Ġpilgrim": 7176,
      "Ġcontradictory": 7177,
      "Ġpauper": 7178,
      "Ġpaupers": 7179,
      "Ġthyself": 7180,
      "Ġeternity": 7181,
      "Ġeternally": 7182,
      "Ġsoftness": 7183,
      "Ġarchit": 7184,
      "Ġdescending": 7185,
      "Ġcontrovers": 7186,
      "Ġcompromise": 7187,
      "Ġcompete": 7188,
      "Ġclothed": 7189,
      "Ġdragged": 7190,
      "spirited": 7191,
      "Ġexclusively": 7192,
      "Ġample": 7193,
      "Ġfierce": 7194,
      "Ġthreatening": 7195,
      "Ġexalted": 7196,
      "Ġnovelty": 7197,
      "Ġdescent": 7198,
      "Ġspeedily": 7199,
      "Ġaccusation": 7200,
      "Ġprophetic": 7201,
      "Ġdegraded": 7202,
      "Ġcorrelation": 7203,
      "Ġrenounce": 7204,
      "Ġdiameters": 7205,
      "Ġindustrious": 7206,
      "Ġrecurring": 7207,
      "Ġcoincide": 7208,
      "Ġunavoidable": 7209,
      "preser": 7210,
      "Ġtheatre": 7211,
      "Ġcogniz": 7212,
      "Ġdorian": 7213,
      "Ġeccles": 7214,
      "Ġegoism": 7215,
      "Ġgaze": 7216,
      "Ġdistracted": 7217,
      "Ġdecisive": 7218,
      "friend": 7219,
      "Ġolympic": 7220,
      "certainly": 7221,
      "Ġinseparable": 7222,
      "Ġreappear": 7223,
      "Ġaloft": 7224,
      "Ġpervades": 7225,
      "unciation": 7226,
      "Ġodysseus": 7227,
      "Ġmercenaries": 7228,
      "Ġsmell": 7229,
      "Ġconjecture": 7230,
      "Ġvotaries": 7231,
      "Ġvehicle": 7232,
      "Ġlargest": 7233,
      "Ġunfavourable": 7234,
      "Ġmessenger": 7235,
      "Ġshakespeare": 7236,
      "compare": 7237,
      "Ġpiraeus": 7238,
      "Ġthomas": 7239,
      "Ġdaughters": 7240,
      "Ġbeethoven": 7241,
      "Ġanteced": 7242,
      "thloday": 7243,
      "Ġatmosphere": 7244,
      "Ġexpenditure": 7245,
      "Ġdeformity": 7246,
      "Ġvivisect": 7247,
      "Ġunlawful": 7248,
      "Ġimpatiently": 7249,
      "Ġnewspap": 7250,
      "Ġconcupiscent": 7251,
      ".);": 7252,
      "acr": 7253,
      "bi": 7254,
      "bic": 7255,
      "bing": 7256,
      "bow": 7257,
      "cim": 7258,
      "des": 7259,
      "dist": 7260,
      "dict": 7261,
      "elian": 7262,
      "ff": 7263,
      "fast": 7264,
      "five": 7265,
      "gin": 7266,
      "gaz": 7267,
      "giving": 7268,
      "hig": 7269,
      "homme": 7270,
      "ience": 7271,
      "iastic": 7272,
      "jug": 7273,
      "ks": 7274,
      "lides": 7275,
      "mine": 7276,
      "morrow": 7277,
      "mitting": 7278,
      "ned": 7279,
      "oet": 7280,
      "oak": 7281,
      "part": 7282,
      "point": 7283,
      "rich": 7284,
      "rup": 7285,
      "sou": 7286,
      "sal": 7287,
      "sight": 7288,
      "sup": 7289,
      "sided": 7290,
      "ton": 7291,
      "try": 7292,
      "taste": 7293,
      "uised": 7294,
      "Îµ": 7295,
      "Ġtire": 7296,
      "heres": 7297,
      "heart": 7298,
      "Ġape": 7299,
      "Ġtheages": 7300,
      "Ġomn": 7301,
      "inted": 7302,
      "reation": 7303,
      "reason": 7304,
      "Ġwest": 7305,
      "Ġwast": 7306,
      "Ġwound": 7307,
      "Ġwiz": 7308,
      "Ġwaves": 7309,
      "Ġsway": 7310,
      "Ġscept": 7311,
      "Ġswell": 7312,
      "Ġoft": 7313,
      "athing": 7314,
      "athet": 7315,
      "isation": 7316,
      "isite": 7317,
      "erday": 7318,
      "Ġber": 7319,
      "Ġbig": 7320,
      "Ġbidding": 7321,
      "Ġmarr": 7322,
      "Ġmarch": 7323,
      "Ġmidd": 7324,
      "onal": 7325,
      "onian": 7326,
      "esy": 7327,
      "Ġhates": 7328,
      "Ġhint": 7329,
      "Ġhosp": 7330,
      "encing": 7331,
      "Ġpard": 7332,
      "Ġpantom": 7333,
      "itted": 7334,
      "itors": 7335,
      "itating": 7336,
      "itative": 7337,
      "itality": 7338,
      "Ġinan": 7339,
      "Ġinability": 7340,
      "Ġcup": 7341,
      "Ġcret": 7342,
      "Ġfer": 7343,
      "Ġfas": 7344,
      "Ġfred": 7345,
      "Ġfart": 7346,
      "Ġfates": 7347,
      "Ġflight": 7348,
      "Ġfrequ": 7349,
      "Ġthief": 7350,
      "Ġthrew": 7351,
      "Ġthreshold": 7352,
      "anity": 7353,
      "ede": 7354,
      "Ġnic": 7355,
      "Ġnet": 7356,
      "Ġnine": 7357,
      "Ġnutr": 7358,
      "iche": 7359,
      "ication": 7360,
      "inged": 7361,
      "ingly": 7362,
      "Ġdin": 7363,
      "Ġdate": 7364,
      "Ġdry": 7365,
      "Ġdam": 7366,
      "Ġdazzled": 7367,
      "orable": 7368,
      "ormed": 7369,
      "llers": 7370,
      "aration": 7371,
      "step": 7372,
      "Ġissue": 7373,
      "Ġlur": 7374,
      "Ġlad": 7375,
      "Ġlys": 7376,
      "Ġease": 7377,
      "Ġiam": 7378,
      "Ġhector": 7379,
      "otic": 7380,
      "Ġgames": 7381,
      "Ġgiles": 7382,
      "ascal": 7383,
      "alize": 7384,
      "Ġrecip": 7385,
      "Ġrelie": 7386,
      "Ġreared": 7387,
      "Ġrevert": 7388,
      "seau": 7389,
      "utop": 7390,
      "cean": 7391,
      "iron": 7392,
      "irms": 7393,
      "Ġhair": 7394,
      "Ġhazard": 7395,
      "entous": 7396,
      "ential": 7397,
      "Ġange": 7398,
      "Ġanach": 7399,
      "Ġweigh": 7400,
      "imen": 7401,
      "imed": 7402,
      "immediate": 7403,
      "verted": 7404,
      "idle": 7405,
      "idity": 7406,
      "idote": 7407,
      "Ġyest": 7408,
      "urre": 7409,
      "urality": 7410,
      "Ġstal": 7411,
      "Ġstif": 7412,
      "Ġstout": 7413,
      "Ġstake": 7414,
      "Ġsuits": 7415,
      "ilation": 7416,
      "ilian": 7417,
      "Ġrous": 7418,
      "Ġrand": 7419,
      "Ġrhaps": 7420,
      "Ġriddle": 7421,
      "Ġprol": 7422,
      "Ġprice": 7423,
      "Ġsage": 7424,
      "Ġsamp": 7425,
      "Ġconfer": 7426,
      "Ġconvey": 7427,
      "Ġlig": 7428,
      "ulate": 7429,
      "Ġtrop": 7430,
      "Ġtrif": 7431,
      "Ġtries": 7432,
      "Ġtrick": 7433,
      "Ġtramp": 7434,
      "thus": 7435,
      "Ġmanhood": 7436,
      "oper": 7437,
      "Ġatom": 7438,
      "Ġatone": 7439,
      "Ġatav": 7440,
      "estr": 7441,
      "estined": 7442,
      "usive": 7443,
      "Ġfront": 7444,
      "Ġfraud": 7445,
      "Ġseize": 7446,
      "Ġsending": 7447,
      "adors": 7448,
      "Ġdevel": 7449,
      "Ġdeaf": 7450,
      "Ġdeceives": 7451,
      "Ġalge": 7452,
      "Ġaloud": 7453,
      "Ġalien": 7454,
      "Ġshine": 7455,
      "isting": 7456,
      "istingu": 7457,
      "Ġvary": 7458,
      "Ġvicious": 7459,
      "Ġkill": 7460,
      "Ġkins": 7461,
      "Ġkiss": 7462,
      "Ġmeat": 7463,
      "lif": 7464,
      "ersonal": 7465,
      "Ġintol": 7466,
      "Ġintens": 7467,
      "Ġunself": 7468,
      "Ġunto": 7469,
      "Ġunint": 7470,
      "Ġuniform": 7471,
      "Ġnostr": 7472,
      "umb": 7473,
      "umed": 7474,
      "ifts": 7475,
      "resent": 7476,
      "âĢĻ?": 7477,
      "Ġchry": 7478,
      "Ġchorus": 7479,
      "ards": 7480,
      "rap": 7481,
      "Ġplaus": 7482,
      "Ġplacing": 7483,
      "Ġplurality": 7484,
      "Ġabol": 7485,
      "Ġabro": 7486,
      "Ġabys": 7487,
      "Ġabuse": 7488,
      "Ġabomin": 7489,
      "Ġabhor": 7490,
      "onged": 7491,
      "mentary": 7492,
      "artes": 7493,
      "Ġevolving": 7494,
      "Ġjustify": 7495,
      "Ġdisli": 7496,
      "Ġdisbelief": 7497,
      "ources": 7498,
      "Ġperse": 7499,
      "Ġperil": 7500,
      "Ġperceiving": 7501,
      "Ġpericles": 7502,
      "Ġqui": 7503,
      "Ġquotes": 7504,
      "Ġenables": 7505,
      "Ġagg": 7506,
      "Ġagrees": 7507,
      "Ġmyths": 7508,
      "Ġloving": 7509,
      "Ġloathing": 7510,
      "iani": 7511,
      "apt": 7512,
      "Ġsplend": 7513,
      "Ġspheres": 7514,
      "ievous": 7515,
      "assadors": 7516,
      "Ġpoly": 7517,
      "Ġamused": 7518,
      "Ġadorn": 7519,
      "Ġhades": 7520,
      "Ġsomehow": 7521,
      "Ġimpious": 7522,
      "Ġparted": 7523,
      "Ġpartner": 7524,
      "Ġpartakes": 7525,
      "Ġtending": 7526,
      "Ġexpense": 7527,
      "Ġexpulsion": 7528,
      "actors": 7529,
      "Ġspecim": 7530,
      "Ġmeaner": 7531,
      "blances": 7532,
      "Ġlend": 7533,
      "Ġleague": 7534,
      "Ġfeign": 7535,
      "Ġcontents": 7536,
      "Ġcomparing": 7537,
      "Ġlaby": 7538,
      "Ġstrives": 7539,
      "Ġconser": 7540,
      "Ġconsol": 7541,
      "ogress": 7542,
      "ograp": 7543,
      "Ġgodlike": 7544,
      "Ġaccidents": 7545,
      "Ġgrou": 7546,
      "Ġgrain": 7547,
      "Ġworlds": 7548,
      "Ġbroad": 7549,
      "Ġbruised": 7550,
      "Ġrespond": 7551,
      "Ġresources": 7552,
      "Ġpleases": 7553,
      "Ġremor": 7554,
      "ords": 7555,
      "Ġpassers": 7556,
      "amy": 7557,
      "among": 7558,
      "amount": 7559,
      "Ġpropensity": 7560,
      "Ġthrust": 7561,
      "Ġthrone": 7562,
      "Ġoverp": 7563,
      "Ġoverwhe": 7564,
      "Ġpeas": 7565,
      "tyr": 7566,
      "Ġmoralist": 7567,
      "Ġmoralities": 7568,
      "Ġinformed": 7569,
      "Ġdiscred": 7570,
      "Ġdiscretion": 7571,
      "Ġrefresh": 7572,
      "Ġregimen": 7573,
      "Ġmodels": 7574,
      "ceptive": 7575,
      "Ġasses": 7576,
      "cylides": 7577,
      ",\"--": 7578,
      "Ġending": 7579,
      "Ġendurable": 7580,
      "Ġguide": 7581,
      "Ġguilt": 7582,
      "Ġbestow": 7583,
      "Ġbestowed": 7584,
      "anship": 7585,
      "Ġeducator": 7586,
      "Ġbeget": 7587,
      "Ġbegging": 7588,
      "Ġoldest": 7589,
      "Ġcommer": 7590,
      "Ġcommod": 7591,
      "Ġquestioning": 7592,
      "Ġacted": 7593,
      "Ġfounding": 7594,
      "Ġboys": 7595,
      "Ġoppose": 7596,
      "Ġoppressed": 7597,
      "Ġoppression": 7598,
      "Ġworker": 7599,
      "Ġimagin": 7600,
      "Ġequival": 7601,
      "Ġblow": 7602,
      "Ġbliss": 7603,
      "Ġbloom": 7604,
      "Ġdrive": 7605,
      "Ġdrank": 7606,
      "Ġconduce": 7607,
      "Ġbeforehand": 7608,
      "Ġentit": 7609,
      "Ġenters": 7610,
      "Ġentrust": 7611,
      "Ġpaints": 7612,
      "Ġcorinth": 7613,
      "Ġcorrup": 7614,
      "Ġrecall": 7615,
      "Ġrecomme": 7616,
      "Ġinvolved": 7617,
      "Ġmisle": 7618,
      "Ġimitates": 7619,
      "Ġharder": 7620,
      "Ġhardship": 7621,
      "Ġdetest": 7622,
      "Ġdetained": 7623,
      "Ġruined": 7624,
      "Ġslough": 7625,
      "Ġincur": 7626,
      "Ġincurable": 7627,
      "Ġunjustly": 7628,
      "Ġoriginated": 7629,
      "Ġjudicious": 7630,
      "icken": 7631,
      "Ġadvises": 7632,
      "Ġinsult": 7633,
      "Ġconfuse": 7634,
      "Ġconfident": 7635,
      "Ġharmonics": 7636,
      "Ġselfishness": 7637,
      "new": 7638,
      "Ġprofundity": 7639,
      "Ġyouths": 7640,
      "licted": 7641,
      "upon": 7642,
      "many": 7643,
      "Ġcitizenship": 7644,
      "Ġeasiest": 7645,
      "Ġidealism": 7646,
      "Ġobserves": 7647,
      "Ġbeloved": 7648,
      "Ġsmile": 7649,
      "Ġillness": 7650,
      "Ġillusions": 7651,
      "Ġvalves": 7652,
      "Ġscold": 7653,
      "Ġretired": 7654,
      "Ġsatir": 7655,
      "Ġagreeably": 7656,
      "Ġmatch": 7657,
      "Ġmaturity": 7658,
      "Ġfears": 7659,
      "Ġfearless": 7660,
      "xtap": 7661,
      "Ġpractising": 7662,
      "Ġpractices": 7663,
      "Ġpractically": 7664,
      "Ġattended": 7665,
      "Ġdefra": 7666,
      "Ġexplaining": 7667,
      "Ġarrog": 7668,
      "Ġphysic": 7669,
      "Ġdispro": 7670,
      "Ġdisprop": 7671,
      "Ġsmallest": 7672,
      "Ġfreely": 7673,
      "Ġfreeman": 7674,
      "Ġestimate": 7675,
      "sub": 7676,
      "Ġdestined": 7677,
      "Ġdrew": 7678,
      "Ġgraces": 7679,
      "Ġeminent": 7680,
      "Ġinfluenced": 7681,
      "Ġparis": 7682,
      "Ġirres": 7683,
      "Ġcommunicate": 7684,
      "Ġinclinations": 7685,
      "Ġconstitute": 7686,
      "Ġreadiness": 7687,
      "Ġsurre": 7688,
      "Ġtransform": 7689,
      ":âĢĶâĢĺ": 7690,
      "Ġroast": 7691,
      "Ġimmutable": 7692,
      "Ġdrinks": 7693,
      "Ġplayers": 7694,
      "Ġcreating": 7695,
      "Ġcreatures": 7696,
      "Ġworthless": 7697,
      "Ġsympathet": 7698,
      "Ġdevoid": 7699,
      "orns": 7700,
      "Ġdistinguishing": 7701,
      "Ġstyles": 7702,
      "Ġrecognition": 7703,
      "Ġshowed": 7704,
      "Ġservices": 7705,
      "Ġbackward": 7706,
      "Ġconclude": 7707,
      "Ġexactness": 7708,
      "Ġabstain": 7709,
      "Ġadmired": 7710,
      "Ġadmixture": 7711,
      "Ġrepresentations": 7712,
      "Ġrepresentative": 7713,
      "Ġdemocracies": 7714,
      "Ġdistinctness": 7715,
      "Ġmonth": 7716,
      "Ġforesee": 7717,
      "Ġmethods": 7718,
      "Ġcompelling": 7719,
      "Ġcausality": 7720,
      "Ġmistress": 7721,
      "Ġmistakes": 7722,
      "Ġcoloured": 7723,
      "Ġapprox": 7724,
      "Ġapproval": 7725,
      "Ġinterposing": 7726,
      "Ġcorrupting": 7727,
      "Ġrequirement": 7728,
      "Ġaristotelian": 7729,
      "Ġimperious": 7730,
      "Ġintelligent": 7731,
      "Ġcuriously": 7732,
      "Ġhydra": 7733,
      "Ġhythloday": 7734,
      "Ġcultured": 7735,
      "Ġsuccessive": 7736,
      "Ġwrongly": 7737,
      "Ġreveals": 7738,
      "Ġreverent": 7739,
      "Ġdelightful": 7740,
      "Ġapology": 7741,
      "Ġlimbs": 7742,
      "prot": 7743,
      "progress": 7744,
      "Ġceases": 7745,
      "Ġphilosophic": 7746,
      "Ġinstruct": 7747,
      "Ġdeclining": 7748,
      "Ġdeclaration": 7749,
      "Ġprocesses": 7750,
      "Ġreflecting": 7751,
      "Ġwoe": 7752,
      "Ġhalt": 7753,
      "experi": 7754,
      "Ġfortunes": 7755,
      "Ġvisions": 7756,
      "Ġuncom": 7757,
      "Ġ49": 7758,
      "Ġswim": 7759,
      "Ġtendencies": 7760,
      "Ġgradation": 7761,
      "Ġgradual": 7762,
      "Ġprevailing": 7763,
      "Ġprofoundest": 7764,
      "Ġpyre": 7765,
      "Ġdivert": 7766,
      "Ġspoils": 7767,
      "Ġfights": 7768,
      "Ġfancying": 7769,
      "true": 7770,
      "Ġzeal": 7771,
      "Ġemph": 7772,
      "Ġempty": 7773,
      "Ġromans": 7774,
      "Ġmeeting": 7775,
      "Ġperiods": 7776,
      "Ġdissolved": 7777,
      "Ġdespises": 7778,
      "Ġveris": 7779,
      "Ġveritable": 7780,
      "Ġastray": 7781,
      "Ġbravery": 7782,
      "Ġattempted": 7783,
      "Ġconvincing": 7784,
      "Ġcombine": 7785,
      "Ġironical": 7786,
      "Ġcritical": 7787,
      "Ġliked": 7788,
      "Ġmovements": 7789,
      "Ġprotectors": 7790,
      "Ġforgive": 7791,
      "Ġpointed": 7792,
      "Ġvariable": 7793,
      "Ġvarieties": 7794,
      "Ġintentional": 7795,
      "Ġambassadors": 7796,
      "Ġrelationship": 7797,
      "Ġanalogous": 7798,
      "Ġanalogies": 7799,
      "shall": 7800,
      "Ġhoriz": 7801,
      "Ġlyre": 7802,
      "Ġlyric": 7803,
      "Ġprayers": 7804,
      "Ġathenians": 7805,
      "Ġlistening": 7806,
      "Ġslender": 7807,
      "Ġperpetr": 7808,
      "Ġconducted": 7809,
      "Ġdivisors": 7810,
      "Ġmetaphysicians": 7811,
      "common": 7812,
      "Ġmerit": 7813,
      "Ġproducing": 7814,
      "Ġnobleness": 7815,
      "Ġapplicable": 7816,
      "Ġoperation": 7817,
      "Ġassociation": 7818,
      "Ġassociates": 7819,
      "Ġselected": 7820,
      "Ġventures": 7821,
      "Ġfairer": 7822,
      "Ġindependently": 7823,
      "Ġembrace": 7824,
      "Ġadapt": 7825,
      "Ġmoderately": 7826,
      "Ġnumerical": 7827,
      "Ġblindness": 7828,
      "Ġstoop": 7829,
      "Ġarithmetician": 7830,
      "Ġunprejud": 7831,
      "Ġweaknesses": 7832,
      "Ġmultiply": 7833,
      "ĠĠĠĠĠĠĠĠĠĠĠĠĠĠĠĠĠĠĠĠĠ": 7834,
      "Ġtreasure": 7835,
      "Ġtreacher": 7836,
      "Ġsuspected": 7837,
      "Ġdefective": 7838,
      "Ġdishonesty": 7839,
      "Ġdistrustful": 7840,
      "Ġdiscerning": 7841,
      "Ġdiscernment": 7842,
      "Ġaccomplish": 7843,
      "Ġmasses": 7844,
      "Ġcycl": 7845,
      "Ġcompliment": 7846,
      "Ġcomplais": 7847,
      "Ġresistance": 7848,
      "Ġproposals": 7849,
      "Ġimprovements": 7850,
      "Ġmanifestly": 7851,
      "Ġairs": 7852,
      "Ġmorally": 7853,
      "Ġpredestined": 7854,
      "Ġportentous": 7855,
      "Ġsurprise": 7856,
      "Ġjewish": 7857,
      "aeans": 7858,
      "Ġpaltry": 7859,
      "Ġaspire": 7860,
      "Ġfootstep": 7861,
      "Ġtranslation": 7862,
      "Ġcomplexity": 7863,
      "Ġdefinitely": 7864,
      "Ġsleepy": 7865,
      "Ġinvestigate": 7866,
      "Ġpotters": 7867,
      "Ġcowards": 7868,
      "Ġexhibited": 7869,
      "Ġintimation": 7870,
      "Ġintimates": 7871,
      "Ġcleverness": 7872,
      "Ġhorseback": 7873,
      "Ġindifferently": 7874,
      "Ġseductive": 7875,
      "Ġinharmon": 7876,
      "Ġfulness": 7877,
      "Ġgreen": 7878,
      "Ġarbitrariness": 7879,
      "Ġunreal": 7880,
      "Ġdisappear": 7881,
      "Ġgratification": 7882,
      "Ġjohn": 7883,
      "Ġinterpreted": 7884,
      "Ġmingling": 7885,
      "Ġvolta": 7886,
      "Ġfeeds": 7887,
      "Ġfeeding": 7888,
      "Ġrefinements": 7889,
      "Ġrevolt": 7890,
      "Ġepicur": 7891,
      "Ġachaeans": 7892,
      "Ġinheritance": 7893,
      "Ġinexperi": 7894,
      "Ġcheer": 7895,
      "Ġtower": 7896,
      "Ġprohibition": 7897,
      "Ġextremities": 7898,
      "represent": 7899,
      "Ġsanct": 7900,
      "Ġbalance": 7901,
      "Ġdiversity": 7902,
      "Ġancestor": 7903,
      "Ġpriests": 7904,
      "Ġconquest": 7905,
      "Ġconversely": 7906,
      "Ġfeasts": 7907,
      "Ġprivileged": 7908,
      "Ġsongs": 7909,
      "Ġcavities": 7910,
      "Ġknock": 7911,
      "Ġbrighter": 7912,
      "Ġbrightest": 7913,
      "Ġinformers": 7914,
      "Ġcollective": 7915,
      "Ġrobbers": 7916,
      "Ġnarrowness": 7917,
      "Ġperplexity": 7918,
      "Ġphenomenon": 7919,
      "cleitus": 7920,
      "Ġpublish": 7921,
      "Ġpublishing": 7922,
      "Ġtrainer": 7923,
      "Ġmachine": 7924,
      "Ġhindered": 7925,
      "Ġtouched": 7926,
      "Ġtravel": 7927,
      "Ġphocylides": 7928,
      "Ġdisregarded": 7929,
      "Ġindulge": 7930,
      "Ġindulges": 7931,
      "Ġpressure": 7932,
      "Ġcostly": 7933,
      "Ġconvenient": 7934,
      "Ġtitles": 7935,
      "Ġfictitious": 7936,
      "Ġreconci": 7937,
      "Ġdeliver": 7938,
      "Ġshrink": 7939,
      "Ġfeatures": 7940,
      "Ġpessimist": 7941,
      "Ġpessimism": 7942,
      "Ġwinter": 7943,
      "Ġlowest": 7944,
      "Ġheredity": 7945,
      "Ġhereditary": 7946,
      "Ġassembly": 7947,
      "Ġprecision": 7948,
      "Ġcontrolled": 7949,
      "Ġperspective": 7950,
      "Ġembodied": 7951,
      "Ġembodiment": 7952,
      "Ġcommunication": 7953,
      "Ġswiftness": 7954,
      "Ġexclusive": 7955,
      "Ġpuzzle": 7956,
      "Ġfancied": 7957,
      "Ġgrammar": 7958,
      "Ġnerves": 7959,
      "Ġstimulate": 7960,
      "Ġtribe": 7961,
      "Ġalternative": 7962,
      "Ġdescartes": 7963,
      "Ġindulgence": 7964,
      "Ġoverthrow": 7965,
      "Ġoverthrown": 7966,
      "Ġpenetrated": 7967,
      "Ġdiameter": 7968,
      "Ġmurde": 7969,
      "Ġpompous": 7970,
      "Ġinfected": 7971,
      "Ġstatues": 7972,
      "Ġprudent": 7973,
      "keepers": 7974,
      "Ġseasons": 7975,
      "Ġenormous": 7976,
      "Ġjesuit": 7977,
      "Ġflourishes": 7978,
      "Ġdisplay": 7979,
      "Ġunconditionally": 7980,
      "philosoph": 7981,
      "Ġperpetual": 7982,
      "Ġperpetually": 7983,
      "Ġcraftiness": 7984,
      "Ġlicentiousness": 7985,
      "Ġnaivete": 7986,
      "Ġlinks": 7987,
      "Ġweakening": 7988,
      "Ġdeficient": 7989,
      "Ġsoften": 7990,
      "Ġpremises": 7991,
      "Ġsymptom": 7992,
      "Ġadministration": 7993,
      "Ġunskilled": 7994,
      "science": 7995,
      "Ġwaters": 7996,
      "Ġsenseless": 7997,
      "Ġparricide": 7998,
      "Ġheracleitus": 7999,
      "Ġrecluse": 8000,
      "Ġintuition": 8001,
      "Ġdiseng": 8002,
      "Ġdiffused": 8003,
      "Ġstriking": 8004,
      "Ġextinguished": 8005,
      "Ġadvocates": 8006,
      "Ġdissatisfied": 8007,
      "Ġverbal": 8008,
      "Ġaspirations": 8009,
      "disinterested": 8010,
      "Ġholiness": 8011,
      "Ġcautious": 8012,
      "Ġdeduced": 8013,
      "statesman": 8014,
      "Ġwelcome": 8015,
      "Ġsagacity": 8016,
      "Ġfrankness": 8017,
      "Ġdeceit": 8018,
      "Ġvoices": 8019,
      "Ġchinese": 8020,
      "Ġpermanent": 8021,
      "Ġlocke": 8022,
      "Ġrepugnant": 8023,
      "Ġpreachers": 8024,
      "Ġjuxtap": 8025,
      "abundance": 8026,
      "Ġgloomy": 8027,
      "Ġsecrecy": 8028,
      "Ġundetected": 8029,
      "Ġmerchants": 8030,
      "Ġportrait": 8031,
      "Ġepicurean": 8032,
      "Ġdrunkenness": 8033,
      "Ġcolleagues": 8034,
      "Ġbridegroom": 8035,
      "sufficing": 8036,
      "better": 8037,
      "virtue": 8038,
      "Ġtaxes": 8039,
      "Ġmartyr": 8040,
      "Ġinnovation": 8041,
      "Ġcertitude": 8042,
      "Ġnavigation": 8043,
      "Ġgaliani": 8044,
      "Ġgarden": 8045,
      "Ġgorgias": 8046,
      "Ġunbecoming": 8047,
      "Ġunchangeable": 8048,
      "Ġspinoz": 8049,
      "Ġobedient": 8050,
      "Ġinvariable": 8051,
      "Ġincorp": 8052,
      "Ġeuripides": 8053,
      "Ġretirement": 8054,
      "Ġadmissions": 8055,
      "Ġlegitimate": 8056,
      "Ġpilgrimage": 8057,
      "higher": 8058,
      "Ġwizard": 8059,
      "Ġmidday": 8060,
      "Ġfasc": 8061,
      "Ġfreder": 8062,
      "Ġfarthest": 8063,
      "Ġfrequent": 8064,
      "Ġiambic": 8065,
      "utopia": 8066,
      "Ġangels": 8067,
      "Ġyesterday": 8068,
      "Ġrousseau": 8069,
      "Ġrandom": 8070,
      "Ġrhapsod": 8071,
      "Ġprolonged": 8072,
      "Ġdevelope": 8073,
      "Ġalgebra": 8074,
      "Ġchryses": 8075,
      "Ġabroad": 8076,
      "Ġadornment": 8077,
      "Ġspecimens": 8078,
      "Ġlabyr": 8079,
      "Ġoverwhel": 8080,
      "Ġequivalent": 8081,
      "Ġdisproportion": 8082,
      "Ġsympathetic": 8083,
      "Ġunprejudiced": 8084,
      "Ġfootsteps": 8085,
      "Ġinharmonious": 8086,
      "Ġvoltaire": 8087,
      "!)": 8088,
      "ah": 8089,
      "aic": 8090,
      "aet": 8091,
      "aci": 8092,
      "avers": 8093,
      "bb": 8094,
      "brew": 8095,
      "co": 8096,
      "cent": 8097,
      "cult": 8098,
      "dr": 8099,
      "ding": 8100,
      "dain": 8101,
      "div": 8102,
      "down": 8103,
      "ere": 8104,
      "eed": 8105,
      "ext": 8106,
      "fet": 8107,
      "fall": 8108,
      "fac": 8109,
      "fety": 8110,
      "fashion": 8111,
      "fangled": 8112,
      "ffo": 8113,
      "gs": 8114,
      "gar": 8115,
      "gers": 8116,
      "gence": 8117,
      "gged": 8118,
      "hin": 8119,
      "ih": 8120,
      "iren": 8121,
      "iences": 8122,
      "jax": 8123,
      "lo": 8124,
      "lace": 8125,
      "lived": 8126,
      "liter": 8127,
      "must": 8128,
      "makers": 8129,
      "ns": 8130,
      "non": 8131,
      "national": 8132,
      "oil": 8133,
      "oided": 8134,
      "phe": 8135,
      "ping": 8136,
      "ral": 8137,
      "rul": 8138,
      "run": 8139,
      "rists": 8140,
      "sens": 8141,
      "somet": 8142,
      "sues": 8143,
      "sacr": 8144,
      "taking": 8145,
      "tles": 8146,
      "uge": 8147,
      "uable": 8148,
      "upt": 8149,
      "wr": 8150,
      "wis": 8151,
      "was": 8152,
      "words": 8153,
      "yd": 8154,
      "yal": 8155,
      "zed": 8156,
      "Î¹": 8157,
      "Î½": 8158,
      "Ġice": 8159,
      "Ġtong": 8160,
      "Ġtart": 8161,
      "Ġties": 8162,
      "Ġtumbling": 8163,
      "health": 8164,
      "headed": 8165,
      "Ġame": 8166,
      "Ġacr": 8167,
      "Ġaverse": 8168,
      "Ġampl": 8169,
      "Ġajax": 8170,
      "Ġthetis": 8171,
      "Ġost": 8172,
      "Ġocular": 8173,
      "Ġomitting": 8174,
      "Ġocean": 8175,
      "inter": 8176,
      "inities": 8177,
      "real": 8178,
      "restr": 8179,
      "reasing": 8180,
      "rehens": 8181,
      "Ġwid": 8182,
      "Ġwood": 8183,
      "Ġwrest": 8184,
      "Ġwife": 8185,
      "Ġwaning": 8186,
      "Ġwounds": 8187,
      "Ġsain": 8188,
      "Ġsli": 8189,
      "Ġseri": 8190,
      "Ġscy": 8191,
      "Ġsinking": 8192,
      "Ġsiren": 8193,
      "eries": 8194,
      "Ġbor": 8195,
      "Ġble": 8196,
      "Ġbore": 8197,
      "Ġbare": 8198,
      "Ġbible": 8199,
      "Ġbish": 8200,
      "Ġbord": 8201,
      "Ġbark": 8202,
      "Ġbath": 8203,
      "Ġmul": 8204,
      "Ġmort": 8205,
      "Ġmud": 8206,
      "Ġmild": 8207,
      "Ġmix": 8208,
      "Ġmilt": 8209,
      "Ġmakers": 8210,
      "oning": 8211,
      "esis": 8212,
      "Ġhunt": 8213,
      "enance": 8214,
      "enlight": 8215,
      "Ġpose": 8216,
      "Ġpick": 8217,
      "Ġpati": 8218,
      "Ġpetr": 8219,
      "Ġpushed": 8220,
      "Ġpangs": 8221,
      "itness": 8222,
      "itudes": 8223,
      "Ġinser": 8224,
      "Ġinmost": 8225,
      "Ġinequality": 8226,
      "Ġcher": 8227,
      "Ġcand": 8228,
      "Ġcateg": 8229,
      "Ġtops": 8230,
      "Ġtomorrow": 8231,
      "Ġfet": 8232,
      "Ġfated": 8233,
      "Ġfought": 8234,
      "Ġflies": 8235,
      "Ġthra": 8236,
      "Ġthuc": 8237,
      "anc": 8238,
      "anus": 8239,
      "anter": 8240,
      "ancho": 8241,
      "Ġnod": 8242,
      "Ġnamed": 8243,
      "Ġnomin": 8244,
      "Ġdust": 8245,
      "Ġdwe": 8246,
      "Ġdye": 8247,
      "Ġdawn": 8248,
      "Ġduration": 8249,
      "orate": 8250,
      "orters": 8251,
      "Ġbeats": 8252,
      "Ġbeef": 8253,
      "Ġwhit": 8254,
      "Ġwhither": 8255,
      "Ġwhiche": 8256,
      "arg": 8257,
      "arry": 8258,
      "sters": 8259,
      "stone": 8260,
      "Ġili": 8261,
      "ioned": 8262,
      "Ġheed": 8263,
      "Ġheal": 8264,
      "Ġheated": 8265,
      "omach": 8266,
      "Ġgir": 8267,
      "Ġgest": 8268,
      "alter": 8269,
      "lets": 8270,
      "learn": 8271,
      "Ġreb": 8272,
      "Ġrear": 8273,
      "Ġrenow": 8274,
      "Ġrecess": 8275,
      "Ġrevers": 8276,
      "Ġrearing": 8277,
      "semit": 8278,
      "utor": 8279,
      "utations": 8280,
      "Ġonward": 8281,
      "Ġnoticed": 8282,
      "Ġhaught": 8283,
      "Ġhairy": 8284,
      "entiet": 8285,
      "Ġorbits": 8286,
      "Ġorifices": 8287,
      "Ġorphe": 8288,
      "Ġanarch": 8289,
      "Ġweary": 8290,
      "Ġwelf": 8291,
      "Ġwearing": 8292,
      "Ġweaving": 8293,
      "Ġweaver": 8294,
      "imilar": 8295,
      "idiously": 8296,
      "Ġforfe": 8297,
      "illy": 8298,
      "illiant": 8299,
      "Ġstation": 8300,
      "Ġstret": 8301,
      "Ġstomach": 8302,
      "essed": 8303,
      "Ġsuit": 8304,
      "Ġsuitably": 8305,
      "ili": 8306,
      "ilight": 8307,
      "ilib": 8308,
      "christ": 8309,
      "Ġrat": 8310,
      "Ġrust": 8311,
      "Ġration": 8312,
      "Ġrout": 8313,
      "Ġrab": 8314,
      "Ġrises": 8315,
      "Ġrush": 8316,
      "Ġripe": 8317,
      "Ġprow": 8318,
      "Ġpruss": 8319,
      "Ġsaves": 8320,
      "Ġsauces": 8321,
      "Ġsafety": 8322,
      "Ġconj": 8323,
      "Ġconced": 8324,
      "Ġconvert": 8325,
      "ulter": 8326,
      "ulated": 8327,
      "osis": 8328,
      "osure": 8329,
      "Ġtract": 8330,
      "Ġtrack": 8331,
      "Ġtrait": 8332,
      "Ġtrusted": 8333,
      "Ġtraits": 8334,
      "Ġwholes": 8335,
      "Ġmanaged": 8336,
      "Ġmanuf": 8337,
      "ople": 8338,
      "key": 8339,
      "Ġatten": 8340,
      "Ġatlant": 8341,
      "Ġallied": 8342,
      "Ġalloy": 8343,
      "Ġallev": 8344,
      "estic": 8345,
      "ushes": 8346,
      "question": 8347,
      "Ġframing": 8348,
      "Ġsect": 8349,
      "Ġtherefrom": 8350,
      "aders": 8351,
      "Ġwheels": 8352,
      "tering": 8353,
      "Ġdelu": 8354,
      "Ġalar": 8355,
      "Ġshrew": 8356,
      "Ġvir": 8357,
      "Ġvest": 8358,
      "Ġvoid": 8359,
      "Ġvener": 8360,
      "Ġgover": 8361,
      "Ġcomme": 8362,
      "Ġcomment": 8363,
      "liest": 8364,
      "liament": 8365,
      "cibi": 8366,
      "Ġdoer": 8367,
      "Ġaright": 8368,
      "people": 8369,
      "Ġunit": 8370,
      "Ġunions": 8371,
      "Ġunman": 8372,
      "Ġuneducated": 8373,
      "Ġunmeaning": 8374,
      "Ġunmist": 8375,
      "Ġunintellig": 8376,
      "umm": 8377,
      "umber": 8378,
      "indeed": 8379,
      "ifted": 8380,
      "anta": 8381,
      "anting": 8382,
      "antial": 8383,
      "Ġchain": 8384,
      "Ġchasm": 8385,
      "rapt": 8386,
      "akable": 8387,
      "mere": 8388,
      "meas": 8389,
      "meal": 8390,
      "decess": 8391,
      "develop": 8392,
      "igod": 8393,
      "Ġplun": 8394,
      "Ġabusing": 8395,
      "andar": 8396,
      "renunciation": 8397,
      "Ġphantom": 8398,
      "Ġdisse": 8399,
      "Ġdisqu": 8400,
      "Ġdismiss": 8401,
      "Ġdisdain": 8402,
      "Ġpervers": 8403,
      "Ġperusal": 8404,
      "Ġproject": 8405,
      "Ġproced": 8406,
      "Ġfable": 8407,
      "Ġfaction": 8408,
      "Ġquoted": 8409,
      "aun": 8410,
      "Ġenno": 8411,
      "Ġagric": 8412,
      "sof": 8413,
      "crimin": 8414,
      "orts": 8415,
      "ortment": 8416,
      "Ġrepuls": 8417,
      "Ġ(_": 8418,
      "Ġsouthern": 8419,
      "Ġintox": 8420,
      "Ġspont": 8421,
      "Ġspurious": 8422,
      "Ġsphin": 8423,
      "assuming": 8424,
      "Ġpole": 8425,
      "Ġimmeas": 8426,
      "Ġamaz": 8427,
      "Ġamusing": 8428,
      "otherwise": 8429,
      "Ġadjust": 8430,
      "Ġadam": 8431,
      "Ġadverse": 8432,
      "uning": 8433,
      "unished": 8434,
      "unting": 8435,
      "Ġtimocratic": 8436,
      "thest": 8437,
      "Ġpreach": 8438,
      "Ġpreference": 8439,
      "Ġprecious": 8440,
      "Ġprefers": 8441,
      "Ġpresto": 8442,
      "Ġpredecess": 8443,
      "Ġobst": 8444,
      "Ġobno": 8445,
      "Ġobtr": 8446,
      "Ġimpl": 8447,
      "Ġimped": 8448,
      "Ġimpair": 8449,
      "Ġimprop": 8450,
      "Ġimplements": 8451,
      "Ġimpersonal": 8452,
      "Ġpartake": 8453,
      "Ġexpound": 8454,
      "Ġexpounded": 8455,
      "Ġexpensive": 8456,
      "Ġexpenses": 8457,
      "actor": 8458,
      "Ġfirstly": 8459,
      "Ġartifice": 8460,
      "Ġundergoing": 8461,
      "Ġplatonists": 8462,
      "Ġlean": 8463,
      "Ġindisc": 8464,
      "Ġindicate": 8465,
      "Ġcontact": 8466,
      "Ġcompens": 8467,
      "Ġcompounded": 8468,
      "Ġcompuls": 8469,
      "Ġlais": 8470,
      "Ġlame": 8471,
      "Ġstripped": 8472,
      "Ġconsult": 8473,
      "Ġconsumm": 8474,
      "ogue": 8475,
      "Ġaccused": 8476,
      "Ġherald": 8477,
      "Ġreasonably": 8478,
      "Ġletting": 8479,
      "Ġgrim": 8480,
      "Ġgross": 8481,
      "Ġtwentiet": 8482,
      "Ġtwilight": 8483,
      "ermined": 8484,
      "Ġcling": 8485,
      "Ġclimate": 8486,
      "Ġintend": 8487,
      "Ġintending": 8488,
      "Ġbrain": 8489,
      "Ġbrute": 8490,
      "Ġbridle": 8491,
      "Ġbrilliant": 8492,
      "Ġpresiding": 8493,
      "Ġpresumpt": 8494,
      "Ġpresume": 8495,
      "Ġresolve": 8496,
      "tez": 8497,
      "teen": 8498,
      "text": 8499,
      "Ġremove": 8500,
      "adel": 8501,
      "bert": 8502,
      "Ġdistaste": 8503,
      "Ġprinces": 8504,
      "amation": 8505,
      "Ġformation": 8506,
      "Ġsubt": 8507,
      "Ġsubord": 8508,
      "Ġpropag": 8509,
      "Ġlawy": 8510,
      "avish": 8511,
      "Ġmoralistic": 8512,
      "Ġdiscours": 8513,
      "Ġreferring": 8514,
      "Ġregret": 8515,
      "conce": 8516,
      "Ġhumane": 8517,
      "Ġhumanizing": 8518,
      "Ġassass": 8519,
      "Ġassumption": 8520,
      "education": 8521,
      "Ġbeliever": 8522,
      "Ġnecessities": 8523,
      "Ġendurance": 8524,
      "Ġguiding": 8525,
      "ials": 8526,
      "abilities": 8527,
      "ictions": 8528,
      "Ġglories": 8529,
      "Ġwherein": 8530,
      "Ġwherefore": 8531,
      "Ġcommitting": 8532,
      "Ġcommenced": 8533,
      "Ġcommencing": 8534,
      "Ġsecured": 8535,
      "Ġsecurity": 8536,
      "Ġkindly": 8537,
      "Ġactivity": 8538,
      "llowing": 8539,
      "Ġindividually": 8540,
      "overed": 8541,
      "Ġacuteness": 8542,
      "Ġmusaeus": 8543,
      "Ġequilib": 8544,
      "Ġblue": 8545,
      "Ġblinking": 8546,
      "Ġcommonpl": 8547,
      "Ġdrug": 8548,
      "structed": 8549,
      "stricken": 8550,
      "Ġsubjected": 8551,
      "Ġsubjective": 8552,
      "Ġcondes": 8553,
      "Ġconduci": 8554,
      "Ġentrance": 8555,
      "Ġpainted": 8556,
      "Ġpursues": 8557,
      "Ġserves": 8558,
      "Ġserpent": 8559,
      "Ġcrises": 8560,
      "Ġcrushed": 8561,
      "Ġinvite": 8562,
      "Ġinvoluntarily": 8563,
      "Ġtempor": 8564,
      "Ġtempter": 8565,
      "Ġmisapp": 8566,
      "Ġmisrepresent": 8567,
      "Ġcitadel": 8568,
      "Ġflown": 8569,
      "Ġindefin": 8570,
      "entionally": 8571,
      "Ġruins": 8572,
      "ifications": 8573,
      "Ġincarn": 8574,
      "Ġattent": 8575,
      "Ġallowable": 8576,
      "Ġhandle": 8577,
      "Ġextract": 8578,
      "autions": 8579,
      "beyond": 8580,
      "Ġmetal": 8581,
      "Ġpolitic": 8582,
      "Ġinscribe": 8583,
      "Ġinsanity": 8584,
      "Ġcoars": 8585,
      "Ġfurious": 8586,
      "Ġfurthest": 8587,
      "Ġconfine": 8588,
      "Ġconfiding": 8589,
      "Ġconfirmed": 8590,
      "Ġprevents": 8591,
      "Ġgeneralization": 8592,
      "Ġharmonized": 8593,
      "amped": 8594,
      "Ġcontrive": 8595,
      "Ġfactors": 8596,
      "Ġprofounder": 8597,
      "Ġrestor": 8598,
      "Ġexpressing": 8599,
      "Ġwishing": 8600,
      "Ġopposing": 8601,
      "Ġqualification": 8602,
      "Ġsimpler": 8603,
      "Ġearthqu": 8604,
      "Ġearthborn": 8605,
      "Ġdoubting": 8606,
      "Ġobserv": 8607,
      "Ġobservable": 8608,
      ",âĢĶâĢĺ": 8609,
      "Ġsmiths": 8610,
      "Ġrespected": 8611,
      "Ġrespectability": 8612,
      "Ġpossessor": 8613,
      "Ġutters": 8614,
      "Ġuttered": 8615,
      "Ġanimated": 8616,
      "Ġscent": 8617,
      "Ġwomanly": 8618,
      "Ġhelm": 8619,
      "Ġhelen": 8620,
      "Ġsatire": 8621,
      "Ġsatyr": 8622,
      "ractys": 8623,
      "ailing": 8624,
      "Ġfearing": 8625,
      "Ġesp": 8626,
      "Ġespr": 8627,
      "Ġarray": 8628,
      "Ġarrang": 8629,
      "Ġarriving": 8630,
      "Ġphysics": 8631,
      "Ġdispens": 8632,
      "Ġdisputes": 8633,
      "Ġdispensed": 8634,
      "Ġpair": 8635,
      "Ġpaul": 8636,
      "Ġpaci": 8637,
      "Ġaffirms": 8638,
      "Ġaffinities": 8639,
      "Ġhelpers": 8640,
      "Ġsinning": 8641,
      "Ġsinging": 8642,
      "Ġcapital": 8643,
      "Ġdenoted": 8644,
      "Ġdenomin": 8645,
      "Ġeyesight": 8646,
      "Ġdreamed": 8647,
      "Ġgravity": 8648,
      "iddles": 8649,
      "Ġauthorized": 8650,
      "off": 8651,
      "Ġcaes": 8652,
      "Ġembell": 8653,
      "Ġparal": 8654,
      "Ġparamount": 8655,
      "Ġparliament": 8656,
      "Ġirreg": 8657,
      "Ġcommunion": 8658,
      "Ġcommunities": 8659,
      "Ġsimilarly": 8660,
      "Ġantidote": 8661,
      "Ġreads": 8662,
      "Ġreaders": 8663,
      "Ġprivately": 8664,
      "Ġconvuls": 8665,
      "Ġsurpl": 8666,
      "Ġtransgress": 8667,
      "Ġtransformed": 8668,
      "Ġtransfig": 8669,
      "Ġsuns": 8670,
      "Ġroar": 8671,
      "Ġroof": 8672,
      "Ġshades": 8673,
      "Ġexert": 8674,
      "Ġplayer": 8675,
      "Ġoligarchs": 8676,
      "Ġparticularly": 8677,
      "parably": 8678,
      "Ġgainful": 8679,
      "Ġdevast": 8680,
      "Ġdevice": 8681,
      "Ġdevised": 8682,
      "Ġcommander": 8683,
      "Ġsilently": 8684,
      "Ġsilenced": 8685,
      "Ġremembered": 8686,
      "Ġreview": 8687,
      "willed": 8688,
      "Ġhandsome": 8689,
      "Ġsuperinte": 8690,
      "Ġrepresentatives": 8691,
      "Ġavoided": 8692,
      "Ġmonkey": 8693,
      "Ġforemost": 8694,
      "Ġhole": 8695,
      "Ġdangerousness": 8696,
      "Ġcausa": 8697,
      "Ġbaseness": 8698,
      "Ġapproves": 8699,
      ".--\"": 8700,
      "Ġlowering": 8701,
      "Ġproven": 8702,
      "Ġintelligences": 8703,
      "Ġcounted": 8704,
      "Ġbenev": 8705,
      "Ġconceits": 8706,
      "Ġcrew": 8707,
      "Ġconstructive": 8708,
      "Ġtreatises": 8709,
      "Ġbeset": 8710,
      "Ġrarer": 8711,
      "Ġdiscoverer": 8712,
      "uously": 8713,
      "Ġmeasures": 8714,
      "Ġmeasurement": 8715,
      "prop": 8716,
      "prise": 8717,
      "Ġexcepting": 8718,
      "Ġphilosophizing": 8719,
      "Ġdeclares": 8720,
      "Ġpeaceful": 8721,
      "Ġgeometers": 8722,
      "Ġtestimony": 8723,
      "Ġhabituated": 8724,
      "Ġterrors": 8725,
      "Ġwool": 8726,
      "Ġbuzz": 8727,
      "Ġbuffo": 8728,
      "Ġinferiority": 8729,
      "exp": 8730,
      "exist": 8731,
      "Ġvisit": 8732,
      "Ġvisionary": 8733,
      "Ġvisionaries": 8734,
      "Ġsquares": 8735,
      "Ġhousehold": 8736,
      "Ġpromises": 8737,
      "Ġpromising": 8738,
      "Ġutterance": 8739,
      "phian": 8740,
      "phaed": 8741,
      "Ġdoctors": 8742,
      "Ġattributing": 8743,
      "Ġ400": 8744,
      "Ġdarkened": 8745,
      "Ġrepel": 8746,
      "Ġfaithful": 8747,
      "hetical": 8748,
      "Ġswan": 8749,
      "Ġcivilizations": 8750,
      "Ġdemigod": 8751,
      "rium": 8752,
      "Ġdiver": 8753,
      "Ġundes": 8754,
      "Ġliberal": 8755,
      "Ġspoil": 8756,
      "Ġjean": 8757,
      "Ġpersuading": 8758,
      "Ġpatron": 8759,
      "Ġemploying": 8760,
      "Ġemphas": 8761,
      "Ġcomprehension": 8762,
      "Ġjudgement": 8763,
      "Ġepit": 8764,
      "Ġidleness": 8765,
      "Ġromance": 8766,
      "Ġconnecting": 8767,
      "Ġvictors": 8768,
      "Ġvictorious": 8769,
      "Ġnegative": 8770,
      "Ġimprob": 8771,
      "Ġimproves": 8772,
      "Ġimproving": 8773,
      "Ġimproved": 8774,
      "Ġprofesses": 8775,
      "Ġprofessing": 8776,
      "metry": 8777,
      "Ġmadman": 8778,
      "Ġseparated": 8779,
      "Ġdissimilar": 8780,
      "Ġverified": 8781,
      "Ġverdict": 8782,
      "Ġlabouring": 8783,
      "Ġharmless": 8784,
      "Ġsatisfactorily": 8785,
      "Ġdelicacy": 8786,
      "Ġsweep": 8787,
      "Ġquarrels": 8788,
      "Ġnurt": 8789,
      "Ġchurches": 8790,
      "Ġobligatory": 8791,
      "aff": 8792,
      "evil": 8793,
      "without": 8794,
      "Ġnights": 8795,
      "Ġlacks": 8796,
      "Ġforgot": 8797,
      "Ġconsisting": 8798,
      "Ġregulation": 8799,
      "Ġregulating": 8800,
      "Ġvariation": 8801,
      "Ġdirector": 8802,
      "Ġdirections": 8803,
      "Ġslightest": 8804,
      "Ġcalam": 8805,
      "Ġdivides": 8806,
      "Ġpreferring": 8807,
[...]
