{
  "version": "1.0",
  "truncation": null,
  "padding": null,
  "added_tokens": [
    {
      "id": 0,
      "content": "<pad>",
      "single_word": false,
      "lstrip": false,
      "rstrip": false,
      "normalized": false,
      "special": true
    },
    {
      "id": 1,
      "content": "<unk>",
      "single_word": false,
      "lstrip": false,
      "rstrip": false,
      "normalized": false,
      "special": true
    },
    {
      "id": 2,
      "content": "<bos>",
      "single_word": false,
      "lstrip": false,
      "rstrip": false,
      "normalized": false,
      "special": true
    },
    {
      "id": 3,
      "content": "<eos>",
      "single_word": false,
      "lstrip": false,
      "rstrip": false,
      "normalized": false,
      "special": true
    }
  ],
  "normalizer": {
    "type": "Sequence",
    "normalizers": [
      {
        "type": "Replace",
        "pattern": {
          "String": "“"
        },
        "content": "\""
      },
      {
        "type": "Replace",
        "pattern": {
          "String": "”"
        },
        "content": "\""
      },
      {
        "type": "Replace",
        "pattern": {
          "String": "‘"
        },
        "content": "'"
      },
      {
        "type": "Replace",
        "pattern": {
          "String": "’"
        },
        "content": "'"
      },
      {
        "type": "Replace",
        "pattern": {
          "String": "—"
        },
        "content": "-"
      },
      {
        "type": "Replace",
        "pattern": {
          "String": "–"
        },
        "content": "-"
      },
      {
        "type": "Replace",
        "pattern": {
          "String": "…"
        },
        "content": "..."
      },
      {
        "type": "NFD"
      },
      {
        "type": "Lowercase"
      },
      {
        "type": "StripAccents"
      }
    ]
  },
  "pre_tokenizer": {
    "type": "ByteLevel",
    "add_prefix_space": true,
    "trim_offsets": true,
    "use_regex": true
  },
  "post_processor": {
    "type": "TemplateProcessing",
    "single": [
      {
        "SpecialToken": {
          "id": "<bos>",
          "type_id": 0
        }
      },
      {
        "Sequence": {
          "id": "A",
          "type_id": 0
        }
      },
      {
        "SpecialToken": {
          "id": "<eos>",
          "type_id": 0
        }
      }
    ],
    "pair": [
      {
        "SpecialToken": {
          "id": "<bos>",
          "type_id": 0
        }
      },
      {
        "Sequence": {
          "id": "A",
          "type_id": 0
        }
      },
      {
        "SpecialToken": {
          "id": "<eos>",
          "type_id": 0
        }
      },
      {
        "SpecialToken": {
          "id": "<bos>",
          "type_id": 0
        }
      },
      {
        "Sequence": {
          "id": "B",
          "type_id": 1
        }
      },
      {
        "SpecialToken": {
          "id": "<eos>",
          "type_id": 1
        }
      }
    ],
    "special_tokens": {
      "<bos>": {
        "id": "<bos>",
        "ids": [
          2
        ],
        "tokens": [
          "<bos>"
        ]
      },
      "<eos>": {
        "id": "<eos>",
        "ids": [
          3
        ],
        "tokens": [
          "<eos>"
        ]
      }
    }
  },
  "decoder": {
    "type": "ByteLevel",
    "add_prefix_space": true,
    "trim_offsets": true,
    "use_regex": true
  },
  "model": {
    "type": "BPE",
    "dropout": null,
    "unk_token": "<unk>",
    "continuing_subword_prefix": null,
    "end_of_word_suffix": null,
    "fuse_unk": false,
    "byte_fallback": false,
    "ignore_merges": false,
    "vocab": {
      "<pad>": 0,
      "<unk>": 1,
      "<bos>": 2,
      "<eos>": 3,
      "!": 4,
      "\"": 5,
      "#": 6,
      "$": 7,
      "%": 8,
      "&": 9,
      "'": 10,
      "(": 11,
      ")": 12,
      "*": 13,
      "+": 14,
      ",": 15,
      "-": 16,
      ".": 17,
      "/": 18,
      "0": 19,
      "1": 20,
      "2": 21,
      "3": 22,
      "4": 23,
      "5": 24,
      "6": 25,
      "7": 26,
      "8": 27,
      "9": 28,
      ":": 29,
      ";": 30,
      "<": 31,
      "=": 32,
      ">": 33,
      "?": 34,
      "@": 35,
      "[": 36,
      "\\": 37,
      "]": 38,
      "^": 39,
      "_": 40,
      "`": 41,
      "a": 42,
      "b": 43,
      "c": 44,
      "d": 45,
      "e": 46,
      "f": 47,
      "g": 48,
      "h": 49,
      "i": 50,
      "j": 51,
      "k": 52,
      "l": 53,
      "m": 54,
      "n": 55,
      "o": 56,
      "p": 57,
      "q": 58,
      "r": 59,
      "s": 60,
      "t": 61,
      "u": 62,
      "v": 63,
      "w": 64,
      "x": 65,
      "y": 66,
      "z": 67,
      "{": 68,
      "|": 69,
      "}": 70,
      "~": 71,
      "¡": 72,
      "¢": 73,
      "£": 74,
      "¤": 75,
      "¥": 76,
      "¦": 77,
      "§": 78,
      "¨": 79,
      "©": 80,
      "ª": 81,
      "«": 82,
      "¬": 83,
      "®": 84,
      "¯": 85,
      "°": 86,
      "±": 87,
      "²": 88,
      "³": 89,
      "´": 90,
      "µ": 91,
      "¶": 92,
      "·": 93,
      "¸": 94,
      "¹": 95,
      "º": 96,
      "»": 97,
      "¼": 98,
      "½": 99,
      "¾": 100,
      "¿": 101,
      "Â": 102,
      "Ã": 103,
      "Ä": 104,
      "Å": 105,
      "Æ": 106,
      "Ç": 107,
      "È": 108,
      "É": 109,
      "Ê": 110,
      "Ë": 111,
      "Î": 112,
      "Ï": 113,
      "Ð": 114,
      "Ñ": 115,
      "Ò": 116,
      "Ó": 117,
      "Õ": 118,
      "Ö": 119,
      "×": 120,
      "Ø": 121,
      "Ù": 122,
      "Ú": 123,
      "Û": 124,
      "Ý": 125,
      "à": 126,
      "á": 127,
      "â": 128,
      "ã": 129,
      "ä": 130,
      "å": 131,
      "æ": 132,
      "ç": 133,
      "è": 134,
      "é": 135,
      "ê": 136,
      "ï": 137,
      "ð": 138,
      "ô": 139,
      "ĉ": 140,
      "Ċ": 141,
      "č": 142,
      "Ġ": 143,
      "Ģ": 144,
      "ģ": 145,
      "Ĥ": 146,
      "ĥ": 147,
      "Ħ": 148,
      "ħ": 149,
      "Ĩ": 150,
      "ĩ": 151,
      "Ī": 152,
      "ī": 153,
      "Ĭ": 154,
      "ĭ": 155,
      "Į": 156,
      "į": 157,
      "İ": 158,
      "ı": 159,
      "Ĳ": 160,
      "ĳ": 161,
      "Ĵ": 162,
      "ĵ": 163,
      "Ķ": 164,
      "ķ": 165,
      "ĸ": 166,
      "Ĺ": 167,
      "ĺ": 168,
      "Ļ": 169,
      "ļ": 170,
      "Ľ": 171,
      "ľ": 172,
      "Ŀ": 173,
      "ŀ": 174,
      "Ł": 175,
      "ł": 176,
      "Ń": 177,
      "Ġt": 178,
      "Ġa": 179,
      "in": 180,
      "he": 181,
      "er": 182,
      "Ġthe": 183,
      "on": 184,
      "Ġs": 185,
      "re": 186,
      "Ġc": 187,
      "an": 188,
      "Ġo": 189,
      "Ġw": 190,
      "en": 191,
      "Ġf": 192,
      "Ġb": 193,
      "at": 194,
      "is": 195,
      "Ġp": 196,
      "ed": 197,
      "or": 198,
      "al": 199,
      "Ġin": 200,
      "es": 201,
      "it": 202,
      "ar": 203,
      "Ġm": 204,
      "Ġof": 205,
      "Ġan": 206,
      "Ġd": 207,
      "ic": 208,
      "as": 209,
      "ing": 210,
      "ro": 211,
      "Ġand": 212,
      "Ġl": 213,
      "ion": 214,
      "Ġh": 215,
      "Ġto": 216,
      "le": 217,
      "Ġ1": 218,
      "un": 219,
      "Ġre": 220,
      "il": 221,
      "Ġn": 222,
      "Ġg": 223,
      "ent": 224,
      "am": 225,
      "ur": 226,
      "Ġe": 227,
      "Ġ2": 228,
      "us": 229,
      "ol": 230,
      "om": 231,
      "el": 232,
      "ac": 233,
      "Ġ(": 234,
      "ad": 235,
      "ter": 236,
      "iv": 237,
      "Ġhe": 238,
      "Ġst": 239,
      "ut": 240,
      "Ġ20": 241,
      "Ġwas": 242,
      "st": 243,
      "ir": 244,
      "Ġon": 245,
      "Ġth": 246,
      "ers": 247,
      "ct": 248,
      "ation": 249,
      "et": 250,
      "ig": 251,
      "Ġ19": 252,
      "Ġfor": 253,
      "Ġas": 254,
      "id": 255,
      "ot": 256,
      "Ġj": 257,
      "ay": 258,
      "ch": 259,
      "Ġr": 260,
      "Ġis": 261,
      "im": 262,
      "em": 263,
      "ul": 264,
      "ist": 265,
      "Ġv": 266,
      "Ġk": 267,
      "Ġal": 268,
      "ly": 269,
      "Ġat": 270,
      "Ġch": 271,
      "Ġ201": 272,
      "Ġde": 273,
      "ith": 274,
      "Ġbe": 275,
      "Ġse": 276,
      "Ġ|": 277,
      "ow": 278,
      "ag": 279,
      "and": 280,
      "th": 281,
      "um": 282,
      "ĠĠ": 283,
      "ce": 284,
      "rom": 285,
      "Ġby": 286,
      "Ġwith": 287,
      "op": 288,
      "'s": 289,
      "ian": 290,
      "Ġcom": 291,
      "Ġun": 292,
      "Ġit": 293,
      "Ġcon": 294,
      "os": 295,
      "ri": 296,
      "Ġwh": 297,
      "est": 298,
      "ra": 299,
      "Ġfrom": 300,
      "Ġpl": 301,
      "ia": 302,
      "all": 303,
      "Ġpro": 304,
      "ber": 305,
      "Ġco": 306,
      "oc": 307,
      "her": 308,
      "ver": 309,
      "res": 310,
      "up": 311,
      "ces": 312,
      "if": 313,
      "ab": 314,
      "ain": 315,
      "Ġ\"": 316,
      "ate": 317,
      "Ġy": 318,
      "ity": 319,
      "art": 320,
      "ill": 321,
      "ies": 322,
      "Ġle": 323,
      "Ġex": 324,
      "ug": 325,
      "Ġthat": 326,
      "ub": 327,
      "ud": 328,
      "ard": 329,
      "av": 330,
      "Ġ||": 331,
      "ak": 332,
      "Ġhis": 333,
      "ip": 334,
      "qu": 335,
      "fer": 336,
      "ap": 337,
      "Ġne": 338,
      "ort": 339,
      "Ġar": 340,
      "Ġ-": 341,
      "Ġro": 342,
      "od": 343,
      "Ġsp": 344,
      "Ġfo": 345,
      "igh": 346,
      "und": 347,
      "ov": 348,
      "mer": 349,
      "ary": 350,
      "ated": 351,
      "Ġor": 352,
      "ish": 353,
      "ie": 354,
      "ant": 355,
      "Ġsh": 356,
      "ich": 357,
      "Ġte": 358,
      "so": 359,
      "ks": 360,
      "og": 361,
      "Ġcomp": 362,
      "Ġen": 363,
      "ong": 364,
      "Ġplay": 365,
      "Ġwor": 366,
      "ment": 367,
      "ust": 368,
      "ive": 369,
      "feren": 370,
      "se": 371,
      "ore": 372,
      "ial": 373,
      "tern": 374,
      "out": 375,
      "ge": 376,
      "Ġpe": 377,
      "ions": 378,
      "čĊ": 379,
      "Ġcl": 380,
      "ell": 381,
      "ire": 382,
      "ine": 383,
      "00": 384,
      "ast": 385,
      "uc": 386,
      "Ġshe": 387,
      "ame": 388,
      "ack": 389,
      "Ġaf": 390,
      "Ġreferen": 391,
      "ous": 392,
      "ight": 393,
      "Ġare": 394,
      "ure": 395,
      "Ġreferences": 396,
      "Ġmar": 397,
      "ere": 398,
      "Ġ18": 399,
      "are": 400,
      "ign": 401,
      "der": 402,
      "Ġher": 403,
      "pt": 404,
      "ember": 405,
      "pe": 406,
      "ric": 407,
      "Ġser": 408,
      "Ġsc": 409,
      "ational": 410,
      "ran": 411,
      "ess": 412,
      "ue": 413,
      "Ġalso": 414,
      "rit": 415,
      "unt": 416,
      "ical": 417,
      "cl": 418,
      "Ġfir": 419,
      "Ġap": 420,
      "ople": 421,
      "Ġad": 422,
      "Ġwere": 423,
      "),": 424,
      "Ġind": 425,
      "ord": 426,
      "Ġcol": 427,
      "age": 428,
      "ld": 429,
      "Ġfirst": 430,
      "Ġnew": 431,
      "Ġ200": 432,
      "orn": 433,
      "Ġ2016": 434,
      "Ġwhich": 435,
      "Ġ3": 436,
      "Ġfil": 437,
      "19": 438,
      "end": 439,
      "man": 440,
      "ugh": 441,
      "hed": 442,
      "ry": 443,
      "ear": 444,
      "ass": 445,
      "ult": 446,
      "te": 447,
      "ost": 448,
      "ang": 449,
      "ball": 450,
      "Ġpeople": 451,
      "amp": 452,
      "Ġac": 453,
      "ican": 454,
      "ction": 455,
      "Ġ199": 456,
      "iz": 457,
      "Ġfilm": 458,
      "Ġpart": 459,
      "ok": 460,
      "Ġnot": 461,
      "Ġhas": 462,
      "Ġwhe": 463,
      "ond": 464,
      "Ġbo": 465,
      "ace": 466,
      "urn": 467,
      "Ġjo": 468,
      "ib": 469,
      "Ġcomm": 470,
      "ory": 471,
      "ice": 472,
      "ivers": 473,
      "ide": 474,
      "20": 475,
      "Ġman": 476,
      "Ġgo": 477,
      "Ġab": 478,
      "Ġrep": 479,
      "Ġthis": 480,
      "ph": 481,
      "Ġcont": 482,
      "ath": 483,
      "ther": 484,
      "ach": 485,
      "Ġtw": 486,
      "Ġafter": 487,
      "Ġdes": 488,
      "ree": 489,
      "Ġrec": 490,
      "land": 491,
      "Ġ4": 492,
      "Ġhad": 493,
      "ren": 494,
      "Ġres": 495,
      "Ġwho": 496,
      "Ġag": 497,
      "ubl": 498,
      "Ġpr": 499,
      "ke": 500,
      "ations": 501,
      "ition": 502,
      "Ġamer": 503,
      "per": 504,
      "ite": 505,
      "Ġtheir": 506,
      "ics": 507,
      "Ġus": 508,
      "Ġyear": 509,
      "Ġfin": 510,
      "Ġper": 511,
      "Ġall": 512,
      "Ġsch": 513,
      "ave": 514,
      "ts": 515,
      "ild": 516,
      "ater": 517,
      "aw": 518,
      "Ġone": 519,
      "ime": 520,
      "ru": 521,
      "Ġpar": 522,
      "Ġpol": 523,
      "Ġlin": 524,
      "Ġfoot": 525,
      "Ġtr": 526,
      "own": 527,
      "hip": 528,
      "ward": 529,
      "ason": 530,
      "ec": 531,
      "ens": 532,
      "ors": 533,
      "Ġass": 534,
      "ff": 535,
      "Ġunivers": 536,
      "ome": 537,
      "Ġfe": 538,
      "to": 539,
      "mp": 540,
      "Ġits": 541,
      "Ġqu": 542,
      "Ġed": 543,
      "Ġamerican": 544,
      "Ġmed": 545,
      "ates": 546,
      "Ġbut": 547,
      "Ġoff": 548,
      "io": 549,
      "Ġmus": 550,
      "Ġfootball": 551,
      "iss": 552,
      "ade": 553,
      "ile": 554,
      "Ġreg": 555,
      "Ġi": 556,
      "les": 557,
      "ited": 558,
      "ents": 559,
      "Ġsec": 560,
      "Ġme": 561,
      "Ġcan": 562,
      "Ġwe": 563,
      "act": 564,
      "wn": 565,
      "Ġpre": 566,
      "Ġtwo": 567,
      "Ġteam": 568,
      "ool": 569,
      "Ġpres": 570,
      "Ġev": 571,
      "ne": 572,
      "Ġso": 573,
      "Ġ198": 574,
      "ames": 575,
      "ists": 576,
      "ail": 577,
      "Ġact": 578,
      "clud": 579,
      "we": 580,
      "Ġbir": 581,
      "uring": 582,
      "for": 583,
      "Ġthey": 584,
      ").": 585,
      "ased": 586,
      "Ġhist": 587,
      "Ġbu": 588,
      "Ġgro": 589,
      "Ġele": 590,
      "ision": 591,
      "Ġnational": 592,
      "Ġph": 593,
      "Ġbr": 594,
      "als": 595,
      "Ġwom": 596,
      "Ġuniversity": 597,
      "ale": 598,
      "Ġplayers": 599,
      "ings": 600,
      "Ġbec": 601,
      "Ġdis": 602,
      "ah": 603,
      "Ġz": 604,
      "Ġcount": 605,
      "cted": 606,
      "ied": 607,
      "Ġ5": 608,
      "Ġim": 609,
      "Ġserv": 610,
      "ton": 611,
      "port": 612,
      "old": 613,
      "ence": 614,
      "Ġwork": 615,
      "one": 616,
      "Ġinclud": 617,
      "Ġgr": 618,
      "Ġseason": 619,
      "Ġmin": 620,
      "Ġart": 621,
      "ternal": 622,
      "Ġbl": 623,
      "ished": 624,
      "ters": 625,
      "vel": 626,
      "iving": 627,
      "Ġcent": 628,
      "uld": 629,
      "Ġschool": 630,
      "Ġup": 631,
      "Ġstate": 632,
      "Ġbirth": 633,
      "ral": 634,
      "co": 635,
      "Ġworld": 636,
      "outh": 637,
      "Ġcar": 638,
      "Ġother": 639,
      "Ġexternal": 640,
      "Ġlinks": 641,
      "Ġdist": 642,
      "ury": 643,
      "ted": 644,
      "gan": 645,
      "Ġeng": 646,
      "Ġam": 647,
      "Ġwin": 648,
      "Ġfl": 649,
      "Ġout": 650,
      "Ġdec": 651,
      "ally": 652,
      "olog": 653,
      "Ġwomen": 654,
      "rib": 655,
      "Ġloc": 656,
      "Ġhave": 657,
      "Ġmay": 658,
      "Ġpubl": 659,
      "Ġover": 660,
      "ve": 661,
      "Ġbeen": 662,
      "Ġ197": 663,
      "Ġdo": 664,
      "Ġduring": 665,
      "cent": 666,
      "Ġsup": 667,
      "Ġsing": 668,
      "ance": 669,
      "Ġwo": 670,
      "Ġgen": 671,
      "pl": 672,
      "ik": 673,
      "oll": 674,
      "Ġstud": 675,
      "az": 676,
      "Ġchamp": 677,
      "Ġunder": 678,
      "Ġ6": 679,
      "ase": 680,
      "Ġatt": 681,
      "oci": 682,
      "ect": 683,
      "Ġnor": 684,
      "che": 685,
      "Ġmon": 686,
      "Ġgu": 687,
      "Ġop": 688,
      "Ġcolle": 689,
      "Ġbro": 690,
      "able": 691,
      "Ġear": 692,
      "ress": 693,
      "Ġest": 694,
      "Ġpo": 695,
      "Ġ196": 696,
      "Ġmo": 697,
      "iel": 698,
      "Ġkn": 699,
      "Ġprod": 700,
      "Ġtime": 701,
      "ely": 702,
      "ft": 703,
      "Ġintern": 704,
      "Ġaward": 705,
      "Ġdr": 706,
      "Ġma": 707,
      "Ġsy": 708,
      "ident": 709,
      "Ġalb": 710,
      "ix": 711,
      "ose": 712,
      "uch": 713,
      "ĠĠĠĠ": 714,
      "Ġsw": 715,
      "ife": 716,
      "ier": 717,
      "ina": 718,
      "Ġnov": 719,
      "Ġwar": 720,
      "18": 721,
      "way": 722,
      "Ġrecord": 723,
      "Ġu": 724,
      "Ġsecond": 725,
      "unc": 726,
      "Ġgames": 727,
      "Ġbirths": 728,
      "Ġbet": 729,
      "Ġ2017": 730,
      "Ġwhen": 731,
      "Ġunited": 732,
      "ung": 733,
      "Ġlist": 734,
      "Ġsouth": 735,
      "ans": 736,
      "ily": 737,
      "Ġla": 738,
      "Ġ7": 739,
      "Ġgre": 740,
      "Ġdire": 741,
      "ague": 742,
      "Ġinternational": 743,
      "Ġchampions": 744,
      "Ġagain": 745,
      "Ġcare": 746,
      "ep": 747,
      "Ġrele": 748,
      "ict": 749,
      "Ġinto": 750,
      "Ġcompet": 751,
      "cess": 752,
      "Ġmat": 753,
      "Ġhim": 754,
      "abl": 755,
      "ake": 756,
      "Ġtra": 757,
      "Ġfound": 758,
      "Ġwill": 759,
      "Ġoly": 760,
      "Ġchar": 761,
      "round": 762,
      "Ġolymp": 763,
      "ious": 764,
      "Ġcons": 765,
      "emb": 766,
      "Ġ194": 767,
      "Ġsum": 768,
      "Ġspec": 769,
      "ick": 770,
      "Ġwhere": 771,
      "ogra": 772,
      "Ġhous": 773,
      "ative": 774,
      "Ġinst": 775,
      "Ġthere": 776,
      "Ġel": 777,
      "air": 778,
      "Ġaust": 779,
      "Ġgroup": 780,
      "ons": 781,
      "Ġseries": 782,
      "Ġsong": 783,
      "Ġ195": 784,
      "Ġ|-": 785,
      "the": 786,
      "vern": 787,
      "Ġsub": 788,
      "ince": 789,
      "Ġfilms": 790,
      "Ġdef": 791,
      "red": 792,
      "Ġinter": 793,
      "form": 794,
      "Ġapp": 795,
      "Ġthree": 796,
      "Ġno": 797,
      "Ġmusic": 798,
      "Ġ17": 799,
      "ollow": 800,
      "Ġprof": 801,
      "born": 802,
      "Ġfran": 803,
      "Ġ8": 804,
      "Ġret": 805,
      "Ġalbum": 806,
      "Ġliving": 807,
      "Ġjun": 808,
      "Ġfam": 809,
      "Ġwrit": 810,
      "Ġ2015": 811,
      "Ġleague": 812,
      "rans": 813,
      "Ġfollow": 814,
      "bo": 815,
      "ities": 816,
      "ins": 817,
      "gr": 818,
      "oth": 819,
      "Ġjan": 820,
      "Ġsa": 821,
      "Ġlater": 822,
      "Ġyears": 823,
      "ys": 824,
      "ating": 825,
      "ptember": 826,
      "ann": 827,
      "Ġstates": 828,
      "Ġgovern": 829,
      "Ġmov": 830,
      "rict": 831,
      "Ġent": 832,
      "ĠĠĠ": 833,
      "Ġmet": 834,
      "eral": 835,
      "Ġform": 836,
      "ou": 837,
      "Ġtrans": 838,
      "Ġcompan": 839,
      "ement": 840,
      "Ġchampionship": 841,
      "Ġrel": 842,
      "Ġcity": 843,
      "Ġsur": 844,
      "Ġwould": 845,
      "Ġseptember": 846,
      "Ġend": 847,
      "Ġmore": 848,
      "Ġbuild": 849,
      "ctor": 850,
      "Ġthro": 851,
      "Ġjul": 852,
      "Ġmade": 853,
      "ank": 854,
      "uro": 855,
      "ork": 856,
      "let": 857,
      "ional": 858,
      "Ġcap": 859,
      "ield": 860,
      "ai": 861,
      "Ġfour": 862,
      "Ġdiv": 863,
      "Ġoffic": 864,
      "Ġcareer": 865,
      "ese": 866,
      "Ġdep": 867,
      "ket": 868,
      "ograph": 869,
      "Ġhistory": 870,
      "Ġclub": 871,
      "Ġabout": 872,
      "Ġhigh": 873,
      "ister": 874,
      "Ġrem": 875,
      "enn": 876,
      "uss": 877,
      "Ġge": 878,
      "cto": 879,
      "hn": 880,
      "Ġ193": 881,
      "Ġger": 882,
      "ween": 883,
      "Ġinv": 884,
      "Ġrece": 885,
      "Âł": 886,
      "ific": 887,
      "Ġdeath": 888,
      "ctober": 889,
      "lo": 890,
      "Ġ10": 891,
      "ron": 892,
      "ular": 893,
      "Ġbetween": 894,
      "ived": 895,
      "Ġbar": 896,
      "ual": 897,
      "Ġcounty": 898,
      ".\"": 899,
      "Ġann": 900,
      "Ġestabl": 901,
      "Ġlead": 902,
      "Ġsm": 903,
      "by": 904,
      "Ġoctober": 905,
      "ute": 906,
      "son": 907,
      "Ġcre": 908,
      "201": 909,
      "ery": 910,
      "Ġmost": 911,
      "Ġthen": 912,
      "Ġpolit": 913,
      "Ġprov": 914,
      "erson": 915,
      "Ġpop": 916,
      "Ġsummer": 917,
      "Ġaug": 918,
      "Ġ9": 919,
      "our": 920,
      "min": 921,
      "Ġdistrict": 922,
      "Ġwhile": 923,
      "ley": 924,
      "Ġsee": 925,
      "ten": 926,
      "int": 927,
      "yle": 928,
      "fore": 929,
      "Ġonly": 930,
      "Ġwon": 931,
      "Ġlife": 932,
      "Ġbrit": 933,
      "col": 934,
      "ures": 935,
      "\".": 936,
      "Ġaustral": 937,
      "Ġbel": 938,
      "sh": 939,
      "Ġ16": 940,
      "Ġthrough": 941,
      "Ġaugust": 942,
      "Ġhow": 943,
      "iam": 944,
      "Ġassoci": 945,
      "Ġnorth": 946,
      "Ġrev": 947,
      "ss": 948,
      "ner": 949,
      "Ġagainst": 950,
      "Ġ15": 951,
      "iew": 952,
      "Ġexp": 953,
      "com": 954,
      "Ġvill": 955,
      "Ġnum": 956,
      "Ġset": 957,
      "Ġair": 958,
      "Ġcommun": 959,
      "Ġday": 960,
      "Ġter": 961,
      "ind": 962,
      "velop": 963,
      "Ġthem": 964,
      "Ġback": 965,
      "ae": 966,
      "resent": 967,
      "Ġcor": 968,
      "Ġbecame": 969,
      "urch": 970,
      "Ġ2018": 971,
      "Ġknown": 972,
      "Ġarm": 973,
      "Ġhouse": 974,
      "Ġprofess": 975,
      "Ġgerman": 976,
      "Ġpos": 977,
      "Ġjuly": 978,
      "enc": 979,
      "ough": 980,
      "Ġmain": 981,
      "Ġdesc": 982,
      "Ġjohn": 983,
      "Ġsport": 984,
      "Ġmen": 985,
      "ert": 986,
      "ather": 987,
      "Ġfamily": 988,
      "Ġdevelop": 989,
      "att": 990,
      "Ġeuro": 991,
      "Ġwell": 992,
      "Ġshow": 993,
      "ning": 994,
      "Ġbas": 995,
      "Ġsome": 996,
      "uary": 997,
      "21": 998,
      "Ġpublic": 999,
      "bs": 1000,
      "ise": 1001,
      "Ġ2014": 1002,
      "Ġindian": 1003,
      "Ġcall": 1004,
      "Ġnovember": 1005,
      "Ġclass": 1006,
      "17": 1007,
      "aus": 1008,
      "Ġplace": 1009,
      "arch": 1010,
      "ash": 1011,
      "ology": 1012,
      "Ġmil": 1013,
      "Ġ&": 1014,
      "Ġorgan": 1015,
      "ern": 1016,
      "Ġbefore": 1017,
      "Ġadd": 1018,
      "Ġstart": 1019,
      "Ġcollege": 1020,
      "\",": 1021,
      "anc": 1022,
      "century": 1023,
      "Ġli": 1024,
      "ze": 1025,
      "Ġtele": 1026,
      "Ġconst": 1027,
      "Ġthan": 1028,
      "ars": 1029,
      "Ġlaw": 1030,
      "itt": 1031,
      "Ġmedal": 1032,
      "Ġcour": 1033,
      "Ġinc": 1034,
      "Ġopen": 1035,
      "Ġdem": 1036,
      "Ġrun": 1037,
      "amed": 1038,
      "Ġhistor": 1039,
      "Ġking": 1040,
      "ature": 1041,
      "Ġrom": 1042,
      "ject": 1043,
      "ments": 1044,
      "ined": 1045,
      "Ġmod": 1046,
      "Ġearly": 1047,
      "Ġbeing": 1048,
      "ull": 1049,
      "Ġgame": 1050,
      "Ġmiss": 1051,
      "Ġem": 1052,
      "Ġreleased": 1053,
      "Ġarch": 1054,
      "Ġcur": 1055,
      "other": 1056,
      "Ġhead": 1057,
      "Ġleg": 1058,
      "Ġrepresent": 1059,
      "Ġsci": 1060,
      "Ġeduc": 1061,
      "ril": 1062,
      "Ġep": 1063,
      "xt": 1064,
      "Ġjanuary": 1065,
      "ians": 1066,
      "its": 1067,
      "ior": 1068,
      "ural": 1069,
      "=\"": 1070,
      "ey": 1071,
      "Ġmarch": 1072,
      "Ġche": 1073,
      "ll": 1074,
      "Ġdesign": 1075,
      "Ġplayed": 1076,
      "Ġoper": 1077,
      "ved": 1078,
      "iver": 1079,
      "ism": 1080,
      "con": 1081,
      "Ġbritish": 1082,
      "000": 1083,
      "ower": 1084,
      "aly": 1085,
      "Ġlar": 1086,
      "vision": 1087,
      "Ġborn": 1088,
      "Ġfollowing": 1089,
      "Ġpresident": 1090,
      "eng": 1091,
      "Ġincluding": 1092,
      "por": 1093,
      "Ġboth": 1094,
      "ired": 1095,
      "fe": 1096,
      "ood": 1097,
      "Ġsince": 1098,
      "Ġjune": 1099,
      "Ġ12": 1100,
      "Ġresult": 1101,
      "ium": 1102,
      "Ġunt": 1103,
      "Ġtown": 1104,
      "Ġchild": 1105,
      "Ġhar": 1106,
      "Ġaut": 1107,
      "ty": 1108,
      "alif": 1109,
      "Ġcompany": 1110,
      "Ġsign": 1111,
      "Ġappe": 1112,
      "Ġra": 1113,
      "Ġcro": 1114,
      "fl": 1115,
      "Ġformer": 1116,
      "ives": 1117,
      "Ġlong": 1118,
      "ana": 1119,
      "Ġint": 1120,
      "Ġprodu": 1121,
      "Ġuntil": 1122,
      "Ġlo": 1123,
      "cc": 1124,
      "igin": 1125,
      "sp": 1126,
      "Ġdivision": 1127,
      "ica": 1128,
      "Ġbus": 1129,
      "Ġir": 1130,
      "Ġacc": 1131,
      "Ġ14": 1132,
      "Ġmember": 1133,
      "ution": 1134,
      "Ġmemb": 1135,
      "Ġsuch": 1136,
      "Ġperson": 1137,
      "ography": 1138,
      "ital": 1139,
      "Ġdecember": 1140,
      "Ġapril": 1141,
      "Ġgovernment": 1142,
      "Ġtit": 1143,
      "Ġpri": 1144,
      "Ġeurope": 1145,
      "Ġdeb": 1146,
      "ata": 1147,
      "Ġfinal": 1148,
      "Ġolympics": 1149,
      "10": 1150,
      "mon": 1151,
      "Ġchurch": 1152,
      "Ġown": 1153,
      "Ġmembers": 1154,
      "Ġsen": 1155,
      "ock": 1156,
      "Ġ13": 1157,
      "ck": 1158,
      "ara": 1159,
      "ized": 1160,
      "Ġwest": 1161,
      "bru": 1162,
      "urg": 1163,
      "rench": 1164,
      "ama": 1165,
      "ris": 1166,
      "au": 1167,
      "Ġbest": 1168,
      "ained": 1169,
      "Ġste": 1170,
      "Ġport": 1171,
      "Ġused": 1172,
      "Ġthir": 1173,
      "Ġimp": 1174,
      "bruary": 1175,
      "Ġsl": 1176,
      "ants": 1177,
      "de": 1178,
      "Ġnumber": 1179,
      "Ġ2019": 1180,
      "Ġtelevision": 1181,
      "Ġ21": 1182,
      "Ġcamp": 1183,
      "Ġmany": 1184,
      "ott": 1185,
      "inc": 1186,
      "Ġevent": 1187,
      "Ġsever": 1188,
      "Ġvar": 1189,
      "ages": 1190,
      "sour": 1191,
      "Ġname": 1192,
      "els": 1193,
      "Ġcup": 1194,
      "Ġorigin": 1195,
      "Ġstre": 1196,
      "Ġdescrib": 1197,
      "ches": 1198,
      "Ġ.": 1199,
      "ek": 1200,
      "Ġfrench": 1201,
      "16": 1202,
      "Ġfebruary": 1203,
      "Ġheld": 1204,
      "Ġ192": 1205,
      "right": 1206,
      "rist": 1207,
      "ats": 1208,
      "apan": 1209,
      "Ġassociation": 1210,
      "icip": 1211,
      "Ġstr": 1212,
      "Ġadv": 1213,
      "Ġyork": 1214,
      "Ġsoc": 1215,
      "na": 1216,
      "Ġ2013": 1217,
      "elf": 1218,
      "Ġje": 1219,
      "Ġred": 1220,
      "gram": 1221,
      "Ġmid": 1222,
      "Ġtim": 1223,
      "Ġafric": 1224,
      "Ġpat": 1225,
      "led": 1226,
      "Ġmis": 1227,
      "que": 1228,
      "Ġav": 1229,
      "iet": 1230,
      "Ġext": 1231,
      "ni": 1232,
      "Ġthese": 1233,
      "Ġ11": 1234,
      "Ġmale": 1235,
      "Ġmag": 1236,
      "Ġfac": 1237,
      "uk": 1238,
      "Ġgeneral": 1239,
      "ator": 1240,
      "Ġbi": 1241,
      "Ġmaj": 1242,
      "Ġproduc": 1243,
      "Ġprom": 1244,
      "Ġorder": 1245,
      "Ġsim": 1246,
      "stem": 1247,
      "Ġparty": 1248,
      "Ġplac": 1249,
      "Ġserved": 1250,
      "Ġhome": 1251,
      "ark": 1252,
      "Ġsports": 1253,
      "200": 1254,
      "lish": 1255,
      "Ġland": 1256,
      "Ġprogram": 1257,
      "Ġ2020": 1258,
      "adem": 1259,
      "Ġhel": 1260,
      "itions": 1261,
      "Ġfield": 1262,
      "Ġval": 1263,
      "Ġmount": 1264,
      "ever": 1265,
      "Ġstyle": 1266,
      "Ġ'": 1267,
      "Ġbre": 1268,
      "Ġarea": 1269,
      "Ġjapan": 1270,
      "Ġdel": 1271,
      "ried": 1272,
      "ament": 1273,
      "Ġlocated": 1274,
      "ps": 1275,
      "ham": 1276,
      "Ġbased": 1277,
      "Ġround": 1278,
      "Ġrese": 1279,
      "ky": 1280,
      "Ġmal": 1281,
      "Ġcomple": 1282,
      "Ġcanad": 1283,
      "Ġx": 1284,
      "Ġphil": 1285,
      "Ġ190": 1286,
      "Ġreturn": 1287,
      "Ġofficial": 1288,
      "ues": 1289,
      "Ġii": 1290,
      "Ġpost": 1291,
      "Ġinstit": 1292,
      "Ġruss": 1293,
      "Ġestablished": 1294,
      "Ġmanag": 1295,
      "Ġvol": 1296,
      "color": 1297,
      "Ġtop": 1298,
      "Ġnamed": 1299,
      "Ġeach": 1300,
      "Ġ2012": 1301,
      "Ġsystem": 1302,
      "alth": 1303,
      "ared": 1304,
      "ilt": 1305,
      "Ġcast": 1306,
      "Ġpa": 1307,
      "Ġseveral": 1308,
      "ival": 1309,
      "Ġson": 1310,
      "Ġindia": 1311,
      "me": 1312,
      "erv": 1313,
      "ctions": 1314,
      "Ġjust": 1315,
      "ground": 1316,
      "Ġes": 1317,
      "Ġreceived": 1318,
      "hern": 1319,
      "Ġvillage": 1320,
      "Ġdif": 1321,
      "Ġenglish": 1322,
      "aking": 1323,
      "Ġsame": 1324,
      "Ġmill": 1325,
      "Ġtook": 1326,
      "Ġplayer": 1327,
      "ets": 1328,
      "Ġpass": 1329,
      "Ġhowever": 1330,
      "rent": 1331,
      "Ġfre": 1332,
      "ington": 1333,
      "ption": 1334,
      "Ġthird": 1335,
      "iness": 1336,
      "pos": 1337,
      "Ġyo": 1338,
      "yl": 1339,
      "amb": 1340,
      "Ġ2011": 1341,
      "Ġcalled": 1342,
      "Ġcr": 1343,
      "Ġmajor": 1344,
      "ene": 1345,
      "Ġsupport": 1346,
      "Ġtourn": 1347,
      "Ġacadem": 1348,
      "Ġ2010": 1349,
      "Ġer": 1350,
      "ove": 1351,
      "bert": 1352,
      "Ġgeor": 1353,
      "ille": 1354,
      "Ġsuc": 1355,
      "Ġtech": 1356,
      "rest": 1357,
      "Ġbuilding": 1358,
      "Ġbegan": 1359,
      "rop": 1360,
      "Ġdescribed": 1361,
      "Ġsu": 1362,
      "Ġlocal": 1363,
      "li": 1364,
      "ended": 1365,
      "ider": 1366,
      "Ġprev": 1367,
      "Ġdra": 1368,
      "Ġdebut": 1369,
      "Ġalign": 1370,
      "ful": 1371,
      "ret": 1372,
      "Ġ189": 1373,
      "Ġcontin": 1374,
      "Ġstat": 1375,
      "ility": 1376,
      "imm": 1377,
      "Ġnear": 1378,
      "Ġtri": 1379,
      "Ġfem": 1380,
      "ange": 1381,
      "Ġob": 1382,
      "Ġright": 1383,
      "Ġgold": 1384,
      "ino": 1385,
      "Ġang": 1386,
      "ays": 1387,
      "ards": 1388,
      "Ġrail": 1389,
      "yn": 1390,
      "ised": 1391,
      "hen": 1392,
      "Ġalong": 1393,
      "Ġcounc": 1394,
      "ane": 1395,
      "Ġgl": 1396,
      "augh": 1397,
      "gin": 1398,
      "gcolor": 1399,
      "Ġath": 1400,
      "sc": 1401,
      "Ġsix": 1402,
      "angu": 1403,
      "back": 1404,
      "Ġsan": 1405,
      "ven": 1406,
      "yal": 1407,
      "Ġpark": 1408,
      "Ġeducation": 1409,
      "get": 1410,
      "Ġlos": 1411,
      "Ġeast": 1412,
      "Ġdeaths": 1413,
      "souri": 1414,
      "Ġsingle": 1415,
      "14": 1416,
      "Ġty": 1417,
      "Ġital": 1418,
      "ruct": 1419,
      "Ġresearch": 1420,
      "Ġmissouri": 1421,
      "Ġbusiness": 1422,
      "Ġdid": 1423,
      "Ġbook": 1424,
      "Ġreport": 1425,
      "Ġcy": 1426,
      "Ġsho": 1427,
      "hor": 1428,
      "urs": 1429,
      "Ġbra": 1430,
      "Ġchrist": 1431,
      "Ġpublished": 1432,
      "ices": 1433,
      "ains": 1434,
      "Ġyoung": 1435,
      "acks": 1436,
      "ha": 1437,
      "ided": 1438,
      "Ġline": 1439,
      "ger": 1440,
      "Ġbgcolor": 1441,
      "Ġchampionships": 1442,
      "ines": 1443,
      "Ġblack": 1444,
      "Ġawards": 1445,
      "atic": 1446,
      "ya": 1447,
      "Ġfar": 1448,
      "ala": 1449,
      "Ġdirector": 1450,
      "Ġjourn": 1451,
      "ma": 1452,
      "Ġsoci": 1453,
      "ored": 1454,
      "Ġke": 1455,
      "ca": 1456,
      "ety": 1457,
      "ondon": 1458,
      "ause": 1459,
      "Ġwal": 1460,
      "Ġrepubl": 1461,
      "15": 1462,
      "Ġroman": 1463,
      "Ġcrit": 1464,
      "Ġgrand": 1465,
      "Ġband": 1466,
      "Ġworks": 1467,
      "Ġstation": 1468,
      "ple": 1469,
      "ling": 1470,
      "ped": 1471,
      "Ġmilit": 1472,
      "Ġtournament": 1473,
      "umb": 1474,
      "Ġsol": 1475,
      "ible": 1476,
      "ract": 1477,
      "omin": 1478,
      "Ġroad": 1479,
      "Ġdue": 1480,
      "Ġever": 1481,
      "aster": 1482,
      "Ġvide": 1483,
      "adu": 1484,
      "Ġfootballers": 1485,
      "Ġcult": 1486,
      "Ġcouncil": 1487,
      "Ġhon": 1488,
      "Ġdu": 1489,
      "Ġshort": 1490,
      "Ġ188": 1491,
      "Ġchildren": 1492,
      "aint": 1493,
      "Ġsal": 1494,
      "han": 1495,
      "Ġarmy": 1496,
      "ony": 1497,
      "..": 1498,
      "Ġbuilt": 1499,
      "13": 1500,
      "Ġsil": 1501,
      "Ġdown": 1502,
      "12": 1503,
      "ounc": 1504,
      "Ġfive": 1505,
      "tal": 1506,
      "Ġproject": 1507,
      "hes": 1508,
      "=#": 1509,
      "Ġrad": 1510,
      "Ġepis": 1511,
      "ued": 1512,
      "Ġany": 1513,
      "Ġtre": 1514,
      "Ġvis": 1515,
      "Ġmy": 1516,
      "Ġsaid": 1517,
      "Ġdepart": 1518,
      "Ġaustralia": 1519,
      "be": 1520,
      "ford": 1521,
      "Ġlondon": 1522,
      "Ġservice": 1523,
      "Ġspecies": 1524,
      "Ġvict": 1525,
      "key": 1526,
      "gy": 1527,
      "Ġitalian": 1528,
      "Ġhal": 1529,
      "Ġ25": 1530,
      "ief": 1531,
      "Ġisland": 1532,
      "Ġvi": 1533,
      "Ġlab": 1534,
      "Ġeff": 1535,
      "Ġque": 1536,
      "Ġunion": 1537,
      "Ġhum": 1538,
      "side": 1539,
      "Ġstand": 1540,
      "estern": 1541,
      "Ġaround": 1542,
      "Ġmer": 1543,
      "Ġeuropean": 1544,
      "aving": 1545,
      "ulation": 1546,
      "Ġengine": 1547,
      "Ġ30": 1548,
      "Ġemp": 1549,
      "Ġsmall": 1550,
      "199": 1551,
      "Ġant": 1552,
      "Ġuse": 1553,
      "Ġactiv": 1554,
      "ission": 1555,
      "Ġprofessional": 1556,
      "Ġdi": 1557,
      "Ġriver": 1558,
      "ows": 1559,
      "Ġtour": 1560,
      "Ġ47": 1561,
      "ually": 1562,
      "Ġwilliam": 1563,
      "Ġleft": 1564,
      "Ġtrack": 1565,
      "Ġwater": 1566,
      "iter": 1567,
      "Ġlast": 1568,
      "Ġathlet": 1569,
      "Ġspecial": 1570,
      "Ġannounc": 1571,
      "Ġocc": 1572,
      "ishop": 1573,
      "Ġmuse": 1574,
      "ms": 1575,
      "Ġdevelopment": 1576,
      "Ġold": 1577,
      "Ġolympic": 1578,
      "Ġcurrent": 1579,
      "ob": 1580,
      "Ġfather": 1581,
      "Ġsocial": 1582,
      "Ġcountry": 1583,
      "Ġdied": 1584,
      "Ġaustralian": 1585,
      "Ġdav": 1586,
      "Ġelection": 1587,
      "med": 1588,
      "Ġsongs": 1589,
      "ico": 1590,
      "Ġver": 1591,
      "Ġcourt": 1592,
      "Ġroyal": 1593,
      "Ġsuper": 1594,
      "Ġdon": 1595,
      "Ġcharac": 1596,
      "du": 1597,
      "ured": 1598,
      "Ġcommunity": 1599,
      "day": 1600,
      "Ġnet": 1601,
      "ring": 1602,
      "Ġfur": 1603,
      "Ġepisod": 1604,
      "Ġcompos": 1605,
      "Ġorganiz": 1606,
      "Ġteams": 1607,
      "Ġrest": 1608,
      "Ġhand": 1609,
      "Ġcentral": 1610,
      "ides": 1611,
      "ades": 1612,
      "Ġalum": 1613,
      "Ġrace": 1614,
      "ka": 1615,
      "ds": 1616,
      "Ġbasket": 1617,
      "Ġpresent": 1618,
      "Ġmich": 1619,
      "Ġswimm": 1620,
      "anguage": 1621,
      "Ġmilitary": 1622,
      "ners": 1623,
      "Ġmor": 1624,
      "Ġmedalists": 1625,
      "atch": 1626,
      "Ġsuccess": 1627,
      "amer": 1628,
      "Ġsqu": 1629,
      "Ġber": 1630,
      "Ġlike": 1631,
      "af": 1632,
      "Ġtechn": 1633,
      "Ġcommit": 1634,
      "Ġpan": 1635,
      "pect": 1636,
      "riend": 1637,
      "akes": 1638,
      "Ġevents": 1639,
      "Ġtur": 1640,
      "Ġnow": 1641,
      "Ġtrain": 1642,
      "ones": 1643,
      "Ġsk": 1644,
      "vers": 1645,
      "Ġkill": 1646,
      "br": 1647,
      "oy": 1648,
      "ference": 1649,
      "Ġweek": 1650,
      "Ġpal": 1651,
      "Ġtitle": 1652,
      "lin": 1653,
      "Ġhistoric": 1654,
      "Ġstar": 1655,
      "inted": 1656,
      "ax": 1657,
      "Ġale": 1658,
      "Ġaddition": 1659,
      "ality": 1660,
      "Ġrac": 1661,
      "Ġif": 1662,
      "Ġ2008": 1663,
      "Ġpower": 1664,
      "Ġappro": 1665,
      "Ġvideo": 1666,
      "Ġ24": 1667,
      "Ġcentury": 1668,
      "Ġpolitic": 1669,
      "oks": 1670,
      "ged": 1671,
      "ribut": 1672,
      "Ġmoved": 1673,
      "Ġgreat": 1674,
      "Ġmuseum": 1675,
      "Ġalumni": 1676,
      "Ġspace": 1677,
      "Ġprim": 1678,
      "anish": 1679,
      "cept": 1680,
      "ump": 1681,
      "Ġpolitical": 1682,
      "Ġaccord": 1683,
      "Ġjud": 1684,
      "Ġconc": 1685,
      "Ġminister": 1686,
      "Ġbasketball": 1687,
      "idge": 1688,
      "ler": 1689,
      "Ġresults": 1690,
      "burg": 1691,
      "istr": 1692,
      "Ġ,": 1693,
      "Ġanother": 1694,
      "app": 1695,
      "itect": 1696,
      "Ġ186": 1697,
      "osp": 1698,
      "nd": 1699,
      "go": 1700,
      "Ġbatt": 1701,
      "Ġbuildings": 1702,
      "Ġannounced": 1703,
      "Ġtem": 1704,
      "Ġcould": 1705,
      "Ġsociety": 1706,
      "iment": 1707,
      "Ġstarted": 1708,
      "oph": 1709,
      "Ġnort": 1710,
      "Ġ2021": 1711,
      "ument": 1712,
      "Ġet": 1713,
      "Ġfed": 1714,
      "Ġworked": 1715,
      "Ġ187": 1716,
      "Ġiss": 1717,
      "Ġcenter": 1718,
      "Ġmart": 1719,
      "Ġdisc": 1720,
      "Ġprem": 1721,
      "Ġ2009": 1722,
      "Ġcontro": 1723,
      "Ġarchitect": 1724,
      "Ġ23": 1725,
      "gress": 1726,
      "Ġtotal": 1727,
      "Ġjournal": 1728,
      "ency": 1729,
      "Ġparticip": 1730,
      "Ġsele": 1731,
      "Ġprevious": 1732,
      "ately": 1733,
      "Ġnon": 1734,
      "Ġuk": 1735,
      "Ġce": 1736,
      "Ġbishop": 1737,
      "Ġreview": 1738,
      "Ġage": 1739,
      "ially": 1740,
      "tt": 1741,
      "Ġtimes": 1742,
      "ett": 1743,
      "Ġcommon": 1744,
      "Ġappo": 1745,
      "Ġve": 1746,
      "Ġincluded": 1747,
      "Ġside": 1748,
      "Ġcoach": 1749,
      "Ġoffice": 1750,
      "Ġled": 1751,
      "ocr": 1752,
      "Ġwhite": 1753,
      "Ġcapt": 1754,
      "ges": 1755,
      "Ġhol": 1756,
      "Ġinclude": 1757,
      "Ġwestern": 1758,
      "Ġbecause": 1759,
      "Ġperform": 1760,
      "hi": 1761,
      "Ġconf": 1762,
      "Ġestablish": 1763,
      "Ġproduction": 1764,
      "Ġvir": 1765,
      "ison": 1766,
      "Ġ22": 1767,
      "Ġvers": 1768,
      "ently": 1769,
      "Ġbill": 1770,
      "ipp": 1771,
      "olic": 1772,
      "Ġexper": 1773,
      "Ġfemale": 1774,
      "Ġrecords": 1775,
      "Ġperfor": 1776,
      "Ġcat": 1777,
      "ander": 1778,
      "uck": 1779,
      "Ġalbums": 1780,
      "aim": 1781,
      "Ġstruct": 1782,
      "Ġciv": 1783,
      "Ġjoined": 1784,
      "Ġadmin": 1785,
      "ani": 1786,
      "ically": 1787,
      "Ġ2007": 1788,
      "Ġref": 1789,
      "reek": 1790,
      "Ġprote": 1791,
      "ention": 1792,
      "Ġfest": 1793,
      "Ġauthor": 1794,
      "ness": 1795,
      "Ġpress": 1796,
      "Ġfrance": 1797,
      "Ġamong": 1798,
      "Ġtro": 1799,
      "Ġdet": 1800,
      "Ġsout": 1801,
      "Ġplaces": 1802,
      "Ġinit": 1803,
      "Ġvot": 1804,
      "Ġaccording": 1805,
      "Ġcath": 1806,
      "Ġdepartment": 1807,
      "ves": 1808,
      "Ġpromot": 1809,
      "gest": 1810,
      "Ġwritten": 1811,
      "tr": 1812,
      "Ġmonth": 1813,
      "ints": 1814,
      "val": 1815,
      "11": 1816,
      "Ġbal": 1817,
      "Ġafrican": 1818,
      "Ġmun": 1819,
      "Ġresp": 1820,
      "eth": 1821,
      "Ġdiffer": 1822,
      "Ġwithin": 1823,
      "ified": 1824,
      "ari": 1825,
      "Ġlevel": 1826,
      "Ġcle": 1827,
      "Ġappear": 1828,
      "Ġmem": 1829,
      "Ġgradu": 1830,
      "Ġspe": 1831,
      "ient": 1832,
      "Ġinvest": 1833,
      "iven": 1834,
      "Ġscience": 1835,
      "Ġecon": 1836,
      "Ġlat": 1837,
      "Ġyou": 1838,
      "Ġpaul": 1839,
      "Ġelect": 1840,
      "Ġeconom": 1841,
      "Ġrailway": 1842,
      "Ġsem": 1843,
      "Ġstreet": 1844,
      "Ġmad": 1845,
      "Ġmatch": 1846,
      "ries": 1847,
      "Ġlib": 1848,
      "Ġboard": 1849,
      "Ġinf": 1850,
      "ences": 1851,
      "ule": 1852,
      "Ġgra": 1853,
      "Ġfriend": 1854,
      "aliforn": 1855,
      "Ġmc": 1856,
      "Ġindust": 1857,
      "hel": 1858,
      "Ġinstitute": 1859,
      "Ġcoll": 1860,
      "Ġden": 1861,
      "ble": 1862,
      "Ġperforman": 1863,
      "Ġill": 1864,
      "Ġcal": 1865,
      "ona": 1866,
      "Ġcaliforn": 1867,
      "Ġdefe": 1868,
      "50": 1869,
      "ville": 1870,
      "Ġ28": 1871,
      "Ġhen": 1872,
      "Ġfell": 1873,
      "Ġlim": 1874,
      "Ġsingles": 1875,
      "Ġway": 1876,
      "Ġmur": 1877,
      "Ġten": 1878,
      "Ġengland": 1879,
      "Ġ2006": 1880,
      "Ġlarge": 1881,
      "Ġchin": 1882,
      "Ġturn": 1883,
      "Ġ26": 1884,
      "Ġcalifornia": 1885,
      "Ġ0": 1886,
      "wards": 1887,
      "Ġfeat": 1888,
      "reg": 1889,
      "Ġwent": 1890,
      "'t": 1891,
      "Ġfr": 1892,
      "Ġfurther": 1893,
      "gen": 1894,
      "Ġdemocr": 1895,
      "Ġgir": 1896,
      "Ġbrother": 1897,
      "ody": 1898,
      "ught": 1899,
      "iod": 1900,
      "Ġ$": 1901,
      "ls": 1902,
      "itor": 1903,
      "Ġdata": 1904,
      "Ġze": 1905,
      "aren": 1906,
      "epend": 1907,
      "Ġ27": 1908,
      "Ġwash": 1909,
      "Ġfeature": 1910,
      "Ġgener": 1911,
      "dom": 1912,
      "line": 1913,
      "Ġren": 1914,
      "Ġrequ": 1915,
      "Ġchina": 1916,
      "Ġconstru": 1917,
      "Ġread": 1918,
      "Ġadministr": 1919,
      "Ġcommission": 1920,
      "ws": 1921,
      "Ġdev": 1922,
      "Ġmex": 1923,
      "Ġrussian": 1924,
      "Ġsold": 1925,
      "off": 1926,
      "Ġhy": 1927,
      "hib": 1928,
      "Ġregister": 1929,
      "198": 1930,
      "ius": 1931,
      "people": 1932,
      "acy": 1933,
      "Ġregion": 1934,
      "Ġdifferent": 1935,
      "ots": 1936,
      "je": 1937,
      "Ġrich": 1938,
      "mar": 1939,
      "Ġbur": 1940,
      "Ġchart": 1941,
      "Ġwebs": 1942,
      "Ġdirected": 1943,
      "Ġrepl": 1944,
      "Ġmarried": 1945,
      "Ġequ": 1946,
      "wh": 1947,
      "par": 1948,
      "aland": 1949,
      "Ġpopulation": 1950,
      "of": 1951,
      ".,": 1952,
      "Ġcommitte": 1953,
      "Ġcompeted": 1954,
      "Ġoriginal": 1955,
      "Ġhealth": 1956,
      "ini": 1957,
      "Ġhig": 1958,
      "Ġstory": 1959,
      "har": 1960,
      "Ġnav": 1961,
      "Ġmac": 1962,
      "uel": 1963,
      "Ġmot": 1964,
      "Ġcivil": 1965,
      "Ġperiod": 1966,
      "Ġacademy": 1967,
      "Ġhost": 1968,
      "Ġproduced": 1969,
      "ying": 1970,
      "Ġsite": 1971,
      "Ġqualif": 1972,
      "ki": 1973,
      "Ġsam": 1974,
      "Ġartist": 1975,
      "Ġthom": 1976,
      "Ġexpl": 1977,
      "Ġelected": 1978,
      "Ġarg": 1979,
      "Ġhalf": 1980,
      "Ġjames": 1981,
      "Ġmother": 1982,
      "Ġsour": 1983,
      "Ġmake": 1984,
      "Ġol": 1985,
      "Ġprofessor": 1986,
      "ja": 1987,
      "imin": 1988,
      "Ġasian": 1989,
      "Ġthough": 1990,
      "Ġrole": 1991,
      "ta": 1992,
      "Ġinvol": 1993,
      "Ġder": 1994,
      "Ġstill": 1995,
      "Ġlate": 1996,
      "rote": 1997,
      "Ġnext": 1998,
      "Ġrug": 1999,
      "Ġgood": 2000,
      "arter": 2001,
      "Ġindepend": 2002,
      "ida": 2003,
      "Ġcand": 2004,
      "isl": 2005,
      "ological": 2006,
      "Ġpolice": 2007,
      "Ġwashington": 2008,
      "Ġsecret": 2009,
      "Ġkm": 2010,
      "Ġappointed": 2011,
      "Ġstage": 2012,
      "Ġ1990": 2013,
      "ront": 2014,
      "ively": 2015,
      "Ġmissing": 2016,
      "Ġmillion": 2017,
      "Ġmedia": 2018,
      "Ġ29": 2019,
      "Ġhall": 2020,
      "Ġpersonal": 2021,
      "Ġrock": 2022,
      "work": 2023,
      "Ġinform": 2024,
      "Ġengineer": 2025,
      "cer": 2026,
      "Ġcross": 2027,
      "Ġevery": 2028,
      "Ġcame": 2029,
      "Ġliter": 2030,
      "Ġassist": 2031,
      "Ġdirect": 2032,
      "Ġparis": 2033,
      "Ġcatholic": 2034,
      "Ġchief": 2035,
      "Ġwhat": 2036,
      "Ġ[": 2037,
      "year": 2038,
      "itu": 2039,
      "Ġmark": 2040,
      "Ġjapanese": 2041,
      "Ġdaugh": 2042,
      "Ġpeak": 2043,
      "aff": 2044,
      "Ġ2000": 2045,
      "ney": 2046,
      "Ġbooks": 2047,
      "bb": 2048,
      "Ġmass": 2049,
      "Ġ2005": 2050,
      "ship": 2051,
      "Ġchang": 2052,
      "Ġtrad": 2053,
      "Ġswimmers": 2054,
      "Ġkar": 2055,
      "Ġcompetition": 2056,
      "Ġfc": 2057,
      "Ġhaving": 2058,
      "omb": 2059,
      "aign": 2060,
      "field": 2061,
      "Ġchinese": 2062,
      "Ġbank": 2063,
      "ania": 2064,
      "Ġ100": 2065,
      "Ġcreated": 2066,
      "ye": 2067,
      "ĠĠĠĠĠĠĠĠ": 2068,
      "Ġsett": 2069,
      "Ġhuman": 2070,
      "Ġmult": 2071,
      "Ġcover": 2072,
      "Ġpoints": 2073,
      "ald": 2074,
      "Ġconference": 2075,
      "Ġbroad": 2076,
      "Ġgermany": 2077,
      "ael": 2078,
      "Ġreal": 2079,
      "Ġcommittee": 2080,
      "ago": 2081,
      "Ġlost": 2082,
      "Ġrefer": 2083,
      "Ġcompleted": 2084,
      "Ġtake": 2085,
      "Ġ1992": 2086,
      "Ġjose": 2087,
      "Ġcanadian": 2088,
      "Ġbad": 2089,
      "Ġvoc": 2090,
      "Ġbeh": 2091,
      "22": 2092,
      "Ġfinished": 2093,
      "Ġfif": 2094,
      "Ġlight": 2095,
      "Ġeven": 2096,
      "Ġaff": 2097,
      "ification": 2098,
      "30": 2099,
      "Ġgreen": 2100,
      "Ġrugby": 2101,
      "Ġconsider": 2102,
      "Ġcampaign": 2103,
      "Ġthose": 2104,
      "Ġimport": 2105,
      "Ġeas": 2106,
      "Ġsigned": 2107,
      "Ġmix": 2108,
      "Ġaway": 2109,
      "Ġrelease": 2110,
      "Ġvarious": 2111,
      "Ġvo": 2112,
      "Ġfund": 2113,
      "Ġexec": 2114,
      "zil": 2115,
      "la": 2116,
      "Ġvery": 2117,
      "hers": 2118,
      "vey": 2119,
      "Ġfun": 2120,
      "Ġgeorge": 2121,
      "Ġprocess": 2122,
      "Ġcharacter": 2123,
      "Ġnat": 2124,
      "ories": 2125,
      "Ġben": 2126,
      "iction": 2127,
      "Ġtal": 2128,
      "Ġcop": 2129,
      "ators": 2130,
      "Ġallow": 2131,
      "Ġfestival": 2132,
      "Ġlive": 2133,
      "Ġlove": 2134,
      "Ġposs": 2135,
      "Ġ/": 2136,
      "Ġposition": 2137,
      "ced": 2138,
      "Ġconne": 2139,
      "197": 2140,
      "Ġkingdom": 2141,
      "ady": 2142,
      "Ġfull": 2143,
      "atri": 2144,
      "ites": 2145,
      "Ġcer": 2146,
      "Ġalex": 2147,
      "Ġlou": 2148,
      "Ġworking": 2149,
      "ivid": 2150,
      "Ġhosp": 2151,
      "Ġclos": 2152,
      "itar": 2153,
      "Ġnorthern": 2154,
      "ink": 2155,
      "oor": 2156,
      "Ġhill": 2157,
      "Ġkore": 2158,
      "Ġbig": 2159,
      "Ġarts": 2160,
      "Ġanim": 2161,
      "Ġphot": 2162,
      "rew": 2163,
      "Ġdavid": 2164,
      "Ġfounded": 2165,
      "Ġrank": 2166,
      "Ġnight": 2167,
      "Ġ1996": 2168,
      "Ġgar": 2169,
      "Ġpract": 2170,
      "Ġwrote": 2171,
      "Ġlem": 2172,
      "isc": 2173,
      "align": 2174,
      "self": 2175,
      "Ġenter": 2176,
      "Ġsent": 2177,
      "Ġincre": 2178,
      "Ġwood": 2179,
      "Ġmedical": 2180,
      "Ġphys": 2181,
      "ii": 2182,
      "Ġfree": 2183,
      "Ġgiven": 2184,
      "Ġfact": 2185,
      "though": 2186,
      "Ġbron": 2187,
      "Ġservices": 2188,
      "Ġchall": 2189,
      "Ġbor": 2190,
      "Ġmel": 2191,
      "Ġbrazil": 2192,
      "Ġtheat": 2193,
      "Ġtest": 2194,
      "Ġho": 2195,
      "Ġcanada": 2196,
      "Ġ2004": 2197,
      "berg": 2198,
      "ster": 2199,
      "row": 2200,
      "Ġwebsite": 2201,
      "Ġepisode": 2202,
      "Ġhor": 2203,
      "ota": 2204,
      "ense": 2205,
      "Ġflor": 2206,
      "ati": 2207,
      "Ġdeg": 2208,
      "ached": 2209,
      "aut": 2210,
      "Ġgall": 2211,
      "Ġmos": 2212,
      "ush": 2213,
      "Ġpap": 2214,
      "cast": 2215,
      "Ġ1995": 2216,
      "Ġattack": 2217,
      "Ġreturned": 2218,
      "Ġ1997": 2219,
      "Ġlu": 2220,
      "Ġindivid": 2221,
      "Ġcandid": 2222,
      "Ġins": 2223,
      "ertain": 2224,
      "Ġparaly": 2225,
      "Ġ()": 2226,
      "Ġpoint": 2227,
      "Ġsom": 2228,
      "Ġmary": 2229,
      "Ġsat": 2230,
      "Ġpun": 2231,
      "Ġtom": 2232,
      "Ġpriv": 2233,
      "Ġdoc": 2234,
      "Ġcompanies": 2235,
      "Ġq": 2236,
      "vir": 2237,
      "Ġ1994": 2238,
      "Ġradio": 2239,
      ":#": 2240,
      "Ġbase": 2241,
      "rod": 2242,
      "Ġlibr": 2243,
      "Ġparalymp": 2244,
      "ances": 2245,
      "Ġalthough": 2246,
      "ned": 2247,
      "Ġartists": 2248,
      "cle": 2249,
      "Ġeight": 2250,
      "Ġmagaz": 2251,
      "Ġ:": 2252,
      "Ġconv": 2253,
      "Ġstudies": 2254,
      "background": 2255,
      "Ġscott": 2256,
      "Ġach": 2257,
      "Ġfront": 2258,
      "Ġpain": 2259,
      "Ġdays": 2260,
      "Ġfight": 2261,
      "Ġnotes": 2262,
      "Ġcric": 2263,
      "uced": 2264,
      "Ġur": 2265,
      "iers": 2266,
      "den": 2267,
      "nes": 2268,
      "uf": 2269,
      "rael": 2270,
      "Ġ185": 2271,
      "ano": 2272,
      "Ġfore": 2273,
      "iro": 2274,
      "Ġchair": 2275,
      "Ġplays": 2276,
      "Ġhot": 2277,
      "Ġ2003": 2278,
      "Ġsilver": 2279,
      "Ġwife": 2280,
      "Ġrepresented": 2281,
      "ado": 2282,
      "Ġangel": 2283,
      "flu": 2284,
      "Ġcir": 2285,
      "Ġbang": 2286,
      "Ġcomb": 2287,
      "Ġusing": 2288,
      "ize": 2289,
      "Ġhold": 2290,
      "aining": 2291,
      "Ġ1991": 2292,
      "Ġperformance": 2293,
      "Ġassemb": 2294,
      "Ġrepublic": 2295,
      "idae": 2296,
      "Ġpet": 2297,
      "Ġram": 2298,
      "Ġtv": 2299,
      "Ġwall": 2300,
      "Ġ1993": 2301,
      "Ġexecut": 2302,
      "Ġsenior": 2303,
      "Ġexhib": 2304,
      "Ġsportspeople": 2305,
      "xim": 2306,
      "Ġmeet": 2307,
      "Ġship": 2308,
      "ateg": 2309,
      "Ġamerica": 2310,
      "empt": 2311,
      "Ġlegisl": 2312,
      "ross": 2313,
      "Ġsound": 2314,
      "ound": 2315,
      "Ġgoal": 2316,
      "ada": 2317,
      "Ġneed": 2318,
      "itz": 2319,
      "ilar": 2320,
      "Ġexpatri": 2321,
      "wing": 2322,
      "Ġbecome": 2323,
      "Ġfourth": 2324,
      "ban": 2325,
      "Ġcas": 2326,
      "Ġtex": 2327,
      "ements": 2328,
      "Ġmic": 2329,
      "Ġregiment": 2330,
      "Ġinterest": 2331,
      "Ġafrica": 2332,
      "fin": 2333,
      "Ġlisted": 2334,
      "ittle": 2335,
      "Ġdrama": 2336,
      "ij": 2337,
      "eration": 2338,
      "Ġdaughter": 2339,
      "Ġyouth": 2340,
      "Ġrecorded": 2341,
      "Ġclaim": 2342,
      "Ġ1998": 2343,
      "ria": 2344,
      "Ġfire": 2345,
      "Ġsar": 2346,
      "ape": 2347,
      "Ġeffect": 2348,
      "Ġzealand": 2349,
      "Ġcycl": 2350,
      "edy": 2351,
      "Ġstudents": 2352,
      "Ġly": 2353,
      "Ġseven": 2354,
      "Ġtak": 2355,
      "Ġfranc": 2356,
      "dle": 2357,
      "Ġlemmon": 2358,
      "mit": 2359,
      "band": 2360,
      ";\"": 2361,
      "Ġwriters": 2362,
      "Ġopened": 2363,
      "Ġdan": 2364,
      "Ġsquad": 2365,
      "Ġhom": 2366,
      "Ġtoget": 2367,
      "Ġtogether": 2368,
      "Ġtor": 2369,
      "Ġspanish": 2370,
      "Ġproper": 2371,
      "Ġrights": 2372,
      "40": 2373,
      "ours": 2374,
      "hod": 2375,
      "Ġawarded": 2376,
      "istry": 2377,
      "Ġisrael": 2378,
      "ops": 2379,
      "center": 2380,
      "bor": 2381,
      "Ġvan": 2382,
      "Ġles": 2383,
      "sequ": 2384,
      "Ġcit": 2385,
      "Ġfall": 2386,
      "Ġhelp": 2387,
      "Ġreplac": 2388,
      "Ġhospital": 2389,
      "Ġ2002": 2390,
      "enth": 2391,
      "Ġwithout": 2392,
      "ending": 2393,
      "Ġplaying": 2394,
      "Ġmuch": 2395,
      "Ġfoc": 2396,
      "Ġmodern": 2397,
      "Ġtenn": 2398,
      "Ġmarket": 2399,
      "Ġtraining": 2400,
      "Ġgroups": 2401,
      "Ġstudio": 2402,
      "view": 2403,
      "Ġsched": 2404,
      "gian": 2405,
      "Ġsant": 2406,
      "Ġrobert": 2407,
      "ogn": 2408,
      "Ġfut": 2409,
      "Ġident": 2410,
      "Ġ2001": 2411,
      "Ġ1999": 2412,
      "rie": 2413,
      "rian": 2414,
      "196": 2415,
      "iga": 2416,
      "Ġcase": 2417,
      "Ġha": 2418,
      "Ġparl": 2419,
      "rd": 2420,
      "Ġaud": 2421,
      "Ġkh": 2422,
      "Ġcontest": 2423,
      "Ġham": 2424,
      "Ġ1980": 2425,
      "Ġbay": 2426,
      "Ġactress": 2427,
      "Ġview": 2428,
      "count": 2429,
      "ba": 2430,
      "rick": 2431,
      "ockey": 2432,
      "Ġplan": 2433,
      "used": 2434,
      "sec": 2435,
      "Ġscient": 2436,
      "Ġrelations": 2437,
      "Ġsouthern": 2438,
      "Ġseasons": 2439,
      "Ġstatist": 2440,
      "Ð¸": 2441,
      "Ġcoast": 2442,
      "Ġfew": 2443,
      "Ġdam": 2444,
      "onment": 2445,
      "ili": 2446,
      "Ġven": 2447,
      "Ġball": 2448,
      "nel": 2449,
      "Ġthomas": 2450,
      "iament": 2451,
      "ishing": 2452,
      "Ġput": 2453,
      "Ġnews": 2454,
      "Ġdom": 2455,
      "Ġforce": 2456,
      "23": 2457,
      "ming": 2458,
      "Ġbul": 2459,
      "Ġlittle": 2460,
      "Ġcost": 2461,
      "cover": 2462,
      "Ġwind": 2463,
      "Ġestablishments": 2464,
      "wor": 2465,
      "Ġran": 2466,
      "itive": 2467,
      "Ġoften": 2468,
      "olution": 2469,
      "Ġregular": 2470,
      "||": 2471,
      "igr": 2472,
      "sy": 2473,
      "Ġschools": 2474,
      "Ġselected": 2475,
      "va": 2476,
      "ola": 2477,
      "orpor": 2478,
      "Ġweight": 2479,
      "Ġcommand": 2480,
      "Ġairport": 2481,
      "Ġlet": 2482,
      "Ġpur": 2483,
      "Ġattempt": 2484,
      "Ġpopular": 2485,
      "ula": 2486,
      "Ġsus": 2487,
      "Ġappl": 2488,
      "writ": 2489,
      "Ġcolor": 2490,
      "Ġnovel": 2491,
      "Ġparliament": 2492,
      "Ġ=": 2493,
      "za": 2494,
      "Ġ31": 2495,
      "Ġpast": 2496,
      "Ġfa": 2497,
      "itors": 2498,
      "25": 2499,
      "Ġexpatriate": 2500,
      "play": 2501,
      "Ġtechnology": 2502,
      "Ġreported": 2503,
      "Ġenvir": 2504,
      "Ġut": 2505,
      "Ġitaly": 2506,
      "raft": 2507,
      "ray": 2508,
      "Ġartic": 2509,
      "Ġformed": 2510,
      "arian": 2511,
      "Ġdut": 2512,
      "ena": 2513,
      "atives": 2514,
      "Ġlow": 2515,
      "ked": 2516,
      "ex": 2517,
      "Ġcond": 2518,
      "ting": 2519,
      "Ġsimilar": 2520,
      "Ġca": 2521,
      "Ġbow": 2522,
      "ura": 2523,
      "Ġbackground": 2524,
      "Ġassembly": 2525,
      "utes": 2526,
      "Ġbud": 2527,
      "Ġrelig": 2528,
      "Ġire": 2529,
      "Ġcontract": 2530,
      "Ġachie": 2531,
      "Ġsinger": 2532,
      "Ġconstruction": 2533,
      "Ġwil": 2534,
      "Ġcontinued": 2535,
      "Ġpremier": 2536,
      "Ġnar": 2537,
      "Ġprimary": 2538,
      "Ġchap": 2539,
      "Ġcentre": 2540,
      "Ġcurrently": 2541,
      "Ġpit": 2542,
      "Ġleaders": 2543,
      "Ġwoman": 2544,
      "istan": 2545,
      "ope": 2546,
      "ising": 2547,
      "Ġinformation": 2548,
      "Ġmas": 2549,
      "Ġbox": 2550,
      "Ġmaking": 2551,
      "Ġothers": 2552,
      "ience": 2553,
      "oss": 2554,
      "less": 2555,
      "Ġmodel": 2556,
      "Ġsurvey": 2557,
      "Ġmunicip": 2558,
      "Ġgh": 2559,
      "Ġnomin": 2560,
      "aged": 2561,
      "abor": 2562,
      "Ġrecogn": 2563,
      "Ġquarter": 2564,
      "Ġwinner": 2565,
      "Ġfootballer": 2566,
      "ita": 2567,
      "Ġdecl": 2568,
      "Ġcongress": 2569,
      "Ġtransport": 2570,
      "Ġmichael": 2571,
      "Ġcarol": 2572,
      "Ġbronze": 2573,
      "Ġmaster": 2574,
      "Ġareas": 2575,
      "wer": 2576,
      "Ġpot": 2577,
      "Ġbrown": 2578,
      "Ġprot": 2579,
      "Ġ1988": 2580,
      "Ġbac": 2581,
      "ique": 2582,
      "iana": 2583,
      "Ġprinc": 2584,
      "Ġversion": 2585,
      "Ð°": 2586,
      "wood": 2587,
      "ker": 2588,
      "Ġsection": 2589,
      "language": 2590,
      "Ġlouis": 2591,
      "Ġvirgin": 2592,
      "Ġsun": 2593,
      "tery": 2594,
      "Ġstep": 2595,
      "jo": 2596,
      "Ġget": 2597,
      "):": 2598,
      "Ġcolon": 2599,
      "Ġdegree": 2600,
      "Ġhockey": 2601,
      "ram": 2602,
      "Ġcontrol": 2603,
      "Ġinj": 2604,
      "Ġ1970": 2605,
      "Ġ50": 2606,
      "west": 2607,
      "Ġcharles": 2608,
      "Ġswed": 2609,
      "Ġbh": 2610,
      "Ġmanagement": 2611,
      "Ġcho": 2612,
      "aker": 2613,
      "Ġlake": 2614,
      "Ġbattle": 2615,
      "Ġforces": 2616,
      "Ġgovernor": 2617,
      "Ġcorn": 2618,
      "ouse": 2619,
      "hem": 2620,
      "ensive": 2621,
      "ulty": 2622,
      "pro": 2623,
      "80": 2624,
      "Ġscored": 2625,
      "Ġguitar": 2626,
      "reen": 2627,
      "Ġrul": 2628,
      "Ġlibrary": 2629,
      "Ġpolitician": 2630,
      "Ġdig": 2631,
      "ude": 2632,
      "Ġonce": 2633,
      "Ġgave": 2634,
      "Ġheav": 2635,
      "Ġpolic": 2636,
      "Ġfort": 2637,
      "Ġinflu": 2638,
      "iger": 2639,
      "Ġorganization": 2640,
      "Ġmont": 2641,
      "Ġbran": 2642,
      "Ġaver": 2643,
      "king": 2644,
      "Ġpers": 2645,
      "uan": 2646,
      "Ġjunior": 2647,
      "Ġsn": 2648,
      "Ġtheatre": 2649,
      "Ġindependent": 2650,
      "Ġtrump": 2651,
      "Ġmater": 2652,
      "Ġdoes": 2653,
      "owa": 2654,
      "Ġperformed": 2655,
      "Ġofficer": 2656,
      "Ġarr": 2657,
      "Ġemplo": 2658,
      "Ġsaint": 2659,
      "Ġtax": 2660,
      "Ġacross": 2661,
      "ien": 2662,
      "Ġgun": 2663,
      "Ġglo": 2664,
      "ror": 2665,
      "living": 2666,
      "ee": 2667,
      "orm": 2668,
      "Ġviol": 2669,
      "Ġfrancis": 2670,
      "pr": 2671,
      "Ġ1989": 2672,
      "Ġenvironment": 2673,
      "head": 2674,
      "Ġvillages": 2675,
      "Ġdemocratic": 2676,
      "Ġcommer": 2677,
      "Ġless": 2678,
      "Ġbecom": 2679,
      "Ġstudy": 2680,
      "Ð¾": 2681,
      "watch": 2682,
      "text": 2683,
      "str": 2684,
      "erve": 2685,
      "enge": 2686,
      "Ġimportant": 2687,
      "airs": 2688,
      "Ġireland": 2689,
      "oney": 2690,
      "Ġshows": 2691,
      "Ġdesp": 2692,
      "igan": 2693,
      ",\"": 2694,
      "Ġdest": 2695,
      "iding": 2696,
      "Ġrepublican": 2697,
      "Ġpen": 2698,
      "fefe": 2699,
      "idence": 2700,
      "Ġbeet": 2701,
      "24": 2702,
      "Ġmexico": 2703,
      "aries": 2704,
      "Ġfrank": 2705,
      "Ġremained": 2706,
      "pan": 2707,
      "iting": 2708,
      "ella": 2709,
      "olf": 2710,
      "Ġchristian": 2711,
      "Ġbib": 2712,
      "Ġground": 2713,
      "cy": 2714,
      "Ġfind": 2715,
      "Ġoverall": 2716,
      "Ġdeveloped": 2717,
      "Ġcard": 2718,
      "icular": 2719,
      "Ġdoubl": 2720,
      "Ġstaff": 2721,
      "Ġkey": 2722,
      "kn": 2723,
      "men": 2724,
      "Ġmagazine": 2725,
      "Ġcontribut": 2726,
      "Ġ1960": 2727,
      "ga": 2728,
      "Ġprime": 2729,
      "cts": 2730,
      "Ġtradition": 2731,
      "Ġkitt": 2732,
      "Ġpak": 2733,
      "195": 2734,
      "ization": 2735,
      "ware": 2736,
      "rain": 2737,
      "bal": 2738,
      "Ġbegin": 2739,
      "Ġmiddle": 2740,
      "Ġkilled": 2741,
      "Ġsev": 2742,
      "Ġtar": 2743,
      "Ġari": 2744,
      "Ġnever": 2745,
      "track": 2746,
      "Ġfeatures": 2747,
      "Ġmatches": 2748,
      "Ġattended": 2749,
      "ead": 2750,
      "Ġculture": 2751,
      "Ġforest": 2752,
      "Ġincludes": 2753,
      "Ġeastern": 2754,
      "rab": 2755,
      "Ġexamp": 2756,
      "urity": 2757,
      "Ġhung": 2758,
      "ailed": 2759,
      "Ġ184": 2760,
      "Ġprivate": 2761,
      "Ġtexas": 2762,
      "Ġfer": 2763,
      "Ġforeign": 2764,
      "ched": 2765,
      "aves": 2766,
      "apt": 2767,
      "Ġlanguage": 2768,
      "ele": 2769,
      "orial": 2770,
      "american": 2771,
      "Ä±": 2772,
      "Ġappeared": 2773,
      "Ġsay": 2774,
      "ription": 2775,
      "Ġfeatured": 2776,
      "Ġsand": 2777,
      "atory": 2778,
      "Ġathletes": 2779,
      "Ġaccess": 2780,
      "Ġvictor": 2781,
      "adesh": 2782,
      "Ġpeter": 2783,
      "Ġinvestig": 2784,
      "Ġdraw": 2785,
      "Ġedition": 2786,
      "leg": 2787,
      "Ġcapital": 2788,
      "Ġdesigned": 2789,
      "over": 2790,
      "stand": 2791,
      "Ġcollection": 2792,
      "ww": 2793,
      "Ġpaint": 2794,
      "Ġsecretary": 2795,
      "posed": 2796,
      "Ġsea": 2797,
      "Ġban": 2798,
      "ua": 2799,
      "ids": 2800,
      "Ġstad": 2801,
      "lif": 2802,
      "Ġchann": 2803,
      "ceed": 2804,
      "Ġdocument": 2805,
      "Ġrob": 2806,
      "Ġstrong": 2807,
      "Ġoriginally": 2808,
      "ells": 2809,
      "ume": 2810,
      "Ġsex": 2811,
      "Ġacqu": 2812,
      "Ġroom": 2813,
      "oon": 2814,
      "Ġmovement": 2815,
      "Ġplat": 2816,
      "Ġwriter": 2817,
      "Ġtransl": 2818,
      "down": 2819,
      "Ġmi": 2820,
      "Ġconserv": 2821,
      "Ġoffer": 2822,
      "Ġiv": 2823,
      "Ġbody": 2824,
      "time": 2825,
      "Ġreb": 2826,
      "Ġhimself": 2827,
      "Ġcreek": 2828,
      "Ġwild": 2829,
      "Ġdiscover": 2830,
      "Ġmu": 2831,
      "Ġult": 2832,
      "Ġiowa": 2833,
      "Ġlear": 2834,
      "Ġchampion": 2835,
      "uth": 2836,
      "Ġexpress": 2837,
      "Ġbat": 2838,
      "Ġsuccessful": 2839,
      "anted": 2840,
      "26": 2841,
      "Ġrivers": 2842,
      "wf": 2843,
      "Ġgod": 2844,
      "Ġconsidered": 2845,
      "Ġinn": 2846,
      "Ġhard": 2847,
      "Ġleading": 2848,
      "Ġcaus": 2849,
      "Ġspacewatch": 2850,
      "tar": 2851,
      "Ġ1986": 2852,
      "Ġmonths": 2853,
      "Ġpay": 2854,
      "Ġtype": 2855,
      "ication": 2856,
      "hood": 2857,
      "Ġprovince": 2858,
      "Ġfaculty": 2859,
      "bl": 2860,
      "Ġanti": 2861,
      "Ġarchitecture": 2862,
      "po": 2863,
      "Ġfoundation": 2864,
      "elling": 2865,
      "Ġfig": 2866,
      "Ġloss": 2867,
      "Ġknow": 2868,
      "Ġsubsequ": 2869,
      "Ġamb": 2870,
      "Ġsmith": 2871,
      "lam": 2872,
      "Ġsug": 2873,
      "Ġstated": 2874,
      "lands": 2875,
      "Ġfuture": 2876,
      "Ġprize": 2877,
      "craft": 2878,
      "Ġhenry": 2879,
      "2016": 2880,
      "Ġroute": 2881,
      "Ġ!": 2882,
      "Ġprior": 2883,
      "Ġdoubles": 2884,
      "ript": 2885,
      "Ġliber": 2886,
      "Ġreve": 2887,
      "Ġinvolved": 2888,
      "Ġtravel": 2889,
      "ao": 2890,
      "33": 2891,
      "roduced": 2892,
      "Ġelections": 2893,
      "Ġagre": 2894,
      "Ġfav": 2895,
      "Ġmr": 2896,
      "Ġschol": 2897,
      "Ġeth": 2898,
      "ko": 2899,
      "Ġfederal": 2900,
      "win": 2901,
      "Ġ40": 2902,
      "Ġmartin": 2903,
      "orporated": 2904,
      "Ġpil": 2905,
      "Ġupon": 2906,
      "Ġindustry": 2907,
      "mont": 2908,
      "Ġvocals": 2909,
      "Ġdespite": 2910,
      "Ġwat": 2911,
      "Ġpenn": 2912,
      "Ġblue": 2913,
      "Ġterrit": 2914,
      "Ġqueens": 2915,
      "Ġcondu": 2916,
      "Ġmusical": 2917,
      "Ġplaced": 2918,
      "Ġpra": 2919,
      "Ġdie": 2920,
      "pec": 2921,
      "Ġbelie": 2922,
      "ova": 2923,
      "Ġaction": 2924,
      "unter": 2925,
      "Ġpoliticians": 2926,
      "Ġobs": 2927,
      "Ġparticular": 2928,
      "Ġrussia": 2929,
      "Ġcommunities": 2930,
      "Ġ1987": 2931,
      "Ġthroughout": 2932,
      "Ġcollabor": 2933,
      "Ġ1985": 2934,
      "Ġdefeated": 2935,
      "Ġleader": 2936,
      "Ġcorpor": 2937,
      "Ġproducer": 2938,
      "Ġwinning": 2939,
      "une": 2940,
      "Ġteac": 2941,
      "ergy": 2942,
      "Ġengineering": 2943,
      "Ġsyn": 2944,
      "Ġavail": 2945,
      "dr": 2946,
      "imes": 2947,
      "Ġide": 2948,
      "Ġbridge": 2949,
      "Ġimpro": 2950,
      "Ġord": 2951,
      "Ġexecutive": 2952,
      "Ġeditor": 2953,
      "anda": 2954,
      "wan": 2955,
      "Ġec": 2956,
      "Ġscore": 2957,
      "Ġtyp": 2958,
      "aka": 2959,
      "Ġbiography": 2960,
      "Ġnetwork": 2961,
      "lement": 2962,
      "most": 2963,
      "Ġhouses": 2964,
      "ali": 2965,
      "Ġcomedy": 2966,
      "Ġluc": 2967,
      "ĠÂ": 2968,
      "ably": 2969,
      "icated": 2970,
      "yer": 2971,
      "Ġsecurity": 2972,
      "Ġfollowed": 2973,
      "Ġregional": 2974,
      "ont": 2975,
      "Ġstructures": 2976,
      "yan": 2977,
      "27": 2978,
      "Ġplann": 2979,
      "ilities": 2980,
      "ems": 2981,
      "Ġmission": 2982,
      "ream": 2983,
      "Ġpoet": 2984,
      "new": 2985,
      "Ġwinners": 2986,
      "60": 2987,
      "Ġfle": 2988,
      "Ġhus": 2989,
      "ole": 2990,
      "Ġrichard": 2991,
      "Ġprincip": 2992,
      "Ġraj": 2993,
      "Ġpreviously": 2994,
      "igned": 2995,
      "Ġpersonnel": 2996,
      "Ġ#": 2997,
      "Ġcateg": 2998,
      "Ġspain": 2999,
      "Ġos": 3000,
      "Ġmean": 3001,
      "Ġtaken": 3002,
      "Ġrespons": 3003,
      "Ġsources": 3004,
      "28": 3005,
      "Ġ1984": 3006,
      "Ġstadium": 3007,
      "Ġtrib": 3008,
      "Ġâ": 3009,
      "Ġindividual": 3010,
      "Ġphilipp": 3011,
      "Ġvirginia": 3012,
      "Ġmah": 3013,
      "iano": 3014,
      "Ġbibli": 3015,
      "Ġrap": 3016,
      "Ġcritic": 3017,
      "wa": 3018,
      "isted": 3019,
      "span": 3020,
      "cher": 3021,
      "ym": 3022,
      "Ġmaterial": 3023,
      "Ġmust": 3024,
      "Ġnotable": 3025,
      "Ġast": 3026,
      "bi": 3027,
      "ux": 3028,
      "Ġtownship": 3029,
      "Ġros": 3030,
      "Ġwriting": 3031,
      "Ġbrand": 3032,
      "oviet": 3033,
      "Ġlie": 3034,
      "Ġparen": 3035,
      "Ġhit": 3036,
      "Ġsurv": 3037,
      "Ġable": 3038,
      "ribution": 3039,
      "Ġcirc": 3040,
      "Ġbehind": 3041,
      "Ġgot": 3042,
      "Ġtrade": 3043,
      "194": 3044,
      "Ġdeal": 3045,
      "Ġchem": 3046,
      "ving": 3047,
      "Ġgeorg": 3048,
      "ato": 3049,
      "Ġconstit": 3050,
      "Ġak": 3051,
      "ira": 3052,
      "Ġflorida": 3053,
      "Ġaccount": 3054,
      "lant": 3055,
      "Ġactor": 3056,
      "Ġactive": 3057,
      "Ġtransfer": 3058,
      "my": 3059,
      "Ġplant": 3060,
      "Ġchallenge": 3061,
      "ugu": 3062,
      "Ġfel": 3063,
      "aching": 3064,
      "era": 3065,
      "Ġmethod": 3066,
      "Ġcommerc": 3067,
      "aya": 3068,
      "Ġassistant": 3069,
      "Ġfinanc": 3070,
      "Ġtreat": 3071,
      "Ġlee": 3072,
      "Ġempire": 3073,
      "90": 3074,
      "ios": 3075,
      "Ġeventually": 3076,
      "Ġtext": 3077,
      "Ġjoseph": 3078,
      "Ġsepar": 3079,
      "ability": 3080,
      "ny": 3081,
      "Ġhong": 3082,
      "Ġyards": 3083,
      "Ġcultural": 3084,
      "Ġstri": 3085,
      "Ġoh": 3086,
      "Ġqueen": 3087,
      "bc": 3088,
      "aled": 3089,
      "Ġgard": 3090,
      "Ðµ": 3091,
      "Ġindiana": 3092,
      "Ġguard": 3093,
      "aur": 3094,
      "Ġgallery": 3095,
      "Ġirish": 3096,
      "da": 3097,
      "Ġdomin": 3098,
      "Ġprison": 3099,
      "Ġimm": 3100,
      "Ġshot": 3101,
      "Ġchange": 3102,
      "Ġstudied": 3103,
      "Ġbwf": 3104,
      "Ġchic": 3105,
      "Ġracing": 3106,
      "uter": 3107,
      "Ġmichigan": 3108,
      "Ġfellow": 3109,
      "Ġ1950": 3110,
      "Ġlaunc": 3111,
      "oma": 3112,
      "uit": 3113,
      "Ġanc": 3114,
      "ques": 3115,
      "35": 3116,
      "ential": 3117,
      "idents": 3118,
      "Ġcin": 3119,
      "Ġnatural": 3120,
      "Ġbroadcast": 3121,
      "Ġavailable": 3122,
      "Ġrespect": 3123,
      "Ġcorps": 3124,
      "Ġsoviet": 3125,
      "Ġshould": 3126,
      "29": 3127,
      "ination": 3128,
      "Ġjew": 3129,
      "Ġsaw": 3130,
      "eds": 3131,
      "Ġadministration": 3132,
      "Ġcourse": 3133,
      "ened": 3134,
      "Ġkap": 3135,
      "ste": 3136,
      "uz": 3137,
      "Ġvia": 3138,
      "Ġda": 3139,
      "km": 3140,
      "Ġkong": 3141,
      "Ġemer": 3142,
      "Ġstatistics": 3143,
      "Ġfood": 3144,
      "ores": 3145,
      "Ġdance": 3146,
      "Ġneg": 3147,
      "ither": 3148,
      "Ġjustice": 3149,
      "Ġrange": 3150,
      "Ġaverage": 3151,
      "spap": 3152,
      "hy": 3153,
      "ffer": 3154,
      "Ġpsy": 3155,
      "Ġsir": 3156,
      "Ġgreek": 3157,
      "ients": 3158,
      "Ġhistorical": 3159,
      "heast": 3160,
      "wealth": 3161,
      "Ġlower": 3162,
      "ications": 3163,
      "Ġathletics": 3164,
      "Ġ1983": 3165,
      "zona": 3166,
      "Ġaccom": 3167,
      "Ġsenate": 3168,
      "Ġanth": 3169,
      "Ġstations": 3170,
      "Ġadditional": 3171,
      "hest": 3172,
      "Ġnewspap": 3173,
      "Ġargent": 3174,
      "Ð½": 3175,
      "Ġsciences": 3176,
      "pon": 3177,
      "Ġface": 3178,
      "Ġtemple": 3179,
      "Ġmemorial": 3180,
      "ificant": 3181,
      "Ġcommonwealth": 3182,
      "Ġangeles": 3183,
      "Ġpac": 3184,
      "Ġstream": 3185,
      "Ġadded": 3186,
      "Ġarizona": 3187,
      "Ġearl": 3188,
      "Ġped": 3189,
      "Ġmanager": 3190,
      "Ġox": 3191,
      "Ġvice": 3192,
      "Ġreplaced": 3193,
      "Ġelectric": 3194,
      "Ġcountries": 3195,
      "uble": 3196,
      "Ġclose": 3197,
      "ensus": 3198,
      "Ġlegal": 3199,
      "porary": 3200,
      "no": 3201,
      "asc": 3202,
      "Ġreserve": 3203,
      "Ġqueensland": 3204,
      "70": 3205,
      "Ġcarolina": 3206,
      "Ġcommercial": 3207,
      "Ġtam": 3208,
      "rel": 3209,
      "Ġwid": 3210,
      "Ġhigher": 3211,
      "//": 3212,
      "pa": 3213,
      "Ġfarm": 3214,
      "pur": 3215,
      "Ġministry": 3216,
      "Ġsurn": 3217,
      "Ġba": 3218,
      "Ġlaunched": 3219,
      "Ġsitu": 3220,
      "Ġinstead": 3221,
      "ength": 3222,
      "cour": 3223,
      "ns": 3224,
      "Ġmixed": 3225,
      "Ġexc": 3226,
      "ufact": 3227,
      "Ġgoals": 3228,
      "board": 3229,
      "Ġvictory": 3230,
      "Ġlabor": 3231,
      "Ġheart": 3232,
      "ways": 3233,
      "Ġproble": 3234,
      "Ġ1972": 3235,
      "Ġhapp": 3236,
      "enced": 3237,
      "Ġscreen": 3238,
      "jab": 3239,
      "Ġtable": 3240,
      "Ġ1982": 3241,
      "gu": 3242,
      "Ġrepresentative": 3243,
      "Ġanton": 3244,
      "Ġour": 3245,
      "Ġsignificant": 3246,
      "chan": 3247,
      "reme": 3248,
      "://": 3249,
      "Ġmir": 3250,
      "Ġdar": 3251,
      "Ġko": 3252,
      "imate": 3253,
      "minton": 3254,
      "Ġturk": 3255,
      "Ġfocus": 3256,
      "Ġdecided": 3257,
      "Ġwide": 3258,
      "Ġund": 3259,
      "aps": 3260,
      "Ġchicago": 3261,
      "Ġboy": 3262,
      "Ġmanufact": 3263,
      "Ġtaking": 3264,
      "Ġterm": 3265,
      "Ġcele": 3266,
      "ila": 3267,
      "Ġhonor": 3268,
      "Ġcolumb": 3269,
      "aches": 3270,
      "Ġcoup": 3271,
      "illery": 3272,
      "Ġwa": 3273,
      "ases": 3274,
      "Ġfifth": 3275,
      "rad": 3276,
      "Ġesc": 3277,
      "Ġunits": 3278,
      "rid": 3279,
      "Ġ1968": 3280,
      "Ġopening": 3281,
      "Ġreached": 3282,
      "ipl": 3283,
      "fa": 3284,
      "Ġheadqu": 3285,
      "Ġbadminton": 3286,
      "Ġniger": 3287,
      "Ġminor": 3288,
      "Ġwing": 3289,
      "lor": 3290,
      "Ġbass": 3291,
      "Ġschedule": 3292,
      "Ġreception": 3293,
      "Ġdate": 3294,
      "Ġchannel": 3295,
      "see": 3296,
      "war": 3297,
      "Ġannual": 3298,
      "36": 3299,
      "Ġdecision": 3300,
      "34": 3301,
      "Ġstone": 3302,
      "Ġcarl": 3303,
      "Ġgal": 3304,
      "mark": 3305,
      "Ġaz": 3306,
      "ims": 3307,
      "Ġcred": 3308,
      "use": 3309,
      "Ġactivities": 3310,
      "Ġislam": 3311,
      "Ġdeput": 3312,
      "37": 3313,
      "Ġrow": 3314,
      "Ġcab": 3315,
      "Ġbab": 3316,
      "Ġshar": 3317,
      "ulated": 3318,
      "Ġstructure": 3319,
      "Ġbreak": 3320,
      "38": 3321,
      "Ġagric": 3322,
      "Ġatlant": 3323,
      "Ġprix": 3324,
      "Ġintroduced": 3325,
      "Ġsym": 3326,
      "Ġ1976": 3327,
      "Ġinitially": 3328,
      "Ġprofile": 3329,
      "ires": 3330,
      "reat": 3331,
      "vin": 3332,
      "Ġrunning": 3333,
      "Ġlook": 3334,
      "Ġeconomic": 3335,
      "mad": 3336,
      "Ġself": 3337,
      "Ġhaw": 3338,
      "Ġenergy": 3339,
      "Ġgraduated": 3340,
      "erous": 3341,
      "Ġclubs": 3342,
      "read": 3343,
      "Ġpsych": 3344,
      "Ġexample": 3345,
      "ero": 3346,
      "ales": 3347,
      "ela": 3348,
      "Ġinterview": 3349,
      "...": 3350,
      "uments": 3351,
      "Ġgirl": 3352,
      "Ġonline": 3353,
      "Ġrat": 3354,
      "Ġruns": 3355,
      "not": 3356,
      "Ġbrig": 3357,
      "mo": 3358,
      "Ġoperation": 3359,
      "ette": 3360,
      "utions": 3361,
      "Ġcompetitions": 3362,
      "Ġdeter": 3363,
      "Ġmoney": 3364,
      "mal": 3365,
      "Ġ1981": 3366,
      "Ġoutside": 3367,
      "aug": 3368,
      "Ġok": 3369,
      "ros": 3370,
      "Ġbeat": 3371,
      "rial": 3372,
      "Ġvalley": 3373,
      "Ġparticipated": 3374,
      "Ġsoon": 3375,
      "Ġnavy": 3376,
      "ho": 3377,
      "Ġjack": 3378,
      "Ġkorean": 3379,
      "39": 3380,
      "Ġquest": 3381,
      "Ġchairman": 3382,
      "Ġvon": 3383,
      "well": 3384,
      "Ġcaptain": 3385,
      "Ġagricult": 3386,
      "Ġdyn": 3387,
      "Ġartillery": 3388,
      "gar": 3389,
      "rap": 3390,
      "Ġleast": 3391,
      "Ġdoctor": 3392,
      "Ġstudent": 3393,
      "Ġjer": 3394,
      "Ġpolicy": 3395,
      "Ġepisodes": 3396,
      "Ġpie": 3397,
      "ining": 3398,
      "Ġnations": 3399,
      "ÑĢ": 3400,
      "Ġinfant": 3401,
      "phy": 3402,
      "azz": 3403,
      "Ġissues": 3404,
      "incorporated": 3405,
      "based": 3406,
      "Ġsri": 3407,
      "Ġcome": 3408,
      "Ġdrum": 3409,
      "Ġmaria": 3410,
      "Ġarab": 3411,
      "Ġtowards": 3412,
      "Ġpunjab": 3413,
      "agon": 3414,
      "ji": 3415,
      "left": 3416,
      "Ġunincorporated": 3417,
      "Ġvote": 3418,
      "anced": 3419,
      "Ġmach": 3420,
      "Ġcam": 3421,
      "Ġsister": 3422,
      "Ġlocation": 3423,
      "Ġjean": 3424,
      "Ġic": 3425,
      "akh": 3426,
      "Ġdigital": 3427,
      "Ġsoft": 3428,
      "Ġsystems": 3429,
      "Ġactors": 3430,
      "Ġasia": 3431,
      "Ġ1978": 3432,
      "Ġserb": 3433,
      "road": 3434,
      "Ġscottish": 3435,
      "Ġproperty": 3436,
      "Ġscot": 3437,
      "una": 3438,
      "Ġkent": 3439,
      "Ġreading": 3440,
      "Ġjac": 3441,
      "ental": 3442,
      "Ġabove": 3443,
      "Ġspr": 3444,
      "with": 3445,
      "Ġparalympics": 3446,
      "ulpt": 3447,
      "Ġbangl": 3448,
      "Ġtouch": 3449,
      "clus": 3450,
      "dy": 3451,
      "Ġnative": 3452,
      "Ġmountain": 3453,
      "ador": 3454,
      "Ġna": 3455,
      "Ġlargest": 3456,
      "rup": 3457,
      "asing": 3458,
      "elled": 3459,
      "Ġrepresentatives": 3460,
      "Ġcontem": 3461,
      "Ġspring": 3462,
      "Ġliterature": 3463,
      "sel": 3464,
      "Ġid": 3465,
      "isters": 3466,
      "Ġcomplex": 3467,
      "Ġ1979": 3468,
      "ylv": 3469,
      "Ġeffort": 3470,
      "Ġpromoted": 3471,
      "olk": 3472,
      "Ġneigh": 3473,
      "Ġprovide": 3474,
      "Ġandre": 3475,
      "Ġ1977": 3476,
      "Ġshoot": 3477,
      "burgh": 3478,
      "Ġorganizations": 3479,
      "Ġstars": 3480,
      "Ġstop": 3481,
      "Ġstra": 3482,
      "Ġarran": 3483,
      "Ġded": 3484,
      "ox": 3485,
      "vi": 3486,
      "iple": 3487,
      "Ġmayor": 3488,
      "Ġsculpt": 3489,
      "light": 3490,
      "het": 3491,
      "hol": 3492,
      "Ġunit": 3493,
      "fic": 3494,
      "Ġsail": 3495,
      "Ġsemi": 3496,
      "Ġ1945": 3497,
      "Ġpractice": 3498,
      "isions": 3499,
      "Ġ1930": 3500,
      "mond": 3501,
      "Ġspent": 3502,
      "Ġoccup": 3503,
      "Ġkal": 3504,
      "Ġofficers": 3505,
      "oring": 3506,
      "eer": 3507,
      "Ġta": 3508,
      "Ġbibliography": 3509,
      "Ġrio": 3510,
      "Ġ1940": 3511,
      "Ġcinem": 3512,
      "Ġcut": 3513,
      "Ġcamer": 3514,
      "Ġbranch": 3515,
      "vo": 3516,
      "Ġcub": 3517,
      "Ġcricke": 3518,
      "Ġsubject": 3519,
      "Ġoccur": 3520,
      "Ġseen": 3521,
      "chen": 3522,
      "Ġcitiz": 3523,
      "Ġrelationship": 3524,
      "Ġlimited": 3525,
      "Ġexist": 3526,
      "Ġod": 3527,
      "iang": 3528,
      "elle": 3529,
      "Ġru": 3530,
      "Ġnoted": 3531,
      "medi": 3532,
      "Ġpage": 3533,
      "sort": 3534,
      "Ġprovided": 3535,
      "known": 3536,
      "fc": 3537,
      "ises": 3538,
      "Ġhighest": 3539,
      "Ġentered": 3540,
      "gers": 3541,
      ");": 3542,
      "Ġberlin": 3543,
      "caa": 3544,
      "awa": 3545,
      "Ġ1974": 3546,
      "Ġentertain": 3547,
      "ylvania": 3548,
      "eme": 3549,
      "Ġended": 3550,
      "Ġislands": 3551,
      "Ġ1964": 3552,
      "Ġentire": 3553,
      "here": 3554,
      "Ñģ": 3555,
      "Ġtwent": 3556,
      "Ġnine": 3557,
      "Ġhtt": 3558,
      "Ġweightlif": 3559,
      "Ġapproxim": 3560,
      "mann": 3561,
      "Ġbeginning": 3562,
      "Ġretired": 3563,
      "don": 3564,
      "Ġprince": 3565,
      "Ġbon": 3566,
      "oke": 3567,
      "Ġearned": 3568,
      "Ġhusband": 3569,
      "Ġmedic": 3570,
      "Ġ1971": 3571,
      "Ġ1967": 3572,
      "Ġearth": 3573,
      "Ġmurder": 3574,
      "Ġcompetitors": 3575,
      "Ġstarting": 3576,
      "sa": 3577,
      "Ġbell": 3578,
      "anian": 3579,
      "do": 3580,
      "Ġwel": 3581,
      "Ġcritical": 3582,
      "Ġmalays": 3583,
      "Ġgeorgia": 3584,
      "Ġfly": 3585,
      "Ġbaseball": 3586,
      "Ġib": 3587,
      "roy": 3588,
      "Ġclin": 3589,
      "Ġcandidate": 3590,
      "Ġhur": 3591,
      "Ġworkers": 3592,
      "Ġwrest": 3593,
      "Ġtun": 3594,
      "Ġcharacters": 3595,
      "Ġgoing": 3596,
      "zech": 3597,
      "Ġlik": 3598,
      "Ġrecording": 3599,
      "Ġowned": 3600,
      "Ġreligious": 3601,
      "Ġmetres": 3602,
      "Ġwhose": 3603,
      "Ġcensus": 3604,
      "Ġcust": 3605,
      "Ġens": 3606,
      "Ġdescent": 3607,
      "Ġsuggest": 3608,
      "Ġmeas": 3609,
      "Ġcatal": 3610,
      "Ġmarc": 3611,
      "Ġlord": 3612,
      "Ġallowed": 3613,
      "book": 3614,
      "Ġ1975": 3615,
      "Ġaccept": 3616,
      "ension": 3617,
      "Ġjers": 3618,
      "Ġbrought": 3619,
      "Ġtennis": 3620,
      "Ġmand": 3621,
      "Ġdutch": 3622,
      "Ġglobal": 3623,
      "ĠÐ": 3624,
      "illa": 3625,
      "hu": 3626,
      "Ġoperations": 3627,
      "Ġcelebr": 3628,
      "Ġali": 3629,
      "Ġhere": 3630,
      "Ġplatform": 3631,
      "Ġplot": 3632,
      "31": 3633,
      "value": 3634,
      "Ġlegislative": 3635,
      "Ġ180": 3636,
      "Ġken": 3637,
      "kins": 3638,
      "ube": 3639,
      "Ġhotel": 3640,
      "Ġinsp": 3641,
      "Ġmeeting": 3642,
      "Ġncaa": 3643,
      "Ġtan": 3644,
      "Ã¸": 3645,
      "Ġkr": 3646,
      "ils": 3647,
      "rey": 3648,
      "Ġash": 3649,
      "Ġsav": 3650,
      "Ġsubsequently": 3651,
      "Ġ1966": 3652,
      "Ġfinals": 3653,
      "standing": 3654,
      "Ġoppos": 3655,
      "ston": 3656,
      "Ġceram": 3657,
      "ora": 3658,
      "Ġlog": 3659,
      "Ġcra": 3660,
      "Ġmultiple": 3661,
      "owers": 3662,
      "aught": 3663,
      "aga": 3664,
      "Ġkim": 3665,
      "Ġtrust": 3666,
      "Ġgirls": 3667,
      "Ġfinancial": 3668,
      "Ġbishops": 3669,
      "Ġlived": 3670,
      "Ġiii": 3671,
      "Ġfederation": 3672,
      "Ġcomposed": 3673,
      "ply": 3674,
      "Ġparts": 3675,
      "Ġtry": 3676,
      "2015": 3677,
      "Ġcharts": 3678,
      "jan": 3679,
      "ests": 3680,
      "Ġconnect": 3681,
      "Ġah": 3682,
      "Ġprogress": 3683,
      "Ġczech": 3684,
      "Ġ1969": 3685,
      "ĠĠĠĠĠ": 3686,
      "weight": 3687,
      "Ġjersey": 3688,
      "Ġpenns": 3689,
      "Ġ1973": 3690,
      "Ġpurch": 3691,
      "Ġreason": 3692,
      "Ġcastle": 3693,
      "Ġlength": 3694,
      "Ġjohnson": 3695,
      "Ġdead": 3696,
      "bre": 3697,
      "anth": 3698,
      "Ġparents": 3699,
      "unch": 3700,
      "Ġmovie": 3701,
      "Ġparish": 3702,
      "Ġtraditional": 3703,
      "Ġsubst": 3704,
      "tained": 3705,
      "Ġnature": 3706,
      "ograp": 3707,
      "ugg": 3708,
      "Ġsab": 3709,
      "Ġarrest": 3710,
      "Ġkorea": 3711,
      "fect": 3712,
      "Ġtoday": 3713,
      "Ġsource": 3714,
      "iation": 3715,
      "Ġbetter": 3716,
      "Ġinfantry": 3717,
      "uv": 3718,
      "itch": 3719,
      "Ġbol": 3720,
      "Ġthus": 3721,
      "iders": 3722,
      "shire": 3723,
      "Ġreviews": 3724,
      "ingu": 3725,
      "Ġblock": 3726,
      "Ġsoccer": 3727,
      "ev": 3728,
      "Ġacademic": 3729,
      "zo": 3730,
      "Ġassociated": 3731,
      "Ġpennsylvania": 3732,
      "style": 3733,
      "aped": 3734,
      "Ġsuffer": 3735,
      "Ġgrow": 3736,
      "Ġcommander": 3737,
      "las": 3738,
      "45": 3739,
      "Ġcamb": 3740,
      "Ġburn": 3741,
      "Ġice": 3742,
      "Ġbeg": 3743,
      "ronic": 3744,
      "Ġbecoming": 3745,
      "pected": 3746,
      "Ġ1920": 3747,
      "osh": 3748,
      "can": 3749,
      "uten": 3750,
      "Ġnick": 3751,
      "Ġobject": 3752,
      "arily": 3753,
      "Ġess": 3754,
      "Ġmove": 3755,
      "Ġwales": 3756,
      "Ġvermont": 3757,
      "Ġrelated": 3758,
      "Ġdescription": 3759,
      "Ġ(\"": 3760,
      "hab": 3761,
      "Ġpublications": 3762,
      "inet": 3763,
      "Ġfriends": 3764,
      "Ġbeach": 3765,
      "Ġregard": 3766,
      "Ġspir": 3767,
      "nam": 3768,
      "ima": 3769,
      "bon": 3770,
      "riage": 3771,
      "Ġserving": 3772,
      "Ġexhibition": 3773,
      "Ġohio": 3774,
      "Ġbritain": 3775,
      "46": 3776,
      "Ġwhom": 3777,
      "Ġfunction": 3778,
      "ustr": 3779,
      "32": 3780,
      "Ġtoo": 3781,
      "Ġthr": 3782,
      "isation": 3783,
      "urth": 3784,
      "Ġstan": 3785,
      "Ġapproximately": 3786,
      "Ġcomplete": 3787,
      "Ġeither": 3788,
      "Ġalmost": 3789,
      "Ġrang": 3790,
      "Ġtel": 3791,
      "itage": 3792,
      "greg": 3793,
      "Ġraised": 3794,
      "istic": 3795,
      "190": 3796,
      "Ġjewish": 3797,
      "2017": 3798,
      "Ġphilos": 3799,
      "Ġappearances": 3800,
      "rodu": 3801,
      "ansas": 3802,
      "ote": 3803,
      "Ġappearance": 3804,
      "47": 3805,
      "regon": 3806,
      "Ġheavy": 3807,
      "Ġcomplet": 3808,
      "ken": 3809,
      "Ġstandard": 3810,
      "Ġmob": 3811,
      "48": 3812,
      "sch": 3813,
      "Ġpict": 3814,
      "Ġhop": 3815,
      "mir": 3816,
      "Ġanal": 3817,
      "Ġjones": 3818,
      "Ġmusicians": 3819,
      "Ġpakistan": 3820,
      "Ġdrug": 3821,
      "Ġyour": 3822,
      "gypt": 3823,
      "anded": 3824,
      "Ġtas": 3825,
      "ails": 3826,
      "Ġrather": 3827,
      "ologist": 3828,
      "alled": 3829,
      "Ġoregon": 3830,
      "Ġlives": 3831,
      "Ġ1953": 3832,
      "ount": 3833,
      "Ġcert": 3834,
      "ends": 3835,
      "inn": 3836,
      "Ġdark": 3837,
      "Ġaircraft": 3838,
      "ibility": 3839,
      "Ġmexican": 3840,
      "Ġcharl": 3841,
      "Ġturkish": 3842,
      "arters": 3843,
      "Ġkhan": 3844,
      "Ġalongside": 3845,
      "Ġfair": 3846,
      "Ġmicro": 3847,
      "Ġseat": 3848,
      "Ġconstitu": 3849,
      "Ġswedish": 3850,
      "Ġ1944": 3851,
      "Ġsupreme": 3852,
      "Ġarchae": 3853,
      "olit": 3854,
      "99": 3855,
      "ika": 3856,
      "Ġ1962": 3857,
      "Ġresour": 3858,
      "Ġdeputy": 3859,
      "Ġcompil": 3860,
      "Ġjes": 3861,
      "Ġpresented": 3862,
      "Ġdanish": 3863,
      "Ġclear": 3864,
      "estyle": 3865,
      "Ġheritage": 3866,
      "Ġgi": 3867,
      "Ġpartners": 3868,
      "Ġnation": 3869,
      "Ġurban": 3870,
      "Ġalexander": 3871,
      "Ġpolitics": 3872,
      "Ġwilliams": 3873,
      "ready": 3874,
      "hold": 3875,
      "Ġpolish": 3876,
      "Ġstories": 3877,
      "Ġstock": 3878,
      "Ġdouble": 3879,
      "Ġdiscuss": 3880,
      "Ġlic": 3881,
      "Ġterritory": 3882,
      "Ġdaniel": 3883,
      "Ġscientific": 3884,
      "Ġcontemporary": 3885,
      "Ġpope": 3886,
      "Ġdemon": 3887,
      "mus": 3888,
      "Ġlatin": 3889,
      "face": 3890,
      "ties": 3891,
      "Ġcolumbia": 3892,
      "Ġkir": 3893,
      "Ġchanged": 3894,
      "Ġ1965": 3895,
      "Ġarticle": 3896,
      "onsin": 3897,
      "Ġrevolution": 3898,
      "org": 3899,
      "stra": 3900,
      "Ġpossible": 3901,
      "hic": 3902,
      "Ġwisc": 3903,
      "iff": 3904,
      "Ġ1941": 3905,
      "Ġturkey": 3906,
      "Ġinte": 3907,
      "imb": 3908,
      "Ġindic": 3909,
      "ias": 3910,
      "Ġadam": 3911,
      "Ġfrancisco": 3912,
      "Ġmess": 3913,
      "Ġreform": 3914,
      "oper": 3915,
      "Ġmit": 3916,
      "oms": 3917,
      "Ġgas": 3918,
      "ession": 3919,
      "Ġpassed": 3920,
      "hs": 3921,
      "eg": 3922,
      "Ġpresidential": 3923,
      "Ġful": 3924,
      "Ġchand": 3925,
      "Ġcricket": 3926,
      "Ġclosed": 3927,
      "Ġcities": 3928,
      "Ġjon": 3929,
      "season": 3930,
      "Ġrecip": 3931,
      "Ġ60": 3932,
      "Ġsult": 3933,
      "Ġabs": 3934,
      "urthala": 3935,
      "Ġindustrial": 3936,
      "Ġkapurthala": 3937,
      "Ġwisconsin": 3938,
      "75": 3939,
      "Ġ1942": 3940,
      "Ġjane": 3941,
      "Ġswimming": 3942,
      "Ġcorporation": 3943,
      "Ġcandidates": 3944,
      "Ġscout": 3945,
      "95": 3946,
      "house": 3947,
      "like": 3948,
      "Ġsquare": 3949,
      "ols": 3950,
      "Ġpeace": 3951,
      "arm": 3952,
      "Ġentertainment": 3953,
      "Ġegypt": 3954,
      "Ġdeep": 3955,
      "Ġ1952": 3956,
      "Ġbomb": 3957,
      "Ġminutes": 3958,
      "iy": 3959,
      "Ġsurname": 3960,
      "inois": 3961,
      "Ġelimin": 3962,
      "Ġsurround": 3963,
      "Ġbangladesh": 3964,
      "Ġissue": 3965,
      "Ġbern": 3966,
      "Ġparalympic": 3967,
      "Ġsaf": 3968,
      "onse": 3969,
      "Ġforward": 3970,
      "ffic": 3971,
      "Ġlisting": 3972,
      "Ġkeep": 3973,
      "Ġiniti": 3974,
      "ci": 3975,
      "oe": 3976,
      "inal": 3977,
      "Ġstore": 3978,
      "Ġprop": 3979,
      "Ġtrial": 3980,
      "Ġnic": 3981,
      "Ġacting": 3982,
      "bro": 3983,
      "Ġnames": 3984,
      "roll": 3985,
      "Ġoppon": 3986,
      "Ġgolden": 3987,
      "Ġearlier": 3988,
      "Ġbene": 3989,
      "Ġcontains": 3990,
      "Ġgive": 3991,
      "ging": 3992,
      "teen": 3993,
      "Ġhab": 3994,
      "Ġvehic": 3995,
      "Ġfeaturing": 3996,
      "Ġnumerous": 3997,
      "Ġcolorado": 3998,
      "Ġlif": 3999,
      "Ġfal": 4000,
      "Ġsupported": 4001,
      "Ġlieuten": 4002,
      "abeth": 4003,
      "iety": 4004,
      "\")": 4005,
      "Ġ1948": 4006,
      "2014": 4007,
      "Ġ1943": 4008,
      "esh": 4009,
      "Ġprojects": 4010,
      "Ġvoice": 4011,
      "Ġillinois": 4012,
      "Ġcreate": 4013,
      "Ġlack": 4014,
      "Ġbob": 4015,
      "Ġalready": 4016,
      "Ġbrazilian": 4017,
      "Ġhu": 4018,
      "Ġorche": 4019,
      "Ġchanges": 4020,
      "uge": 4021,
      "Ġmunicipal": 4022,
      "Ġstay": 4023,
      "sk": 4024,
      "Ġbeng": 4025,
      "Ġera": 4026,
      "eks": 4027,
      "ighth": 4028,
      "itation": 4029,
      "Ġsolo": 4030,
      "Ġlady": 4031,
      "iance": 4032,
      "Ġedward": 4033,
      "writer": 4034,
      "Ġrevealed": 4035,
      "Ġtwenty": 4036,
      "Ġkil": 4037,
      "Ġaltern": 4038,
      "Ġloan": 4039,
      "ami": 4040,
      "Ġexperience": 4041,
      "Ġtakes": 4042,
      "Ġmechan": 4043,
      "rac": 4044,
      "Ġ1956": 4045,
      "Ġcategory": 4046,
      "Ġdistribution": 4047,
      "Ġcell": 4048,
      "car": 4049,
      "Ġqualified": 4050,
      "Ġmathem": 4051,
      "Ġsomet": 4052,
      "pecially": 4053,
      "Ġray": 4054,
      "Ġgrey": 4055,
      "Ġsund": 4056,
      "Ġconfir": 4057,
      "dney": 4058,
      "Ġiron": 4059,
      "49": 4060,
      "Ġcrime": 4061,
      "Ġopt": 4062,
      "izing": 4063,
      "Ġmajority": 4064,
      "Ġlyric": 4065,
      "net": 4066,
      "Ġ1936": 4067,
      "onia": 4068,
      "Ġfinally": 4069,
      "mas": 4070,
      "sw": 4071,
      "rep": 4072,
      "Ġeliz": 4073,
      "65": 4074,
      "Ġpartner": 4075,
      "Ġancient": 4076,
      "Ġpurs": 4077,
      "Ġjoe": 4078,
      "Ġaffairs": 4079,
      "Ġlieutenant": 4080,
      "bury": 4081,
      "Ġpaper": 4082,
      "lav": 4083,
      "oman": 4084,
      "Ġ35": 4085,
      "Ġwinter": 4086,
      "188": 4087,
      "Ġremov": 4088,
      "Ġborder": 4089,
      "finals": 4090,
      "etts": 4091,
      "Ġmedicine": 4092,
      "Ġinstr": 4093,
      "Ġhelped": 4094,
      "Ġscholars": 4095,
      "Ġteacher": 4096,
      "cow": 4097,
      "rance": 4098,
      "Ġnam": 4099,
      "Ġindones": 4100,
      "rich": 4101,
      "Ġviet": 4102,
      "Ġnewspaper": 4103,
      "Ġbelow": 4104,
      "Ġleon": 4105,
      "Ġ1939": 4106,
      "Ġtouchdown": 4107,
      "ridge": 4108,
      "Ġbost": 4109,
      "Ġ1954": 4110,
      "Ġmunicipality": 4111,
      "class": 4112,
      "Ġmarine": 4113,
      "Ġspecific": 4114,
      "Ġpromin": 4115,
      "Ġ1963": 4116,
      "tic": 4117,
      "Ġpath": 4118,
      "Ġrain": 4119,
      "Ġrose": 4120,
      "Ġple": 4121,
      "Ġsingh": 4122,
      "onom": 4123,
      "Ġott": 4124,
      "Ġseg": 4125,
      "Ġjudge": 4126,
      "Ġsultan": 4127,
      "Ġadop": 4128,
      "any": 4129,
      "Ġprograms": 4130,
      "bar": 4131,
      "immer": 4132,
      "Ġbeetles": 4133,
      "sen": 4134,
      "vert": 4135,
      "Ġeducational": 4136,
      "Ġmotor": 4137,
      "Ġrequired": 4138,
      "Ġemploy": 4139,
      "Ġsac": 4140,
      "Ġphilippines": 4141,
      "nic": 4142,
      "Ġdur": 4143,
      "Ġlov": 4144,
      "Ġmcc": 4145,
      "Ġthought": 4146,
      "Ġforced": 4147,
      "Ġsaying": 4148,
      "Ġpercent": 4149,
      "Ġlay": 4150,
      "Ġjr": 4151,
      "Ġagency": 4152,
      "Ġsecondary": 4153,
      "97": 4154,
      "Ġnether": 4155,
      "hire": 4156,
      "oren": 4157,
      "comple": 4158,
      "inary": 4159,
      "Ġdun": 4160,
      "Ġcritics": 4161,
      "Ġlabel": 4162,
      "oo": 4163,
      "Ġpier": 4164,
      "encies": 4165,
      "Ġchur": 4166,
      "kh": 4167,
      "Ġquick": 4168,
      "Ġupper": 4169,
      "Ġprob": 4170,
      "Ġka": 4171,
      "Ġacquired": 4172,
      "wide": 4173,
      "ysis": 4174,
      "Ġespecially": 4175,
      "Ġweb": 4176,
      "Ġmetal": 4177,
      "Ġadvanced": 4178,
      "Ġ1961": 4179,
      "Ġadvis": 4180,
      "achus": 4181,
      "Ġleaving": 4182,
      "Ġlines": 4183,
      "Ġil": 4184,
      "Ġleadership": 4185,
      "oka": 4186,
      "Ġjeff": 4187,
      "stein": 4188,
      "fit": 4189,
      "Ġhours": 4190,
      "Ġjacks": 4191,
      "Ġdefense": 4192,
      "Ġfeel": 4193,
      "Ġimmedi": 4194,
      "Ġ1959": 4195,
      "cont": 4196,
      ".)": 4197,
      "eland": 4198,
      "ctive": 4199,
      "Ġdocumentary": 4200,
      "Ġscotland": 4201,
      "55": 4202,
      "estic": 4203,
      "Ġcomputer": 4204,
      "arest": 4205,
      "Î±": 4206,
      "mitted": 4207,
      "change": 4208,
      "Ġsha": 4209,
      "Ġresponse": 4210,
      "Ġlatter": 4211,
      "Ġtay": 4212,
      "Ġinside": 4213,
      "Ġpiano": 4214,
      "68": 4215,
      "Ġtree": 4216,
      "Ġweeks": 4217,
      "ÑĤ": 4218,
      "nesota": 4219,
      "Ġkel": 4220,
      "Ġbeaut": 4221,
      "Ġclaimed": 4222,
      "Ġpad": 4223,
      "Ġmarriage": 4224,
      "Ġrome": 4225,
      "Ġfamil": 4226,
      "Ġsky": 4227,
      "part": 4228,
      "Ġgab": 4229,
      "adel": 4230,
      "Ġheat": 4231,
      "erved": 4232,
      "Ġchen": 4233,
      "Ġchalleng": 4234,
      "Ġfrequ": 4235,
      "Ġproducts": 4236,
      "98": 4237,
      "Ġenvironmental": 4238,
      "Ġnag": 4239,
      "Ġmanaged": 4240,
      "Ġequip": 4241,
      "Ġdiss": 4242,
      "Ġdone": 4243,
      "2013": 4244,
      "wal": 4245,
      "Ġlot": 4246,
      "Ġboston": 4247,
      "ellow": 4248,
      "Ġspeed": 4249,
      "Ġfloor": 4250,
      "Ġgrade": 4251,
      "Ġimpact": 4252,
      "Ġdiffic": 4253,
      "yr": 4254,
      "igen": 4255,
      "Ġabd": 4256,
      "Ġattract": 4257,
      "Ġachiev": 4258,
      "achusetts": 4259,
      "Ġtracks": 4260,
      "Ġgram": 4261,
      "onto": 4262,
      "Ġvotes": 4263,
      "Ġremaining": 4264,
      "met": 4265,
      "Ġ1958": 4266,
      "Ġminnesota": 4267,
      "Ġconcern": 4268,
      "Ġfinish": 4269,
      "Ġdefend": 4270,
      "Ġvolunt": 4271,
      "Ġdraft": 4272,
      "complete": 4273,
      "Ġleaves": 4274,
      "Ġmeans": 4275,
      "Ġbelong": 4276,
      "Ġnetherlands": 4277,
      "Ġbound": 4278,
      "Ġdise": 4279,
      "ault": 4280,
      "atus": 4281,
      "Ġsoftware": 4282,
      "fefefe": 4283,
      "Ġanne": 4284,
      "Ġmoscow": 4285,
      "Ġfailed": 4286,
      "Ġoxford": 4287,
      "Ġitself": 4288,
      "Ġplants": 4289,
      "Ġgenus": 4290,
      "Ġchurches": 4291,
      "enue": 4292,
      "Ġjackson": 4293,
      "Ġsixth": 4294,
      "Ġmassachusetts": 4295,
      "ori": 4296,
      "Ð¾Ð": 4297,
      "Ġdipl": 4298,
      "Ġspl": 4299,
      "Ġtai": 4300,
      "Ġ1947": 4301,
      "dra": 4302,
      "mission": 4303,
      "aki": 4304,
      "isk": 4305,
      "ogue": 4306,
      "Ġoce": 4307,
      "Ġfast": 4308,
      "Ġroc": 4309,
      "urer": 4310,
      "Ġpacific": 4311,
      "cel": 4312,
      "more": 4313,
      "isa": 4314,
      "emic": 4315,
      "Ġstatus": 4316,
      "itting": 4317,
      "Ġmike": 4318,
      "des": 4319,
      "Ġlas": 4320,
      "Ġjob": 4321,
      "Ġconcept": 4322,
      "Ġnearby": 4323,
      "Ġfreestyle": 4324,
      "zi": 4325,
      "rane": 4326,
      "rison": 4327,
      "olis": 4328,
      "lon": 4329,
      "ping": 4330,
      "Ġremains": 4331,
      "lim": 4332,
      "Ġsoldiers": 4333,
      "Ġactresses": 4334,
      "Ġleave": 4335,
      "Ġautom": 4336,
      "Ġlud": 4337,
      "Ġadult": 4338,
      "yard": 4339,
      "oid": 4340,
      "Ġconsec": 4341,
      "Ġcovered": 4342,
      "asion": 4343,
      "Ġfirm": 4344,
      "Ġprotection": 4345,
      "Ġmostly": 4346,
      "Ġarticles": 4347,
      "Ġcoming": 4348,
      "Ġsanta": 4349,
      "Ġbrothers": 4350,
      "Ġga": 4351,
      "Ġchris": 4352,
      "Ġshown": 4353,
      "wegian": 4354,
      "Ġdestroy": 4355,
      "akers": 4356,
      "Ġcry": 4357,
      "Ġimper": 4358,
      "uals": 4359,
      "Ġny": 4360,
      "inals": 4361,
      "Ġbil": 4362,
      "Ġcham": 4363,
      "raine": 4364,
      "Ġphysical": 4365,
      "58": 4366,
      "Ġincreased": 4367,
      "Ġexam": 4368,
      "Ġconsist": 4369,
      "Ġcertain": 4370,
      "Ġillustr": 4371,
      "Ġentry": 4372,
      "Ġmainly": 4373,
      "Ġuc": 4374,
      "Ġlect": 4375,
      "Ġopera": 4376,
      "Ġdisp": 4377,
      "Ġ1957": 4378,
      "Ġclassification": 4379,
      "Ġfiction": 4380,
      "Ġqualifying": 4381,
      "rast": 4382,
      "78": 4383,
      "ologists": 4384,
      "Ġreceiving": 4385,
      "Ġfres": 4386,
      "Ġfavor": 4387,
      "aq": 4388,
      "Ġapart": 4389,
      "Ġcook": 4390,
      "rem": 4391,
      "Ġelev": 4392,
      "essee": 4393,
      "Ġliga": 4394,
      "ricts": 4395,
      "Ġsequ": 4396,
      "Ġpick": 4397,
      "aded": 4398,
      "Ġbring": 4399,
      "Ġpoor": 4400,
      "Ġpositive": 4401,
      "Ġdor": 4402,
      "ledge": 4403,
      "Ġ|}": 4404,
      "aily": 4405,
      "Ġtransferred": 4406,
      "Ġ)": 4407,
      "Ġjam": 4408,
      "rice": 4409,
      "Ġtitled": 4410,
      "Ġdream": 4411,
      "Ġtowns": 4412,
      "Ġdivers": 4413,
      "rol": 4414,
      "Ġevidence": 4415,
      "Ġdisplay": 4416,
      "chester": 4417,
      "Ġsucceed": 4418,
      "Ġmax": 4419,
      "Ġhosted": 4420,
      "Ġtrail": 4421,
      "Ġcricketers": 4422,
      "Ġhonours": 4423,
      "Ġtennessee": 4424,
      "Ġconstructed": 4425,
      "din": 4426,
      "Ġsud": 4427,
      "state": 4428,
      "rainian": 4429,
      "Ġhind": 4430,
      "Ġgian": 4431,
      "ctoral": 4432,
      "Ġtitles": 4433,
      "Ġheadquarters": 4434,
      "Ġ1946": 4435,
      "iles": 4436,
      "Ġextended": 4437,
      "Ġalways": 4438,
      "oster": 4439,
      "Ġcancer": 4440,
      "Ġcoal": 4441,
      "kee": 4442,
      "Ġcitizens": 4443,
      "Ġconsists": 4444,
      "Ġdedicated": 4445,
      "ava": 4446,
      "Ġnorwegian": 4447,
      "Ġblood": 4448,
      "Ġsingers": 4449,
      "Ġships": 4450,
      "Ġfreed": 4451,
      "Ġpred": 4452,
      "Ġdirectors": 4453,
      "ophy": 4454,
      "ode": 4455,
      "Ġfounder": 4456,
      "Ġjoint": 4457,
      "Ġusually": 4458,
      "ailand": 4459,
      "Ġliterary": 4460,
      "Ġnovels": 4461,
      "Ġlaws": 4462,
      "Ġdrop": 4463,
      "Ġserve": 4464,
      "Ġhorse": 4465,
      "bec": 4466,
      "Ġantonio": 4467,
      "osed": 4468,
      "Ġcann": 4469,
      "di": 4470,
      "Ġts": 4471,
      "Ġdog": 4472,
      "Ġchile": 4473,
      "athan": 4474,
      "2012": 4475,
      "Ġvariety": 4476,
      "Ġcombined": 4477,
      "Ġkenn": 4478,
      "ify": 4479,
      "Ġfamilies": 4480,
      "urne": 4481,
      "Ġ1938": 4482,
      "dist": 4483,
      "Ġvolley": 4484,
      "uries": 4485,
      "ips": 4486,
      "ding": 4487,
      "atics": 4488,
      "Ġmom": 4489,
      "ensis": 4490,
      "rief": 4491,
      "Ġcomment": 4492,
      "Ġtechnical": 4493,
      "96": 4494,
      "Ġpoland": 4495,
      "Ġresponsible": 4496,
      "Ġwanted": 4497,
      "Ġrepe": 4498,
      "Ġcathed": 4499,
      "och": 4500,
      "Ġtheory": 4501,
      "Ġresident": 4502,
      "Ġkam": 4503,
      "Ġroll": 4504,
      "Ġinstitutions": 4505,
      "Ġvs": 4506,
      "Ġgrew": 4507,
      "ellig": 4508,
      "Ġdomestic": 4509,
      "worth": 4510,
      "76": 4511,
      "94": 4512,
      "cul": 4513,
      "Ġ1955": 4514,
      "ovic": 4515,
      "Ġsteel": 4516,
      "Ġteaching": 4517,
      "uled": 4518,
      "ening": 4519,
      "Ġforms": 4520,
      "kyo": 4521,
      "Ġcyclists": 4522,
      "aging": 4523,
      "Ġzone": 4524,
      "Ġcaused": 4525,
      "Ġuses": 4526,
      "Ġnominated": 4527,
      "Ġelizabeth": 4528,
      "Ġusa": 4529,
      "Ġbeetle": 4530,
      "ously": 4531,
      "isher": 4532,
      "Ġ1935": 4533,
      "Ġmiles": 4534,
      "Ġcode": 4535,
      "Ġpoly": 4536,
      "Ġsometimes": 4537,
      "Ġfellows": 4538,
      "Ġroles": 4539,
      "Ġattorn": 4540,
      "Ġaddress": 4541,
      "Ðº": 4542,
      "Ġandrew": 4543,
      "Ġjournalist": 4544,
      "Ġparties": 4545,
      "Ġmention": 4546,
      "bu": 4547,
      "Ġtheater": 4548,
      "Ġbag": 4549,
      "Ġthreat": 4550,
      "Ġell": 4551,
      "Ġprincipal": 4552,
      "Ġgang": 4553,
      "Ġplans": 4554,
      "aring": 4555,
      "Ġdaily": 4556,
      "Ġsearch": 4557,
      "Ġtermin": 4558,
      "Ġukrainian": 4559,
      "anna": 4560,
      "Ġadj": 4561,
      "rupt": 4562,
      "Ġgur": 4563,
      "Ġremain": 4564,
      "Ġceme": 4565,
      "action": 4566,
      "Ġconfl": 4567,
      "Ġword": 4568,
      "Ġnik": 4569,
      "itter": 4570,
      "Ġovers": 4571,
      "Ġgran": 4572,
      "oto": 4573,
      "Ġwins": 4574,
      "Ġactivity": 4575,
      "mod": 4576,
      "Ġhay": 4577,
      "Ġboys": 4578,
      "Ġcontinu": 4579,
      "mi": 4580,
      "eries": 4581,
      "Ġrate": 4582,
      "Ġintegr": 4583,
      "Ġtokyo": 4584,
      "Ġkaz": 4585,
      "Ġkind": 4586,
      "Ġshoo": 4587,
      "Ġmalaysia": 4588,
      "idi": 4589,
      "Ġpositions": 4590,
      "Ġpp": 4591,
      "Ġwheel": 4592,
      "Ġwars": 4593,
      "Ġ1951": 4594,
      "Ġbattal": 4595,
      "Ġorganized": 4596,
      "Ġcape": 4597,
      "Ġlevels": 4598,
      "Ġori": 4599,
      "Ġsoutheast": 4600,
      "Ġpainting": 4601,
      "Ġsites": 4602,
      "Ġstephen": 4603,
      "Ġjazz": 4604,
      "Ġdistricts": 4605,
      "Ġvolume": 4606,
      "Ġsydney": 4607,
      "itzer": 4608,
      "Ġalbert": 4609,
      "ills": 4610,
      "Ġcerem": 4611,
      "kin": 4612,
      "Ġdemonstr": 4613,
      "Ġthailand": 4614,
      "Ġslov": 4615,
      "Ġcases": 4616,
      "Ġoil": 4617,
      "attle": 4618,
      "Ġshooting": 4619,
      "gi": 4620,
      "fo": 4621,
      "Ġfine": 4622,
      "Ġkick": 4623,
      "Ġbed": 4624,
      "Ġtold": 4625,
      "Ġsubs": 4626,
      "Ġ1928": 4627,
      "Ġroof": 4628,
      "2011": 4629,
      "Ġbrigade": 4630,
      "Ġsweden": 4631,
      "Ġcd": 4632,
      "Ġrecent": 4633,
      "Ġterms": 4634,
      "Ġrunner": 4635,
      "Ġoperated": 4636,
      "Ġcrown": 4637,
      "itude": 4638,
      "Ġguest": 4639,
      "Ġtoronto": 4640,
      "tv": 4641,
      "Ġ1937": 4642,
      "bers": 4643,
      "Ġconcert": 4644,
      "56": 4645,
      "Ġdub": 4646,
      "lan": 4647,
      "aces": 4648,
      "2018": 4649,
      "Ġlists": 4650,
      "Ġgreg": 4651,
      "Ġ32": 4652,
      "aria": 4653,
      "Ġparticularly": 4654,
      "pose": 4655,
      "Ġthink": 4656,
      "Ġasked": 4657,
      "Ġcompl": 4658,
      "Ġhero": 4659,
      "Ġvent": 4660,
      "Ġrh": 4661,
      "Ġmaxim": 4662,
      "Ġintrodu": 4663,
      "Ġ1949": 4664,
      "Ġimplement": 4665,
      "ache": 4666,
      "Ġrot": 4667,
      "Ġtamil": 4668,
      "Ġcrew": 4669,
      "Ġtower": 4670,
      "Ġjay": 4671,
      "Ġcomposition": 4672,
      "Ġdiscovered": 4673,
      "Ġvolleyball": 4674,
      "Ġweekly": 4675,
      "yes": 4676,
      "Ġcru": 4677,
      "zy": 4678,
      "Ġranked": 4679,
      "Ġmoving": 4680,
      "Ġknight": 4681,
      "Ġlt": 4682,
      "Ġlew": 4683,
      "77": 4684,
      "Ġconver": 4685,
      "ih": 4686,
      "Ġspirit": 4687,
      "lers": 4688,
      "ift": 4689,
      "Ġdecor": 4690,
      "Ġproposed": 4691,
      "Ġresources": 4692,
      "ributed": 4693,
      "Ġsin": 4694,
      "Ġintellig": 4695,
      "nan": 4696,
      "Ġbod": 4697,
      "thur": 4698,
      "Ġtrav": 4699,
      "thing": 4700,
      ";\"|": 4701,
      "Ġhund": 4702,
      "Ġcomes": 4703,
      "Ġletter": 4704,
      "bol": 4705,
      "Ġcrimin": 4706,
      "Ġrestaur": 4707,
      "44": 4708,
      "Ġbah": 4709,
      "Ġpor": 4710,
      "Ġrepresenting": 4711,
      "Ġunknown": 4712,
      "Ġcapac": 4713,
      "Ġadvoc": 4714,
      "Ġvictoria": 4715,
      "www": 4716,
      "fort": 4717,
      "Ġmarg": 4718,
      "Ġmakes": 4719,
      "iced": 4720,
      "Ġexcept": 4721,
      "iba": 4722,
      "Ġlad": 4723,
      "Ġcarried": 4724,
      "Ġissued": 4725,
      "Ġrural": 4726,
      "Ġbrid": 4727,
      "zh": 4728,
      "Ġshortly": 4729,
      "now": 4730,
      "Ġfamous": 4731,
      "Ġformation": 4732,
      "Ġrunners": 4733,
      "Ġraces": 4734,
      "Ġharv": 4735,
      "ician": 4736,
      "Ġestate": 4737,
      "ression": 4738,
      "Ġyellow": 4739,
      "Ġfreder": 4740,
      "Ġsons": 4741,
      "apore": 4742,
      "ucky": 4743,
      "Ġflag": 4744,
      "chi": 4745,
      "Ġinitial": 4746,
      "roke": 4747,
      "66": 4748,
      "Ġbull": 4749,
      "Ġeg": 4750,
      "Ġdistance": 4751,
      "Ġpod": 4752,
      "Ġfinn": 4753,
      "Ġrub": 4754,
      "Ġcomposer": 4755,
      "Ġbachel": 4756,
      "Ġgrant": 4757,
      "',": 4758,
      "Ġturned": 4759,
      "osa": 4760,
      "under": 4761,
      "Ġamount": 4762,
      "Ġattend": 4763,
      "Ġgenerally": 4764,
      "stone": 4765,
      "Ġgene": 4766,
      "portun": 4767,
      "Ġcolomb": 4768,
      "Ġnaval": 4769,
      "Ġincrease": 4770,
      "ÅĤ": 4771,
      "Ġconsult": 4772,
      "Ġofficially": 4773,
      "Ġsusp": 4774,
      "Ġgarden": 4775,
      "Ġeag": 4776,
      "Ġrefle": 4777,
      "Ġoffered": 4778,
      "Ġauthority": 4779,
      "Ġfighting": 4780,
      "Ġdeclared": 4781,
      "selves": 4782,
      "hist": 4783,
      "Ġopportun": 4784,
      "Ġbott": 4785,
      "Ġcompete": 4786,
      "Ġthemselves": 4787,
      "Ġjim": 4788,
      "Ġnurs": 4789,
      "Ġmorn": 4790,
      "sey": 4791,
      "Ġconservation": 4792,
      "Ġsales": 4793,
      "Ġenough": 4794,
      "Ġjoin": 4795,
      "Ġprevent": 4796,
      "Ġpack": 4797,
      "Ġgord": 4798,
      "Ġcounter": 4799,
      "Ġarrived": 4800,
      "hal": 4801,
      "Ġ1933": 4802,
      "Ġrab": 4803,
      "Ġrespectively": 4804,
      "83": 4805,
      "Ġvin": 4806,
      "Ġreserv": 4807,
      "Ġ@": 4808,
      "establ": 4809,
      "Ġneighbor": 4810,
      "Ġelements": 4811,
      "uts": 4812,
      "hr": 4813,
      "Ġatlantic": 4814,
      "jar": 4815,
      "Ġ(;": 4816,
      "Ġisraeli": 4817,
      "Ġgrowth": 4818,
      "ception": 4819,
      "Ġmarsh": 4820,
      "Ġtrip": 4821,
      "sex": 4822,
      "Ġlaunch": 4823,
      "Ġlank": 4824,
      "Ġjur": 4825,
      "Ġhan": 4826,
      "Ġkat": 4827,
      "Ġbrook": 4828,
      "enez": 4829,
      "Ġmeaning": 4830,
      "Ġcaptured": 4831,
      "Ġcustom": 4832,
      "pal": 4833,
      "Ġcompeting": 4834,
      "Ġflight": 4835,
      "Ġcart": 4836,
      "Ġperman": 4837,
      "oud": 4838,
      "Ġowner": 4839,
      "ti": 4840,
      "Ġcav": 4841,
      "bed": 4842,
      "hl": 4843,
      "Ġsust": 4844,
      "Ġmang": 4845,
      "Ġdenmark": 4846,
      "Ġcemetery": 4847,
      "Ġtaylor": 4848,
      "Ġowners": 4849,
      "Ġbelieved": 4850,
      "Ġdetermin": 4851,
      "Ġ(),": 4852,
      "Ġshop": 4853,
      "Ġtroops": 4854,
      "Ġhundred": 4855,
      "ras": 4856,
      "Ġpublishing": 4857,
      "ashion": 4858,
      "Ġobserv": 4859,
      "Ġbrief": 4860,
      "Ġwhole": 4861,
      "Ġeffects": 4862,
      "Ġmight": 4863,
      "Ġprominent": 4864,
      "Ġpatri": 4865,
      "Ġperformances": 4866,
      "oli": 4867,
      "sm": 4868,
      "Ġ70": 4869,
      "Ġlabour": 4870,
      "rog": 4871,
      "Ġcorre": 4872,
      "57": 4873,
      "alo": 4874,
      "resp": 4875,
      "Ġprovides": 4876,
      "54": 4877,
      "Ġpu": 4878,
      "olo": 4879,
      "Ġtrue": 4880,
      "adelph": 4881,
      "Ġexchange": 4882,
      "Ġ1918": 4883,
      "Ġnote": 4884,
      "Ġhungarian": 4885,
      "Ġplanning": 4886,
      "Ġyout": 4887,
      "Ġcrow": 4888,
      "Ġukraine": 4889,
      "Ġimmigr": 4890,
      "Ġlikely": 4891,
      "Ġlam": 4892,
      "Ġappears": 4893,
      "Ġstarring": 4894,
      "Ġheight": 4895,
      "Ġpoetry": 4896,
      "omet": 4897,
      "ordin": 4898,
      "Ġterror": 4899,
      "Ġagreement": 4900,
      "found": 4901,
      "Ġbos": 4902,
      "Ġhighway": 4903,
      "Ġconditions": 4904,
      "Ġbelg": 4905,
      "Ġquestion": 4906,
      "uri": 4907,
      "Ġvic": 4908,
      "Ġ1934": 4909,
      "Ġfant": 4910,
      "Ġswimmer": 4911,
      "Ġorth": 4912,
      "Ġyet": 4913,
      "Ġ1924": 4914,
      "Ġpilot": 4915,
      "91": 4916,
      "Ġattorney": 4917,
      "Ġbes": 4918,
      "Ġinfluence": 4919,
      "84": 4920,
      "Ġ36": 4921,
      "Ġpremiered": 4922,
      "Ġproblems": 4923,
      "Ġcontent": 4924,
      "Ġbarb": 4925,
      "Ġopponents": 4926,
      "Ġ1914": 4927,
      "Ġky": 4928,
      "Ġrecon": 4929,
      "kar": 4930,
      "Ġtaught": 4931,
      "Ġcouple": 4932,
      "Ġshare": 4933,
      "Ġcarry": 4934,
      "Ġrenamed": 4935,
      "ender": 4936,
      "Ġfail": 4937,
      "Ġsang": 4938,
      "Ġfab": 4939,
      "Ġgil": 4940,
      "Ġross": 4941,
      "Ġalle": 4942,
      "Ġagent": 4943,
      "Ġconfirmed": 4944,
      "93": 4945,
      "Ġdanc": 4946,
      "Ġhunt": 4947,
      "Ġmetrop": 4948,
      "Ġinvestigation": 4949,
      "Ġorchestra": 4950,
      "Ġexperi": 4951,
      "Ġhttp": 4952,
      "Ġtall": 4953,
      "Ġconducted": 4954,
      "Ġplanned": 4955,
      "Ġdefeat": 4956,
      "Ġau": 4957,
      "Ġ1919": 4958,
      "pre": 4959,
      "Ġalt": 4960,
      "Ġlonger": 4961,
      "Ġwant": 4962,
      "eline": 4963,
      "bourne": 4964,
      "Ġprotest": 4965,
      "Ġfish": 4966,
      "mm": 4967,
      "Ġscene": 4968,
      "usc": 4969,
      "omm": 4970,
      "Ġsingapore": 4971,
      "Ġromanian": 4972,
      "Ġdh": 4973,
      "agn": 4974,
      "Ġghana": 4975,
      "Ġbachelor": 4976,
      "Ġot": 4977,
      "Ġ80": 4978,
      "Ġpromotion": 4979,
      "Ġsatell": 4980,
      "adelphia": 4981,
      "Ġpas": 4982,
      "adi": 4983,
      "Ġambass": 4984,
      "Ġinaug": 4985,
      "uted": 4986,
      "Ġrand": 4987,
      "Ġclassical": 4988,
      "Ġanalysis": 4989,
      "ivity": 4990,
      "Ġthings": 4991,
      "Ġshah": 4992,
      "Ġlosing": 4993,
      "100": 4994,
      "Ġadvent": 4995,
      "Ġcambridge": 4996,
      "izes": 4997,
      "Ġnorway": 4998,
      "Ġfollows": 4999,
      "Ġimperial": 5000,
      "2010": 5001,
      "Ġsize": 5002,
      "Ġpip": 5003,
      "ctors": 5004,
      "eman": 5005,
      "Ġdelhi": 5006,
      "Ġstrugg": 5007,
      "Ġinspired": 5008,
      "Ġ1917": 5009,
      "Ġconstitution": 5010,
      "Ġpion": 5011,
      "Ġinsc": 5012,
      "Ġward": 5013,
      "cidae": 5014,
      "Ġfigh": 5015,
      "iring": 5016,
      "iller": 5017,
      "pet": 5018,
      "Ġdj": 5019,
      "Ġcompared": 5020,
      "Ġ1929": 5021,
      "Ġtreatment": 5022,
      "Ġprin": 5023,
      "Ġdal": 5024,
      "enna": 5025,
      "Ġkansas": 5026,
      "Ġalf": 5027,
      "Ġcathedral": 5028,
      "Ġformat": 5029,
      "Ġcontrovers": 5030,
      "ateur": 5031,
      "Ġestim": 5032,
      "Ġpassing": 5033,
      "Ġpainters": 5034,
      "inson": 5035,
      "Ġseats": 5036,
      "ands": 5037,
      "Ġresear": 5038,
      "Ġmys": 5039,
      "irement": 5040,
      "Ġeducated": 5041,
      "Ġmiller": 5042,
      "Ġdavis": 5043,
      "88": 5044,
      "uguese": 5045,
      "Ġdifficult": 5046,
      "Ġcorner": 5047,
      "bit": 5048,
      "Ġabb": 5049,
      "Ġcreation": 5050,
      "Ġ1932": 5051,
      "Ġduke": 5052,
      "Ġnom": 5053,
      "Ġincumb": 5054,
      "Ġwit": 5055,
      "Ġnearest": 5056,
      "Ġinjury": 5057,
      "Ġidea": 5058,
      "umn": 5059,
      "Ġargentina": 5060,
      "Ġdirection": 5061,
      "áĦ": 5062,
      "áħ": 5063,
      "Ġmap": 5064,
      "inger": 5065,
      "Ġrif": 5066,
      "Ġspot": 5067,
      "Ġtrophy": 5068,
      "Ġwilson": 5069,
      "Ġefforts": 5070,
      "ech": 5071,
      "Ġ1910": 5072,
      "Ġrailroad": 5073,
      "Ġtack": 5074,
      "Ġvocal": 5075,
      "Ġinterior": 5076,
      "Ġlarger": 5077,
      "Ġceramby": 5078,
      "Ġkit": 5079,
      "Ġqual": 5080,
      "Ġseventh": 5081,
      "Ġofficials": 5082,
      "ĠÂ£": 5083,
      "Ġmort": 5084,
      "Ġbelgian": 5085,
      "Ġprogramming": 5086,
      "Ġgree": 5087,
      "ardo": 5088,
      "Ġrober": 5089,
      "Ġdefence": 5090,
      "miss": 5091,
      "Ġpaintings": 5092,
      "iere": 5093,
      "Ġfashion": 5094,
      "Ġextra": 5095,
      "Ġphiladelphia": 5096,
      "Ġcerambycidae": 5097,
      "gal": 5098,
      "Ġlyn": 5099,
      "Ġgon": 5100,
      "cting": 5101,
      "Ġbecomes": 5102,
      "uation": 5103,
      "Ġclimate": 5104,
      "Ġcinema": 5105,
      "Ġcapacity": 5106,
      "Ġassociate": 5107,
      "Ġnearly": 5108,
      "Ġcant": 5109,
      "Ġwindows": 5110,
      "Ġscoring": 5111,
      "Ġiran": 5112,
      "Ġkur": 5113,
      "92": 5114,
      "Ġrush": 5115,
      "Ġkentucky": 5116,
      "inburgh": 5117,
      "reng": 5118,
      "Ġbrad": 5119,
      "Ġscen": 5120,
      "Ġanimals": 5121,
      "ito": 5122,
      "Ġyounger": 5123,
      "Ġ2022": 5124,
      "Ġtherefore": 5125,
      "Ġpand": 5126,
      "Ġislamic": 5127,
      "à¤": 5128,
      "Ġgiving": 5129,
      "agen": 5130,
      "shaped": 5131,
      "aux": 5132,
      "Ġzh": 5133,
      "Ġoccurred": 5134,
      "Ġquality": 5135,
      "Ġarmed": 5136,
      "Ġfinishing": 5137,
      "Ġoak": 5138,
      "Ġtheme": 5139,
      "Ġshel": 5140,
      "Ġwhether": 5141,
      "Ġjoh": 5142,
      "present": 5143,
      "inct": 5144,
      "asty": 5145,
      "Ġwatch": 5146,
      "ruction": 5147,
      "Ġiraq": 5148,
      "Ġbot": 5149,
      "Ġswe": 5150,
      "Ġdistingu": 5151,
      "Ġordered": 5152,
      "hammad": 5153,
      "Ġmatt": 5154,
      "Ġanimal": 5155,
      "Ġindividuals": 5156,
      "Ġstudios": 5157,
      "Ġcampus": 5158,
      "Ġ1925": 5159,
      "ancy": 5160,
      "Ġnin": 5161,
      "aro": 5162,
      "water": 5163,
      "aine": 5164,
      "Ġrecover": 5165,
      "long": 5166,
      "Ġ1931": 5167,
      "Ġrules": 5168,
      "500": 5169,
      "mill": 5170,
      "Ġroster": 5171,
      "Ġ400": 5172,
      "Ġsupporting": 5173,
      "Ġsemif": 5174,
      "Ġul": 5175,
      "74": 5176,
      "Ġchamber": 5177,
      "works": 5178,
      "Ġtaiwan": 5179,
      "aling": 5180,
      "Ġron": 5181,
      "Ġseparate": 5182,
      "lete": 5183,
      "Ġdonald": 5184,
      "inity": 5185,
      "Ġpoll": 5186,
      "cia": 5187,
      "sis": 5188,
      "Ġelectoral": 5189,
      "iat": 5190,
      "Ġtells": 5191,
      "Ġplayoff": 5192,
      "Ġ1900": 5193,
      "Ġbattalion": 5194,
      "Ġhistorian": 5195,
      "astic": 5196,
      "Ġamaz": 5197,
      "Ġproduct": 5198,
      "Ġrequest": 5199,
      "Ġpublication": 5200,
      "Ġobtained": 5201,
      "Ġsuffered": 5202,
      "Ġuns": 5203,
      "Ġtu": 5204,
      "Ġkum": 5205,
      "Ġfigure": 5206,
      "Ġ500": 5207,
      "Ġwolf": 5208,
      "Ġcolonel": 5209,
      "Ġcontinue": 5210,
      "Ġfu": 5211,
      "Ġassigned": 5212,
      "Ġclassic": 5213,
      "Ġportuguese": 5214,
      "Ġkon": 5215,
      "Ġedinburgh": 5216,
      "Ġconsum": 5217,
      "Ġemploye": 5218,
      "Ġclasses": 5219,
      "ses": 5220,
      "Ġdrums": 5221,
      "Ġgreater": 5222,
      "Ġdivided": 5223,
      "Ġcolonial": 5224,
      "Ġmorning": 5225,
      "star": 5226,
      "tain": 5227,
      "Ġhart": 5228,
      "ez": 5229,
      "osen": 5230,
      "Ġattention": 5231,
      "tario": 5232,
      "Ġdro": 5233,
      "Ġbillboard": 5234,
      "72": 5235,
      "gn": 5236,
      "Ġsens": 5237,
      "Ġwed": 5238,
      "Ġ1916": 5239,
      "Ġrule": 5240,
      "Ġaqu": 5241,
      "olitan": 5242,
      "Ġnecess": 5243,
      "Ġprotected": 5244,
      "Ġreferred": 5245,
      "Ġpotential": 5246,
      "Â°": 5247,
      "2019": 5248,
      "Ġcharge": 5249,
      "asa": 5250,
      "Ġpasseng": 5251,
      "Ġay": 5252,
      "Ġ1927": 5253,
      "Ġfacilities": 5254,
      "Ġreturning": 5255,
      "dro": 5256,
      "Ġvac": 5257,
      "Ġfern": 5258,
      "Ġsi": 5259,
      "ulations": 5260,
      "Ġmetre": 5261,
      "Ġfreedom": 5262,
      "Ġtig": 5263,
      "arh": 5264,
      "Ġgoes": 5265,
      "Ġemper": 5266,
      "Ġbacter": 5267,
      "Ġbowl": 5268,
      "05": 5269,
      "rence": 5270,
      "Ġswiss": 5271,
      "Ġportray": 5272,
      "Ġgraduate": 5273,
      "Ġpropos": 5274,
      "Ġyoutube": 5275,
      "Ġdak": 5276,
      "Ġlearning": 5277,
      "Ġtwice": 5278,
      "Ġcla": 5279,
      "Ġfacility": 5280,
      "mes": 5281,
      "Ġmodels": 5282,
      "Ġstandings": 5283,
      "Ġsid": 5284,
      "Ġkid": 5285,
      "icted": 5286,
      "Ġcoaches": 5287,
      "ographic": 5288,
      "Ġfix": 5289,
      "Ġju": 5290,
      "Ġsumm": 5291,
      "Ġpav": 5292,
      "Ġveter": 5293,
      "Ġmut": 5294,
      "town": 5295,
      "Ġontario": 5296,
      "Ġarrested": 5297,
      "utional": 5298,
      "Ġ1912": 5299,
      "Ġprel": 5300,
      "64": 5301,
      "Ġue": 5302,
      "Ġ33": 5303,
      "Ġcollaboration": 5304,
      "Ġaired": 5305,
      "Ġ1921": 5306,
      "lyn": 5307,
      "Ġagricultural": 5308,
      "dis": 5309,
      "iami": 5310,
      "Ġcause": 5311,
      "bell": 5312,
      "ikh": 5313,
      "Ġapplied": 5314,
      "aret": 5315,
      "Ġimmediately": 5316,
      "Ġrating": 5317,
      "riff": 5318,
      "Ġathletic": 5319,
      "Ġprimarily": 5320,
      "Ġjournalists": 5321,
      "Ġshr": 5322,
      "Ġdoug": 5323,
      "Ġsie": 5324,
      "Ġbart": 5325,
      "Ġpriest": 5326,
      "Ġtechni": 5327,
      "heim": 5328,
      "Ġserves": 5329,
      "Ġproviding": 5330,
      "atively": 5331,
      "Ġbey": 5332,
      "Ġaspect": 5333,
      "Ġ75": 5334,
      "Ġjump": 5335,
      "Ġsenator": 5336,
      "Ġ90": 5337,
      "Ġaer": 5338,
      "Ġprovinc": 5339,
      "85": 5340,
      "Ġsteve": 5341,
      "Ġ1908": 5342,
      "fbb": 5343,
      "Ġgolf": 5344,
      "Ġholds": 5345,
      "itzerland": 5346,
      "Ġfemin": 5347,
      "Ġbelgium": 5348,
      "oir": 5349,
      "Ġhans": 5350,
      "Ġreach": 5351,
      "Ġreports": 5352,
      "utive": 5353,
      "Ġinternet": 5354,
      "Ġaustrian": 5355,
      "Ġholy": 5356,
      "udi": 5357,
      "Ġmetro": 5358,
      "Ġtarget": 5359,
      "Ġstreng": 5360,
      "Ġsexual": 5361,
      "respond": 5362,
      "Ġbbc": 5363,
      "Ġpin": 5364,
      "Ġaustria": 5365,
      "Ġaccompan": 5366,
      "uma": 5367,
      "Ġrecently": 5368,
      "Ġ45": 5369,
      "Ġidentified": 5370,
      "Ġencour": 5371,
      "67": 5372,
      "Ġjord": 5373,
      "bel": 5374,
      "Ġmobile": 5375,
      "Ġaim": 5376,
      "illed": 5377,
      "Ġliberal": 5378,
      "Ġdiplom": 5379,
      "Ġnaz": 5380,
      "Ġconclud": 5381,
      "Ġclar": 5382,
      "Ġ34": 5383,
      "ographer": 5384,
      "Ġintelligence": 5385,
      "law": 5386,
      "Ġfocused": 5387,
      "western": 5388,
      "Ġfox": 5389,
      "Ġcroat": 5390,
      "Ġserbian": 5391,
      "oration": 5392,
      "olas": 5393,
      "Ġministers": 5394,
      "Ġsel": 5395,
      "Ġolder": 5396,
      "Ġarthur": 5397,
      "Ġgul": 5398,
      "Ġcha": 5399,
      "jected": 5400,
      "real": 5401,
      "box": 5402,
      "Ġmaterials": 5403,
      "mat": 5404,
      "Ġscheduled": 5405,
      "Ġcars": 5406,
      "Ġjuan": 5407,
      "Ġmiami": 5408,
      "room": 5409,
      "Ġselection": 5410,
      "igenous": 5411,
      "Ġglass": 5412,
      "ante": 5413,
      "Ġ1922": 5414,
      "gas": 5415,
      "Ġconstant": 5416,
      "gb": 5417,
      "cha": 5418,
      "Ġopposition": 5419,
      "icks": 5420,
      "Ġsays": 5421,
      "rene": 5422,
      "Ġbirds": 5423,
      "Ġattacks": 5424,
      "Ġng": 5425,
      "amin": 5426,
      "Ġstakes": 5427,
      "Ġring": 5428,
      "Ġcorrespond": 5429,
      "Ġarmen": 5430,
      "Ġindependence": 5431,
      "Ġlyrics": 5432,
      "Ġkan": 5433,
      "Ġhav": 5434,
      "Ġdirectly": 5435,
      "Ġsettlement": 5436,
      "Ġ1915": 5437,
      "Ġwy": 5438,
      "Ġdriver": 5439,
      "Ġbasis": 5440,
      "phan": 5441,
      "Ġpradesh": 5442,
      "Ġaffili": 5443,
      "Ġknowledge": 5444,
      "Ġnigeria": 5445,
      "Ġvalue": 5446,
      "run": 5447,
      "Ġgordon": 5448,
      "lah": 5449,
      "ucle": 5450,
      "Ġviolence": 5451,
      "oria": 5452,
      "abad": 5453,
      "Ġamateur": 5454,
      "Ġsax": 5455,
      "Ġpainter": 5456,
      "Ġsr": 5457,
      "Ġburied": 5458,
      "Ġow": 5459,
      "ploy": 5460,
      "itled": 5461,
      "Ġgym": 5462,
      "Ġproceed": 5463,
      "Ġcov": 5464,
      "Ġgraph": 5465,
      "Ġsain": 5466,
      "Ġswitzerland": 5467,
      "nor": 5468,
      "Ġdol": 5469,
      "Ġsafety": 5470,
      "Ġtemper": 5471,
      "Ġye": 5472,
      "Ġlawyer": 5473,
      "\"|": 5474,
      "Ġgained": 5475,
      "Ġapproach": 5476,
      "yers": 5477,
      "ething": 5478,
      "Ġfelt": 5479,
      "Ġinstrument": 5480,
      "Ġsamp": 5481,
      "unds": 5482,
      "Ġsurface": 5483,
      "Ġupd": 5484,
      "2009": 5485,
      "Ġsche": 5486,
      "Ġprovincial": 5487,
      "Ġdin": 5488,
      "Ġocean": 5489,
      "Ġliv": 5490,
      "Ġdioc": 5491,
      "Ġern": 5492,
      "Ġhip": 5493,
      "Ġlev": 5494,
      "Ġexpected": 5495,
      "Ġinjured": 5496,
      "sky": 5497,
      "Ġdeliver": 5498,
      "Ġtypes": 5499,
      "Ġresidents": 5500,
      "final": 5501,
      "Ġmedals": 5502,
      "Ġresist": 5503,
      "Ġmerch": 5504,
      "Ġemperor": 5505,
      "Ġdeleg": 5506,
      "Ġemb": 5507,
      "ruit": 5508,
      "Ġeconomy": 5509,
      "Ġcriminal": 5510,
      "Ġtie": 5511,
      "Ġbry": 5512,
      "Ġchosen": 5513,
      "Ġ1911": 5514,
      "Ġfilmography": 5515,
      "Ġdram": 5516,
      "load": 5517,
      "Ġrecognition": 5518,
      "Ġequipment": 5519,
      "Ġbrick": 5520,
      "Ġlap": 5521,
      "Ġimage": 5522,
      "Ġdrive": 5523,
      "white": 5524,
      "Ġ1923": 5525,
      "Ġredu": 5526,
      "Ġsupply": 5527,
      "Ġpurchased": 5528,
      "Ġchapter": 5529,
      "Ġsed": 5530,
      "Ġpartnership": 5531,
      "Ġfinnish": 5532,
      "Ġhighly": 5533,
      "iti": 5534,
      "Ġrav": 5535,
      "Ġknock": 5536,
      "eller": 5537,
      "Ġvess": 5538,
      "Ġreality": 5539,
      "Ġcooper": 5540,
      "Ġrecognized": 5541,
      "Ġlewis": 5542,
      "hum": 5543,
      "hop": 5544,
      "Ġsad": 5545,
      "Ġwords": 5546,
      "kes": 5547,
      "Ġtank": 5548,
      "Ġkun": 5549,
      "Ġfeet": 5550,
      "Ġ...": 5551,
      "52": 5552,
      "gs": 5553,
      "nee": 5554,
      "Ġadvance": 5555,
      "Ġthous": 5556,
      "etting": 5557,
      "bir": 5558,
      "claim": 5559,
      "iform": 5560,
      "ressed": 5561,
      "Ġexperiment": 5562,
      "Ġsituated": 5563,
      "Ġfit": 5564,
      "Ġfolk": 5565,
      "Ġphilip": 5566,
      "Ġindigenous": 5567,
      "Ġprobably": 5568,
      "Ġconvention": 5569,
      "tra": 5570,
      "Ġhorn": 5571,
      "2000": 5572,
      "Ġ1913": 5573,
      "Ġspread": 5574,
      "Ġconcer": 5575,
      "Ġfounding": 5576,
      "uls": 5577,
      "Ġaccident": 5578,
      "Ġdestroyed": 5579,
      "Ġflood": 5580,
      "Ġwalter": 5581,
      "ista": 5582,
      "Ġperforming": 5583,
      "Ġroy": 5584,
      "ivals": 5585,
      "oti": 5586,
      "char": 5587,
      "Ġesp": 5588,
      "Ġwrestling": 5589,
      "Ġgreece": 5590,
      "69": 5591,
      "Ġincumbent": 5592,
      "Ġ38": 5593,
      "Ġconstituency": 5594,
      "ugal": 5595,
      "Ġvisit": 5596,
      "Ġachieved": 5597,
      "Ġcris": 5598,
      "div": 5599,
      "Ġelement": 5600,
      "Ġax": 5601,
      "emy": 5602,
      "rell": 5603,
      "agu": 5604,
      "aza": 5605,
      "Ġ;": 5606,
      "Ġoffensive": 5607,
      "Ġrevival": 5608,
      "Ġreligion": 5609,
      "Ġquickly": 5610,
      "asy": 5611,
      "oslav": 5612,
      "Ġboat": 5613,
      "Ġdiego": 5614,
      "'.": 5615,
      "Ġfat": 5616,
      "aced": 5617,
      "Ġsimon": 5618,
      "Ġdynasty": 5619,
      "iva": 5620,
      "Ġrare": 5621,
      "Ġrough": 5622,
      "Ġmarath": 5623,
      "Ġnarr": 5624,
      "Ġmachine": 5625,
      "life": 5626,
      "à¸": 5627,
      "Ġvel": 5628,
      "Ġvenez": 5629,
      "ferences": 5630,
      "Ġmonument": 5631,
      "79": 5632,
      "Ġbrian": 5633,
      "pson": 5634,
      "Ġva": 5635,
      "Ġalab": 5636,
      "Ġku": 5637,
      "Ġbehav": 5638,
      "Ġfinance": 5639,
      "Ġeconomics": 5640,
      "Ġbc": 5641,
      "Ġdim": 5642,
      "asi": 5643,
      "Ġpattern": 5644,
      "Ġincreasing": 5645,
      "Ġauth": 5646,
      "Ġremoved": 5647,
      "ered": 5648,
      "Ġsle": 5649,
      "Ġdisestabl": 5650,
      "Ġagriculture": 5651,
      "hens": 5652,
      "Ġconvers": 5653,
      "Ġfalls": 5654,
      "Ġkings": 5655,
      "pass": 5656,
      "Ġmol": 5657,
      "Ġphilosophy": 5658,
      "Ġmountains": 5659,
      "Ġtrees": 5660,
      "Ġdisease": 5661,
      "Ġsoundtrack": 5662,
      "Ġhabit": 5663,
      "Ġsplit": 5664,
      "Ġprepar": 5665,
      "lar": 5666,
      "Ġrecomm": 5667,
      "Ġeliminated": 5668,
      "Ġug": 5669,
      "Ġcs": 5670,
      "08": 5671,
      "Ġmak": 5672,
      "Ġdean": 5673,
      "Ġlaure": 5674,
      "colspan": 5675,
      "Ġemigr": 5676,
      "Ġherself": 5677,
      "Ġalexand": 5678,
      "Ġdang": 5679,
      "Ġlangu": 5680,
      "tered": 5681,
      "Ġreign": 5682,
      "Ġpeters": 5683,
      "Ġmind": 5684,
      "Ġremix": 5685,
      "53": 5686,
      "esc": 5687,
      "Ġresc": 5688,
      "Ġalliance": 5689,
      "eta": 5690,
      "Ġpalace": 5691,
      "Ġbanks": 5692,
      "Ġanthony": 5693,
      "ibly": 5694,
      "Ġrapid": 5695,
      "42": 5696,
      "Ġvisual": 5697,
      "71": 5698,
      "Ġprint": 5699,
      "Ġaudience": 5700,
      "Ġwalls": 5701,
      "Ġinstitution": 5702,
      "Ġaband": 5703,
      "Ġproblem": 5704,
      "dam": 5705,
      "fam": 5706,
      "alle": 5707,
      "Ġfred": 5708,
      "Ġtransform": 5709,
      "yo": 5710,
      "otte": 5711,
      "Ġadapt": 5712,
      "coln": 5713,
      "Ġnumbers": 5714,
      "Ġkl": 5715,
      "Ġshooters": 5716,
      "Ġpool": 5717,
      "ilton": 5718,
      "ifications": 5719,
      "Ġwear": 5720,
      "Ġbath": 5721,
      "Ġinvited": 5722,
      "Ġcommunist": 5723,
      "Ġadministrative": 5724,
      "Ġsucceeded": 5725,
      "Ġspect": 5726,
      "Ġhousing": 5727,
      "Ġstarts": 5728,
      "Ġinnov": 5729,
      "59": 5730,
      "73": 5731,
      "aska": 5732,
      "Ġstorm": 5733,
      "Ġmulti": 5734,
      "Ġmelbourne": 5735,
      "Ġmetropolitan": 5736,
      "lets": 5737,
      "Ġphase": 5738,
      "ĠĠĠĠĠĠĠĠĠĠĠĠĠĠĠĠ": 5739,
      "Ġpermanent": 5740,
      "Ġflower": 5741,
      "while": 5742,
      "Ġip": 5743,
      "story": 5744,
      "Ġjaneiro": 5745,
      "utt": 5746,
      "oted": 5747,
      "Ġmuslim": 5748,
      "Ġnormal": 5749,
      "Ġmemory": 5750,
      "Ġanna": 5751,
      "Ġsevens": 5752,
      "umed": 5753,
      "Ġbru": 5754,
      "Ġportra": 5755,
      "Ġpurpose": 5756,
      "Ġbegins": 5757,
      "Ġmedium": 5758,
      "Ġhands": 5759,
      "Ġsul": 5760,
      "Ġ1906": 5761,
      "Ġweap": 5762,
      "Ġreceive": 5763,
      "hing": 5764,
      "zen": 5765,
      "Ġharry": 5766,
      "Ġcontributions": 5767,
      "related": 5768,
      "unct": 5769,
      "Ġconverted": 5770,
      "gow": 5771,
      "Ġexpanded": 5772,
      "Ġign": 5773,
      "Ġahead": 5774,
      "Ġbann": 5775,
      "ello": 5776,
      "Ġfranco": 5777,
      "2007": 5778,
      "Ġcommissioner": 5779,
      "63": 5780,
      "chers": 5781,
      "Ġadvert": 5782,
      "gl": 5783,
      "Ġfunding": 5784,
      "opher": 5785,
      "Ġalabama": 5786,
      "Ġflowers": 5787,
      "Ġscholar": 5788,
      "Ġnap": 5789,
      "Ġgrowing": 5790,
      "Ġceremony": 5791,
      "Ġcu": 5792,
      "Ġscript": 5793,
      "Ġfifa": 5794,
      "Ġdoll": 5795,
      "Ġharvard": 5796,
      "Ġallen": 5797,
      "Ġchemical": 5798,
      "Ġentrance": 5799,
      "Ġframe": 5800,
      "song": 5801,
      "chair": 5802,
      "Ġminim": 5803,
      "Ġtries": 5804,
      "iley": 5805,
      "Ġacts": 5806,
      "wart": 5807,
      "51": 5808,
      "iday": 5809,
      "Ġfaced": 5810,
      "Ġ1890": 5811,
      "enh": 5812,
      "iah": 5813,
      "Ġbrun": 5814,
      "Ġstraight": 5815,
      "erc": 5816,
      "Ġaccepted": 5817,
      "lahoma": 5818,
      "Ġprep": 5819,
      "Ġsouthwest": 5820,
      "Ġcommunications": 5821,
      "Ġintended": 5822,
      "Ġpaid": 5823,
      "Ġvietnam": 5824,
      "Ġom": 5825,
      "Ġeditions": 5826,
      "Ġprefect": 5827,
      "Ġcommissioned": 5828,
      "Ġfigures": 5829,
      "ables": 5830,
      "Ġflat": 5831,
      "Ġresulted": 5832,
      "Ġtransportation": 5833,
      "Ġfresh": 5834,
      "Ġenc": 5835,
      "Ġtraffic": 5836,
      "Ġexped": 5837,
      "general": 5838,
      "Ġweightlifters": 5839,
      "61": 5840,
      "ocks": 5841,
      "Ġnucle": 5842,
      "Ġstor": 5843,
      "antic": 5844,
      "Ġdebuted": 5845,
      "Ġsomething": 5846,
      "Ð»": 5847,
      "Ġoffers": 5848,
      "Ġvirt": 5849,
      "Ġgeneration": 5850,
      "oni": 5851,
      "istani": 5852,
      "Ġprec": 5853,
      "Ġbengal": 5854,
      "Ġpair": 5855,
      "Ġretirement": 5856,
      "dd": 5857,
      "Ġ+": 5858,
      "Ġanaly": 5859,
      "Ġpros": 5860,
      "Ġrecipients": 5861,
      "Ġability": 5862,
      "2008": 5863,
      "Ġlanguages": 5864,
      "01": 5865,
      "ici": 5866,
      "Ġrein": 5867,
      "Ġregions": 5868,
      "Ġcel": 5869,
      "Ġgeography": 5870,
      "itable": 5871,
      "Ġauthorities": 5872,
      "Ġoklahoma": 5873,
      "ogy": 5874,
      "Ġflora": 5875,
      "Ġpraised": 5876,
      "Ġultim": 5877,
      "'m": 5878,
      "Ġhope": 5879,
      "Ġrear": 5880,
      "Ġholding": 5881,
      "Ġscientists": 5882,
      "Ġsale": 5883,
      "Ġpir": 5884,
      "Ġmine": 5885,
      "Ġrid": 5886,
      "Ġarena": 5887,
      "Ġprogramme": 5888,
      "Ġagreed": 5889,
      "aments": 5890,
      "onym": 5891,
      "Ġcloud": 5892,
      "Ġbaron": 5893,
      "Ġneeded": 5894,
      "Ġcontact": 5895,
      "Ġoperating": 5896,
      "Ġdetails": 5897,
      "ĠâĢ": 5898,
      "Ġnewly": 5899,
      "Ġlincoln": 5900,
      "fr": 5901,
      "ayan": 5902,
      "Ġindonesia": 5903,
      "Ġbridges": 5904,
      "een": 5905,
      "uston": 5906,
      "Ġapproved": 5907,
      "istics": 5908,
      "Ġmusician": 5909,
      "Ġdynam": 5910,
      "62": 5911,
      "Ġtrained": 5912,
      "where": 5913,
      "Ġlands": 5914,
      "Ġsolid": 5915,
      "Ġelectronic": 5916,
      "Ġallowing": 5917,
      "Ġargentine": 5918,
      "Ġ1926": 5919,
      "41": 5920,
      "Ġsher": 5921,
      "Ġdivisions": 5922,
      "Ġmediter": 5923,
      "ologies": 5924,
      "gra": 5925,
      "Ġproduce": 5926,
      "friend": 5927,
      "Ġparticipate": 5928,
      "Ġprice": 5929,
      "Ġanderson": 5930,
      "Ġportugal": 5931,
      "Ġaged": 5932,
      "uses": 5933,
      "Ġbapt": 5934,
      "Ġcondition": 5935,
      "Ġexpans": 5936,
      "Ġltd": 5937,
      "zer": 5938,
      "Ġrecordings": 5939,
      "Ġchapel": 5940,
      "Ġconsecutive": 5941,
      "hai": 5942,
      "acts": 5943,
      "Ġmaur": 5944,
      "Ġinvestment": 5945,
      "Ġconflict": 5946,
      "Ġmam": 5947,
      "Ġ1905": 5948,
      "Ġgay": 5949,
      "Ġ1907": 5950,
      "pton": 5951,
      "Ġnigerian": 5952,
      "02": 5953,
      "eers": 5954,
      "Ġgets": 5955,
      "Ġlanka": 5956,
      "Ġhistorians": 5957,
      "Ġhungary": 5958,
      "ui": 5959,
      "Ġster": 5960,
      "Ġinternal": 5961,
      "Ġglas": 5962,
      "Ġestimated": 5963,
      "Ġkept": 5964,
      "Ġadopted": 5965,
      "uda": 5966,
      "mine": 5967,
      "Ġvenezuel": 5968,
      "Ġseconds": 5969,
      "unk": 5970,
      "Ġcontroll": 5971,
      "Ġtag": 5972,
      "lywood": 5973,
      "Ġbure": 5974,
      "Ġyan": 5975,
      "ranean": 5976,
      "Ġseed": 5977,
      "Ġends": 5978,
      "Ġaw": 5979,
      "igo": 5980,
      "Ġrhod": 5981,
      "Ġkg": 5982,
      "Ġfactory": 5983,
      "Ġstating": 5984,
      "Ġmarked": 5985,
      "Ġsurrounding": 5986,
      "Ġnich": 5987,
      "Ġsyrian": 5988,
      "place": 5989,
      "Ġtimber": 5990,
      "lad": 5991,
      "Ġcad": 5992,
      "Ġsurg": 5993,
      "Ġgranted": 5994,
      "Ġnan": 5995,
      "Ġuncle": 5996,
      "Ġpresence": 5997,
      "Ġhug": 5998,
      "Ġbear": 5999,
      "Ġyug": 6000,
      "angel": 6001,
      "07": 6002,
      "onso": 6003,
      "Ġachievements": 6004,
      "Ġhat": 6005,
      "Ġformerly": 6006,
      "Ġrequire": 6007,
      "cs": 6008,
      "Ġconsisted": 6009,
      "Ġmans": 6010,
      "Ġchoice": 6011,
      "2006": 6012,
      "Ġhonors": 6013,
      "89": 6014,
      "active": 6015,
      "Ð²": 6016,
      "oned": 6017,
      "Ġfan": 6018,
      "Ġbears": 6019,
      "agh": 6020,
      "Ġdistinguished": 6021,
      "Ġmall": 6022,
      "Ġ49": 6023,
      "Ġeye": 6024,
      "Ġcreating": 6025,
      "aman": 6026,
      "ippi": 6027,
      "Ġetc": 6028,
      "Ġdiscography": 6029,
      "Ġnarrow": 6030,
      "Ġclay": 6031,
      "Ġ1904": 6032,
      "Ġvik": 6033,
      "Ġgives": 6034,
      "Ġmagn": 6035,
      "Ġpiece": 6036,
      "04": 6037,
      "ented": 6038,
      "Ġment": 6039,
      "Ġstrateg": 6040,
      "Ġestablishment": 6041,
      "Ġdoor": 6042,
      "Ġmatthe": 6043,
      "Ġdakota": 6044,
      "Ġmarie": 6045,
      "Ġfinds": 6046,
      "Ġsuppl": 6047,
      "Ġmississ": 6048,
      "Ġranking": 6049,
      "Ġcollections": 6050,
      "Ġcow": 6051,
      "Ġhoward": 6052,
      "Ġserious": 6053,
      "Ġprofession": 6054,
      "Ġlegend": 6055,
      "ĉĠ": 6056,
      "astern": 6057,
      "Ġunique": 6058,
      "Ġsmart": 6059,
      "Ġpopulated": 6060,
      "Ġshowed": 6061,
      "Ġblues": 6062,
      "Ġstanding": 6063,
      "Ġanimated": 6064,
      "Ġpieces": 6065,
      "Ġnorthwest": 6066,
      "Ġceo": 6067,
      "Ġpictures": 6068,
      "Ġalg": 6069,
      "agar": 6070,
      "grade": 6071,
      "Ġphotography": 6072,
      "03": 6073,
      "Ġtried": 6074,
      "umes": 6075,
      "abled": 6076,
      "Ġnominations": 6077,
      "Ġastron": 6078,
      "Ġtony": 6079,
      "erb": 6080,
      "Ġhors": 6081,
      "usion": 6082,
      "Ġsubstit": 6083,
      "Ġspok": 6084,
      "stroke": 6085,
      "cles": 6086,
      "Ġghost": 6087,
      "Ġsunday": 6088,
      "Ġrifle": 6089,
      "igue": 6090,
      "Ġsmaller": 6091,
      "Ġpy": 6092,
      "Ġbroke": 6093,
      "Ġsituation": 6094,
      "Ġgymn": 6095,
      "ghan": 6096,
      "Ġdiam": 6097,
      "rec": 6098,
      "Ġpenal": 6099,
      "'re": 6100,
      "lie": 6101,
      "Ġrud": 6102,
      "Ġworth": 6103,
      "Ġorganisation": 6104,
      "Ġsatellite": 6105,
      "Ġhell": 6106,
      "apolis": 6107,
      "van": 6108,
      "Ġ48": 6109,
      "Ġpioneer": 6110,
      "Ġmediterranean": 6111,
      "Ġmichel": 6112,
      "Ġultimately": 6113,
      "elve": 6114,
      "Ġinstall": 6115,
      "Ġtrop": 6116,
      "Ġcollected": 6117,
      "Ġobl": 6118,
      "agues": 6119,
      "Ġserbia": 6120,
      "cons": 6121,
      "Ġmidfield": 6122,
      "atab": 6123,
      "Ġproducers": 6124,
      "set": 6125,
      "Ġincident": 6126,
      "Ġhills": 6127,
      "Ġdefensive": 6128,
      "Ġbillion": 6129,
      "Ġratio": 6130,
      "vement": 6131,
      "pri": 6132,
      "Ġmile": 6133,
      "Ġnur": 6134,
      "Ġengineers": 6135,
      "Ġclaims": 6136,
      "''": 6137,
      "nat": 6138,
      "Ġslow": 6139,
      "fected": 6140,
      "Ġpatrick": 6141,
      "cop": 6142,
      "fall": 6143,
      "Ġcos": 6144,
      "iser": 6145,
      "Ġguide": 6146,
      "Ġpul": 6147,
      "09": 6148,
      "Ġproperties": 6149,
      "Ġletters": 6150,
      "Ġlocations": 6151,
      "su": 6152,
      "Ġbin": 6153,
      "olved": 6154,
      "Ġphill": 6155,
      "Ġlith": 6156,
      "Ġstrike": 6157,
      "Ġsoph": 6158,
      "Ġryan": 6159,
      "urance": 6160,
      "oty": 6161,
      "Ġstatement": 6162,
      "Ġvisited": 6163,
      "Ġsamuel": 6164,
      "dc": 6165,
      "Ġdod": 6166,
      "Ġlod": 6167,
      "omer": 6168,
      "Ġ1909": 6169,
      "Ġbuff": 6170,
      "Ġlang": 6171,
      "Ġrisk": 6172,
      "Ġwildc": 6173,
      "Ġjohann": 6174,
      "Ġmines": 6175,
      "Ġsuccessfully": 6176,
      "Ġkelly": 6177,
      "gely": 6178,
      "Ġharris": 6179,
      "Ġcontinues": 6180,
      "Ġneighborhood": 6181,
      "Ġ42": 6182,
      "Ġwarri": 6183,
      "Ġmeasure": 6184,
      "Ġtribut": 6185,
      "joy": 6186,
      "Ġum": 6187,
      "Ġlies": 6188,
      "Ġmargin": 6189,
      "Ġreduced": 6190,
      "Ġsettled": 6191,
      "wo": 6192,
      "Ġamp": 6193,
      "iner": 6194,
      "Ġfought": 6195,
      "Ġuniversities": 6196,
      "centr": 6197,
      "Ġrounds": 6198,
      "Ġidentity": 6199,
      "Ġfernand": 6200,
      "Ġpull": 6201,
      "Ġminute": 6202,
      "Ġexclus": 6203,
      "86": 6204,
      "come": 6205,
      "abis": 6206,
      "2020": 6207,
      "Ġhorror": 6208,
      "omen": 6209,
      "Ġ37": 6210,
      "Ġworldwide": 6211,
      "Ġcells": 6212,
      "Ġchron": 6213,
      "Ġcontributed": 6214,
      "cho": 6215,
      "Ġrick": 6216,
      "Ġending": 6217,
      "Ġavenue": 6218,
      "Ġ1880": 6219,
      "Ġactivist": 6220,
      "Ġbeyond": 6221,
      "Ġconservative": 6222,
      "Ġamazon": 6223,
      "iber": 6224,
      "ager": 6225,
      "Ġactivists": 6226,
      "kg": 6227,
      "Ġdial": 6228,
      "Ġappoint": 6229,
      "Ġtwelve": 6230,
      "Ġere": 6231,
      "Ġteen": 6232,
      "elli": 6233,
      "Ġassault": 6234,
      "Ġwalk": 6235,
      "mun": 6236,
      "Ġartistic": 6237,
      "Ġker": 6238,
      "Ġexcell": 6239,
      "Ġmississippi": 6240,
      "dec": 6241,
      "may": 6242,
      "ielder": 6243,
      "Ġbold": 6244,
      "Ġalger": 6245,
      "Ġbusinessman": 6246,
      "06": 6247,
      "icial": 6248,
      "stan": 6249,
      "Ġdamage": 6250,
      "43": 6251,
      "ĠÎ": 6252,
      "osis": 6253,
      "Ġclean": 6254,
      "Ġwound": 6255,
      "Ġguns": 6256,
      "Ġfavour": 6257,
      "Ġorthod": 6258,
      "ĠĠĠĠĠĠ": 6259,
      "Ġkevin": 6260,
      "Ġkilling": 6261,
      "Ġyugoslav": 6262,
      "also": 6263,
      "Ġmist": 6264,
      "Ġni": 6265,
      "Ġry": 6266,
      "Ġsector": 6267,
      "Ġoutstanding": 6268,
      "Ġ1902": 6269,
      "Ġtournaments": 6270,
      "Ġteachers": 6271,
      "Ġemerg": 6272,
      "rah": 6273,
      "Ġannivers": 6274,
      "prise": 6275,
      "Ġaid": 6276,
      "Ġvas": 6277,
      "Ġexisting": 6278,
      "uff": 6279,
      "81": 6280,
      "ĪĴ": 6281,
      "Ġgor": 6282,
      "Ġlandsc": 6283,
      "election": 6284,
      "Ġnel": 6285,
      "Ġusers": 6286,
      "Ġrespond": 6287,
      "Ġambassador": 6288,
      "onic": 6289,
      "uly": 6290,
      "Ġrestaurant": 6291,
      "Ġtap": 6292,
      "Ġnak": 6293,
      "Ġja": 6294,
      "Ġille": 6295,
      "Ġbid": 6296,
      "Ġlut": 6297,
      "Ġgast": 6298,
      "Ġarranged": 6299,
      "Ġcold": 6300,
      "rete": 6301,
      "ctic": 6302,
      "Ġfully": 6303,
      "Ġfans": 6304,
      "Ġeighth": 6305,
      "best": 6306,
      "Ġsides": 6307,
      "Ġpant": 6308,
      "iments": 6309,
      "Ġnortheast": 6310,
      "Ġgain": 6311,
      "cfc": 6312,
      "bour": 6313,
      "Ġmentioned": 6314,
      "otic": 6315,
      "Ġfilip": 6316,
      "Ġvideos": 6317,
      "Ġmagazines": 6318,
      "Ġexpansion": 6319,
      "oh": 6320,
      "Ġwithdra": 6321,
      "iant": 6322,
      "Ġathlete": 6323,
      "Ġ1903": 6324,
      "Ġconcentr": 6325,
      "Ġcompiled": 6326,
      "Ġassess": 6327,
      "2005": 6328,
      "Ġhouston": 6329,
      "Ġtypically": 6330,
      "Ġmethods": 6331,
      "Ġottoman": 6332,
      "vis": 6333,
      "Ġdall": 6334,
      "Ġunable": 6335,
      "iful": 6336,
      "Ġpierre": 6337,
      "Ġhired": 6338,
      "ocated": 6339,
      "Ġfinland": 6340,
      "Ġtreas": 6341,
      "olished": 6342,
      "Ġforwards": 6343,
      "Ġkin": 6344,
      "Ġcolspan": 6345,
      "Ġdefenders": 6346,
      "Ġbenn": 6347,
      "aks": 6348,
      "Ġoldest": 6349,
      "Ġnomine": 6350,
      "agan": 6351,
      "arent": 6352,
      "Ġmaryland": 6353,
      "Ġmes": 6354,
      "Ġguards": 6355,
      "bean": 6356,
      "Ġivan": 6357,
      "put": 6358,
      "Ġnfl": 6359,
      "Ġresulting": 6360,
      "Ġjordan": 6361,
      "Ġmining": 6362,
      "Ġfrances": 6363,
      "Ġbasic": 6364,
      "rising": 6365,
      "Ġattempted": 6366,
      "Ġadap": 6367,
      "bul": 6368,
      "Ġwr": 6369,
      "ouses": 6370,
      "Ġengaged": 6371,
      "Ġchristmas": 6372,
      "Ġarms": 6373,
      "Ġmaximum": 6374,
      "Ġreference": 6375,
      "Ġcass": 6376,
      "Ġseeds": 6377,
      "iade": 6378,
      "Ġreasons": 6379,
      "Ġallows": 6380,
      "Ġdesignated": 6381,
      "Ġhaz": 6382,
      "Ġregistered": 6383,
      "Ġchemistry": 6384,
      "Ġfame": 6385,
      "Ġpitts": 6386,
      "Ġcabinet": 6387,
      "Ġlan": 6388,
      "Ġ41": 6389,
      "Ġ1901": 6390,
      "Ġfranch": 6391,
      "Ġcompar": 6392,
      "Ġexpert": 6393,
      "Ġregarding": 6394,
      "Ġgent": 6395,
      "Ġsuff": 6396,
      "Ġtranslation": 6397,
      "Ġsor": 6398,
      "Ġresidence": 6399,
      "Ġspecif": 6400,
      "Ġtalk": 6401,
      "Ġplanet": 6402,
      "Ġcircuit": 6403,
      "nik": 6404,
      "Ġrise": 6405,
      "Ġpakistani": 6406,
      "Ġbought": 6407,
      "Ġactually": 6408,
      "Ġfields": 6409,
      "Ġethnic": 6410,
      "Ġmidfielders": 6411,
      "Ġcreative": 6412,
      "Ġwidely": 6413,
      "eld": 6414,
      "zz": 6415,
      "Ġsole": 6416,
      "Ġmeters": 6417,
      "Ġlegacy": 6418,
      "Ġneeds": 6419,
      "Ġresidential": 6420,
      "Ġanniversary": 6421,
      "ht": 6422,
      "Ġdaw": 6423,
      "Ġlouisiana": 6424,
      "Ġactions": 6425,
      "Ġdrivers": 6426,
      "Ġdeveloping": 6427,
      "Ġconnected": 6428,
      "Ġtehs": 6429,
      "Ġcomic": 6430,
      "Ġoffices": 6431,
      "Ġsaints": 6432,
      "Ġans": 6433,
      "Ġgib": 6434,
      "father": 6435,
      "Ġsession": 6436,
      "ishes": 6437,
      "Ġcommunication": 6438,
      "2001": 6439,
      "Ġvehicles": 6440,
      "Ġmembership": 6441,
      "Ġcalc": 6442,
      "Ġatlanta": 6443,
      "arus": 6444,
      "Ġhighlight": 6445,
      "bas": 6446,
      "Ġuefa": 6447,
      "Ġbuc": 6448,
      "Ġleban": 6449,
      "Ġbottom": 6450,
      "hard": 6451,
      "Ġhair": 6452,
      "olia": 6453,
      "coming": 6454,
      "Ġnorm": 6455,
      "Ġapplication": 6456,
      "Ġpear": 6457,
      "Ġeric": 6458,
      "Ġattempts": 6459,
      "Ġcarlos": 6460,
      "Ġattacked": 6461,
      "87": 6462,
      "Ġgender": 6463,
      "Ġmatter": 6464,
      "Ġvehicle": 6465,
      "Ġthor": 6466,
      "iri": 6467,
      "Ġcopies": 6468,
      "ju": 6469,
      "omy": 6470,
      "Ġclark": 6471,
      "Ġmeant": 6472,
      "Ġspeech": 6473,
      "Ġroberts": 6474,
      "Ġlaboratory": 6475,
      "Ġalternative": 6476,
      "Ġglasgow": 6477,
      "Ġindoor": 6478,
      "Ġqualification": 6479,
      "pat": 6480,
      "Ġeld": 6481,
      "Ġlargely": 6482,
      "Ġprotect": 6483,
      "wise": 6484,
      "Ġdefeating": 6485,
      "Ġcombat": 6486,
      "icut": 6487,
      "Ġshared": 6488,
      "Ġescape": 6489,
      "Ġsummary": 6490,
      "Ġdoing": 6491,
      "Ġvert": 6492,
      "Ġrenew": 6493,
      "reprene": 6494,
      "mel": 6495,
      "Ġmoon": 6496,
      "2003": 6497,
      "Ġmadrid": 6498,
      "Ġtehsil": 6499,
      "origin": 6500,
      "Ġbreast": 6501,
      "Ġcole": 6502,
      "Ġedited": 6503,
      "Ġopin": 6504,
      "Ġcommonly": 6505,
      "Ġjoining": 6506,
      "Ġquebec": 6507,
      "Ġconvent": 6508,
      "alam": 6509,
      "Ġmig": 6510,
      "Ġwhy": 6511,
      "Ġresigned": 6512,
      "Ġog": 6513,
      "Ġpatients": 6514,
      "Ġpastor": 6515,
      "wick": 6516,
      "inter": 6517,
      "Ġtrying": 6518,
      "burn": 6519,
      "oul": 6520,
      "Ġjunction": 6521,
      "Ġhonour": 6522,
      "Ġwelsh": 6523,
      "Ġcannabis": 6524,
      "orter": 6525,
      "2004": 6526,
      "Ġheadquarter": 6527,
      "Ġcoordin": 6528,
      "Ġbudd": 6529,
      "Ġsubsequent": 6530,
      "Ġsustain": 6531,
      "Ġalleged": 6532,
      "Ġemployees": 6533,
      "bra": 6534,
      "Ġitems": 6535,
      "Ġpapers": 6536,
      "pp": 6537,
      "rif": 6538,
      "Ġproductions": 6539,
      "%)": 6540,
      "bishop": 6541,
      "fiction": 6542,
      "Ġcourses": 6543,
      "ructure": 6544,
      "gbt": 6545,
      "Ġhonorary": 6546,
      "Ġtied": 6547,
      "Ġmigr": 6548,
      "Ġdiction": 6549,
      "ogs": 6550,
      "Ġcarib": 6551,
      "atherine": 6552,
      "Ġcalling": 6553,
      "tim": 6554,
      "Ġarchaeological": 6555,
      "Ġgetting": 6556,
      "Ġrook": 6557,
      "iop": 6558,
      "Ġreally": 6559,
      "Ġcomics": 6560,
      "Ġsimple": 6561,
      "Ġjudges": 6562,
      "organ": 6563,
      "Ġjacob": 6564,
      "urb": 6565,
      "Ġarn": 6566,
      "Ġmyth": 6567,
      "Ġpowers": 6568,
      "Ġmedie": 6569,
      "Ġkath": 6570,
      "Ġtrains": 6571,
      "fully": 6572,
      "Ġphilippine": 6573,
      "Ġintroduction": 6574,
      "lov": 6575,
      "Ġhawai": 6576,
      "Ġscholarship": 6577,
      "ige": 6578,
      "Ġsets": 6579,
      "Ġuniversiade": 6580,
      "uka": 6581,
      "Ġresistance": 6582,
      "hound": 6583,
      "Ġthai": 6584,
      "Ġjoy": 6585,
      "Ġgrace": 6586,
      "Ġdetermined": 6587,
      "Ġsemifinals": 6588,
      "Ġmarathon": 6589,
      "Ġmuseums": 6590,
      "Ġboxing": 6591,
      "Ġtranslated": 6592,
      "Ġtigers": 6593,
      "jun": 6594,
      "rat": 6595,
      "Ġjews": 6596,
      "Ġdiocese": 6597,
      "ees": 6598,
      "ete": 6599,
      "Ġark": 6600,
      "Ġformula": 6601,
      "Ġsquadron": 6602,
      "Ġbond": 6603,
      "die": 6604,
      "Ġbund": 6605,
      "igation": 6606,
      "ogen": 6607,
      "Ġmorgan": 6608,
      "Ġpromote": 6609,
      "Ġmathematics": 6610,
      "Ø§": 6611,
      "Ġentreprene": 6612,
      "icide": 6613,
      "Ġford": 6614,
      "Ġmagic": 6615,
      "Ġdiamond": 6616,
      "orf": 6617,
      "Ġgray": 6618,
      "Ġpainted": 6619,
      "Ġmeanwhile": 6620,
      "Ġjesus": 6621,
      "person": 6622,
      "Ġmck": 6623,
      "ilit": 6624,
      "Ġcomed": 6625,
      "iot": 6626,
      "Ġcher": 6627,
      "ports": 6628,
      "Ġdemand": 6629,
      "Ġmales": 6630,
      "Ġvoted": 6631,
      "equ": 6632,
      "Ġinhab": 6633,
      "Ġsah": 6634,
      "Ġmond": 6635,
      "Ġisol": 6636,
      "umber": 6637,
      "jay": 6638,
      "Ġsarah": 6639,
      "Ġfear": 6640,
      "Ġspin": 6641,
      "Ġlgbt": 6642,
      "level": 6643,
      "Ġisa": 6644,
      "Ġfunds": 6645,
      "Ġalfred": 6646,
      "Ġrival": 6647,
      "Ġguy": 6648,
      "hiana": 6649,
      "erto": 6650,
      "Ġenfor": 6651,
      "Ġ39": 6652,
      "Ġinitiative": 6653,
      "Ġafghan": 6654,
      "Ġsao": 6655,
      "Ġdesigner": 6656,
      "Ġelse": 6657,
      "Ġiranian": 6658,
      "Ġfra": 6659,
      "Ġdia": 6660,
      "Ġstages": 6661,
      "Ġrah": 6662,
      "Ġshang": 6663,
      "Ġweather": 6664,
      "illy": 6665,
      "Ġcovers": 6666,
      "82": 6667,
      "Ġeleven": 6668,
      "Ġhamilton": 6669,
      "Ġwrite": 6670,
      "Ġwealth": 6671,
      "lett": 6672,
      "Ġpressure": 6673,
      "Ġwaters": 6674,
      "Ġsetting": 6675,
      "Ġcosta": 6676,
      "Ġwhit": 6677,
      "Ġfemales": 6678,
      "Ġvictims": 6679,
      "onian": 6680,
      "Ġparks": 6681,
      "Ġsoul": 6682,
      "oles": 6683,
      "eless": 6684,
      "Ġseem": 6685,
      "Ġ44": 6686,
      "Ġwalker": 6687,
      "Ġburg": 6688,
      "actions": 6689,
      "Ġsalv": 6690,
      "Ġfrederick": 6691,
      "Ġsave": 6692,
      "Ġfleet": 6693,
      "wers": 6694,
      "Ġjourney": 6695,
      "Ġmedieval": 6696,
      "nia": 6697,
      "Ġhamp": 6698,
      "Ġraw": 6699,
      "Ġcommem": 6700,
      "Ġskills": 6701,
      "Ġpic": 6702,
      "Ġcore": 6703,
      "Ġsteam": 6704,
      "Ġqualify": 6705,
      "Ġgam": 6706,
      "aba": 6707,
      "Ġarc": 6708,
      "Ġgraduating": 6709,
      "uing": 6710,
      "Ġvision": 6711,
      "Ġbeauty": 6712,
      "aver": 6713,
      "door": 6714,
      "ario": 6715,
      "Ġpremiere": 6716,
      "Ġlux": 6717,
      "kov": 6718,
      "Ġtren": 6719,
      "Ġrod": 6720,
      "Ġcompon": 6721,
      "Ġmanagers": 6722,
      "sal": 6723,
      "Ġsisters": 6724,
      "Ġromantic": 6725,
      "Ġsv": 6726,
      "Ġcurt": 6727,
      "Ġraf": 6728,
      "Ġdidn": 6729,
      "Ġcycling": 6730,
      "Ġprefecture": 6731,
      "Ġyu": 6732,
      "Ġamericans": 6733,
      "Ġopportunity": 6734,
      "Ġalone": 6735,
      "Ġmanchester": 6736,
      "Ġuniversal": 6737,
      "Ġlawyers": 6738,
      "Ġ1896": 6739,
      "Ġhosts": 6740,
      "Ġarrang": 6741,
      "pres": 6742,
      "ido": 6743,
      "Ġadmir": 6744,
      "Ġton": 6745,
      "Ġdave": 6746,
      "%.": 6747,
      "Ġproced": 6748,
      "Ġarchitects": 6749,
      "Ġorthodox": 6750,
      "Ġinfrast": 6751,
      "Ġbodies": 6752,
      "Ġbord": 6753,
      "Ġmack": 6754,
      "Ġgill": 6755,
      "Ġcontain": 6756,
      "Ġcharlotte": 6757,
      "Ġspecifically": 6758,
      "ml": 6759,
      "Ġguine": 6760,
      "roit": 6761,
      "uki": 6762,
      "Ġorders": 6763,
      "edia": 6764,
      "Ġboats": 6765,
      "asha": 6766,
      "Ġviewers": 6767,
      "Ġretail": 6768,
      "Ġphotograph": 6769,
      "Ġhttps": 6770,
      "etic": 6771,
      "Ġconqu": 6772,
      "family": 6773,
      "Ġig": 6774,
      "veland": 6775,
      "Ġdetect": 6776,
      "Ġfaith": 6777,
      "Ġnegoti": 6778,
      "Ġsynthe": 6779,
      "Ġms": 6780,
      "Ġchose": 6781,
      "Ġplus": 6782,
      "Ġlooking": 6783,
      "Ġcrowd": 6784,
      "Ġshad": 6785,
      "orship": 6786,
      "Ġchildhood": 6787,
      "Ġ300": 6788,
      "Ġbit": 6789,
      "Ġcanc": 6790,
      "Ġsense": 6791,
      "Ġways": 6792,
      "Ġwitness": 6793,
      "Ġeug": 6794,
      "Ġrooms": 6795,
      "low": 6796,
      "after": 6797,
      "Ġjudoka": 6798,
      "Ġdaughters": 6799,
      "Ġrowers": 6800,
      "Ġsuggested": 6801,
      "bes": 6802,
      "Ġjav": 6803,
      "Ġserge": 6804,
      "Ġdefending": 6805,
      "Ġpersons": 6806,
      "xy": 6807,
      "Ġbaby": 6808,
      "tan": 6809,
      "top": 6810,
      "Ġdry": 6811,
      "Ġpoets": 6812,
      "Ġconnecticut": 6813,
      "Ġcord": 6814,
      "usal": 6815,
      "Ġjosh": 6816,
      "2021": 6817,
      "icts": 6818,
      "Ġemot": 6819,
      "Ġgate": 6820,
      "Ġric": 6821,
      "Ġenco": 6822,
      "essions": 6823,
      "iled": 6824,
      "Ġflying": 6825,
      "Ġcrisis": 6826,
      "Ġ1898": 6827,
      "oda": 6828,
      "ublin": 6829,
      "Ġfacebook": 6830,
      "Ġnecessary": 6831,
      "Ġcaribbean": 6832,
      "rum": 6833,
      "Ġtip": 6834,
      "ulate": 6835,
      "Ġelder": 6836,
      "Ġdesigns": 6837,
      "Ġevolution": 6838,
      "Ġhydro": 6839,
      "fted": 6840,
      "Ġ1892": 6841,
      "cor": 6842,
      "Ñĥ": 6843,
      "Ġrhy": 6844,
      "lying": 6845,
      "appe": 6846,
      "chell": 6847,
      "ashi": 6848,
      "Ġmoroc": 6849,
      "Ġcontested": 6850,
      "var": 6851,
      "Ġgala": 6852,
      "Ġsty": 6853,
      "Ġcarbon": 6854,
      "Ġtransition": 6855,
      "Ġcycle": 6856,
      "Ġvoting": 6857,
      "Ġcannot": 6858,
      "Ġcaval": 6859,
      "fielder": 6860,
      "Ġbak": 6861,
      "Ġhond": 6862,
      "rier": 6863,
      "Ġsyria": 6864,
      "Ġentitled": 6865,
      "2002": 6866,
      "point": 6867,
      "Ġprincess": 6868,
      "uba": 6869,
      "Ġbarn": 6870,
      "1999": 6871,
      "Ġextension": 6872,
      "Ġludhiana": 6873,
      "Ġgonz": 6874,
      "wright": 6875,
      "Ġdistributed": 6876,
      "alandhar": 6877,
      "Ġtell": 6878,
      "tha": 6879,
      "kan": 6880,
      "Ġtill": 6881,
      "Ġdas": 6882,
      "Ġslight": 6883,
      "Ġstran": 6884,
      "Ġneuro": 6885,
      "Ġimages": 6886,
      "Ġmasters": 6887,
      "Ġshell": 6888,
      "Ġconfed": 6889,
      "Ġmanufacturing": 6890,
      "pool": 6891,
      "anne": 6892,
      "Ġportland": 6893,
      "Ġscenes": 6894,
      "gro": 6895,
      "Ġpanch": 6896,
      "Ġviews": 6897,
      "Ġdropped": 6898,
      "Ġlag": 6899,
      "Ġlions": 6900,
      "aceae": 6901,
      "Ġfeed": 6902,
      "Ġhenri": 6903,
      "Ġexpressed": 6904,
      "Ġbio": 6905,
      "Ġjalandhar": 6906,
      "Ġorange": 6907,
      "Ġmonten": 6908,
      "Ġpoems": 6909,
      "Ġwang": 6910,
      "ategy": 6911,
      "Ġflow": 6912,
      "Ġbroken": 6913,
      "Ġnewspapers": 6914,
      "Ġuci": 6915,
      "lines": 6916,
      "ographical": 6917,
      "Ġ1893": 6918,
      "Ġsatur": 6919,
      "Ġelig": 6920,
      "Ġsought": 6921,
      "league": 6922,
      "Ġconsequ": 6923,
      "lee": 6924,
      "urt": 6925,
      "Ġrelief": 6926,
      "Ġbusinesspeople": 6927,
      "Ġromania": 6928,
      "Ġvienna": 6929,
      "aa": 6930,
      "Ġalph": 6931,
      "Ġrowing": 6932,
      "Ġpalest": 6933,
      "Ġpere": 6934,
      "rov": 6935,
      "Ġ1899": 6936,
      "Ġbattery": 6937,
      "Ġadapted": 6938,
      "cos": 6939,
      "Ġchance": 6940,
      "Ġchronic": 6941,
      "celona": 6942,
      "Ġwol": 6943,
      "Ġdates": 6944,
      "Ġlawrence": 6945,
      "Ġsections": 6946,
      "Ġmoore": 6947,
      "Ġmuhammad": 6948,
      "Ġcompletely": 6949,
      "Ġninth": 6950,
      "from": 6951,
      "iya": 6952,
      "Ġseb": 6953,
      "Ġconcluded": 6954,
      "Ġgrass": 6955,
      "anni": 6956,
      "Ġtriple": 6957,
      "Ġcleveland": 6958,
      "atures": 6959,
      "Ġnord": 6960,
      "Ġalice": 6961,
      "uster": 6962,
      "Ġjenn": 6963,
      "Ġplate": 6964,
      "Ġ1897": 6965,
      "Ġinvolving": 6966,
      "Ġabandoned": 6967,
      "Ġexpedition": 6968,
      "Ġfried": 6969,
      "Ġ(,": 6970,
      "Ġbutter": 6971,
      "Ġbreed": 6972,
      "Ġ1895": 6973,
      "Ġpeaked": 6974,
      "Ġprosec": 6975,
      "Ġwindow": 6976,
      "Ġsnow": 6977,
      "Ġcriticism": 6978,
      "Ġvolunteer": 6979,
      "atar": 6980,
      "order": 6981,
      "Ġdrawn": 6982,
      "Ġdallas": 6983,
      "nie": 6984,
      "Ġted": 6985,
      "Ġguru": 6986,
      "Ġstrategy": 6987,
      "Ġpel": 6988,
      "Ġamend": 6989,
      "Ġphoto": 6990,
      "Ġeffective": 6991,
      "ders": 6992,
      "Ġkos": 6993,
      "Ġexamples": 6994,
      "Ġeagles": 6995,
      "omon": 6996,
      "acent": 6997,
      "Ġimpl": 6998,
      "going": 6999,
      "Ġjury": 7000,
      "Ġsuppor": 7001,
      "Ġfighter": 7002,
      "Ġbright": 7003,
      "Ġorganis": 7004,
      "Ġoccasion": 7005,
      "Ġiceland": 7006,
      "Ġcovid": 7007,
      "Ġcounties": 7008,
      "Ġdocuments": 7009,
      "Ġstatistical": 7010,
      "Ġcredits": 7011,
      "Ġfict": 7012,
      "Ġasc": 7013,
      "operation": 7014,
      "Ġ52": 7015,
      "Ġhousehold": 7016,
      "music": 7017,
      "othe": 7018,
      "Ġyam": 7019,
      "Ġemployed": 7020,
      "Ġcler": 7021,
      "Ġroads": 7022,
      "Ġversions": 7023,
      "Ġapplications": 7024,
      "Ġrefused": 7025,
      "Ġboxers": 7026,
      "Ġclinton": 7027,
      "Ġgiov": 7028,
      "cr": 7029,
      "cat": 7030,
      "Ġmole": 7031,
      "Ġinstalled": 7032,
      "Ġmrs": 7033,
      "Ġdouglas": 7034,
      "Ġinfrastructure": 7035,
      "Ġlakes": 7036,
      "emen": 7037,
      "Ġassistance": 7038,
      "Ġtang": 7039,
      "team": 7040,
      "Ġcontaining": 7041,
      "ĠĠĠĠĠĠĠ": 7042,
      "Ġcampbell": 7043,
      "Ġpowerful": 7044,
      "Ġdefunct": 7045,
      "Ġconcrete": 7046,
      "Ġ1870": 7047,
      "tracks": 7048,
      "Ġinspe": 7049,
      "Î¿": 7050,
      "Ġdecades": 7051,
      "phe": 7052,
      "Ġaware": 7053,
      "aco": 7054,
      "Ġenjoy": 7055,
      "Ġ1889": 7056,
      "Ġdetroit": 7057,
      "clusion": 7058,
      "Ġpicture": 7059,
      "atabase": 7060,
      "Ġlane": 7061,
      "Ġ43": 7062,
      "Ġ1894": 7063,
      "profit": 7064,
      "Ġrushing": 7065,
      "rin": 7066,
      "writers": 7067,
      "Ġdv": 7068,
      "Ġsinging": 7069,
      "Ġkazakh": 7070,
      "ares": 7071,
      "Ġdefin": 7072,
      "Ġarchbishop": 7073,
      "boards": 7074,
      "Ġduo": 7075,
      "Ġoccupied": 7076,
      "stream": 7077,
      "Ġparalle": 7078,
      "Ġcompetitive": 7079,
      "Ġendemic": 7080,
      "Ġinnings": 7081,
      "Ġconstitutional": 7082,
      "Ġkarl": 7083,
      "Ġcolombia": 7084,
      "Ġdrew": 7085,
      "Ġclassified": 7086,
      "Ġimprove": 7087,
      "Ġtribe": 7088,
      "Ġmargaret": 7089,
      "Ġcp": 7090,
      "Ġliver": 7091,
      "Ġcolumn": 7092,
      "uver": 7093,
      "Ġeat": 7094,
      "Ġmars": 7095,
      "Ġkeral": 7096,
      "Ġevans": 7097,
      "Ġaccused": 7098,
      "Ġthompson": 7099,
      "Ġimportance": 7100,
      "Ġmonuments": 7101,
      "bach": 7102,
      "Ġseattle": 7103,
      "Ġrus": 7104,
      "ogle": 7105,
      "Ġbarcelona": 7106,
      "what": 7107,
      "Ġsurgery": 7108,
      "uns": 7109,
      "Ġemph": 7110,
      "Ġarchitectural": 7111,
      "Ġlegislation": 7112,
      "oured": 7113,
      "Ġrecre": 7114,
      "Ġstephan": 7115,
      "Ġ1888": 7116,
      "Ġpanel": 7117,
      "Ġsprint": 7118,
      "liga": 7119,
      "pie": 7120,
      "alia": 7121,
      "Ġparliamentary": 7122,
      "nov": 7123,
      "Ġmp": 7124,
      "Ġlanc": 7125,
      "ipe": 7126,
      "Ġscale": 7127,
      "Ġbush": 7128,
      "Ġavoid": 7129,
      "Ġluis": 7130,
      "Ġstrength": 7131,
      "Ġlicens": 7132,
      "Ġedge": 7133,
      "ads": 7134,
      "Ġtick": 7135,
      "Ġtropical": 7136,
      "iling": 7137,
      "Ġonto": 7138,
      "Ġdeploy": 7139,
      "amese": 7140,
      "Ġgreyhound": 7141,
      "Î¹": 7142,
      "Ġgy": 7143,
      "rices": 7144,
      "Ġruled": 7145,
      "night": 7146,
      "ading": 7147,
      "Ġperu": 7148,
      "fir": 7149,
      "Ġrecru": 7150,
      "Ġtributary": 7151,
      "wara": 7152,
      "enz": 7153,
      "Ġsurge": 7154,
      "Ġmilan": 7155,
      "lu": 7156,
      "outs": 7157,
      "Ġphysic": 7158,
      "Ġsculpture": 7159,
      "Ġsaudi": 7160,
      "Ġelite": 7161,
      "Ġwings": 7162,
      "Ġtunis": 7163,
      "Ġcongreg": 7164,
      "Ġexpos": 7165,
      "Ġspeaker": 7166,
      "master": 7167,
      "anim": 7168,
      "Ġunc": 7169,
      "Ġfloren": 7170,
      "Ġconnection": 7171,
      "Ġobjects": 7172,
      "itals": 7173,
      "Ġlit": 7174,
      "Ġgaz": 7175,
      "Ġchoir": 7176,
      "Ġpittsburgh": 7177,
      "Ġbroadcasting": 7178,
      "Ġkerala": 7179,
      "fi": 7180,
      "Ġhunter": 7181,
      "Ġbrooklyn": 7182,
      "panch": 7183,
      "Ġnuclear": 7184,
      "iny": 7185,
      "Ġ1860": 7186,
      "anga": 7187,
      "Ġpossibly": 7188,
      "gie": 7189,
      "Ġadvant": 7190,
      "Ġadditionally": 7191,
      "Ġlip": 7192,
      "acht": 7193,
      "Ġflows": 7194,
      "Ġstandards": 7195,
      "1998": 7196,
      "Ġkrish": 7197,
      "fil": 7198,
      "oen": 7199,
      "Ġmath": 7200,
      "Ġnone": 7201,
      "Ġchristopher": 7202,
      "Ġcoastal": 7203,
      "oz": 7204,
      "rant": 7205,
      "Ġpale": 7206,
      "Ġroger": 7207,
      "Ġperc": 7208,
      "Ġnelson": 7209,
      "Ġunderstanding": 7210,
      "Ġmoh": 7211,
      "Ġcouncill": 7212,
      "Ġsegment": 7213,
      "Ġhits": 7214,
      "eli": 7215,
      "sea": 7216,
      "Ġcourts": 7217,
      "Ġcommitted": 7218,
      "Ġparticipation": 7219,
      "Ġtask": 7220,
      "Ġrefuge": 7221,
      "riptions": 7222,
      "\":": 7223,
      "dale": 7224,
      "Ġhem": 7225,
      "Ġkash": 7226,
      "Ġflo": 7227,
      "Ġfruit": 7228,
      "Ġaggreg": 7229,
      "Ġreturns": 7230,
      "seud": 7231,
      "Ġweak": 7232,
      "Ġvisiting": 7233,
      "Ġwick": 7234,
      "Ġaffected": 7235,
      "Ġ1881": 7236,
      "Ġsettle": 7237,
      "Ġscar": 7238,
      "Ġcoalition": 7239,
      "Ġnas": 7240,
      "Ġassam": 7241,
      "Ġsarpanch": 7242,
      "Ġdifference": 7243,
      "nell": 7244,
      "aksh": 7245,
      "Ġdemocrats": 7246,
      "Ġstands": 7247,
      "Ġexhibitions": 7248,
      "Ġjuris": 7249,
      "Ġud": 7250,
      "Ġrib": 7251,
      "Ġsporting": 7252,
      "Ġfrequently": 7253,
      "Ġpink": 7254,
      "amo": 7255,
      "Ġchor": 7256,
      "Ġcalls": 7257,
      "Ġdominican": 7258,
      "Ġeverything": 7259,
      "Ġinterests": 7260,
      "Ġcriticized": 7261,
      "Ġbureau": 7262,
      "this": 7263,
      "Ġ55": 7264,
      "Ġadministrated": 7265,
      "Ġsell": 7266,
      "Ġpharm": 7267,
      "Ġviolin": 7268,
      "gio": 7269,
      "Ġpolo": 7270,
      "Ġinstru": 7271,
      "Ġsimply": 7272,
      "Ġcool": 7273,
      "Ġcenturies": 7274,
      "Ġgujar": 7275,
      "ropri": 7276,
      "Ġmatthew": 7277,
      "Ġmoment": 7278,
      "aho": 7279,
      "Ġaviation": 7280,
      "etta": 7281,
      "Ġadjacent": 7282,
      "Ġcommemor": 7283,
      "omot": 7284,
      "istol": 7285,
      "pret": 7286,
      "Ġpages": 7287,
      "Ġcanoe": 7288,
      "Ġdrag": 7289,
      "Ġrecur": 7290,
      "Ġformal": 7291,
      "Ġbernard": 7292,
      "Ġmental": 7293,
      "Ġdick": 7294,
      "Ġcolleges": 7295,
      "Ġbudget": 7296,
      "Ġtoward": 7297,
      "Ġcous": 7298,
      "essed": 7299,
      "Ġtalent": 7300,
      "she": 7301,
      "Ġjar": 7302,
      "Ġeco": 7303,
      "Ġcoins": 7304,
      "Ġconsisting": 7305,
      "hus": 7306,
      "Ġcash": 7307,
      "Ġspons": 7308,
      "Ġnothing": 7309,
      "Ġgrows": 7310,
      "iao": 7311,
      "Ġshut": 7312,
      "Ġdepos": 7313,
      "listed": 7314,
      "thro": 7315,
      "Ġcarp": 7316,
      "Ġfranchise": 7317,
      "Ġlink": 7318,
      "cluding": 7319,
      "Ġsalt": 7320,
      "Ġahmed": 7321,
      "Ġladies": 7322,
      "Ġrodr": 7323,
      "Ġstreets": 7324,
      "Ġbelieve": 7325,
      "died": 7326,
      "Ġgamb": 7327,
      "Ġ46": 7328,
      "Ġcertified": 7329,
      "fb": 7330,
      "Ġfoss": 7331,
      "resents": 7332,
      "Ġdisband": 7333,
      "Ġcyclist": 7334,
      "Ġnomination": 7335,
      "pop": 7336,
      "oly": 7337,
      "pective": 7338,
      "Ġevening": 7339,
      "Ġhang": 7340,
      "Ġcanal": 7341,
      "Ġlock": 7342,
      "Ġformations": 7343,
      "Ġupdated": 7344,
      "bin": 7345,
      "mates": 7346,
      "Ġcompilation": 7347,
      "Ġmong": 7348,
      "Ġpara": 7349,
      "Ġdepict": 7350,
      "Ġpenins": 7351,
      "cycl": 7352,
      "Ġweightlifting": 7353,
      "Ġemergency": 7354,
      "kok": 7355,
      "anes": 7356,
      "Ġstores": 7357,
      "Ġsolar": 7358,
      "Ġequal": 7359,
      "Ġalan": 7360,
      "Ġstudying": 7361,
      "Ġgabri": 7362,
      "Ġportrayed": 7363,
      "Ġadela": 7364,
      "Ġmerc": 7365,
      "Ġfunctions": 7366,
      "Ġdiscovery": 7367,
      "Ġsib": 7368,
      "Ġwright": 7369,
      "Ġheats": 7370,
      "Ġslovak": 7371,
      "Ġdating": 7372,
      "Ġyor": 7373,
      "Ġshape": 7374,
      "Ġutah": 7375,
      "ente": 7376,
      "Ġmerchant": 7377,
      "Ġcul": 7378,
      "Ġcolony": 7379,
      "tech": 7380,
      "iki": 7381,
      "Ġeyes": 7382,
      "ulu": 7383,
      "Ġ64": 7384,
      "wid": 7385,
      "ifer": 7386,
      "ondo": 7387,
      "Ġderby": 7388,
      "idency": 7389,
      "Ġcharges": 7390,
      "Ġsubdiv": 7391,
      "Ġmaine": 7392,
      "which": 7393,
      "aj": 7394,
      "Ġhour": 7395,
      "Ġdefined": 7396,
      "Ġbeautiful": 7397,
      "Ġrepresents": 7398,
      "Ġformally": 7399,
      "backs": 7400,
      "pus": 7401,
      "anti": 7402,
      "Ġsuperv": 7403,
      "Ġpassenger": 7404,
      "Ġauthors": 7405,
      "former": 7406,
      "Ġmedall": 7407,
      "Ġtownships": 7408,
      "Ġscientist": 7409,
      "Ġbenef": 7410,
      "Ġphd": 7411,
      "Ġreleg": 7412,
      "gradu": 7413,
      "Ġshowing": 7414,
      "Ġlinear": 7415,
      "Ġemphas": 7416,
      "arn": 7417,
      "Ġtouchdowns": 7418,
      "Ġunlike": 7419,
      "Ġapproval": 7420,
      "Ġrocket": 7421,
      "Ġinaugural": 7422,
      "Ġfictional": 7423,
      "Ġara": 7424,
      "Ġmaintained": 7425,
      "Ġbuffalo": 7426,
      "cular": 7427,
      "ãĢ": 7428,
      "iden": 7429,
      "Ġshall": 7430,
      "Ġgross": 7431,
      "Ġ150": 7432,
      "Ġappeal": 7433,
      "gh": 7434,
      "Ġpret": 7435,
      "Ġlaid": 7436,
      "cm": 7437,
      "issance": 7438,
      "Ġdistin": 7439,
      "Ġbiology": 7440,
      "Ġ1891": 7441,
      "Ġpseud": 7442,
      "Ġhandball": 7443,
      "Ġegyptian": 7444,
      "mouth": 7445,
      "Ġbog": 7446,
      "apes": 7447,
      "Ġnev": 7448,
      "Ġmontreal": 7449,
      "Ġtourism": 7450,
      "heastern": 7451,
      "owned": 7452,
      "Ġcomposers": 7453,
      "Ġvlad": 7454,
      "dan": 7455,
      "Ġ65": 7456,
      "ennis": 7457,
      "ijing": 7458,
      "Ġinfluenced": 7459,
      "rus": 7460,
      "Ġlighth": 7461,
      "Ġimag": 7462,
      "Ġvenues": 7463,
      "Ġplayoffs": 7464,
      "Ġtend": 7465,
      "Ġpole": 7466,
      "Ġcharity": 7467,
      "Ġbacking": 7468,
      "Ġcombination": 7469,
      "Ġlac": 7470,
      "Ġreaching": 7471,
      "Ġfinding": 7472,
      "Ġhorses": 7473,
      "mu": 7474,
      "Ġnash": 7475,
      "Ġflu": 7476,
      "Ġquestions": 7477,
      "iu": 7478,
      "Ġangl": 7479,
      "Ġmurray": 7480,
      "Ġalleg": 7481,
      "1997": 7482,
      "Ġgraham": 7483,
      "Ġrebu": 7484,
      "pes": 7485,
      "irt": 7486,
      "Ġhomes": 7487,
      "Ġscheme": 7488,
      "oire": 7489,
      "Ġdisability": 7490,
      "Ġcoaching": 7491,
      "Ġaudio": 7492,
      "Ġimproved": 7493,
      "Ġsebast": 7494,
      "aph": 7495,
      "1994": 7496,
      "Ġoccurs": 7497,
      "Ġfestivals": 7498,
      "Ġborough": 7499,
      "Ġmarketing": 7500,
      "Ġperfect": 7501,
      "Ġ51": 7502,
      "Ġmonaster": 7503,
      "Ġpaulo": 7504,
      "keeper": 7505,
      "Ġkumar": 7506,
      "Ġpup": 7507,
      "illo": 7508,
      "Ġextrem": 7509,
      "Ġutil": 7510,
      "Ġpanchay": 7511,
      "Ġrepublicans": 7512,
      "Ġmitchell": 7513,
      "pm": 7514,
      "Ġcot": 7515,
      "Ġwes": 7516,
      "Ġfranklin": 7517,
      "oa": 7518,
      "Ġtruth": 7519,
      "ussion": 7520,
      "Ġbulg": 7521,
      "Ġmanusc": 7522,
      "anny": 7523,
      "Ġsprings": 7524,
      "far": 7525,
      "Ġsas": 7526,
      "Ġselling": 7527,
      "Ġmaz": 7528,
      "Ġapparent": 7529,
      "Ġbarr": 7530,
      "Ġoliver": 7531,
      "Ġsymph": 7532,
      "Ġbehavior": 7533,
      "Ġbuck": 7534,
      "Ġdismiss": 7535,
      "intend": 7536,
      "Ġportrait": 7537,
      "Ġcontained": 7538,
      "hand": 7539,
      "usa": 7540,
      "Ġjason": 7541,
      "Ġfantasy": 7542,
      "'ve": 7543,
      "Ġsoil": 7544,
      "Ġextensive": 7545,
      "Ġparticipants": 7546,
      "Ġfrag": 7547,
      "Ġwooden": 7548,
      "Ġsut": 7549,
      "ophone": 7550,
      "ÃŁ": 7551,
      "Ġoz": 7552,
      "igarh": 7553,
      "Ġnepal": 7554,
      "Ġagents": 7555,
      "Ġbird": 7556,
      "iko": 7557,
      "Ġhabitat": 7558,
      ")\"": 7559,
      "Ġopposed": 7560,
      "etime": 7561,
      "Ġgoogle": 7562,
      "Ġaustin": 7563,
      "vant": 7564,
      "Ġtorn": 7565,
      "Ġgary": 7566,
      "Ġpitch": 7567,
      "Ġmeasures": 7568,
      "Ġ1886": 7569,
      "1992": 7570,
      "Ġcapture": 7571,
      "Ġmotion": 7572,
      "erate": 7573,
      "ilst": 7574,
      "Ġkol": 7575,
      "Ġsailors": 7576,
      "Ġibn": 7577,
      "Ġinscription": 7578,
      "ering": 7579,
      "Ġnova": 7580,
      "Ġfilipino": 7581,
      "rated": 7582,
      "imp": 7583,
      "mate": 7584,
      "Ġinse": 7585,
      "Ġresign": 7586,
      "Ġtrap": 7587,
      "Ġbarry": 7588,
      "rogen": 7589,
      "thm": 7590,
      "ishments": 7591,
      "Ġzero": 7592,
      "Ġjee": 7593,
      "Ġemigrants": 7594,
      "kw": 7595,
      "mid": 7596,
      "ois": 7597,
      "Ġtae": 7598,
      "Ġdublin": 7599,
      "Ġguer": 7600,
      "ambig": 7601,
      "Ġsuicide": 7602,
      "Ġfastest": 7603,
      "Ġsilent": 7604,
      "Ġmunich": 7605,
      "Ġbiggest": 7606,
      "sin": 7607,
      "Ġwelf": 7608,
      "Ġhollywood": 7609,
      "Ġphysics": 7610,
      "Ġdetermine": 7611,
      "aust": 7612,
      "sr": 7613,
      "Ġrig": 7614,
      "Ġcontext": 7615,
      "Ġvenue": 7616,
      "Ġhurric": 7617,
      "Ġbotan": 7618,
      "'d": 7619,
      "brew": 7620,
      "ski": 7621,
      "game": 7622,
      "leton": 7623,
      "Ġjama": 7624,
      "Ġyard": 7625,
      "Ġpoem": 7626,
      "india": 7627,
      "Ġdoesn": 7628,
      "original": 7629,
      "alf": 7630,
      "Ġforum": 7631,
      "rome": 7632,
      "Ġmidfielder": 7633,
      "Ġgoods": 7634,
      "borough": 7635,
      "Ġthriller": 7636,
      "oming": 7637,
      "Ġendors": 7638,
      "Ġkenya": 7639,
      "contin": 7640,
      "million": 7641,
      "aca": 7642,
      "idad": 7643,
      "Ġjung": 7644,
      "udes": 7645,
      "Ġdescribes": 7646,
      "Ġresponsibility": 7647,
      "Ġadventure": 7648,
      "rees": 7649,
      "Ġjimm": 7650,
      "Ġweapons": 7651,
      "Ġinterested": 7652,
      "Ġwheelchair": 7653,
      "list": 7654,
      "was": 7655,
      "Ġcox": 7656,
      "Ġdepth": 7657,
      "Ġthirty": 7658,
      "Ġquant": 7659,
      "Ġfriendly": 7660,
      "Ġfailure": 7661,
      "ishers": 7662,
      "Ġmeets": 7663,
      "wat": 7664,
      "Ġsap": 7665,
      "isf": 7666,
      "Ġportion": 7667,
      "dire": 7668,
      "ams": 7669,
      "Ġsz": 7670,
      "ivia": 7671,
      "Ġcategories": 7672,
      "Ã¦": 7673,
      "Ġian": 7674,
      "Ġmason": 7675,
      "Ġheard": 7676,
      "Ġ1884": 7677,
      "Ġrefers": 7678,
      "Ġaffect": 7679,
      "Ġmontana": 7680,
      "fia": 7681,
      "pers": 7682,
      "Ġcited": 7683,
      "leans": 7684,
      "rical": 7685,
      "Ġfellowship": 7686,
      "Ġadelaide": 7687,
      "uy": 7688,
      "Ġmend": 7689,
      "Ġ1887": 7690,
      "Ġcredit": 7691,
      "mb": 7692,
      "Ġkor": 7693,
      "Ġmonarch": 7694,
      "Ġoutdoor": 7695,
      "emble": 7696,
      "Ġjournals": 7697,
      "Ġmanuscript": 7698,
      "enia": 7699,
      "Ġfiba": 7700,
      "Ġcuba": 7701,
      "Ġdiversity": 7702,
      "Ġorganisations": 7703,
      "Ġoffense": 7704,
      "kshire": 7705,
      "Ġtwitter": 7706,
      "Ġheaded": 7707,
      "Ġwise": 7708,
      "Ġincome": 7709,
      "liest": 7710,
      "Ġdebuts": 7711,
      "Ġnegative": 7712,
      "Ġhappy": 7713,
      "Ġpow": 7714,
      "Ġdy": 7715,
      "Ġwhilst": 7716,
      "Ġmixing": 7717,
      "Ġcausing": 7718,
      "nal": 7719,
      "series": 7720,
      "Ġeu": 7721,
      "gov": 7722,
      "Ġchain": 7723,
      "Ġenemy": 7724,
      "Ġcarter": 7725,
      "Ġleads": 7726,
      "Ġoccas": 7727,
      "dles": 7728,
      "Ġideas": 7729,
      "via": 7730,
      "Ġheads": 7731,
      "Ġones": 7732,
      "away": 7733,
      "Ġbenj": 7734,
      "Ġchronology": 7735,
      "iors": 7736,
      "pir": 7737,
      "Ġrising": 7738,
      "Ġcoff": 7739,
      "Ġchandigarh": 7740,
      "px": 7741,
      "Ġsit": 7742,
      "Ġdriving": 7743,
      "Ġsafe": 7744,
      "Ġincorpor": 7745,
      "Ġ1885": 7746,
      "ayer": 7747,
      "Ġtul": 7748,
      "Ġleaf": 7749,
      "Ġagencies": 7750,
      "Ġyoungest": 7751,
      "Ġinsurance": 7752,
      "utation": 7753,
      "Ġcloth": 7754,
      "Ġserie": 7755,
      "Ġproducing": 7756,
      "Ġdelay": 7757,
      "Ġopinion": 7758,
      "Ġunderground": 7759,
      "Ġdrugs": 7760,
      "high": 7761,
      "abilities": 7762,
      "Ġdress": 7763,
      "Ġeun": 7764,
      "Ġfilmed": 7765,
      "Ġstef": 7766,
      "Ġlearned": 7767,
      "Ġbert": 7768,
      "Ġpush": 7769,
      "Ġlegislature": 7770,
      "Ġpolicies": 7771,
      "district": 7772,
      "Ġwounded": 7773,
      "Ġinvasion": 7774,
      "Ġbelarus": 7775,
      "Ġrobinson": 7776,
      "Ġindonesian": 7777,
      "Ġexpand": 7778,
      "who": 7779,
      "Ġrevol": 7780,
      "Ġextract": 7781,
      "Ġrichmond": 7782,
      "Ġliberation": 7783,
      "\").": 7784,
      "fly": 7785,
      "nt": 7786,
      "Ġnac": 7787,
      "Ġfilmm": 7788,
      "garia": 7789,
      "timore": 7790,
      "Ġparallel": 7791,
      "yd": 7792,
      "Ġhend": 7793,
      "Ġassign": 7794,
      "Ġshanghai": 7795,
      "eria": 7796,
      "rises": 7797,
      "Ġhappened": 7798,
      "Ġsleep": 7799,
      "Ġhud": 7800,
      "Ġharmon": 7801,
      "Ġgoth": 7802,
      "wall": 7803,
      "keep": 7804,
      "Ġparticipating": 7805,
      "Ġrankings": 7806,
      "Ġtreaty": 7807,
      "care": 7808,
      "stit": 7809,
      "Ġduty": 7810,
      "Ġbranches": 7811,
      "Ġcorporate": 7812,
      "Ġaccompanied": 7813,
      "Ġbruce": 7814,
      "Ġoverview": 7815,
      "ruption": 7816,
      "eda": 7817,
      "Ġkrist": 7818,
      "type": 7819,
      "1995": 7820,
      "lington": 7821,
      "ooth": 7822,
      "Ġrena": 7823,
      "antly": 7824,
      "Ġindex": 7825,
      "encing": 7826,
      "Ġveget": 7827,
      "Ġcauses": 7828,
      "Ġaccommod": 7829,
      "Ġillegal": 7830,
      "Ġnob": 7831,
      "Ġgarcia": 7832,
      "Ġnominee": 7833,
      "ipur": 7834,
      "Ġtaxa": 7835,
      "Ġoccupation": 7836,
      "Ġjess": 7837,
      "Ġcontrast": 7838,
      "Ġinvent": 7839,
      "Ġclinical": 7840,
      "sized": 7841,
      "Ġhack": 7842,
      "ucing": 7843,
      "Ġadmitted": 7844,
      "Ġ800": 7845,
      "Ġmartial": 7846,
      "Ġdenver": 7847,
      "Ġargued": 7848,
      "Ġethiop": 7849,
      "Ġindianapolis": 7850,
      "Ġbrain": 7851,
      "1996": 7852,
      "Ġrenov": 7853,
      "raman": 7854,
      "spe": 7855,
      "1990": 7856,
      "Ġbarbara": 7857,
      "\"),": 7858,
      "Ð´": 7859,
      "Ġscand": 7860,
      "Ġwinds": 7861,
      "Ġstruck": 7862,
      "Ġsaturday": 7863,
      "Ġshaw": 7864,
      "Ġenroll": 7865,
      "Ġsignal": 7866,
      "Ġbulgarian": 7867,
      "df": 7868,
      "Ġov": 7869,
      "Ġafterwards": 7870,
      "Ġmerged": 7871,
      "Ġgulf": 7872,
      "Ġwants": 7873,
      "Ġrut": 7874,
      "Ġearn": 7875,
      "Ġcamera": 7876,
      "Ġjonathan": 7877,
      "Ġgiovanni": 7878,
      "Ġwelfare": 7879,
      "Ġmull": 7880,
      "Ġcompound": 7881,
      "Ġmanaging": 7882,
      "enhagen": 7883,
      "isha": 7884,
      "Ġwildcats": 7885,
      "hon": 7886,
      "Ñı": 7887,
      "Ġrelatively": 7888,
      "press": 7889,
      "Ġdated": 7890,
      "Ġcontribution": 7891,
      "Ġperry": 7892,
      "dem": 7893,
      "Ġorleans": 7894,
      "Ġburial": 7895,
      "Ġadvisory": 7896,
      "foot": 7897,
      "acle": 7898,
      "Ġblind": 7899,
      "Ġbaltimore": 7900,
      "Ġwool": 7901,
      "Ġlion": 7902,
      "Ġuniverse": 7903,
      "Ġ53": 7904,
      "erald": 7905,
      "Ġrelay": 7906,
      "Ġcheck": 7907,
      "Ġarchives": 7908,
      "Ġ1865": 7909,
      "Ġcitizen": 7910,
      "ambiguation": 7911,
      "Ġattached": 7912,
      "Ġseems": 7913,
      "Ġjustin": 7914,
      "Ġpasses": 7915,
      "Ġtechniques": 7916,
      "áĨ": 7917,
      "Ġfro": 7918,
      "Ġdesert": 7919,
      "gard": 7920,
      "Ġmonte": 7921,
      "ennial": 7922,
      "Ġautonom": 7923,
      "Ġeveryone": 7924,
      "Ġultra": 7925,
      "Ġslightly": 7926,
      "width": 7927,
      "Ġ1861": 7928,
      "Ġbaptist": 7929,
      "graduate": 7930,
      "odes": 7931,
      "Ġnoble": 7932,
      "Ġwildlife": 7933,
      "cement": 7934,
      "imir": 7935,
      "Ġpossession": 7936,
      "erse": 7937,
      "alypt": 7938,
      "Ġcultiv": 7939,
      "1993": 7940,
      "Ġvoters": 7941,
      "Ġpedro": 7942,
      "Ġdecade": 7943,
      "Ġrevenue": 7944,
      "Ġcontributing": 7945,
      "Ġadams": 7946,
      "Ġrider": 7947,
      "iable": 7948,
      "umbai": 7949,
      "Ġaccompl": 7950,
      "Ġfisher": 7951,
      "Ġstood": 7952,
      "Ġyang": 7953,
      "Ġcenters": 7954,
      "Ġiz": 7955,
      "ensions": 7956,
      "Ġregent": 7957,
      "Ġdisappe": 7958,
      "Ġpian": 7959,
      "Ġfiled": 7960,
      "boat": 7961,
      "world": 7962,
      "chin": 7963,
      "Ġrice": 7964,
      "athi": 7965,
      "Ġsummit": 7966,
      "Ġwonder": 7967,
      "Ġnetworks": 7968,
      "ï¼": 7969,
      "Ġfilming": 7970,
      "attan": 7971,
      "Ġbriefly": 7972,
      "aire": 7973,
      "fers": 7974,
      "Ġcharged": 7975,
      "Ġhelping": 7976,
      "Ġtat": 7977,
      "athe": 7978,
      "Ġchan": 7979,
      "ardi": 7980,
      "Ġcricketer": 7981,
      "Ġrepeated": 7982,
      "orph": 7983,
      "bridge": 7984,
      "Ġheavily": 7985,
      "rapy": 7986,
      "Ġcroatian": 7987,
      "Ġlandscape": 7988,
      "Ġbenjamin": 7989,
      "Ġmik": 7990,
      "Ġspider": 7991,
      "Ġstorage": 7992,
      "Ġthing": 7993,
      "Ġscor": 7994,
      "fran": 7995,
      "Ġlav": 7996,
      "Ġbeijing": 7997,
      "Ġ54": 7998,
      "owski": 7999,
      "illing": 8000,
      "Ġexistence": 8001,
      "Ġaspects": 8002,
      "Ġinjuries": 8003,
      "Ġprisoners": 8004,
      "Ġsurnames": 8005,
      "iversity": 8006,
      "Ġtours": 8007,
      "amy": 8008,
      "Ġdrink": 8009,
      "Ġsoldier": 8010,
      "vens": 8011,
      "estone": 8012,
      "Ġfitz": 8013,
      "Ġpus": 8014,
      "Ġposted": 8015,
      "Ġgrounds": 8016,
      "Ġsurvived": 8017,
      "Ġmalaysian": 8018,
      "Ġindustries": 8019,
      "Ġcopenhagen": 8020,
      "usalem": 8021,
      "Ġsigning": 8022,
      "Ġ1883": 8023,
      "disambiguation": 8024,
      "Ġfurn": 8025,
      "Ġfoster": 8026,
      "cht": 8027,
      "course": 8028,
      "Ġelevation": 8029,
      "Ġdelivered": 8030,
      "Ġrescue": 8031,
      "wich": 8032,
      "Ġosc": 8033,
      "Ġmoll": 8034,
      "Ġchi": 8035,
      "chel": 8036,
      "Ġdebate": 8037,
      "Ġpuerto": 8038,
      "Ġcaught": 8039,
      "abe": 8040,
      "Ġbusinesses": 8041,
      "ĠÂ«": 8042,
      "Ġpurchase": 8043,
      "Ġoption": 8044,
      "Ġpairs": 8045,
      "Ġphone": 8046,
      "Ġregularly": 8047,
      "Ġpsychology": 8048,
      "iol": 8049,
      "elin": 8050,
      "Ġdragon": 8051,
      "Ġinterv": 8052,
      "Ġcardinals": 8053,
      "Ġpilots": 8054,
      "Ġaccounts": 8055,
      "teries": 8056,
      "opter": 8057,
      "Ġbelgrade": 8058,
      "Ġthemes": 8059,
      "Ġprotests": 8060,
      "Ġexperimental": 8061,
      "alis": 8062,
      "Ġdies": 8063,
      "abi": 8064,
      "couver": 8065,
      "rett": 8066,
      "ographers": 8067,
      "Ġstayed": 8068,
      "Ġvul": 8069,
      "Ġabu": 8070,
      "Ġexplos": 8071,
      "Ġderived": 8072,
      "Ġordained": 8073,
      "Ġmessage": 8074,
      "Ġgiants": 8075,
      "Ġvenezuela": 8076,
      "Ġaux": 8077,
      "Ġcrimes": 8078,
      "Ġ1864": 8079,
      "Ġcircle": 8080,
      "Ġgardens": 8081,
      "Ġownership": 8082,
      "Ġanime": 8083,
      "Ġleo": 8084,
      "Ġcovering": 8085,
      "Ġtwin": 8086,
      "Ġsocialist": 8087,
      "Ġdecre": 8088,
      "Ġemir": 8089,
      "Ġdisestablished": 8090,
      "onsored": 8091,
      "Ġtong": 8092,
      "Ġhid": 8093,
      "Ġclan": 8094,
      "Ġlocomot": 8095,
      "Ġdefender": 8096,
      "Ġmerit": 8097,
      "Ġreplacement": 8098,
      "vol": 8099,
      "Ġnad": 8100,
      "Ġthin": 8101,
      "Ġriders": 8102,
      "ocation": 8103,
      "Ġ57": 8104,
      "Ġpersonality": 8105,
      "ellect": 8106,
      "Ġadvantage": 8107,
      "Ġcec": 8108,
      "thy": 8109,
      "Ġarchive": 8110,
      "Ġturns": 8111,
      "know": 8112,
      "cz": 8113,
      "Ġhamb": 8114,
      "Ġ1882": 8115,
      "Ġhumans": 8116,
      "ilia": 8117,
      "Ġdevices": 8118,
      "Ġpractices": 8119,
      "Ġsessions": 8120,
      "Ġlen": 8121,
      "anthrop": 8122,
      "taining": 8123,
      "yon": 8124,
      "Ġblog": 8125,
      "Ġtourist": 8126,
      "Ġpall": 8127,
      "stad": 8128,
      "ustic": 8129,
      "Ġrao": 8130,
      "Ġphysician": 8131,
      "hara": 8132,
      "you": 8133,
      "Ġtot": 8134,
      "iza": 8135,
      "Ġnationals": 8136,
      "Ġseek": 8137,
      "Ġ1862": 8138,
      "Ġrobin": 8139,
      "Ġreconst": 8140,
      "Ġalco": 8141,
      "unda": 8142,
      "Ġvictorian": 8143,
      "Ġencounter": 8144,
      "uras": 8145,
      "ovan": 8146,
      "Ġlinked": 8147,
      "Ġbras": 8148,
      "ansk": 8149,
      "Ġweekend": 8150,
      "Ġelementary": 8151,
      "Ġprepared": 8152,
      "mac": 8153,
      "Ġlaz": 8154,
      "Ġthrow": 8155,
      "Ġdemocrat": 8156,
      "lock": 8157,
      "oi": 8158,
      "chang": 8159,
      "ema": 8160,
      "Ġphoen": 8161,
      "Ġexcav": 8162,
      "Ġafghanistan": 8163,
      "Ġtools": 8164,
      "aken": 8165,
      "Ġactual": 8166,
      "Ġfranca": 8167,
      "Ġpeninsula": 8168,
      "Ġfung": 8169,
      "alu": 8170,
      "Ġmumbai": 8171,
      "Ġnut": 8172,
      "Ġ66": 8173,
      "Ġliteracy": 8174,
      "Ġobserved": 8175,
      "Ġsubstitute": 8176,
      "isi": 8177,
      "station": 8178,
      "Ġexerc": 8179,
      "Ġbiological": 8180,
      "fts": 8181,
      "sl": 8182,
      "Ġcooperation": 8183,
      "achi": 8184,
      "Ġsecure": 8185,
      "Ġearliest": 8186,
      "Ġstewart": 8187,
      "Ġexecuted": 8188,
      "Ġpreserv": 8189,
      "Ġbilly": 8190,
      "kat": 8191,
      "Ġhann": 8192,
      "Ġalbanian": 8193,
      "Ġproved": 8194,
      "Ġrussell": 8195,
      "Ġjerusalem": 8196,
      "Ġpercussion": 8197,
      "Ġchanc": 8198,
      "Ġnorman": 8199,
      "Ġlimit": 8200,
      "Ġjefferson": 8201,
      "Ġreserves": 8202,
      "Ġjimmy": 8203,
      "Ġyale": 8204,
      "Ġfacing": 8205,
      "sar": 8206,
      "Ġkay": 8207,
      "Ġindu": 8208,
      "Ġpreced": 8209,
      "Ġdispl": 8210,
      "Ġbands": 8211,
      "Ġ1879": 8212,
      "Ġelectron": 8213,
      "Ġfm": 8214,
      "ische": 8215,
      "teenth": 8216,
      "Ġ56": 8217,
      "Ġwarner": 8218,
      "Ġdemolished": 8219,
      "Ġtechnologies": 8220,
      "Ġguinea": 8221,
      "cu": 8222,
      "ef": 8223,
      "Ġtir": 8224,
      "Ġpent": 8225,
      "Ġemployment": 8226,
      "Ġjurisd": 8227,
      "Ġensure": 8228,
      "Ġnursing": 8229,
      "Ġadaptation": 8230,
      "drew": 8231,
      "lic": 8232,
      "Ġshore": 8233,
      "Ġshield": 8234,
      "Ġincidents": 8235,
      "ascar": 8236,
      "Ġsailing": 8237,
      "Ġeurovision": 8238,
      "Ġillness": 8239,
      "Ġkennedy": 8240,
      "east": 8241,
      "Ġfuel": 8242,
      "Ġbout": 8243,
      "Ġbaker": 8244,
      "Ġdrawing": 8245,
      "Ġentering": 8246,
      "Ġmps": 8247,
      "Ġgather": 8248,
      "Ġfacade": 8249,
      "Ġcontinental": 8250,
      "Ġdiagn": 8251,
      "Ġprocesses": 8252,
      "Ġanimation": 8253,
      "Ġancest": 8254,
      "Ġrebo": 8255,
      "Ġrum": 8256,
      "Ġtraveled": 8257,
      "Ġrecurring": 8258,
      "Ġsend": 8259,
      "Ġgust": 8260,
      "Ġkann": 8261,
      "Ġantar": 8262,
      "Ġdemocracy": 8263,
      "Ġmarshall": 8264,
      "Ġsustainable": 8265,
      "--": 8266,
      "Ġwayne": 8267,
      "Ġopposite": 8268,
      "Ġprelimin": 8269,
      "Ġcavalry": 8270,
      "haw": 8271,
      "Ġhir": 8272,
      "Ġcongo": 8273,
      "Ġearning": 8274,
      "Ġannually": 8275,
      "Ġintellect": 8276,
      "Ġinvolvement": 8277,
      "opez": 8278,
      "%,": 8279,
      "Ġfired": 8280,
      "ups": 8281,
      "Ġcoverage": 8282,
      "bet": 8283,
      "emi": 8284,
      "Ġkw": 8285,
      "Ġcarrying": 8286,
      "Ġcontroversy": 8287,
      "Ġacted": 8288,
      "Ġdamaged": 8289,
      "Ġmechanism": 8290,
      "Ġarkansas": 8291,
      "bac": 8292,
      "Ġeuc": 8293,
      "Ġabdul": 8294,
      "Ġachievement": 8295,
      "Ġjag": 8296,
      "Ġpublisher": 8297,
      "Ġeligible": 8298,
      "bek": 8299,
      "inian": 8300,
      "Ġsara": 8301,
      "Ġou": 8302,
      "aware": 8303,
      "Ġrestoration": 8304,
      "Ġexpression": 8305,
      "Ġconcerns": 8306,
      "Ġreun": 8307,
      "uting": 8308,
      "Ġmeetings": 8309,
      "Ġentirely": 8310,
      "break": 8311,
      "Ġspiritual": 8312,
      "hill": 8313,
      "Ġatm": 8314,
      "Ġbris": 8315,
      "Ġ1866": 8316,
      ".'": 8317,
      "Ġcn": 8318,
      "Ġlicense": 8319,
      "oun": 8320,
      "akk": 8321,
      "Ġincorporated": 8322,
      "Ġsig": 8323,
      "Ġwet": 8324,
      "Ġuser": 8325,
      "Ġinterpret": 8326,
      "Ġremember": 8327,
      "1991": 8328,
      "Ġbangkok": 8329,
      "Ġble": 8330,
      "Ġmuk": 8331,
      "Ġgrandfather": 8332,
      "Ġcharlie": 8333,
      "Ġadmiral": 8334,
      "bane": 8335,
      "rele": 8336,
      "Ġmarry": 8337,
      "Ġtemp": 8338,
      "Ġmotors": 8339,
      "Ġspan": 8340,
      "ipping": 8341,
      "Ġreplace": 8342,
      "Ġvessel": 8343,
      "Ġgymnast": 8344,
      "Ġhampshire": 8345,
      "Ġandy": 8346,
      "Ġshen": 8347,
      "Ġcolour": 8348,
      "Ġgenre": 8349,
      "Ġthanks": 8350,
      "Ġ1877": 8351,
      "wig": 8352,
      "ÃĹ": 8353,
      "inder": 8354,
      "heed": 8355,
      "Ġdisney": 8356,
      "Ġ1863": 8357,
      "Ġ1875": 8358,
      "Ġinde": 8359,
      "Ġdownload": 8360,
      "Ġdonated": 8361,
      "Ġmadison": 8362,
      "Ġvancouver": 8363,
      "Ġfarmers": 8364,
      "pot": 8365,
      "izon": 8366,
      "boy": 8367,
      "Ġdivor": 8368,
      "atorial": 8369,
      "Ġbulgaria": 8370,
      "Ġliverpool": 8371,
      "Ġwave": 8372,
      "Ġvilla": 8373,
      "Ġturner": 8374,
      "Ġappointment": 8375,
      "âĢ": 8376,
      "Ġ1000": 8377,
      "Ġreporter": 8378,
      "Ġcopy": 8379,
      "Ġcousin": 8380,
      "ded": 8381,
      "mund": 8382,
      "Ġvalu": 8383,
      "rimin": 8384,
      "Ġ1850": 8385,
      "Ġsongwriter": 8386,
      "Ġwidth": 8387,
      "Ġsymbol": 8388,
      "Ġsubjects": 8389,
      "namese": 8390,
      "Ġabroad": 8391,
      "Ġcompositions": 8392,
      "Ġballot": 8393,
      "Ġsugar": 8394,
      "Ġcircum": 8395,
      "math": 8396,
      "Ġtier": 8397,
      "Ġdiet": 8398,
      "Ġquite": 8399,
      "Ġaleks": 8400,
      "elect": 8401,
      "Ġoffering": 8402,
      "nar": 8403,
      "aron": 8404,
      "Ġdepend": 8405,
      "Ġmaintain": 8406,
      "Ġcrash": 8407,
      "Ġexperiences": 8408,
      "Ġpandemic": 8409,
      "Ġgastrop": 8410,
      "Ġcatherine": 8411,
      "Ġfk": 8412,
      "Ġdass": 8413,
      "acc": 8414,
      "Ġkra": 8415,
      "enses": 8416,
      "Ġ72": 8417,
      "Ġstatue": 8418,
      "Ġeditorial": 8419,
      "holm": 8420,
      "stal": 8421,
      "Ġjak": 8422,
      "oshi": 8423,
      "Ġdevice": 8424,
      "Ġfactor": 8425,
      "opsis": 8426,
      "Ġreduce": 8427,
      "Ġridge": 8428,
      "Ġmanuel": 8429,
      "Ġvegas": 8430,
      "Ġidaho": 8431,
      "Ġtackles": 8432,
      "Ġwedding": 8433,
      "Ġarmenian": 8434,
      "Ġflorence": 8435,
      "Ġfile": 8436,
      "Ġblocks": 8437,
      "Ġmovies": 8438,
      "Ġprotein": 8439,
      "Ġexperienced": 8440,
      "ben": 8441,
      "Ġrejected": 8442,
      "Ġ1876": 8443,
      "Ġdeclined": 8444,
      "first": 8445,
      "Ġana": 8446,
      "Ġanat": 8447,
      "Ġ1872": 8448,
      "ucker": 8449,
      "Ġcrossing": 8450,
      "Ġcameroon": 8451,
      "Ġdepot": 8452,
      "Ġapartment": 8453,
      "eo": 8454,
      "overs": 8455,
      "Ġ69": 8456,
      "Ġfeder": 8457,
      "Ġclosely": 8458,
      "Ġinaugur": 8459,
      "Ġ{": 8460,
      "Ġmarit": 8461,
      "Ġgreatest": 8462,
      "ä¸": 8463,
      "Ġsak": 8464,
      "vere": 8465,
      "apur": 8466,
      "Ġrevolutionary": 8467,
      "Ġmunicipalities": 8468,
      "Ġek": 8469,
      "term": 8470,
      "Ġjin": 8471,
      "Ġrup": 8472,
      "andro": 8473,
      "fast": 8474,
      "icia": 8475,
      "Ġvalues": 8476,
      "Ġcrus": 8477,
      "Ġtrials": 8478,
      "Ġreplacing": 8479,
      "Ġanthrop": 8480,
      "Ġsubsidi": 8481,
      "ÑĮ": 8482,
      "Ġpon": 8483,
      "Ġduc": 8484,
      "ovo": 8485,
      "Ġbelief": 8486,
      "Ġbasin": 8487,
      "apping": 8488,
      "Ġwebsites": 8489,
      "Ġdisbanded": 8490,
      "Ġsociet": 8491,
      "Ġarrival": 8492,
      "Ġcommerce": 8493,
      "Ġbun": 8494,
      "uccess": 8495,
      "Ġdescend": 8496,
      "Ġvolumes": 8497,
      "Ġsuspended": 8498,
      "Ġmiguel": 8499,
      "Ġenforcement": 8500,
      "Ġboss": 8501,
      "Ġphen": 8502,
      "Ġrestored": 8503,
      "Ġpurpos": 8504,
      "Ġsculptures": 8505,
      "Ġhindu": 8506,
      "Ġguil": 8507,
      "othy": 8508,
      "Ġ1878": 8509,
      "donald": 8510,
      "Ġdecides": 8511,
      "Ġmalay": 8512,
      "Ġphilanthrop": 8513,
      "Ġchannels": 8514,
      "Ġsweet": 8515,
      "icit": 8516,
      "Ġsurviving": 8517,
      "cing": 8518,
      "Ġske": 8519,
      "olid": 8520,
      "ichi": 8521,
      "Ġedwards": 8522,
      "Ġ58": 8523,
      "encer": 8524,
      "Ġskin": 8525,
      "Ġreportedly": 8526,
      "Ġcredited": 8527,
      "Ġaffiliated": 8528,
      "ike": 8529,
      "uru": 8530,
      "Ġquart": 8531,
      "Ġorganised": 8532,
      "oba": 8533,
      "1989": 8534,
      "Ġsanti": 8535,
      "Ġgren": 8536,
      "ivan": 8537,
      "ifying": 8538,
      "Ġago": 8539,
      "Ġexplained": 8540,
      "Ġsurviv": 8541,
      "Ġnicholas": 8542,
      "Ġerected": 8543,
      "odor": 8544,
      "Ġcontrolled": 8545,
      "Ġisolated": 8546,
      "Ġbhar": 8547,
      "Ġ120": 8548,
      "Ġtransit": 8549,
      "erbai": 8550,
      "Ġmold": 8551,
      "Ġll": 8552,
      "Ġmarks": 8553,
      "oking": 8554,
      "Ġguid": 8555,
      "Ġcatch": 8556,
      "Ġcypri": 8557,
      "sterdam": 8558,
      "bus": 8559,
      "rug": 8560,
      "ĠÏ": 8561,
      "Ġaj": 8562,
      "Ġexact": 8563,
      "Ġacademics": 8564,
      "Ġuganda": 8565,
      "Ġwrong": 8566,
      "pen": 8567,
      "including": 8568,
      "Ġinher": 8569,
      "Ġwarren": 8570,
      "Ġvid": 8571,
      "Ġsees": 8572,
      "Ġpreliminary": 8573,
      "Ġoct": 8574,
      "Ġmeh": 8575,
      "Ġzur": 8576,
      "Ġ63": 8577,
      "Ġstopped": 8578,
      "iac": 8579,
      "xi": 8580,
      "Ġlopez": 8581,
      "claimed": 8582,
      "andra": 8583,
      "avan": 8584,
      "Ġbrack": 8585,
      "Ġblo": 8586,
      "Ġ1873": 8587,
      "terior": 8588,
      "Ġplaywright": 8589,
      "Ġacid": 8590,
      "Ġstring": 8591,
      "uckland": 8592,
      "Ġthousands": 8593,
      "Ġwarriors": 8594,
      "ione": 8595,
      "Ġprovision": 8596,
      "Ġacquis": 8597,
      "Ġreveals": 8598,
      "Ġvincent": 8599,
      "Ġwu": 8600,
      "agement": 8601,
      "Ġroutes": 8602,
      "Ġ480": 8603,
      "Ġraise": 8604,
      "Ġterritories": 8605,
      "Ġtackle": 8606,
      "eper": 8607,
      "Ġspecim": 8608,
      "Ġtesting": 8609,
      "Ġcasual": 8610,
      "Ġcrypt": 8611,
      "Ġtemperature": 8612,
      "Ġtamp": 8613,
      "Ġthesis": 8614,
      "Ġras": 8615,
      "Ġstret": 8616,
      "govern": 8617,
      "rs": 8618,
      "Ġprohib": 8619,
      "ellor": 8620,
      "Ġsuperior": 8621,
      "Ġcongressional": 8622,
      "Ġfocuses": 8623,
      "Ġinstruments": 8624,
      "cas": 8625,
      "named": 8626,
      "Ġgov": 8627,
      "Ġserial": 8628,
      "Ġappearing": 8629,
      "Ġlecturer": 8630,
      "distance": 8631,
      "Ġdictionary": 8632,
      "Ġinhabit": 8633,
      "dum": 8634,
      "iques": 8635,
      "Ġtenth": 8636,
      "Ġpm": 8637,
      "Ġvern": 8638,
      "Ġlaura": 8639,
      "ivalent": 8640,
      "Ġnevada": 8641,
      "Ġmail": 8642,
      "rix": 8643,
      "Ġstanford": 8644,
      "uta": 8645,
      "Ġresolution": 8646,
      "Ġalbania": 8647,
      "Ġelli": 8648,
      "gate": 8649,
      "erie": 8650,
      "lem": 8651,
      "Ġkids": 8652,
      "Ġparker": 8653,
      "zes": 8654,
      "Ġbic": 8655,
      "Ġinternationally": 8656,
      "Ġsomeone": 8657,
      "gart": 8658,
      "Ġbent": 8659,
      "uning": 8660,
      "bern": 8661,
      "Ġconduct": 8662,
      "Ġrhythm": 8663,
      "Ġcoin": 8664,
      "south": 8665,
      "Ġlegs": 8666,
      "1980": 8667,
      "Ġling": 8668,
      "ceived": 8669,
      "Ġboundary": 8670,
      "Ġanswer": 8671,
      "Ġced": 8672,
      "orith": 8673,
      "ulder": 8674,
      "Ġotherwise": 8675,
      "haps": 8676,
      "Ġauckland": 8677,
      "ref": 8678,
      "Ġgw": 8679,
      "Ġrally": 8680,
      "Ġoptim": 8681,
      "Ġstrategic": 8682,
      "page": 8683,
      "rose": 8684,
      "chief": 8685,
      "Ġbirthday": 8686,
      "Ġcollins": 8687,
      "Ġduties": 8688,
      "Ġces": 8689,
      "phone": 8690,
      "Ġvietnamese": 8691,
      "Ġwithdrew": 8692,
      "oples": 8693,
      "Ġshif": 8694,
      "Ġshock": 8695,
      "Ġtruck": 8696,
      "iab": 8697,
      "ĠâĤ": 8698,
      "ÑĢÐ°": 8699,
      "Ġattributed": 8700,
      "Ġtemporary": 8701,
      "Ġcharacteristics": 8702,
      "iii": 8703,
      "Ġcompleting": 8704,
      "Ġpenalty": 8705,
      "Ġexcellence": 8706,
      "Ġleagues": 8707,
      "Ġnotably": 8708,
      "Ġregulations": 8709,
      "Ġrocks": 8710,
      "Ġalgorith": 8711,
      "tor": 8712,
      "Ġdc": 8713,
      "Ġages": 8714,
      "Ġadvanc": 8715,
      "Ġpalmer": 8716,
      "Ġsuffering": 8717,
      "Ġresearchers": 8718,
      "Ġfishing": 8719,
      "Ġunderstand": 8720,
      "Ġazerbai": 8721,
      "eas": 8722,
      "kel": 8723,
      "Äĳ": 8724,
      "Ġswitch": 8725,
      "Ġcontinuing": 8726,
      "Ġanch": 8727,
      "Ġlok": 8728,
      "Ġpeoples": 8729,
      "Ġvisitors": 8730,
      "Ġseparated": 8731,
      "Ġratings": 8732,
      "Ġgriff": 8733,
      "sup": 8734,
      "Ġlis": 8735,
      "Ġlingu": 8736,
      "unes": 8737,
      "Ġbuy": 8738,
      "Ġsuccessor": 8739,
      "Ġquarterback": 8740,
      "Ġecole": 8741,
      "Ġwine": 8742,
      "Ġinqu": 8743,
      "ird": 8744,
      "eton": 8745,
      "ovich": 8746,
      "Ġclimb": 8747,
      "Ġassumed": 8748,
      "ussian": 8749,
      "elected": 8750,
      "Ġgujarat": 8751,
      "pin": 8752,
      "Ġlanding": 8753,
      "cyclop": 8754,
      "tz": 8755,
      "Ġrever": 8756,
      "Ġtrinity": 8757,
      "Ġprede": 8758,
      "chez": 8759,
      "Ġmonitor": 8760,
      "Ġmorris": 8761,
      "Ġguardian": 8762,
      "Ġknights": 8763,
      "publ": 8764,
      "abel": 8765,
      "Ġsuit": 8766,
      "Ġmonthly": 8767,
      "Ġinfluential": 8768,
      "Ġrebels": 8769,
      "Ġpurposes": 8770,
      "Ġmedallists": 8771,
      "urers": 8772,
      "Ġsean": 8773,
      "Ġscr": 8774,
      "oked": 8775,
      "Ġmanh": 8776,
      "inster": 8777,
      "Ġexhibited": 8778,
      "Ġcontestants": 8779,
      "Ġbringing": 8780,
      "Ġbosnia": 8781,
      "Ġrect": 8782,
      "entially": 8783,
      "Ġchamb": 8784,
      "Ġpla": 8785,
      "ellation": 8786,
      "Ġabuse": 8787,
      "Ġlearn": 8788,
      "Ġterminal": 8789,
      "Ġeugene": 8790,
      "Ġcave": 8791,
      "Ġnit": 8792,
      "Ġorig": 8793,
      "Ġflash": 8794,
      "Ġswan": 8795,
      "Ġpassion": 8796,
      "Ġtypical": 8797,
      "Ġhawaii": 8798,
      "Ġentries": 8799,
      "Ġmills": 8800,
      "Ġeasy": 8801,
      "mingham": 8802,
      "Ġelectrical": 8803,
      "Ġcertific": 8804,
      "Ġpetersburg": 8805,
      "Ġsung": 8806,
      "Ġinner": 8807,
      "Ġlil": 8808,
      "Ġadding": 8809,
      "Ġphotographs": 8810,
      "Ġamendment": 8811,
      "icate": 8812,
      "rock": 8813,
      "abwe": 8814,
      "Ġpolling": 8815,
      "borne": 8816,
      "Ġstanley": 8817,
      "Ġquad": 8818,
      "Ġmovements": 8819,
      "Ġconstituencies": 8820,
      "Ġthousand": 8821,
      "Ġion": 8822,
      "Ġtoy": 8823,
      "Ġvoy": 8824,
      "Ġsecured": 8825,
      "Ġappropri": 8826,
      "Ġchef": 8827,
      "Ġworkshop": 8828,
      "city": 8829,
      "Ġgol": 8830,
      "Ġamsterdam": 8831,
      "Ġbattles": 8832,
      "Ġmixt": 8833,
      "Ġwidow": 8834,
      "Ġpill": 8835,
      "umi": 8836,
      "Ġrailways": 8837,
      "Ġlosses": 8838,
      "Ġstruggle": 8839,
      "Ġinnovation": 8840,
      "Ġsubdivision": 8841,
      "Ġunus": 8842,
      "Ġdenied": 8843,
      "Ġtechnique": 8844,
      "Ġgabriel": 8845,
      "Ġcypriot": 8846,
      "but": 8847,
      "Ġdw": 8848,
      "arts": 8849,
      "section": 8850,
      "Ġsenators": 8851,
      "Ġcaptains": 8852,
      "Ġdetailed": 8853,
      "Ġsubstant": 8854,
      "Ġphoenix": 8855,
      "nai": 8856,
      "ferred": 8857,
      "Ġenh": 8858,
      "Ġzimb": 8859,
      "Ġxi": 8860,
      "Ġsolution": 8861,
      "Ġcubs": 8862,
      "Ġregarded": 8863,
      "mother": 8864,
      "Ġgone": 8865,
      "keley": 8866,
      "scored": 8867,
      "Ġcitations": 8868,
      "Ġwarsaw": 8869,
      "Ġlor": 8870,
      "Ġapple": 8871,
      "Ġandrea": 8872,
      "Ġmonastery": 8873,
      "big": 8874,
      "eenth": 8875,
      "Ġaltar": 8876,
      "phal": 8877,
      "Ġevangel": 8878,
      "Ġzhang": 8879,
      "lag": 8880,
      "ogan": 8881,
      "Ġadvocate": 8882,
      "Ġernest": 8883,
      "iformes": 8884,
      "Ġobst": 8885,
      "Ġcosts": 8886,
      "Ġrequirements": 8887,
      "Ġwire": 8888,
      "Ġkas": 8889,
      "Ġmario": 8890,
      "Ġscores": 8891,
      "ribute": 8892,
      "Ġliqu": 8893,
      "Ġsevere": 8894,
      "Ġthick": 8895,
      "Ġride": 8896,
      "rip": 8897,
      "Ġmini": 8898,
      "Ġindians": 8899,
      "Ġdegrees": 8900,
      "zhou": 8901,
      "Ġris": 8902,
      "Ġelectricity": 8903,
      "Ġterrorist": 8904,
      "lings": 8905,
      "race": 8906,
      "Ġurg": 8907,
      "Ġguitarist": 8908,
      "Ġkeyboards": 8909,
      "Ġchallenger": 8910,
      "Ġbacteria": 8911,
      "cp": 8912,
      "ĠÑģ": 8913,
      "Ġrestrict": 8914,
      "Ġcards": 8915,
      "Ġtrin": 8916,
      "Ġsiege": 8917,
      "Ġbach": 8918,
      "achment": 8919,
      "Ġ77": 8920,
      "Ġholland": 8921,
      "Ġtenure": 8922,
      "Ġeasily": 8923,
      "Ġachieve": 8924,
      "ĠâĪĴ": 8925,
      "Ġillustrated": 8926,
      "Ġdent": 8927,
      "icon": 8928,
      "igious": 8929,
      "Ġworship": 8930,
      "Ġdepression": 8931,
      "Ġsmooth": 8932,
      "english": 8933,
      "Ġsymphony": 8934,
      "Ġsitting": 8935,
      "Ġcoun": 8936,
      "Ġabra": 8937,
      "Ġmahar": 8938,
      "fficient": 8939,
      "Ġhospitals": 8940,
      "Ġrangers": 8941,
      "feld": 8942,
      "Ġcum": 8943,
      "Ġrobb": 8944,
      "Ġspar": 8945,
      "Ġencyclop": 8946,
      "Ġmarkets": 8947,
      "Ġaudi": 8948,
      "Ġwrestlers": 8949,
      "Ġinspir": 8950,
      "fire": 8951,
      "eni": 8952,
      "arians": 8953,
      "Ġstress": 8954,
      "Ġbutler": 8955,
      "Ġretained": 8956,
      "Ġvalent": 8957,
      "Ġstarred": 8958,
      "Ġcolombian": 8959,
      "Ġallied": 8960,
      "Ġkashmir": 8961,
      "eing": 8962,
      "Ġbug": 8963,
      "Ġbren": 8964,
      "Ġhub": 8965,
      "Ġassass": 8966,
      "olds": 8967,
      "Ġforests": 8968,
      "Ġsurrounded": 8969,
      "Ġintegrated": 8970,
      "tical": 8971,
      "agl": 8972,
      "eck": 8973,
      "Ġstyles": 8974,
      "Ġdum": 8975,
      "Ġnewton": 8976,
      "Ġpresidents": 8977,
      "Ġfounders": 8978,
      "helm": 8979,
      "itarian": 8980,
      "Ġunsuccess": 8981,
      "Ð¼": 8982,
      "Ġlah": 8983,
      "Ġspeak": 8984,
      "Ġ1857": 8985,
      "Ġkirk": 8986,
      "Ġsequence": 8987,
      "Ġadvertising": 8988,
      "Ġfasc": 8989,
      "Ġasks": 8990,
      "Ġknew": 8991,
      "Ġharrison": 8992,
      "Ġindicate": 8993,
      "Ġsort": 8994,
      "Ġmud": 8995,
      "Ġlocality": 8996,
      "Ġnurse": 8997,
      "Ġzimbabwe": 8998,
      "Ġ*": 8999,
      "Ġaur": 9000,
      "Ġrated": 9001,
      "Ġmarin": 9002,
      "Ġ62": 9003,
      "Ġrecept": 9004,
      "Ġprompt": 9005,
      "Ġinnoc": 9006,
      "si": 9007,
      "anta": 9008,
      "Ġaftermath": 9009,
      "Ġengines": 9010,
      "Ġchristians": 9011,
      "Ġjournalism": 9012,
      "Ġbalance": 9013,
      "Ġkad": 9014,
      "Ġoutscored": 9015,
      "Ġcollect": 9016,
      "Ġrelocated": 9017,
      "Ġoperational": 9018,
      "],": 9019,
      "Ġwag": 9020,
      "imo": 9021,
      "commun": 9022,
      "Ġknockout": 9023,
      "bn": 9024,
      "acion": 9025,
      "endar": 9026,
      "Ġ59": 9027,
      "Ġ85": 9028,
      "Ġpleas": 9029,
      "Ġlebanon": 9030,
      "Ġanglican": 9031,
      ".),": 9032,
      "Ġhugh": 9033,
      "ameter": 9034,
      "assy": 9035,
      "Ġ1869": 9036,
      "Ġinspector": 9037,
      "Ġhebrew": 9038,
      "Ġri": 9039,
      "Ġchel": 9040,
      "Ġraja": 9041,
      "Ġdowntown": 9042,
      "Ġtaxonom": 9043,
      "Ġadvisor": 9044,
      "Ñĸ": 9045,
      "Ġtact": 9046,
      "Ġwer": 9047,
      "Ġwaste": 9048,
      "Ġjas": 9049,
      "Ġsponsored": 9050,
      "Ġmonster": 9051,
      "Ġwalking": 9052,
      "Ġcivic": 9053,
      "1988": 9054,
      "Ġprogressive": 9055,
      "Ġentrepreneur": 9056,
      "Ġia": 9057,
      "Ġchal": 9058,
      "Ġundert": 9059,
      "Ġ61": 9060,
      "rised": 9061,
      "Ġclement": 9062,
      "Ġspeaking": 9063,
      "Ġqualifier": 9064,
      "Ġquarterfinals": 9065,
      "Ġkazakhstan": 9066,
      "Ġwake": 9067,
      "Ġing": 9068,
      "omo": 9069,
      "Ġorch": 9070,
      "Ġseeking": 9071,
      "ashtra": 9072,
      "Ġmissed": 9073,
      "Ġbowls": 9074,
      "inum": 9075,
      "Ġvit": 9076,
      "Ġguar": 9077,
      "Ġwellington": 9078,
      "Ġclosest": 9079,
      "Ġsupporters": 9080,
      "Ġeucalypt": 9081,
      "Ġkab": 9082,
      "Ġkiss": 9083,
      "Ġreferendum": 9084,
      "alez": 9085,
      "Ġski": 9086,
      "Ġluke": 9087,
      "second": 9088,
      "power": 9089,
      "Ġafc": 9090,
      "Ġmanor": 9091,
      "Ġpatron": 9092,
      "Ġberkeley": 9093,
      "Ġwatson": 9094,
      "render": 9095,
      "Ġballet": 9096,
      "Ġgregory": 9097,
      "Ġcruz": 9098,
      "Ġpine": 9099,
      "Ġhob": 9100,
      "igi": 9101,
      "Ġ67": 9102,
      "Ġselect": 9103,
      "Ġbesides": 9104,
      "san": 9105,
      "eri": 9106,
      "Ġhein": 9107,
      "Ġverse": 9108,
      "Ġfactors": 9109,
      "Ġcardinal": 9110,
      "Ġpursue": 9111,
      "py": 9112,
      "atically": 9113,
      "Ġsheriff": 9114,
      "Ġworker": 9115,
      "Ġposts": 9116,
      "Ġ1871": 9117,
      "Ġdoctorate": 9118,
      "Ġnagar": 9119,
      "Ġvessels": 9120,
      "ocar": 9121,
      "Ġgeology": 9122,
      "ullah": 9123,
      "Ġtopics": 9124,
      "Ġfriday": 9125,
      "Ġchanging": 9126,
      "Ġkitchen": 9127,
      "Ġpig": 9128,
      "orge": 9129,
      "Ġlex": 9130,
      "Ġmartine": 9131,
      "Ġadopt": 9132,
      "Ġdans": 9133,
      "Ġbark": 9134,
[...]
