{
  "version": "1.0",
  "truncation": null,
  "padding": null,
  "added_tokens": [
    {
      "id": 0,
      "content": "<pad>",
      "single_word": false,
      "lstrip": false,
      "rstrip": false,
      "normalized": false,
      "special": true
    },
    {
      "id": 1,
      "content": "<eos>",
      "single_word": false,
      "lstrip": false,
      "rstrip": false,
      "normalized": false,
      "special": true
    }
  ],
  "normalizer": {
    "type": "Sequence",
    "normalizers": [
      {
        "type": "NFC"
      }
    ]
  },
  "pre_tokenizer": {
    "type": "ByteLevel",
    "add_prefix_space": true,
    "trim_offsets": true,
    "use_regex": true
  },
  "post_processor": {
    "type": "ByteLevel",
    "add_prefix_space": true,
    "trim_offsets": true,
    "use_regex": true
  },
  "decoder": null,
  "model": {
    "type": "BPE",
    "dropout": null,
    "unk_token": null,
    "continuing_subword_prefix": null,
    "end_of_word_suffix": null,
    "fuse_unk": false,
    "byte_fallback": false,
    "ignore_merges": false,
    "vocab": {
      "<pad>": 0,
      "<eos>": 1,
      "!": 2,
      "\"": 3,
      "#": 4,
      "$": 5,
      "%": 6,
      "&": 7,
      "'": 8,
      "(": 9,
      ")": 10,
      "*": 11,
      "+": 12,
      ",": 13,
      "-": 14,
      ".": 15,
      "/": 16,
      "0": 17,
      "1": 18,
      "2": 19,
      "3": 20,
      "4": 21,
      "5": 22,
      "6": 23,
      "7": 24,
      "8": 25,
      "9": 26,
      ":": 27,
      ";": 28,
      "<": 29,
      "=": 30,
      ">": 31,
      "?": 32,
      "@": 33,
      "A": 34,
      "B": 35,
      "C": 36,
      "D": 37,
      "E": 38,
      "F": 39,
      "G": 40,
      "H": 41,
      "I": 42,
      "J": 43,
      "K": 44,
      "L": 45,
      "M": 46,
      "N": 47,
      "O": 48,
      "P": 49,
      "Q": 50,
      "R": 51,
      "S": 52,
      "T": 53,
      "U": 54,
      "V": 55,
      "W": 56,
      "X": 57,
      "Y": 58,
      "Z": 59,
      "[": 60,
      "\\": 61,
      "]": 62,
      "^": 63,
      "_": 64,
      "`": 65,
      "a": 66,
      "b": 67,
      "c": 68,
      "d": 69,
      "e": 70,
      "f": 71,
      "g": 72,
      "h": 73,
      "i": 74,
      "j": 75,
      "k": 76,
      "l": 77,
      "m": 78,
      "n": 79,
      "o": 80,
      "p": 81,
      "q": 82,
      "r": 83,
      "s": 84,
      "t": 85,
      "u": 86,
      "v": 87,
      "w": 88,
      "x": 89,
      "y": 90,
      "z": 91,
      "{": 92,
      "|": 93,
      "}": 94,
      "~": 95,
      "¡": 96,
      "¢": 97,
      "£": 98,
      "¤": 99,
      "¥": 100,
      "¦": 101,
      "§": 102,
      "¨": 103,
      "©": 104,
      "ª": 105,
      "«": 106,
      "¬": 107,
      "®": 108,
      "¯": 109,
      "°": 110,
      "±": 111,
      "²": 112,
      "³": 113,
      "´": 114,
      "µ": 115,
      "¶": 116,
      "·": 117,
      "¸": 118,
      "¹": 119,
      "º": 120,
      "»": 121,
      "¼": 122,
      "½": 123,
      "¾": 124,
      "¿": 125,
      "Â": 126,
      "Ã": 127,
      "Ä": 128,
      "Å": 129,
      "É": 130,
      "Ê": 131,
      "Ì": 132,
      "Î": 133,
      "Ï": 134,
      "á": 135,
      "â": 136,
      "ã": 137,
      "Ċ": 138,
      "č": 139,
      "Ġ": 140,
      "Ģ": 141,
      "ģ": 142,
      "Ĥ": 143,
      "ĥ": 144,
      "Ħ": 145,
      "ħ": 146,
      "Ĩ": 147,
      "ĩ": 148,
      "Ī": 149,
      "ī": 150,
      "Į": 151,
      "į": 152,
      "İ": 153,
      "Ĳ": 154,
      "ĳ": 155,
      "Ĵ": 156,
      "ĵ": 157,
      "Ķ": 158,
      "ķ": 159,
      "ĸ": 160,
      "Ĺ": 161,
      "ĺ": 162,
      "Ļ": 163,
      "ļ": 164,
      "ľ": 165,
      "Ŀ": 166,
      "ŀ": 167,
      "ł": 168,
      "Ń": 169,
      "Ġt": 170,
      "čĊ": 171,
      "he": 172,
      "Ġa": 173,
      "ĠčĊ": 174,
      "Ġthe": 175,
      "in": 176,
      "Ġo": 177,
      "re": 178,
      "ĠĠ": 179,
      "Ġw": 180,
      "Ġs": 181,
      "at": 182,
      "on": 183,
      "er": 184,
      "is": 185,
      "it": 186,
      "Ġb": 187,
      "Ġof": 188,
      "nd": 189,
      "Ġc": 190,
      "en": 191,
      "Ġm": 192,
      "es": 193,
      "Ġf": 194,
      "Ġp": 195,
      "Ġto": 196,
      "Ġin": 197,
      "Ġth": 198,
      "ou": 199,
      "ed": 200,
      "or": 201,
      "Ġh": 202,
      "an": 203,
      "Ġd": 204,
      "Ġand": 205,
      "ing": 206,
      "ar": 207,
      "al": 208,
      "ion": 209,
      "Ġn": 210,
      "ic": 211,
      "Ġbe": 212,
      "as": 213,
      "Ġe": 214,
      "le": 215,
      "ĠĠĠĠ": 216,
      "om": 217,
      "ly": 218,
      "se": 219,
      "Ġis": 220,
      "ll": 221,
      "ĠI": 222,
      "âĢ": 223,
      "Ġre": 224,
      "ot": 225,
      "Ġwh": 226,
      "Ġl": 227,
      "Ġthat": 228,
      "st": 229,
      "ve": 230,
      "ce": 231,
      "ct": 232,
      "ent": 233,
      "Ġit": 234,
      "im": 235,
      "ut": 236,
      "Ġg": 237,
      "Ġon": 238,
      "ĠT": 239,
      "Ġha": 240,
      "Ġas": 241,
      "Ġhe": 242,
      "Ġfor": 243,
      "ow": 244,
      "id": 245,
      "Ġu": 246,
      "ld": 247,
      "Ġcon": 248,
      "ur": 249,
      "her": 250,
      "ver": 251,
      "Ġan": 252,
      "Ġnot": 253,
      "ation": 254,
      "ir": 255,
      "ich": 256,
      "ro": 257,
      "ith": 258,
      "gh": 259,
      "Ġwhich": 260,
      "et": 261,
      "am": 262,
      "ay": 263,
      "Ġor": 264,
      "Ġwe": 265,
      "if": 266,
      "Ġwith": 267,
      "ĠA": 268,
      "ch": 269,
      "Ġsu": 270,
      "qu": 271,
      "ill": 272,
      "Ġby": 273,
      "Ġex": 274,
      "Ġst": 275,
      "ess": 276,
      "Ġat": 277,
      "ra": 278,
      "ri": 279,
      "Ġy": 280,
      "ĠThe": 281,
      "od": 282,
      "ist": 283,
      "ul": 284,
      "us": 285,
      "Ġthis": 286,
      "rom": 287,
      "os": 288,
      "pe": 289,
      "Ġse": 290,
      "Ġde": 291,
      "ter": 292,
      "Ġare": 293,
      "ould": 294,
      "ain": 295,
      "ity": 296,
      "il": 297,
      "Ġme": 298,
      "ĠâĢ": 299,
      "ore": 300,
      "ĠS": 301,
      "Ġwas": 302,
      "ght": 303,
      "Ġhave": 304,
      "um": 305,
      "ad": 306,
      "Ġfrom": 307,
      "ĠĠĠ": 308,
      "ol": 309,
      "th": 310,
      "ĠB": 311,
      "res": 312,
      "Ġcom": 313,
      "ble": 314,
      "ak": 315,
      "Ġpro": 316,
      "Ġhis": 317,
      "Ġyou": 318,
      "ci": 319,
      "sel": 320,
      "ate": 321,
      "Ġwill": 322,
      "ther": 323,
      "âĢĻ": 324,
      "Ġall": 325,
      "ĠC": 326,
      "iv": 327,
      "ĠP": 328,
      "Ġne": 329,
      "est": 330,
      "Ġv": 331,
      "ge": 332,
      "Ġsh": 333,
      "ant": 334,
      "pp": 335,
      "ous": 336,
      "Ġone": 337,
      "Ġso": 338,
      "ect": 339,
      "ust": 340,
      "Ġal": 341,
      "Ġbut": 342,
      "em": 343,
      "ĠM": 344,
      "ure": 345,
      "ĠH": 346,
      "Ġthey": 347,
      "art": 348,
      "ig": 349,
      "Ġ(": 350,
      "nt": 351,
      "ive": 352,
      "Ġ1": 353,
      "âĢĿ": 354,
      "Ġmy": 355,
      "Ġk": 356,
      "self": 357,
      "ies": 358,
      "ĠâĢľ": 359,
      "Ġhim": 360,
      "ĠO": 361,
      "ĠW": 362,
      "ere": 363,
      "Ġthere": 364,
      "Ġwhe": 365,
      "Ġqu": 366,
      "ers": 367,
      "ac": 368,
      "Ġthem": 369,
      "and": 370,
      "Ġcan": 371,
      "Ġr": 372,
      "Ġwho": 373,
      "Ġle": 374,
      "ĠG": 375,
      "ĠF": 376,
      "ame": 377,
      "Ġhad": 378,
      "Ġman": 379,
      "all": 380,
      "ions": 381,
      "Ġint": 382,
      "Ġch": 383,
      "Ġab": 384,
      "Ġdo": 385,
      "Ġother": 386,
      "very": 387,
      "Ġun": 388,
      "Ġtheir": 389,
      "Ġwor": 390,
      "ight": 391,
      "ence": 392,
      "ard": 393,
      "Ġwould": 394,
      "Ġhas": 395,
      "Ġim": 396,
      "out": 397,
      "ind": 398,
      "pt": 399,
      "Ġar": 400,
      "Ġno": 401,
      "Ġits": 402,
      "ie": 403,
      "ally": 404,
      "ort": 405,
      "ose": 406,
      "ome": 407,
      "per": 408,
      "ide": 409,
      "Ġany": 410,
      "ĠTh": 411,
      "ance": 412,
      "Ġif": 413,
      "Ġpl": 414,
      "ment": 415,
      "ong": 416,
      "ĠĠĠĠĠĠĠ": 417,
      "our": 418,
      "Ġbeen": 419,
      "Ġpart": 420,
      "ĠN": 421,
      "Ġtr": 422,
      "op": 423,
      "cc": 424,
      "Ġonly": 425,
      "Ġbeing": 426,
      "ĠĠĠĠĠĠĠĠ": 427,
      "Ġob": 428,
      "reat": 429,
      "act": 430,
      "Ġper": 431,
      "ans": 432,
      "ĠD": 433,
      "au": 434,
      "ast": 435,
      "pl": 436,
      "Ġtim": 437,
      "ough": 438,
      "Ġmore": 439,
      "ĠBut": 440,
      "Ġkn": 441,
      "ary": 442,
      "Ġmo": 443,
      "un": 444,
      "ass": 445,
      "Ġdis": 446,
      "Ġgo": 447,
      "ound": 448,
      "Ġwhat": 449,
      "Ġwere": 450,
      "ire": 451,
      "ject": 452,
      "Ġcons": 453,
      "Ġcont": 454,
      "Ġup": 455,
      "able": 456,
      "Ġour": 457,
      "ff": 458,
      "Ġev": 459,
      "ĠIt": 460,
      "Ġj": 461,
      "fore": 462,
      "si": 463,
      "Ġen": 464,
      "ake": 465,
      "ap": 466,
      "are": 467,
      "ag": 468,
      "Ġmay": 469,
      "ud": 470,
      "ke": 471,
      "Ġwhen": 472,
      "Ġad": 473,
      "ĠE": 474,
      "Ġsame": 475,
      "ces": 476,
      "Ġknow": 477,
      "ace": 478,
      "Ġbec": 479,
      "ine": 480,
      "Ġsp": 481,
      "Ġlo": 482,
      "âĢĶ": 483,
      "Ġus": 484,
      "Ġmust": 485,
      "Ġthese": 486,
      "ĠL": 487,
      "Ġ2": 488,
      "Ġam": 489,
      "ĠR": 490,
      "el": 491,
      "Ġdes": 492,
      "Ġtime": 493,
      "ness": 494,
      "ab": 495,
      "Ġpos": 496,
      "ical": 497,
      "Ġcomp": 498,
      "ert": 499,
      "av": 500,
      "ĠĠĠĠĠĠ": 501,
      "Ġinto": 502,
      "iff": 503,
      "ations": 504,
      "Ġthan": 505,
      "Ġspe": 506,
      "ĠIn": 507,
      "Ġag": 508,
      "ult": 509,
      "ĠĠĠĠĠ": 510,
      "ction": 511,
      "Ġtw": 512,
      "ays": 513,
      "Ġgreat": 514,
      "Ġli": 515,
      "hing": 516,
      "Ġund": 517,
      "ĠAnd": 518,
      "ue": 519,
      "ated": 520,
      "Ġres": 521,
      "Ġsuch": 522,
      "Ġout": 523,
      "ress": 524,
      "ok": 525,
      "ach": 526,
      "Ġsome": 527,
      "Ġbod": 528,
      "Ġfe": 529,
      "ree": 530,
      "Ġdiff": 531,
      "Ġsa": 532,
      "Ġpre": 533,
      "Ġform": 534,
      "ite": 535,
      "Ġpr": 536,
      "ens": 537,
      "ĠHe": 538,
      "du": 539,
      "Ġpo": 540,
      "so": 541,
      "end": 542,
      "ru": 543,
      "Ġsub": 544,
      "ice": 545,
      "Ġnat": 546,
      "ream": 547,
      "Ġdist": 548,
      "ings": 549,
      "ause": 550,
      "Ġ;": 551,
      "ition": 552,
      "iz": 553,
      "erm": 554,
      "int": 555,
      "irst": 556,
      "wn": 557,
      "ory": 558,
      "Ġvery": 559,
      "Ġimp": 560,
      "Ġrel": 561,
      "one": 562,
      "ish": 563,
      "Ġrem": 564,
      "ars": 565,
      "Ġatt": 566,
      "other": 567,
      "Ġshould": 568,
      "og": 569,
      "Ġunder": 570,
      "age": 571,
      "Ġthose": 572,
      "Ġthen": 573,
      "Ġcl": 574,
      "Ġdream": 575,
      "ener": 576,
      "Ġind": 577,
      "ari": 578,
      "ord": 579,
      "Ġtwo": 580,
      "ry": 581,
      "hed": 582,
      "itt": 583,
      "ond": 584,
      "cl": 585,
      "Ġabout": 586,
      "Ġide": 587,
      "ise": 588,
      "Ġher": 589,
      "Ġbet": 590,
      "Ġcomm": 591,
      "Ġ3": 592,
      "Ġhow": 593,
      "..": 594,
      "Ġfirst": 595,
      "oc": 596,
      "Ġord": 597,
      "ving": 598,
      "Ġacc": 599,
      "uch": 600,
      "Ġcould": 601,
      "cess": 602,
      "Ġapp": 603,
      "ought": 604,
      "Ġevery": 605,
      "Ġpres": 606,
      "ved": 607,
      "ber": 608,
      "ang": 609,
      "Ġap": 610,
      "Ġlike": 611,
      "ves": 612,
      "Ġeven": 613,
      "Ġra": 614,
      "ĠThis": 615,
      "ase": 616,
      "hen": 617,
      "Ġact": 618,
      "we": 619,
      "ade": 620,
      "00": 621,
      "ife": 622,
      "ep": 623,
      "ward": 624,
      "Ġfact": 625,
      "Ġpe": 626,
      "Ġalso": 627,
      "ĠK": 628,
      "ign": 629,
      "Ġagain": 630,
      "ĠFor": 631,
      "Ġsaid": 632,
      "ĠV": 633,
      "ertain": 634,
      "ual": 635,
      "Ġ4": 636,
      "ack": 637,
      "Ġinst": 638,
      "Ġmen": 639,
      "ount": 640,
      "Ġwithout": 641,
      "ple": 642,
      "Ġinf": 643,
      "Ġmat": 644,
      "red": 645,
      "Ġref": 646,
      "Ġitself": 647,
      "ered": 648,
      "Ã©": 649,
      "Ġph": 650,
      "ial": 651,
      "Ġfo": 652,
      ".âĢĿ": 653,
      "Ġworld": 654,
      "fter": 655,
      "Ġsee": 656,
      "Ġown": 657,
      "Ġgener": 658,
      "Ġthr": 659,
      "Ġ[": 660,
      "Ġmost": 661,
      "urn": 662,
      "ced": 663,
      "ink": 664,
      "Ġexist": 665,
      "Ġnow": 666,
      "ful": 667,
      "vel": 668,
      "ied": 669,
      "Ġgiv": 670,
      "Ġbr": 671,
      "Ġbody": 672,
      "Ġri": 673,
      "ither": 674,
      "Ġsay": 675,
      "Ġbel": 676,
      "Ġco": 677,
      "ict": 678,
      "ents": 679,
      "Ġrep": 680,
      "Ġmot": 681,
      "Ġinter": 682,
      "Ġreg": 683,
      "Ġfl": 684,
      "Ġgr": 685,
      "ather": 686,
      "Ġobject": 687,
      "Ġdiffere": 688,
      "ov": 689,
      "sible": 690,
      "Ġappe": 691,
      "Ġlife": 692,
      "ons": 693,
      "Ġbecause": 694,
      "rib": 695,
      "IN": 696,
      "own": 697,
      "bl": 698,
      "Ġsim": 699,
      "ĠâĢĶ": 700,
      "Ġmake": 701,
      "Ġequ": 702,
      "cious": 703,
      "ious": 704,
      "HE": 705,
      "ince": 706,
      "Ġyour": 707,
      "Ġlong": 708,
      "ĠY": 709,
      "cept": 710,
      "Ġmade": 711,
      "te": 712,
      "Ġhimself": 713,
      "ĠJ": 714,
      "Ġcor": 715,
      "ile": 716,
      "Ġoff": 717,
      "Ġpoint": 718,
      "Ġjust": 719,
      "'s": 720,
      "ell": 721,
      "Ġsupp": 722,
      "lect": 723,
      "Ġafter": 724,
      "ality": 725,
      "Ġshe": 726,
      "Ġ\"": 727,
      "Ġear": 728,
      "Ġpass": 729,
      "ular": 730,
      "Ġcertain": 731,
      "Ġthought": 732,
      "ween": 733,
      "Ġem": 734,
      "ates": 735,
      "orm": 736,
      "Ġanother": 737,
      "Ġtherefore": 738,
      "Ġgood": 739,
      "Ġbefore": 740,
      "Ġover": 741,
      "Ġhaving": 742,
      "Ġbetween": 743,
      "Ġinc": 744,
      "Ġla": 745,
      "Ġrec": 746,
      "Ġmany": 747,
      "ĠâĢĺ": 748,
      "Ġdoes": 749,
      "Ġmuch": 750,
      "Ġway": 751,
      "the": 752,
      "Ġwork": 753,
      "Ġwhere": 754,
      "pect": 755,
      "Ġthrough": 756,
      "ON": 757,
      "Ġmind": 758,
      "Ġplace": 759,
      "Ġnothing": 760,
      "Ġser": 761,
      "Ġupon": 762,
      "Ġdid": 763,
      "ever": 764,
      "Ġthings": 765,
      "ities": 766,
      "Ġho": 767,
      "uth": 768,
      "Ġorder": 769,
      "Ġ_": 770,
      "ower": 771,
      "Ġend": 772,
      "ĠOF": 773,
      "Ġnature": 774,
      "ism": 775,
      "ĠIf": 776,
      "ip": 777,
      "Ġconsid": 778,
      "nce": 779,
      "hes": 780,
      "Ġconf": 781,
      "ĠTHE": 782,
      "Ġthink": 783,
      "Ġ5": 784,
      "Ġeach": 785,
      "Ġnecess": 786,
      "Ġac": 787,
      "Ġobs": 788,
      "Ġfound": 789,
      "ys": 790,
      "Ġtrans": 791,
      "llow": 792,
      "oth": 793,
      ",âĢĿ": 794,
      "Ġgiven": 795,
      "ĠWe": 796,
      "omet": 797,
      "Ġreas": 798,
      "Ġwell": 799,
      "Ġright": 800,
      "Ġshall": 801,
      "Ġspeci": 802,
      "Ġexper": 803,
      "hat": 804,
      "ater": 805,
      "Ġass": 806,
      "Ġmean": 807,
      "Ġext": 808,
      "led": 809,
      "selves": 810,
      "ĠThere": 811,
      "Ġbeg": 812,
      "ĠCh": 813,
      "Ġdisc": 814,
      "olut": 815,
      "Ġhand": 816,
      "Ġpartic": 817,
      "Ġnever": 818,
      "ath": 819,
      "Ġdef": 820,
      "Ġ18": 821,
      "Ġpresent": 822,
      "ors": 823,
      "ined": 824,
      "ffect": 825,
      "Ġsy": 826,
      "Ġexp": 827,
      "itself": 828,
      "Ġdet": 829,
      "AT": 830,
      "ĠSt": 831,
      "Ġfar": 832,
      "Ġent": 833,
      "ances": 834,
      "Ġprop": 835,
      "ways": 836,
      "Ġnew": 837,
      "not": 838,
      "Ġlet": 839,
      "ng": 840,
      "Ġnum": 841,
      "ood": 842,
      "Ġstr": 843,
      "Ġstate": 844,
      "Ġsec": 845,
      "ific": 846,
      "als": 847,
      "Ġwhole": 848,
      "--": 849,
      "ract": 850,
      "Ġcall": 851,
      "Ġcome": 852,
      "Ġhere": 853,
      "Ġalways": 854,
      "ense": 855,
      "Ġtak": 856,
      "ational": 857,
      "Ġtake": 858,
      "les": 859,
      "ia": 860,
      "Ġunderst": 861,
      "Ġseem": 862,
      "ild": 863,
      "Ġchar": 864,
      "ility": 865,
      "Ġpeop": 866,
      "Ġreason": 867,
      "ha": 868,
      "ib": 869,
      "vers": 870,
      "Ġquest": 871,
      "Ġdesc": 872,
      "Ġsur": 873,
      "ning": 874,
      "ĠOn": 875,
      "Ġro": 876,
      "Ġmotion": 877,
      "Ġmod": 878,
      "Ġsl": 879,
      "Ġfollow": 880,
      "Ġobser": 881,
      "Ġbl": 882,
      "Ġaw": 883,
      "Ġsc": 884,
      "Ġconst": 885,
      "Ġcent": 886,
      "ished": 887,
      "ian": 888,
      "Ġthough": 889,
      "Ġtra": 890,
      "Ġmight": 891,
      "Ġconscious": 892,
      "Ġop": 893,
      "ady": 894,
      "thing": 895,
      "ily": 896,
      "Ġyet": 897,
      "Ġca": 898,
      "Ġdifferent": 899,
      "Ġbo": 900,
      "Ġpers": 901,
      "ER": 902,
      "Ġdiv": 903,
      "Ġstill": 904,
      "Ġabs": 905,
      "Ġlook": 906,
      "Ġcase": 907,
      "Ġfa": 908,
      "Ġmatter": 909,
      "ix": 910,
      "ittle": 911,
      "Ġgra": 912,
      "Ġsomet": 913,
      "Ġword": 914,
      "Ġet": 915,
      "ures": 916,
      "Ġlittle": 917,
      "Ġye": 918,
      "here": 919,
      "inci": 920,
      "ently": 921,
      "Ġforce": 922,
      "Ġopp": 923,
      ".)": 924,
      "Ġless": 925,
      "ew": 926,
      "ark": 927,
      "att": 928,
      "Ġbelie": 929,
      "less": 930,
      "Ġmeans": 931,
      "und": 932,
      "Ġsm": 933,
      "Ġtoo": 934,
      "Ġlight": 935,
      "ove": 936,
      "Ġocc": 937,
      "Ġhum": 938,
      "Ġpeople": 939,
      "ck": 940,
      "ĠX": 941,
      "ics": 942,
      "Ġvari": 943,
      "Ġfind": 944,
      "ty": 945,
      "ĠOther": 946,
      "ained": 947,
      "ner": 948,
      "Ġspecies": 949,
      "ret": 950,
      "Ġcond": 951,
      "Ġwr": 952,
      "Ġarm": 953,
      "Ġcir": 954,
      "io": 955,
      "Ġ'": 956,
      "ave": 957,
      "Ġthemselves": 958,
      "Ġsince": 959,
      "ost": 960,
      "Ġnor": 961,
      "its": 962,
      "Ġpower": 963,
      "Ġconc": 964,
      "Ġcannot": 965,
      "Ġuse": 966,
      "Ġprinci": 967,
      "edi": 968,
      "ange": 969,
      "ural": 970,
      "AL": 971,
      "Ġcour": 972,
      "Ġtoward": 973,
      "get": 974,
      "Ġhapp": 975,
      "ick": 976,
      "Ġart": 977,
      "Ġret": 978,
      "Ġidea": 979,
      "Ġboth": 980,
      "ude": 981,
      "Ġagainst": 982,
      "Ġreal": 983,
      "Ġthree": 984,
      "Ġ6": 985,
      "Ġideas": 986,
      "Ġquestion": 987,
      "Ġtrue": 988,
      "Ġearth": 989,
      "Ġconsider": 990,
      "Ġprodu": 991,
      "Ġunderstand": 992,
      "Ġday": 993,
      "igin": 994,
      "osed": 995,
      "ten": 996,
      "ating": 997,
      "Ġdire": 998,
      "Ġgeneral": 999,
      "ES": 1000,
      "ited": 1001,
      "be": 1002,
      "Ġwar": 1003,
      "Ġcomple": 1004,
      "Ġorigin": 1005,
      "Ġorg": 1006,
      "ried": 1007,
      "Ġmyself": 1008,
      "cy": 1009,
      "hy": 1010,
      "Ġlaw": 1011,
      "Ġnecessary": 1012,
      "ps": 1013,
      "iss": 1014,
      "Ġexpl": 1015,
      "Ġstru": 1016,
      "Ġdec": 1017,
      "aking": 1018,
      "Ġgive": 1019,
      "ants": 1020,
      "Ġcirc": 1021,
      "Ġgl": 1022,
      "ision": 1023,
      "ments": 1024,
      "Ġbodies": 1025,
      "Ġput": 1026,
      "Ġsubject": 1027,
      "li": 1028,
      "Ġappear": 1029,
      "osop": 1030,
      "reed": 1031,
      "ative": 1032,
      "ived": 1033,
      "),": 1034,
      "Ġeither": 1035,
      "Ġconsciousness": 1036,
      "Ġpossible": 1037,
      "Ġcle": 1038,
      "ilosop": 1039,
      "olog": 1040,
      "pend": 1041,
      "Ġable": 1042,
      "ont": 1043,
      "aps": 1044,
      "ft": 1045,
      "Ġinv": 1046,
      "Ġhuman": 1047,
      "Ġcar": 1048,
      "Ġsuff": 1049,
      "ĠGod": 1050,
      "ren": 1051,
      "Ġcol": 1052,
      "Ġperf": 1053,
      "Ġsun": 1054,
      "Ġdescrib": 1055,
      "ention": 1056,
      "Ġte": 1057,
      "Ġexam": 1058,
      "Ġothers": 1059,
      "Ġthus": 1060,
      "ION": 1061,
      "ines": 1062,
      "ven": 1063,
      "ording": 1064,
      "Ġeffect": 1065,
      "Ġlast": 1066,
      "ND": 1067,
      "Ġcharact": 1068,
      "Ġuni": 1069,
      "Ġremain": 1070,
      "Ġthing": 1071,
      "Ġes": 1072,
      "Ġphilosop": 1073,
      "sy": 1074,
      "Ġimm": 1075,
      "itions": 1076,
      "Ġparts": 1077,
      "Ġkind": 1078,
      "Ġins": 1079,
      "Ġonce": 1080,
      "Ġrest": 1081,
      "den": 1082,
      "Ġwhether": 1083,
      "Ġbecome": 1084,
      "Ġmove": 1085,
      "ĠAs": 1086,
      "ubl": 1087,
      "Ġmet": 1088,
      "ared": 1089,
      "iew": 1090,
      "Ġcontin": 1091,
      "Ġexperi": 1092,
      "gg": 1093,
      "ually": 1094,
      "Ġnumber": 1095,
      "ĠSo": 1096,
      "Ġcommon": 1097,
      "Ġke": 1098,
      "ern": 1099,
      "Ġpar": 1100,
      "Ġold": 1101,
      "uc": 1102,
      "Ġdem": 1103,
      "OR": 1104,
      "itut": 1105,
      "inct": 1106,
      "Ġfri": 1107,
      "up": 1108,
      "Ġdown": 1109,
      "ĠThus": 1110,
      "Ġbatt": 1111,
      "ledge": 1112,
      "verse": 1113,
      "Ġinde": 1114,
      "Ġcourse": 1115,
      "Ġchild": 1116,
      "cend": 1117,
      "ivity": 1118,
      "Ġadv": 1119,
      "ail": 1120,
      "Ġback": 1121,
      "Ġask": 1122,
      "ph": 1123,
      "Ġshow": 1124,
      "oy": 1125,
      "?âĢĿ": 1126,
      "ĠThey": 1127,
      "Ġequal": 1128,
      "to": 1129,
      "Ġest": 1130,
      "Ġsomething": 1131,
      "haps": 1132,
      "Ġ-": 1133,
      "Ġnatural": 1134,
      "Ġsou": 1135,
      "Ġfin": 1136,
      "ec": 1137,
      "Ġel": 1138,
      "Ġdeterm": 1139,
      "ately": 1140,
      "Ġrelation": 1141,
      "Ġpur": 1142,
      "Ġparticular": 1143,
      "Ġdi": 1144,
      "Ġclass": 1145,
      "Ġrad": 1146,
      "Ġdra": 1147,
      "ĠThat": 1148,
      "Ġturn": 1149,
      "icult": 1150,
      "Ġpol": 1151,
      "Ġmom": 1152,
      "ĠYou": 1153,
      "Ġplac": 1154,
      "Ġenem": 1155,
      "Ġamong": 1156,
      "ium": 1157,
      "Ġtruth": 1158,
      "Ġorgan": 1159,
      "Ġsecond": 1160,
      "that": 1161,
      "unt": 1162,
      "sib": 1163,
      "of": 1164,
      "Ġaway": 1165,
      "Ġwant": 1166,
      "AR": 1167,
      "ĠU": 1168,
      "Ġhowever": 1169,
      "arch": 1170,
      "uring": 1171,
      "ĠGerm": 1172,
      "Ġtheory": 1173,
      "Ġknowledge": 1174,
      "ING": 1175,
      "tern": 1176,
      "Ġadm": 1177,
      "most": 1178,
      "Ġline": 1179,
      "ĠWhat": 1180,
      "II": 1181,
      "que": 1182,
      "ists": 1183,
      "Ġview": 1184,
      "Ġtimes": 1185,
      "Ġlar": 1186,
      "over": 1187,
      "Ġdou": 1188,
      "Ġresult": 1189,
      "lection": 1190,
      "Ġcr": 1191,
      "Ġnational": 1192,
      "iment": 1193,
      "Ġsmall": 1194,
      "lf": 1195,
      "sych": 1196,
      "Ġset": 1197,
      "Ġdifficult": 1198,
      "ceed": 1199,
      "Ġdistance": 1200,
      "par": 1201,
      "arly": 1202,
      "Ġread": 1203,
      "bt": 1204,
      "Ġneed": 1205,
      "olution": 1206,
      "ĠTo": 1207,
      "aint": 1208,
      "ready": 1209,
      "Ġyears": 1210,
      "ident": 1211,
      "IS": 1212,
      "Ġrev": 1213,
      "Ġ:": 1214,
      "Ġcharacter": 1215,
      "Ġspir": 1216,
      "ne": 1217,
      "Ġsense": 1218,
      "ases": 1219,
      "Ġget": 1220,
      "ird": 1221,
      "Ġalready": 1222,
      "Ġgu": 1223,
      "Ġcap": 1224,
      "ides": 1225,
      "Ġpsych": 1226,
      "ĠQ": 1227,
      "ĠWhen": 1228,
      "Ġtem": 1229,
      "Ġterm": 1230,
      "Ġunt": 1231,
      "itude": 1232,
      "Ġmon": 1233,
      "iness": 1234,
      "ised": 1235,
      "Ġadd": 1236,
      "Ġtaken": 1237,
      "Ġmoment": 1238,
      "âĢĲ": 1239,
      "quire": 1240,
      "Ġfeel": 1241,
      "Ġple": 1242,
      "stem": 1243,
      "ĠAND": 1244,
      "Ġwhom": 1245,
      "Ġdirect": 1246,
      "Ġself": 1247,
      "Ġimport": 1248,
      "ier": 1249,
      "Ġfall": 1250,
      "ortion": 1251,
      "Ġcount": 1252,
      "Ġrather": 1253,
      "Ġlove": 1254,
      "rop": 1255,
      "Ġspace": 1256,
      "Ġwhile": 1257,
      "Ġplan": 1258,
      "Ġperhaps": 1259,
      "oman": 1260,
      "itch": 1261,
      "ives": 1262,
      "Ġbegin": 1263,
      "Ġrece": 1264,
      "Ġcaus": 1265,
      "Ġfriend": 1266,
      "Ġexpress": 1267,
      "Ġ7": 1268,
      "ull": 1269,
      "Ġey": 1270,
      "ient": 1271,
      "igh": 1272,
      "err": 1273,
      ").": 1274,
      "Ġsever": 1275,
      "Ġdep": 1276,
      "ior": 1277,
      "Ġgreater": 1278,
      "itu": 1279,
      "ety": 1280,
      "Ġeas": 1281,
      "Ġexistence": 1282,
      "Ġval": 1283,
      "Ġknown": 1284,
      "Ġperson": 1285,
      "Ġproper": 1286,
      "ivid": 1287,
      "ination": 1288,
      "ros": 1289,
      "asure": 1290,
      "Ġtoget": 1291,
      "osha": 1292,
      "Ġseen": 1293,
      "ize": 1294,
      "Ġsoul": 1295,
      "Ġtogether": 1296,
      "lyosha": 1297,
      "Ġenemy": 1298,
      "Ġfew": 1299,
      "ized": 1300,
      "Ġmor": 1301,
      "rist": 1302,
      "Ġever": 1303,
      "Ġang": 1304,
      "Ġoften": 1305,
      "sequ": 1306,
      "Ġsystem": 1307,
      "Ġcalled": 1308,
      "Ġlead": 1309,
      "ened": 1310,
      "Ġfour": 1311,
      "Ġregard": 1312,
      "Ġfr": 1313,
      "EN": 1314,
      "ably": 1315,
      "Ġsent": 1316,
      "ĠAlyosha": 1317,
      "ible": 1318,
      "Ġleast": 1319,
      "inite": 1320,
      "Ġfather": 1321,
      "Ġwords": 1322,
      "Ġut": 1323,
      "Ġ8": 1324,
      "Ġstand": 1325,
      "resent": 1326,
      "cial": 1327,
      "ĠAt": 1328,
      "me": 1329,
      "rat": 1330,
      "Ġbelieve": 1331,
      "Ġdeg": 1332,
      "Ġperi": 1333,
      "ĠState": 1334,
      "Ġseveral": 1335,
      "Ġsing": 1336,
      "000": 1337,
      "Ġfore": 1338,
      "Ġfree": 1339,
      "Ġbetter": 1340,
      "Ġname": 1341,
      "Ġlat": 1342,
      "urd": 1343,
      "Ġneg": 1344,
      "Ġmeaning": 1345,
      "Ġexperience": 1346,
      "ks": 1347,
      "ef": 1348,
      "by": 1349,
      "omen": 1350,
      "Ġphys": 1351,
      "akes": 1352,
      "AP": 1353,
      "ided": 1354,
      "ĠGerman": 1355,
      "xt": 1356,
      "Ġvel": 1357,
      "ery": 1358,
      "Ġwithin": 1359,
      "Ġmem": 1360,
      "Ġwhy": 1361,
      "Ġalmost": 1362,
      "Ġsign": 1363,
      "cul": 1364,
      "Ġaccording": 1365,
      "Ġwater": 1366,
      "Ġquant": 1367,
      "arent": 1368,
      "Ġleft": 1369,
      "Ġcur": 1370,
      "LE": 1371,
      "ets": 1372,
      "Ġcontr": 1373,
      "air": 1374,
      ".,": 1375,
      "Ġindivid": 1376,
      "Ġill": 1377,
      "Ġsci": 1378,
      "reedom": 1379,
      "Ġmin": 1380,
      "Ġquite": 1381,
      "Ġmanner": 1382,
      "Ġcause": 1383,
      "Ġsud": 1384,
      "Ġtowards": 1385,
      "iter": 1386,
      "ussi": 1387,
      "Ġsens": 1388,
      "Ġdesire": 1389,
      "ĠPR": 1390,
      "Ġindividual": 1391,
      "mer": 1392,
      "ged": 1393,
      "sw": 1394,
      "Ġhead": 1395,
      "Ġtell": 1396,
      "Ġoriginal": 1397,
      "Ġsudden": 1398,
      "Ġheart": 1399,
      "Ġanything": 1400,
      "velop": 1401,
      "ius": 1402,
      "eng": 1403,
      "ute": 1404,
      "bit": 1405,
      "ters": 1406,
      "Ġprov": 1407,
      "Ġanim": 1408,
      "Ġ9": 1409,
      "Ġaff": 1410,
      "Ġele": 1411,
      "!âĢĿ": 1412,
      "Ġrespect": 1413,
      "Ġbattal": 1414,
      "Ġ10": 1415,
      "plic": 1416,
      "Ġfreedom": 1417,
      "Ġdoubt": 1418,
      "ences": 1419,
      "alk": 1420,
      "Ġstrong": 1421,
      "Ġ19": 1422,
      "row": 1423,
      "Ġnon": 1424,
      "Ġansw": 1425,
      "ting": 1426,
      "atis": 1427,
      "Ġdest": 1428,
      "Ġveloc": 1429,
      "Ġcame": 1430,
      "ased": 1431,
      "Ġjud": 1432,
      "abl": 1433,
      "Ġposs": 1434,
      "Ġcomplete": 1435,
      "Ġpast": 1436,
      "nect": 1437,
      "Ġdu": 1438,
      "Ġsoon": 1439,
      "Ġaction": 1440,
      "Ġpossib": 1441,
      "Ġsimple": 1442,
      "men": 1443,
      "ibus": 1444,
      "Ġfam": 1445,
      "Ġabove": 1446,
      "ples": 1447,
      "ae": 1448,
      "Ġforces": 1449,
      "erest": 1450,
      "Ġperiod": 1451,
      "Ġlear": 1452,
      "Ġspirit": 1453,
      "Ġprob": 1454,
      "Ġseems": 1455,
      "erence": 1456,
      "irt": 1457,
      "ĠCa": 1458,
      "Ġperfect": 1459,
      "Ġimag": 1460,
      "Ġserv": 1461,
      "ii": 1462,
      "Ġlim": 1463,
      "Ġdevelop": 1464,
      "Ġauth": 1465,
      "Ġleg": 1466,
      "Ġsitu": 1467,
      "Ġside": 1468,
      "Ġhist": 1469,
      "Ġess": 1470,
      "uture": 1471,
      "de": 1472,
      "Ġsol": 1473,
      "Ġincre": 1474,
      "ublic": 1475,
      "Ġdays": 1476,
      "Ġ12": 1477,
      "land": 1478,
      "Ġdone": 1479,
      "Ġopin": 1480,
      "Ġpure": 1481,
      "Ġspeak": 1482,
      "Ġfur": 1483,
      "Ġaccount": 1484,
      "ument": 1485,
      "Ġreturn": 1486,
      "Ġhard": 1487,
      "for": 1488,
      "Ġallow": 1489,
      "Ġdeath": 1490,
      "ĠCom": 1491,
      "amp": 1492,
      "Ġcare": 1493,
      "ousand": 1494,
      "Ġed": 1495,
      "uss": 1496,
      "Ġprinciple": 1497,
      "arm": 1498,
      "Ġconnect": 1499,
      "ĠThese": 1500,
      "ains": 1501,
      "Ġdivision": 1502,
      "Ġwhose": 1503,
      "ross": 1504,
      "Ġhy": 1505,
      "Ġque": 1506,
      "ax": 1507,
      "Ġrat": 1508,
      "Ġforms": 1509,
      "Ġarmy": 1510,
      "van": 1511,
      "Ġir": 1512,
      "irm": 1513,
      "Ġthousand": 1514,
      "ified": 1515,
      "Ġstruct": 1516,
      "Ġreally": 1517,
      "ĠLet": 1518,
      "Ġcommand": 1519,
      "ically": 1520,
      "Ġlarge": 1521,
      "ering": 1522,
      "Ġmar": 1523,
      "Ġbest": 1524,
      "Ġposition": 1525,
      "ogn": 1526,
      "Ġproportion": 1527,
      "man": 1528,
      "Ġappre": 1529,
      "Ġrepresent": 1530,
      "usion": 1531,
      "Ġprof": 1532,
      "ĠFrom": 1533,
      "olute": 1534,
      "Ġwish": 1535,
      "Ġinterest": 1536,
      "Ġuniverse": 1537,
      "Ġ.": 1538,
      "empt": 1539,
      "Ġsuper": 1540,
      "oun": 1541,
      "Ġsimil": 1542,
      "ĠIN": 1543,
      "Ġsubst": 1544,
      "Ġ181": 1545,
      "Ġduring": 1546,
      "Ġeverything": 1547,
      "Ġtot": 1548,
      "Ġconcl": 1549,
      "Ġmakes": 1550,
      "str": 1551,
      "itted": 1552,
      "Ġconstitut": 1553,
      "Ġconce": 1554,
      "Ġpossess": 1555,
      "âĶ": 1556,
      "Ġenough": 1557,
      "rely": 1558,
      "Ġdel": 1559,
      "blem": 1560,
      "Ġdistinct": 1561,
      "Ġsucc": 1562,
      "iments": 1563,
      "Ġhel": 1564,
      "aris": 1565,
      "Ġmag": 1566,
      "ĠPr": 1567,
      "Ġcho": 1568,
      "Ġmil": 1569,
      "orn": 1570,
      "Ġstud": 1571,
      "osition": 1572,
      "Ġdisp": 1573,
      "Ġresist": 1574,
      "ament": 1575,
      "...": 1576,
      "Ġprev": 1577,
      "Ġbelong": 1578,
      "ĠIvan": 1579,
      "Ġhold": 1580,
      "Ġfuture": 1581,
      "Ġyoung": 1582,
      "ught": 1583,
      "Ġgrav": 1584,
      "Ġthou": 1585,
      "itya": 1586,
      "Ġneither": 1587,
      "inary": 1588,
      "Ġcircum": 1589,
      "idence": 1590,
      "Ġcontrary": 1591,
      "ĠPl": 1592,
      "con": 1593,
      "ime": 1594,
      "Ġsum": 1595,
      "ĠHow": 1596,
      ".\"": 1597,
      "Ġtion": 1598,
      "Ġincl": 1599,
      "Ġarg": 1600,
      "Ġhig": 1601,
      "Ġbook": 1602,
      "ug": 1603,
      "wise": 1604,
      "Ġpri": 1605,
      "Ġarri": 1606,
      "Ġchang": 1607,
      "let": 1608,
      "Ġbecom": 1609,
      "Ġchange": 1610,
      "Ġmeet": 1611,
      "ĠMitya": 1612,
      "IT": 1613,
      "pr": 1614,
      "ressed": 1615,
      "ield": 1616,
      "ank": 1617,
      "Ġproblem": 1618,
      "ĠNow": 1619,
      "Ġtend": 1620,
      "na": 1621,
      "Ġmass": 1622,
      "Ġlonger": 1623,
      "âĶĢ": 1624,
      "Ġru": 1625,
      "OO": 1626,
      "Ġthoughts": 1627,
      "ĠAr": 1628,
      "Ġkeep": 1629,
      "Ġelse": 1630,
      "ock": 1631,
      "ception": 1632,
      "ovitch": 1633,
      "vern": 1634,
      "ĠAll": 1635,
      "rig": 1636,
      "Ġabsolute": 1637,
      "Ġeyes": 1638,
      "TER": 1639,
      "Ġbre": 1640,
      "ĠInd": 1641,
      "ency": 1642,
      "Ġvirt": 1643,
      "Ġsepar": 1644,
      "Ġappears": 1645,
      "ĠAn": 1646,
      "Ġformer": 1647,
      "Ġconsequ": 1648,
      "Ġdev": 1649,
      "Ġproject": 1650,
      "Ġratio": 1651,
      "gy": 1652,
      "Ġestabl": 1653,
      "iving": 1654,
      "Ġbeh": 1655,
      "Ġsuddenly": 1656,
      "Ġcre": 1657,
      "day": 1658,
      "ale": 1659,
      "Ġobserv": 1660,
      "ob": 1661,
      "Ġav": 1662,
      "Ġassum": 1663,
      "Ġwent": 1664,
      "Ġpract": 1665,
      "Ġinterp": 1666,
      "ĠCaes": 1667,
      "Ġsuccess": 1668,
      "Ġsimilar": 1669,
      "âĶĢâĶĢ": 1670,
      "The": 1671,
      "ĠPage": 1672,
      "aw": 1673,
      "Ġsw": 1674,
      "Ġused": 1675,
      "ĠOr": 1676,
      "ption": 1677,
      "ouse": 1678,
      "IC": 1679,
      "Ġentire": 1680,
      "ured": 1681,
      "Ġgreatest": 1682,
      "Ġfurther": 1683,
      "ope": 1684,
      "ying": 1685,
      "Ġauthor": 1686,
      "su": 1687,
      "Ġindeed": 1688,
      "Ġvelocity": 1689,
      "RE": 1690,
      "ĠHis": 1691,
      "Ġcompan": 1692,
      "cise": 1693,
      "Ġshort": 1694,
      "ises": 1695,
      "Ġbrought": 1696,
      "Ġoffic": 1697,
      "ĠThen": 1698,
      "Ġclear": 1699,
      "though": 1700,
      "Ġought": 1701,
      "Ġsort": 1702,
      "Ġheav": 1703,
      "lu": 1704,
      "yond": 1705,
      "Ġalone": 1706,
      "Ġsingle": 1707,
      "Ġreve": 1708,
      "hod": 1709,
      "iting": 1710,
      "imes": 1711,
      "Ġleave": 1712,
      "ev": 1713,
      "ians": 1714,
      "Ġprocess": 1715,
      "Ġcentre": 1716,
      "Ġ|": 1717,
      "apter": 1718,
      "por": 1719,
      "Ġdim": 1720,
      "ief": 1721,
      "Ġimmedi": 1722,
      "ression": 1723,
      "Ġappro": 1724,
      ".âĢĻ": 1725,
      "aut": 1726,
      "rad": 1727,
      "Ġ11": 1728,
      "ric": 1729,
      "Ġmoon": 1730,
      "ages": 1731,
      "aj": 1732,
      "hem": 1733,
      "ane": 1734,
      "Ġexample": 1735,
      "urg": 1736,
      "Ġobjects": 1737,
      "mn": 1738,
      "Ġdon": 1739,
      "atisf": 1740,
      "Ġexpect": 1741,
      "Ġcorps": 1742,
      "AN": 1743,
      "Ġcreat": 1744,
      "wards": 1745,
      "Ġdescribed": 1746,
      "Ġface": 1747,
      "Ġimpos": 1748,
      "Ġground": 1749,
      "Ġreality": 1750,
      "Ġunc": 1751,
      "ĠShe": 1752,
      "OOK": 1753,
      "Ġcondition": 1754,
      "une": 1755,
      "Ġpoints": 1756,
      "Ġpurp": 1757,
      "ength": 1758,
      "Ġdifference": 1759,
      "Ġhelp": 1760,
      "Ġhon": 1761,
      "Ġlater": 1762,
      "Ġsituation": 1763,
      "angu": 1764,
      "Ġbegan": 1765,
      "Ġfaith": 1766,
      "Ġcontinu": 1767,
      "Ġimportant": 1768,
      "Ġanal": 1769,
      "Ġstre": 1770,
      "Ġtri": 1771,
      "hip": 1772,
      "Ġcases": 1773,
      "bers": 1774,
      "ĠMy": 1775,
      "oney": 1776,
      "Ġfig": 1777,
      "Ġvis": 1778,
      "Ġair": 1779,
      "ĠMr": 1780,
      "Ġoper": 1781,
      "Ġreflect": 1782,
      "Ġmethod": 1783,
      "Ġopinion": 1784,
      "ological": 1785,
      "Ġbeyond": 1786,
      "Ġmis": 1787,
      "Ġhor": 1788,
      "Ġoccas": 1789,
      "ĠChrist": 1790,
      "hend": 1791,
      "Ġden": 1792,
      "ours": 1793,
      "Ġty": 1794,
      "aval": 1795,
      "Ġpolit": 1796,
      "Ġsend": 1797,
      "ĠEng": 1798,
      "alf": 1799,
      "Ġnight": 1800,
      "ĠTO": 1801,
      "ively": 1802,
      "Ġremem": 1803,
      "....": 1804,
      "Ġrecogn": 1805,
      "ply": 1806,
      "Ġinstance": 1807,
      "ification": 1808,
      "iar": 1809,
      "pet": 1810,
      "Ġce": 1811,
      "Ġmaking": 1812,
      "Ġphilosophy": 1813,
      "Ġthird": 1814,
      "Ġopen": 1815,
      "ature": 1816,
      "Ġconv": 1817,
      "Ġmovement": 1818,
      "Ġ16": 1819,
      "gr": 1820,
      "wh": 1821,
      "Ġconditions": 1822,
      "ih": 1823,
      "Ġgoing": 1824,
      "Ġfollowing": 1825,
      "ins": 1826,
      "Ġpat": 1827,
      "ĠOne": 1828,
      "ĠBe": 1829,
      "cip": 1830,
      "Ġfear": 1831,
      "Ġbring": 1832,
      "Ġcountry": 1833,
      "Ġfull": 1834,
      "Ġing": 1835,
      "Ġcomes": 1836,
      "ĠRussi": 1837,
      "Ġsuppose": 1838,
      "Ġoccur": 1839,
      "ook": 1840,
      "Ġlength": 1841,
      "Ġ15": 1842,
      "Ġdreams": 1843,
      "Ġchildren": 1844,
      "ex": 1845,
      "Ġhigh": 1846,
      "Ġlearn": 1847,
      "Ġstructure": 1848,
      "Ġaffect": 1849,
      "Ġwoman": 1850,
      "Ġsuffic": 1851,
      "ted": 1852,
      "Ġclose": 1853,
      "ixed": 1854,
      "Ġbu": 1855,
      "Ġremark": 1856,
      "Ġattempt": 1857,
      "Ġmater": 1858,
      "burg": 1859,
      "peci": 1860,
      "ternal": 1861,
      "ĠTherefore": 1862,
      "Ġlatter": 1863,
      "sem": 1864,
      "Ġtreat": 1865,
      "Ġsatisf": 1866,
      "ĠGener": 1867,
      "Ġpublic": 1868,
      "aster": 1869,
      "Ġlaws": 1870,
      "mit": 1871,
      "Ġconsidered": 1872,
      "EC": 1873,
      "Ġmoney": 1874,
      "Ġgovern": 1875,
      "ential": 1876,
      "Ġinfinite": 1877,
      "ĠNo": 1878,
      "quired": 1879,
      "ising": 1880,
      "Ġexc": 1881,
      "Ġtold": 1882,
      "Ġhands": 1883,
      "Ġplaces": 1884,
      "Ġcommun": 1885,
      "Ġinn": 1886,
      "Ġdr": 1887,
      "ĠCH": 1888,
      "Ġfort": 1889,
      "Ġpsychic": 1890,
      "oid": 1891,
      "Ġlangu": 1892,
      "pond": 1893,
      "Ġfac": 1894,
      "Ġgen": 1895,
      "elt": 1896,
      "anc": 1897,
      "Ġinterpret": 1898,
      "ining": 1899,
      "Ġhistory": 1900,
      "Ġbad": 1901,
      "Ġmaterial": 1902,
      "Ġtook": 1903,
      "Ġrepl": 1904,
      "Ġsure": 1905,
      "Ġsays": 1906,
      "Ġmill": 1907,
      "Ġdepend": 1908,
      "ruct": 1909,
      "ĠĠĠĠĠĠĠĠĠĠĠĠĠĠĠĠ": 1910,
      "ital": 1911,
      "Ġjo": 1912,
      "Ġobserved": 1913,
      "Ġ,": 1914,
      "ote": 1915,
      "Ġsym": 1916,
      "ral": 1917,
      "henomen": 1918,
      "Ġcorre": 1919,
      "ribut": 1920,
      "Ġdom": 1921,
      "ĠMar": 1922,
      "Ġcult": 1923,
      "ĠCaesar": 1924,
      "ached": 1925,
      "Ġsimply": 1926,
      "aring": 1927,
      "Ġdraw": 1928,
      "old": 1929,
      "Ġproceed": 1930,
      "iers": 1931,
      "Ġsil": 1932,
      "Ġexact": 1933,
      "Ġattack": 1934,
      "Ġimpossible": 1935,
      "Ġant": 1936,
      "ĠWh": 1937,
      ",âĢĻ": 1938,
      "aves": 1939,
      "ung": 1940,
      "duct": 1941,
      "Ġgrou": 1942,
      "Ġweak": 1943,
      "Ġdegree": 1944,
      "ls": 1945,
      "Ġcontent": 1946,
      "ĠJew": 1947,
      "Ġsix": 1948,
      "Ġasked": 1949,
      "ĠGeneral": 1950,
      "aled": 1951,
      "ingu": 1952,
      "Ġabsurd": 1953,
      "Ġeasily": 1954,
      "ATION": 1955,
      "EL": 1956,
      "Ġmid": 1957,
      "Ġroom": 1958,
      "rit": 1959,
      "pecially": 1960,
      "ead": 1961,
      "Ġcut": 1962,
      "Ġbattalions": 1963,
      "Ġpain": 1964,
      "ended": 1965,
      "arily": 1966,
      "Ġterms": 1967,
      "ires": 1968,
      "Ġeff": 1969,
      "Ġrelig": 1970,
      "Ġmagn": 1971,
      "fully": 1972,
      "CE": 1973,
      "Ġdiscuss": 1974,
      "Ġuntil": 1975,
      "OS": 1976,
      "Ġphenomen": 1977,
      "Ġhalf": 1978,
      "Ġevil": 1979,
      "ization": 1980,
      "Ġesc": 1981,
      "Ġcauses": 1982,
      "anger": 1983,
      "Ġpurpose": 1984,
      "avalry": 1985,
      "Ġmult": 1986,
      "Ġqui": 1987,
      "odor": 1988,
      "Ġanswer": 1989,
      "ĠOf": 1990,
      "kn": 1991,
      "ison": 1992,
      "ĠIs": 1993,
      "where": 1994,
      "cho": 1995,
      "Ġlau": 1996,
      "yodor": 1997,
      "Ġlive": 1998,
      "Ġi": 1999,
      "Ġstri": 2000,
      "Ġrelations": 2001,
      "Ġappl": 2002,
      "Ġunderstanding": 2003,
      "Ġwis": 2004,
      "Ġful": 2005,
      "Ġlack": 2006,
      "Ġanimals": 2007,
      "Ġphilosopher": 2008,
      "_,": 2009,
      "Ġmeasure": 2010,
      "Ġbeginning": 2011,
      "Ġbecomes": 2012,
      "leep": 2013,
      "Ġfav": 2014,
      "ster": 2015,
      "Ġrun": 2016,
      "ĠFyodor": 2017,
      "Ġsubj": 2018,
      "Ġcal": 2019,
      "Ġbrother": 2020,
      "Ġcertainly": 2021,
      "Ġsometimes": 2022,
      "Ġplaced": 2023,
      "Ġnation": 2024,
      "Ġoccasion": 2025,
      "oses": 2026,
      "Ġrul": 2027,
      "Ġfriends": 2028,
      "Ġhouse": 2029,
      "ĠBOOK": 2030,
      "iously": 2031,
      "ortun": 2032,
      "Ġprecise": 2033,
      "ĠBy": 2034,
      "ously": 2035,
      "onscious": 2036,
      "Ġparticles": 2037,
      "Ġvol": 2038,
      "Ġtranscend": 2039,
      "ows": 2040,
      "Ġ0": 2041,
      "Ġalthough": 2042,
      "Ġwa": 2043,
      "Ġinflu": 2044,
      "Ġcross": 2045,
      "Ġ14": 2046,
      "Ġyear": 2047,
      "use": 2048,
      "Ġ...": 2049,
      "Ġmother": 2050,
      "Ġfund": 2051,
      "Ġproduced": 2052,
      "Ġsaw": 2053,
      "Ġsus": 2054,
      "TION": 2055,
      "Ġexcept": 2056,
      "Ġattract": 2057,
      "Ġ1812": 2058,
      "aries": 2059,
      "Ġsold": 2060,
      "OP": 2061,
      "reme": 2062,
      "Ġthy": 2063,
      "undred": 2064,
      "ee": 2065,
      "ler": 2066,
      "ato": 2067,
      "itive": 2068,
      "oss": 2069,
      "Ġespecially": 2070,
      "ien": 2071,
      "reg": 2072,
      "Ġfail": 2073,
      "erv": 2074,
      "Ġ13": 2075,
      "ĠRe": 2076,
      "Ġtalk": 2077,
      "Ġqual": 2078,
      "Ġhope": 2079,
      "Ġconstant": 2080,
      "Ġten": 2081,
      "ories": 2082,
      "Ġnearly": 2083,
      "Ġliving": 2084,
      "Ġloc": 2085,
      "Ġlines": 2086,
      "ury": 2087,
      "Â°": 2088,
      "Ġcavalry": 2089,
      "Ġhundred": 2090,
      "ability": 2091,
      "imate": 2092,
      "Ġheard": 2093,
      "illed": 2094,
      "Ġfight": 2095,
      "Ġetc": 2096,
      "Ġlooked": 2097,
      "ĠParis": 2098,
      "Ġeng": 2099,
      "Ġmilit": 2100,
      "Ġcircumst": 2101,
      "OLE": 2102,
      "Ġstart": 2103,
      "Ġener": 2104,
      "Ġ20": 2105,
      "Ġign": 2106,
      "respond": 2107,
      "Ġgenerally": 2108,
      "Ġtransf": 2109,
      "Ġconcern": 2110,
      "ape": 2111,
      "Ġprog": 2112,
      "ips": 2113,
      "Ġobt": 2114,
      "enty": 2115,
      "Ġslight": 2116,
      "Ġlanguage": 2117,
      "Ġgot": 2118,
      "Ġstates": 2119,
      "aim": 2120,
      "br": 2121,
      "rodu": 2122,
      "ĠWith": 2123,
      "Ġquick": 2124,
      "ĠNot": 2125,
      "TH": 2126,
      "Ġheat": 2127,
      "Ġnext": 2128,
      "AM": 2129,
      "Ġknew": 2130,
      "Ġfelt": 2131,
      "oura": 2132,
      "Ġplay": 2133,
      "Ġpresence": 2134,
      "Ġstreng": 2135,
      "Ġvalue": 2136,
      "Ġland": 2137,
      "ash": 2138,
      "ues": 2139,
      "Ġweight": 2140,
      "ĠAl": 2141,
      "UR": 2142,
      "Ġann": 2143,
      "Ġcorrespond": 2144,
      "Ġremains": 2145,
      "read": 2146,
      "erc": 2147,
      "ihil": 2148,
      "ub": 2149,
      "sc": 2150,
      "Ġbound": 2151,
      "Ġhost": 2152,
      "Ġresistance": 2153,
      "oud": 2154,
      "ĠNAP": 2155,
      "OLEON": 2156,
      "ĠNAPOLEON": 2157,
      "Ġimper": 2158,
      "Ġthinking": 2159,
      "Ġcarry": 2160,
      "az": 2161,
      "Ġemb": 2162,
      "Ġdemand": 2163,
      "Ġprom": 2164,
      "oms": 2165,
      "ration": 2166,
      "Ġsqu": 2167,
      "alt": 2168,
      "ĠSp": 2169,
      "Ġbecame": 2170,
      "Ġ^": 2171,
      "Ġbas": 2172,
      "Ġbro": 2173,
      "owers": 2174,
      "Ġcast": 2175,
      "Ġconcept": 2176,
      "ĠSP": 2177,
      "iction": 2178,
      "Ġvarious": 2179,
      "pon": 2180,
      "ries": 2181,
      "ĠPRIN": 2182,
      "Ġlost": 2183,
      "Ġage": 2184,
      "outh": 2185,
      "ĠYes": 2186,
      "Ġseemed": 2187,
      "Ġcircle": 2188,
      "Ġimmediately": 2189,
      "just": 2190,
      "Ġcamp": 2191,
      "Ġfixed": 2192,
      "orum": 2193,
      "Ġelect": 2194,
      "Ġsk": 2195,
      "Ġactivity": 2196,
      "Ġjustice": 2197,
      "Ġprinciples": 2198,
      "Ġpra": 2199,
      "Ġpie": 2200,
      "Ġinform": 2201,
      "Ġjudg": 2202,
      "ement": 2203,
      "Ġdoct": 2204,
      "Ġappearance": 2205,
      "side": 2206,
      "Ġrepe": 2207,
      "Ġones": 2208,
      "Ġgravity": 2209,
      "Ġdanger": 2210,
      "Ġconsist": 2211,
      "king": 2212,
      "Ġlab": 2213,
      "Ġstep": 2214,
      "atic": 2215,
      "erve": 2216,
      "ĠChapter": 2217,
      "Ġpossibility": 2218,
      "Ġeduc": 2219,
      "rees": 2220,
      "Ġprim": 2221,
      "Ġve": 2222,
      "amet": 2223,
      "Ġoppos": 2224,
      ".'": 2225,
      "Ġnear": 2226,
      "Ġ17": 2227,
      "Ġservice": 2228,
      "Ġsolid": 2229,
      "Ġdistingu": 2230,
      "Ġdescribe": 2231,
      "istic": 2232,
      "hest": 2233,
      "ĠCon": 2234,
      "Ġgave": 2235,
      "ciety": 2236,
      "Ġsupport": 2237,
      "Ġtaking": 2238,
      "Ġentirely": 2239,
      "go": 2240,
      "Ġfield": 2241,
      "Ġscience": 2242,
      "IL": 2243,
      "Ġalt": 2244,
      "Ġerr": 2245,
      "alle": 2246,
      "pted": 2247,
      "bles": 2248,
      "Ġevent": 2249,
      "Ġreceived": 2250,
      "Ġremember": 2251,
      "Ġomn": 2252,
      "Ġder": 2253,
      "Ġdecl": 2254,
      "Ġshown": 2255,
      "Ġhigher": 2256,
      "Ġfive": 2257,
      "Ġhome": 2258,
      "Ġourselves": 2259,
      "ĠXX": 2260,
      "ounded": 2261,
      "orrow": 2262,
      "Ġadvant": 2263,
      "iation": 2264,
      "eness": 2265,
      "Ġfal": 2266,
      "Ġarc": 2267,
      "ony": 2268,
      "ites": 2269,
      "inate": 2270,
      "Ġmut": 2271,
      ",\"": 2272,
      "requ": 2273,
      "Ġsen": 2274,
      "Ġlie": 2275,
      "uls": 2276,
      "Ġmerely": 2277,
      "Ġempl": 2278,
      "Ġdetermined": 2279,
      "Ġtown": 2280,
      "ĠGall": 2281,
      "ension": 2282,
      "atever": 2283,
      "Ġdirection": 2284,
      "Ġaut": 2285,
      "erning": 2286,
      "Ġbus": 2287,
      "Ġsaying": 2288,
      "ology": 2289,
      "val": 2290,
      "Ġson": 2291,
      "Ġsex": 2292,
      "itation": 2293,
      "Ġmention": 2294,
      "Ġbeaut": 2295,
      "ĠCor": 2296,
      "ĠNew": 2297,
      "Ġunivers": 2298,
      "Ġdifficulty": 2299,
      "Ġforg": 2300,
      "chan": 2301,
      "Ġstrugg": 2302,
      "Ġcarried": 2303,
      "Ġconnection": 2304,
      "Ġaccom": 2305,
      "Ġge": 2306,
      "Ġrevolution": 2307,
      "Ġmonth": 2308,
      "Ġpolitical": 2309,
      "dom": 2310,
      "ĠBE": 2311,
      "urb": 2312,
      "oint": 2313,
      "Ġver": 2314,
      "isions": 2315,
      "Ġment": 2316,
      "lying": 2317,
      "Ġmotions": 2318,
      "ling": 2319,
      "ĠTr": 2320,
      "rief": 2321,
      "ĠHere": 2322,
      "ensity": 2323,
      "Ġdevelopment": 2324,
      "ched": 2325,
      "Ġactions": 2326,
      "Ġrule": 2327,
      "chool": 2328,
      "ission": 2329,
      "Ġexplain": 2330,
      "der": 2331,
      "Ġpen": 2332,
      "alth": 2333,
      "Ġstars": 2334,
      "Ġdrawn": 2335,
      "Ġapprehend": 2336,
      "ka": 2337,
      "rent": 2338,
      "rand": 2339,
      "Ġfigure": 2340,
      "Ġmemory": 2341,
      "Ġmark": 2342,
      "Ġled": 2343,
      "Ġben": 2344,
      "rench": 2345,
      "Ġfalse": 2346,
      "Ġ&": 2347,
      "Ġsleep": 2348,
      "Ġorders": 2349,
      "inist": 2350,
      "aving": 2351,
      "Ġcried": 2352,
      "Ġperce": 2353,
      "Ġsuc": 2354,
      "ody": 2355,
      "Ġaccept": 2356,
      "lex": 2357,
      "Ġvict": 2358,
      "ĠFr": 2359,
      "Ġworth": 2360,
      "Ġselection": 2361,
      "Ġflu": 2362,
      "Ġpleasure": 2363,
      "Ġemploy": 2364,
      "Ġready": 2365,
      "illery": 2366,
      "Ġexperiment": 2367,
      "Ġter": 2368,
      "ĠPro": 2369,
      "Ġmanif": 2370,
      "Ġau": 2371,
      "Ġfeet": 2372,
      "Ġinstr": 2373,
      "lt": 2374,
      "rem": 2375,
      "ĠGr": 2376,
      "Ġmechan": 2377,
      "Ġcomb": 2378,
      "Ġexcl": 2379,
      "Ġstra": 2380,
      "Ġamount": 2381,
      "Ġprot": 2382,
      "ication": 2383,
      "Ġtakes": 2384,
      "Ġproduce": 2385,
      "Ġmedi": 2386,
      "Ġchief": 2387,
      "ruction": 2388,
      "Ġenergy": 2389,
      "Ġacqu": 2390,
      "lish": 2391,
      "Ġrid": 2392,
      "ĠRoman": 2393,
      "ESS": 2394,
      "Ġdestro": 2395,
      "Ġax": 2396,
      "Ġartillery": 2397,
      "Ġunto": 2398,
      "Ġvirtue": 2399,
      "used": 2400,
      "ĠPAR": 2401,
      "Ġ25": 2402,
      "Ġfacts": 2403,
      "Ġfollows": 2404,
      "._": 2405,
      "ĠItal": 2406,
      "Ġhardly": 2407,
      "Ġcorrect": 2408,
      "ann": 2409,
      "ĠPH": 2410,
      "ĠHence": 2411,
      "Ġspecial": 2412,
      "Ġturned": 2413,
      "Ġbar": 2414,
      "akov": 2415,
      "erent": 2416,
      "Ġplants": 2417,
      "overed": 2418,
      "Ġfinally": 2419,
      "Ġwond": 2420,
      "Ġdescend": 2421,
      "Ġreport": 2422,
      "You": 2423,
      "ger": 2424,
      "raction": 2425,
      "Ġvi": 2426,
      "ĠEur": 2427,
      "Ġ21": 2428,
      "Ġfundament": 2429,
      "Ġident": 2430,
      "Ġciv": 2431,
      "Ġcop": 2432,
      "Ġnations": 2433,
      "eties": 2434,
      "Ġdistances": 2435,
      "Ġapparent": 2436,
      "Ġcomplex": 2437,
      "Ġquantity": 2438,
      "Ġkept": 2439,
      "ĠPlato": 2440,
      "Ġtwenty": 2441,
      "Ġformed": 2442,
      "Ġminds": 2443,
      "orses": 2444,
      "Ġargument": 2445,
      "Ġfun": 2446,
      "ify": 2447,
      "Ġdemon": 2448,
      "Ġrevol": 2449,
      "rete": 2450,
      "Ġrend": 2451,
      "Ġgrow": 2452,
      "Ġfeeling": 2453,
      "pire": 2454,
      "ĠNO": 2455,
      "Ġextent": 2456,
      "Ġsecret": 2457,
      "Ġopposite": 2458,
      "Ġcity": 2459,
      "osing": 2460,
      "Ġslow": 2461,
      "Ġoccup": 2462,
      "Ġnegation": 2463,
      "IG": 2464,
      "Ġparent": 2465,
      "set": 2466,
      "Ġredu": 2467,
      "Ġsupposed": 2468,
      "itable": 2469,
      "Ġrays": 2470,
      "Ġhappen": 2471,
      "ton": 2472,
      "ator": 2473,
      "Ġpress": 2474,
      "entle": 2475,
      "ĠWhy": 2476,
      "Ġreflection": 2477,
      "Ġintern": 2478,
      "Ġinh": 2479,
      "Ġideal": 2480,
      "ma": 2481,
      "ĠAcc": 2482,
      "Ġattention": 2483,
      "Ġinstances": 2484,
      "Ġfire": 2485,
      "berg": 2486,
      "Ġnecessity": 2487,
      "uke": 2488,
      "Ġglo": 2489,
      "Ġprobably": 2490,
      "Ġchoice": 2491,
      "Ġstrength": 2492,
      "Ġanci": 2493,
      "ĠEnglish": 2494,
      "Ġconduct": 2495,
      "Ġexternal": 2496,
      "ĠZ": 2497,
      "Ġcoun": 2498,
      "Ġharm": 2499,
      "Ġhorses": 2500,
      "ĠCOR": 2501,
      "Ġenc": 2502,
      "Ġgives": 2503,
      "Ġreceive": 2504,
      "Ġprecisely": 2505,
      "Ġmist": 2506,
      "ames": 2507,
      "Ġcontem": 2508,
      "Ġdiscover": 2509,
      "Ġsac": 2510,
      "Ġschool": 2511,
      "Ġpa": 2512,
      "ĠCHAP": 2513,
      "ĠEurope": 2514,
      "Ġequally": 2515,
      "Ġunderstood": 2516,
      "Ġalong": 2517,
      "Ġpref": 2518,
      "Ġguard": 2519,
      "Ġlay": 2520,
      "Ġgod": 2521,
      "Ġsea": 2522,
      "pped": 2523,
      "Ġround": 2524,
      "ĠNor": 2525,
      "ĠCHAPTER": 2526,
      "lig": 2527,
      "Ġpecul": 2528,
      "Ġconcerning": 2529,
      "equ": 2530,
      "Ġarea": 2531,
      "Ġextreme": 2532,
      "airs": 2533,
      "Ġsucceed": 2534,
      "Ġche": 2535,
      "Ġparty": 2536,
      "ysis": 2537,
      "cing": 2538,
      "iform": 2539,
      "ĠAB": 2540,
      "Ġevidence": 2541,
      "Ġinterpretation": 2542,
      "ĠWar": 2543,
      "ĠYet": 2544,
      "ellig": 2545,
      "Ġinfluence": 2546,
      "dy": 2547,
      "Ġfrequ": 2548,
      "Ġur": 2549,
      "nces": 2550,
      "erred": 2551,
      "Ġfamily": 2552,
      "ĠComm": 2553,
      "Ġstudy": 2554,
      "bol": 2555,
      "Ġcontrad": 2556,
      "Ġknows": 2557,
      "Ġblack": 2558,
      "Ġcapable": 2559,
      "Ġqualities": 2560,
      "ges": 2561,
      "Ġsight": 2562,
      "imp": 2563,
      "tic": 2564,
      "Ġtable": 2565,
      "Ġinvest": 2566,
      "ĠProp": 2567,
      "ustom": 2568,
      "dle": 2569,
      "Ġmer": 2570,
      "lected": 2571,
      "Ġcompletely": 2572,
      "onom": 2573,
      "Ġdue": 2574,
      "Ġpassed": 2575,
      "Ġmanifest": 2576,
      ".]": 2577,
      "wor": 2578,
      "ustri": 2579,
      "ĠEm": 2580,
      "Ġhappened": 2581,
      "Ġsenses": 2582,
      "Ġaf": 2583,
      "Ġabst": 2584,
      "Ġexperiments": 2585,
      "ĠQu": 2586,
      "Ġsubstance": 2587,
      "which": 2588,
      "ices": 2589,
      "Ġwrong": 2590,
      "eb": 2591,
      "Ġtouch": 2592,
      "Ġorbit": 2593,
      "Ġoutside": 2594,
      "Ġ30": 2595,
      "ĠChristian": 2596,
      "Ġsoldiers": 2597,
      "AS": 2598,
      "Ġpop": 2599,
      "omic": 2600,
      "Ġrelat": 2601,
      "Ġmodern": 2602,
      "ĠFrench": 2603,
      "Ġtrou": 2604,
      "itting": 2605,
      "Ġsurpr": 2606,
      "Ġadvantage": 2607,
      "pi": 2608,
      "ina": 2609,
      "Ġreach": 2610,
      "ĠAb": 2611,
      "udes": 2612,
      "hood": 2613,
      "oke": 2614,
      "Ġspeaking": 2615,
      "Ġmaint": 2616,
      "ĠDuke": 2617,
      "Ġblood": 2618,
      "Ġdoing": 2619,
      "ĠSocial": 2620,
      "Ġexpression": 2621,
      "Ġsufficient": 2622,
      "Ġcircumstances": 2623,
      "itate": 2624,
      "ĠSuch": 2625,
      "Ġvo": 2626,
      "Ġsocial": 2627,
      "ĠUn": 2628,
      "Ġresults": 2629,
      "Ġdepart": 2630,
      "sec": 2631,
      "Ġindic": 2632,
      "Ġeasy": 2633,
      "ĠAccording": 2634,
      "rew": 2635,
      "uration": 2636,
      "Ġspec": 2637,
      "Ġserve": 2638,
      "Ġfoundation": 2639,
      "Ġdimin": 2640,
      "cent": 2641,
      "pass": 2642,
      "Ġbes": 2643,
      "roc": 2644,
      "Ġaround": 2645,
      "Ġearly": 2646,
      "Ġindepend": 2647,
      "ĠBEING": 2648,
      "Ġwat": 2649,
      "Ġrequ": 2650,
      "Ġarr": 2651,
      "action": 2652,
      "Ġdiamet": 2653,
      "Ġmoral": 2654,
      "Ġstruggle": 2655,
      "Ġviol": 2656,
      "Ġpeculiar": 2657,
      "OM": 2658,
      "Ġmaj": 2659,
      "icul": 2660,
      "olly": 2661,
      "hens": 2662,
      "Ġextra": 2663,
      "Ġimportance": 2664,
      "pic": 2665,
      "Ġwon": 2666,
      "Ġdut": 2667,
      "asures": 2668,
      "Ġwhatever": 2669,
      "ilities": 2670,
      "ggest": 2671,
      "Ġeffort": 2672,
      "Ġcoll": 2673,
      "Ġcapital": 2674,
      "ots": 2675,
      "ription": 2676,
      "Ġsociety": 2677,
      "Ġperpet": 2678,
      "Ġafterwards": 2679,
      "Ġletter": 2680,
      "Ġproportional": 2681,
      "Ġsuggest": 2682,
      "Ġuniform": 2683,
      "Ġrelative": 2684,
      "Ġdirectly": 2685,
      "Ġignor": 2686,
      "ats": 2687,
      "Ġsphere": 2688,
      "Ġvarieties": 2689,
      "letari": 2690,
      "what": 2691,
      "lled": 2692,
      "Ġunity": 2693,
      "ops": 2694,
      "Ġagree": 2695,
      "Ġnihil": 2696,
      "Ġrespon": 2697,
      "Ġeffects": 2698,
      "Ġpriv": 2699,
      "Ġmasses": 2700,
      "CH": 2701,
      "Ġsour": 2702,
      "aces": 2703,
      "Ġangle": 2704,
      "Ġfundamental": 2705,
      "ech": 2706,
      "Ġreference": 2707,
      "Ġhear": 2708,
      "Ġintel": 2709,
      "ĠDe": 2710,
      "Ġ24": 2711,
      "ĠMarx": 2712,
      "Ġexactly": 2713,
      "Ġobv": 2714,
      "Ġ22": 2715,
      "Ġprep": 2716,
      "Ġquantum": 2717,
      "Ġrecip": 2718,
      "ocrat": 2719,
      "Ġordinary": 2720,
      "Ġclearly": 2721,
      "Ġgovernment": 2722,
      "eds": 2723,
      "Ġrect": 2724,
      "ĠPol": 2725,
      "Ġunless": 2726,
      "Ġcapt": 2727,
      "Ġtro": 2728,
      "Ġsound": 2729,
      "ĠGree": 2730,
      "Ġwit": 2731,
      "Ġpict": 2732,
      "Ġgentle": 2733,
      "Ġbattalion": 2734,
      "bits": 2735,
      "olved": 2736,
      "Ġinstead": 2737,
      "Ġbehind": 2738,
      "Ġmilitary": 2739,
      "ift": 2740,
      "Ġexists": 2741,
      "Ġphysical": 2742,
      "Ġelements": 2743,
      "plicate": 2744,
      "Ġessential": 2745,
      "AG": 2746,
      "Ġ+": 2747,
      "Ġmere": 2748,
      "ĠOR": 2749,
      "ĠDo": 2750,
      "Ġactually": 2751,
      "Ġdetail": 2752,
      "Ġtill": 2753,
      "Ġdri": 2754,
      "Ġlaugh": 2755,
      "iqu": 2756,
      "Ġwin": 2757,
      "Ġheld": 2758,
      "ĠNe": 2759,
      "Ġevents": 2760,
      "appe": 2761,
      "Ġtotal": 2762,
      "Ġ27": 2763,
      "Ġappeared": 2764,
      "Ġstrange": 2765,
      "âĶĢâĶĢâĶĢâĶĢ": 2766,
      "Ġecon": 2767,
      "ĠGEN": 2768,
      "Ġdesign": 2769,
      "Ġmode": 2770,
      "Ġparalle": 2771,
      "OL": 2772,
      "Ġaim": 2773,
      "Ġtemper": 2774,
      "Ġdemonstr": 2775,
      "Ġbrig": 2776,
      "Ġpun": 2777,
      "Ġlow": 2778,
      "Ġproletari": 2779,
      "Ġperform": 2780,
      "Ġinvestig": 2781,
      "aught": 2782,
      "Ġexplan": 2783,
      "Ġplane": 2784,
      "Ġimagine": 2785,
      "US": 2786,
      "Ġelement": 2787,
      "Ġreplied": 2788,
      "Ġmaster": 2789,
      "ulation": 2790,
      "Ġintellig": 2791,
      "Ġsurf": 2792,
      "Ġobserve": 2793,
      "Ġbattle": 2794,
      "Ġthee": 2795,
      "Ġbear": 2796,
      "Ġintrodu": 2797,
      "Ġinstant": 2798,
      "Ġwind": 2799,
      "Ġhour": 2800,
      "Ġopportun": 2801,
      "no": 2802,
      "Ġrequired": 2803,
      "Ġlist": 2804,
      "Ġatque": 2805,
      "aining": 2806,
      "ĠFather": 2807,
      "ishment": 2808,
      "ERAL": 2809,
      "Ġbusiness": 2810,
      "Ġintellect": 2811,
      "ĠMe": 2812,
      "ĠLe": 2813,
      "It": 2814,
      "Ġcit": 2815,
      "Ġcoming": 2816,
      "theless": 2817,
      "Ġobservation": 2818,
      "his": 2819,
      "pir": 2820,
      "rates": 2821,
      "Ġterr": 2822,
      "Ġdeep": 2823,
      "Ġotherwise": 2824,
      "aged": 2825,
      "Ġtransform": 2826,
      "acy": 2827,
      "Ġwife": 2828,
      "ĠII": 2829,
      "aken": 2830,
      "Ġquestions": 2831,
      "Ġinhab": 2832,
      "oh": 2833,
      "oved": 2834,
      "ron": 2835,
      "atus": 2836,
      "Ġpot": 2837,
      "Ġproof": 2838,
      "Ġyouth": 2839,
      "Ġpeace": 2840,
      "Ġmathem": 2841,
      "Ġtempor": 2842,
      "Ġestablished": 2843,
      "Ġrevealed": 2844,
      "Ġpath": 2845,
      "Ġisland": 2846,
      "Ġcomet": 2847,
      "Ġimpro": 2848,
      "Ġpersons": 2849,
      "Ġchanges": 2850,
      "amed": 2851,
      "ĠAg": 2852,
      "Ġdeal": 2853,
      "Ġfoot": 2854,
      "Ġnumbers": 2855,
      "ĠGENERAL": 2856,
      "Ġid": 2857,
      "ĠEven": 2858,
      "Ġinfer": 2859,
      "Ġquickly": 2860,
      "EM": 2861,
      "Ġwide": 2862,
      "Ġways": 2863,
      "racy": 2864,
      "Ġconcrete": 2865,
      "Ġpost": 2866,
      "Ġtest": 2867,
      "Ġdiscovered": 2868,
      "Ġglobe": 2869,
      "ati": 2870,
      "Ġda": 2871,
      "Ġforth": 2872,
      "Ġmeant": 2873,
      "Ġdesp": 2874,
      "Ġancient": 2875,
      "Ġswe": 2876,
      "Ġsolution": 2877,
      "Ġprincip": 2878,
      "merdy": 2879,
      "What": 2880,
      "Ġbra": 2881,
      "Ġfurn": 2882,
      "Ġnothingness": 2883,
      "Ġenter": 2884,
      "Ġlooking": 2885,
      "like": 2886,
      "ĠBeing": 2887,
      "Ġdestroy": 2888,
      "Ġdark": 2889,
      "ctions": 2890,
      "ĠAR": 2891,
      "Ġtry": 2892,
      "merdyakov": 2893,
      "CI": 2894,
      "Ġamb": 2895,
      "Ġtotality": 2896,
      "uments": 2897,
      "ards": 2898,
      "Ġtru": 2899,
      "Ġformation": 2900,
      "Ġallowed": 2901,
      "ene": 2902,
      "Ġmach": 2903,
      "quir": 2904,
      "osit": 2905,
      "Ġlog": 2906,
      "Ġinterm": 2907,
      "Ġchanged": 2908,
      "mitri": 2909,
      "Ġmurd": 2910,
      "iful": 2911,
      "osen": 2912,
      "Ġcompre": 2913,
      "Ġprogress": 2914,
      "rest": 2915,
      "Ġtor": 2916,
      "Ġeight": 2917,
      "ĠEvery": 2918,
      "izing": 2919,
      "arce": 2920,
      "Ġbeings": 2921,
      "Ġpassage": 2922,
      "Ġmorning": 2923,
      "ishing": 2924,
      "ĠSh": 2925,
      "ĠSmerdyakov": 2926,
      "ĠNE": 2927,
      "itten": 2928,
      "Ġadmit": 2929,
      "Ġpay": 2930,
      "Ġ28": 2931,
      "Ġindiff": 2932,
      "Ġperfectly": 2933,
      "Ġincrease": 2934,
      "Ġbuild": 2935,
      "bs": 2936,
      "ott": 2937,
      "Ġforward": 2938,
      "Ġdead": 2939,
      "Ã©n": 2940,
      "being": 2941,
      "Ġminute": 2942,
      "ĠPARIS": 2943,
      "IES": 2944,
      "ĠAfter": 2945,
      "Ġplain": 2946,
      "Ġarms": 2947,
      "Ġquar": 2948,
      "Ġintention": 2949,
      "Ġeducation": 2950,
      "kind": 2951,
      "asp": 2952,
      "Ġdie": 2953,
      "Ġdiss": 2954,
      "Ġ23": 2955,
      "urs": 2956,
      "ĠMan": 2957,
      "ĠDmitri": 2958,
      "Ġregiment": 2959,
      "ĠGrus": 2960,
      "urally": 2961,
      "Ġpoor": 2962,
      "Ġfood": 2963,
      "Ġbelief": 2964,
      "Ġgroup": 2965,
      "body": 2966,
      "Ġred": 2967,
      "ilt": 2968,
      "Ġneare": 2969,
      "ĠGu": 2970,
      "ĠDan": 2971,
      "Ġconting": 2972,
      "Ġapproach": 2973,
      "Ġmedium": 2974,
      "ED": 2975,
      "Ġwomen": 2976,
      "Ġborn": 2977,
      "Ġhappiness": 2978,
      "Ġnamely": 2979,
      "inc": 2980,
      "henka": 2981,
      "Ġinstinct": 2982,
      "Ġexisting": 2983,
      "Ġregular": 2984,
      "Ġgradu": 2985,
      "Ġdetermine": 2986,
      "Ġcompany": 2987,
      "ask": 2988,
      "ids": 2989,
      "ĠAp": 2990,
      "ĠSu": 2991,
      "Ġwanted": 2992,
      "Ġlower": 2993,
      "Ġgone": 2994,
      "Ġmoving": 2995,
      "Ġdidn": 2996,
      "Ġtrain": 2997,
      "Ġexplained": 2998,
      "Ġphysics": 2999,
      "Ġhighest": 3000,
      "NESS": 3001,
      "app": 3002,
      "eal": 3003,
      "Ġmount": 3004,
      "ĠIst": 3005,
      "Ġ26": 3006,
      "Ġlikewise": 3007,
      "Ġshows": 3008,
      "Ġlimit": 3009,
      "Ġauthority": 3010,
      "Ġboy": 3011,
      "Ġparallel": 3012,
      "Ġimpression": 3013,
      "hesis": 3014,
      "Ġtransl": 3015,
      "Ġsurpass": 3016,
      "bert": 3017,
      "with": 3018,
      "Ġforget": 3019,
      "ĠST": 3020,
      "Ġthereby": 3021,
      "Ġunf": 3022,
      "Ġyourself": 3023,
      "Ġconclusion": 3024,
      "Ġsake": 3025,
      "arr": 3026,
      "Ġ29": 3027,
      "Ġplanets": 3028,
      "Ġphysic": 3029,
      "Ġprevent": 3030,
      "Ġwalk": 3031,
      "ored": 3032,
      "Ġhorse": 3033,
      "Ġbasis": 3034,
      "ones": 3035,
      "Ġstar": 3036,
      "Ġmankind": 3037,
      "Ġobservations": 3038,
      "Ġescape": 3039,
      "Ġinstrument": 3040,
      "Ġwonder": 3041,
      "Ġvoice": 3042,
      "atter": 3043,
      "ĠAlex": 3044,
      "ĠGa": 3045,
      "Ġdoor": 3046,
      "Ã©e": 3047,
      "Ġeye": 3048,
      "Ġhyp": 3049,
      "known": 3050,
      "THING": 3051,
      "Ġmarch": 3052,
      "Ġult": 3053,
      "Ġmoved": 3054,
      "ĠGrushenka": 3055,
      "Ġmain": 3056,
      "ĠĠĠĠĠĠĠĠĠ": 3057,
      "Ġworks": 3058,
      "Ġfamil": 3059,
      "Ġrelativity": 3060,
      "Ġseries": 3061,
      "Ġassert": 3062,
      "Ġorgans": 3063,
      "Ġmiddle": 3064,
      "iet": 3065,
      "ishes": 3066,
      "Ġcomposed": 3067,
      "Ġuniversal": 3068,
      "ois": 3069,
      "Ġbird": 3070,
      "otion": 3071,
      "ils": 3072,
      "Ġcontro": 3073,
      "soever": 3074,
      "Ġlevel": 3075,
      "Ġmeeting": 3076,
      "Ġreciproc": 3077,
      "Ġpowers": 3078,
      "Ġresem": 3079,
      "Ġdefinite": 3080,
      "Ġscient": 3081,
      "ĠRussia": 3082,
      "Ġ=": 3083,
      "He": 3084,
      "rant": 3085,
      "Ġtried": 3086,
      "Ġmed": 3087,
      "Ġfif": 3088,
      "Ġstood": 3089,
      "Ġconsideration": 3090,
      "Ġcompanies": 3091,
      "Ġunconscious": 3092,
      "bus": 3093,
      "hib": 3094,
      "Ġz": 3095,
      "Ġded": 3096,
      "asing": 3097,
      "Ġeld": 3098,
      "Ġquality": 3099,
      "Ġimage": 3100,
      "uded": 3101,
      "Ġclaim": 3102,
      "Ġaccur": 3103,
      "Ġactual": 3104,
      "ĠFyodorovitch": 3105,
      "ĠNOTHING": 3106,
      "Ġsurface": 3107,
      "mber": 3108,
      "pid": 3109,
      "uous": 3110,
      "Â·": 3111,
      "Ġsides": 3112,
      "Ġmajor": 3113,
      "isc": 3114,
      "Ġreject": 3115,
      "ĠMore": 3116,
      "Ġrise": 3117,
      "ropri": 3118,
      "secut": 3119,
      "ey": 3120,
      "ially": 3121,
      "overy": 3122,
      "Ġtail": 3123,
      "Ġbed": 3124,
      "acity": 3125,
      "ĠNOTHINGNESS": 3126,
      "Ġhur": 3127,
      "Ġprince": 3128,
      "Ġregions": 3129,
      "Ġdecided": 3130,
      "Ġcrit": 3131,
      "Ġavoid": 3132,
      "Ġclosely": 3133,
      "Ġjudgment": 3134,
      "Ġnote": 3135,
      "Ġchance": 3136,
      "Ġcold": 3137,
      "Ġearli": 3138,
      "Ġsurr": 3139,
      "Ġtype": 3140,
      "Ġinnate": 3141,
      "ref": 3142,
      "Ġfirm": 3143,
      "Ġwholly": 3144,
      "ocracy": 3145,
      "rd": 3146,
      "zy": 3147,
      "inity": 3148,
      "Ġenj": 3149,
      "Ġactive": 3150,
      "Ġfully": 3151,
      "asm": 3152,
      "Ġheight": 3153,
      "ether": 3154,
      "ĠDr": 3155,
      "Ġobjective": 3156,
      "Ġdivisions": 3157,
      "Ġexplanation": 3158,
      "Ġport": 3159,
      "Ġwritten": 3160,
      "Ġfacult": 3161,
      "Ġmathemat": 3162,
      "Ġdisappe": 3163,
      "Ġadded": 3164,
      "Ġlearned": 3165,
      "Ġgods": 3166,
      "Ġtroops": 3167,
      "Ġhither": 3168,
      "ĠAm": 3169,
      "Ġattitude": 3170,
      "Ġnumer": 3171,
      "Ġwrite": 3172,
      "Ġwall": 3173,
      "Ġdensity": 3174,
      "Ġconvers": 3175,
      "Ġnotion": 3176,
      "ister": 3177,
      "ositions": 3178,
      "ĠWhere": 3179,
      "astic": 3180,
      "teen": 3181,
      "Ġanalysis": 3182,
      "Ġinternal": 3183,
      "20": 3184,
      "urch": 3185,
      "Ġstay": 3186,
      "Ġjudge": 3187,
      "Ġpractice": 3188,
      "Ġmillion": 3189,
      "ĠFrance": 3190,
      "ring": 3191,
      "Ġanx": 3192,
      "ĠAd": 3193,
      "order": 3194,
      "Ġgrant": 3195,
      "Ġfront": 3196,
      "Ġlived": 3197,
      "rog": 3198,
      "seless": 3199,
      "Ġordered": 3200,
      "Ġfollowed": 3201,
      "Ġbreak": 3202,
      "Ġheaven": 3203,
      "Ġpieces": 3204,
      "AC": 3205,
      "Ġfan": 3206,
      "Ġspeech": 3207,
      "Ġpreced": 3208,
      "fe": 3209,
      "Ġmus": 3210,
      "Ġdece": 3211,
      "ores": 3212,
      "Ġquod": 3213,
      "Ġuseful": 3214,
      "Ġindividuals": 3215,
      "ĠRussian": 3216,
      "IV": 3217,
      "iam": 3218,
      "Ġmir": 3219,
      "soci": 3220,
      "Ġherself": 3221,
      "Ġpassion": 3222,
      "Ġserious": 3223,
      "Ġexpressed": 3224,
      "Ġconceive": 3225,
      "ken": 3226,
      "ata": 3227,
      "Ġbig": 3228,
      "Ġnone": 3229,
      "Ġprison": 3230,
      "Ġstraight": 3231,
      "pan": 3232,
      "Ġhours": 3233,
      "Ġhabit": 3234,
      "Ġgoes": 3235,
      "Ġmatters": 3236,
      "Ġradium": 3237,
      "Ġsacr": 3238,
      "Ġtast": 3239,
      "Ġnames": 3240,
      "omm": 3241,
      "Ġperpend": 3242,
      "Ġreligion": 3243,
      "Ġhence": 3244,
      "Ġprove": 3245,
      "Ġquad": 3246,
      "ĠDep": 3247,
      "Ġdifferences": 3248,
      "Ġcontinue": 3249,
      "Ġduty": 3250,
      "Ġliter": 3251,
      "Ġgir": 3252,
      "ĠArist": 3253,
      "acher": 3254,
      "Ġdefin": 3255,
      "III": 3256,
      "Ġproperty": 3257,
      "asant": 3258,
      "Ġran": 3259,
      "Ġstrict": 3260,
      "Ġdescription": 3261,
      "Ġessence": 3262,
      "Ġphilosophers": 3263,
      "Ġsensible": 3264,
      "hel": 3265,
      "Ġduration": 3266,
      "Ġevening": 3267,
      "Ġphenomenon": 3268,
      "Ġcitiz": 3269,
      "Ġles": 3270,
      "ĠSat": 3271,
      "Ġking": 3272,
      "ĠPrince": 3273,
      "ĠNewton": 3274,
      "oly": 3275,
      "Ġbit": 3276,
      "Ġlives": 3277,
      "ĠAustri": 3278,
      "Ġproved": 3279,
      "alled": 3280,
      "Ġarise": 3281,
      "Ġpret": 3282,
      "Ġsubstances": 3283,
      "Ġbenef": 3284,
      "AGR": 3285,
      "ches": 3286,
      "ĠOnly": 3287,
      "ICAL": 3288,
      "ourage": 3289,
      "Ġnod": 3290,
      "riage": 3291,
      "Ġscarce": 3292,
      "HY": 3293,
      "enth": 3294,
      "ĠPer": 3295,
      "aches": 3296,
      "Ġtransp": 3297,
      "Ġreasons": 3298,
      "Ġbelieved": 3299,
      "Ġsuffer": 3300,
      "Ġprofound": 3301,
      "Ġsuperf": 3302,
      "Ġconcerned": 3303,
      "Ġabstract": 3304,
      "esc": 3305,
      "iding": 3306,
      "Ġshame": 3307,
      "Ġcourt": 3308,
      "Ġdoctr": 3309,
      "esh": 3310,
      "icity": 3311,
      "Ġrequire": 3312,
      "Ġlate": 3313,
      "Ġdisg": 3314,
      "Ġanalog": 3315,
      "Ġacquaint": 3316,
      "icular": 3317,
      "Ġrank": 3318,
      "Ġfair": 3319,
      "Ġassume": 3320,
      "Ġgroups": 3321,
      "ĠPHIL": 3322,
      "ole": 3323,
      "Ġwood": 3324,
      "erable": 3325,
      "Ġbur": 3326,
      "Ġhom": 3327,
      "Ġlose": 3328,
      "ĠAmer": 3329,
      "elve": 3330,
      "Ġnaturally": 3331,
      "Ġtruly": 3332,
      "ĠPHILOS": 3333,
      "lin": 3334,
      "ators": 3335,
      "Ġfle": 3336,
      "Ġinj": 3337,
      "ĠPav": 3338,
      "Ġknowing": 3339,
      "Ġspite": 3340,
      "ocrates": 3341,
      "Ġsignific": 3342,
      "Ġsymbol": 3343,
      "ĠPHILOSOP": 3344,
      "OU": 3345,
      "Ġunited": 3346,
      "ĠRE": 3347,
      "Ġacts": 3348,
      "Ġclasses": 3349,
      "Ġincreased": 3350,
      "But": 3351,
      "Ġlies": 3352,
      "cell": 3353,
      "raid": 3354,
      "ilst": 3355,
      "ĠSouth": 3356,
      "Ġdog": 3357,
      "Ġpassing": 3358,
      "Ġcalcul": 3359,
      "ya": 3360,
      "Ġevident": 3361,
      "Ġado": 3362,
      "ĠEx": 3363,
      "ogether": 3364,
      "Ġparticularly": 3365,
      "Ġsexual": 3366,
      "Ġ?": 3367,
      "inction": 3368,
      "Ġreached": 3369,
      "ula": 3370,
      "umin": 3371,
      "Ġsole": 3372,
      "upiter": 3373,
      "Ġarrived": 3374,
      "Ġconj": 3375,
      "ĠRep": 3376,
      "Ġimpress": 3377,
      "Ġremained": 3378,
      "Ġnecessarily": 3379,
      "Ġcontinued": 3380,
      "Ã©nÃ©": 3381,
      "ĠPavl": 3382,
      ",'": 3383,
      "zig": 3384,
      "Ġcy": 3385,
      "Ġappropri": 3386,
      "Ġhappens": 3387,
      "Ġarrive": 3388,
      "ĠAmeric": 3389,
      "ĠPavlovitch": 3390,
      ",âĢĶ": 3391,
      "Ġwise": 3392,
      "acle": 3393,
      "Ġpropag": 3394,
      "Ġintermedi": 3395,
      "ned": 3396,
      "Ġstory": 3397,
      "ousin": 3398,
      "Ġago": 3399,
      "Ġregiments": 3400,
      "Ġconfess": 3401,
      "Ġconfirm": 3402,
      "Ġsett": 3403,
      "ĠGermany": 3404,
      "ĠSPEC": 3405,
      "Ġafraid": 3406,
      "Ġpoet": 3407,
      "Ġraised": 3408,
      "ĠKing": 3409,
      "Ġinfant": 3410,
      "ĠJupiter": 3411,
      "axim": 3412,
      "iently": 3413,
      "ĠSome": 3414,
      "Ġimpl": 3415,
      "Ġdisturb": 3416,
      "Ġhole": 3417,
      "Ġ50": 3418,
      "Ġcharacters": 3419,
      "Ġanimal": 3420,
      "Ġerror": 3421,
      "Ġforgot": 3422,
      "Ġsource": 3423,
      "Ġer": 3424,
      "Ġsin": 3425,
      "Ġfit": 3426,
      "Ġhealth": 3427,
      "Ġoblig": 3428,
      "Ġaddition": 3429,
      "Ġextraord": 3430,
      "org": 3431,
      "Ġnotice": 3432,
      "ĠBer": 3433,
      "resh": 3434,
      "ĠGl": 3435,
      "ĠGrand": 3436,
      "cles": 3437,
      "Ġradiation": 3438,
      "_.": 3439,
      "ares": 3440,
      "rate": 3441,
      "cies": 3442,
      "Ġmentioned": 3443,
      "oll": 3444,
      "Ġcry": 3445,
      "Ġcompl": 3446,
      "Ġdiffer": 3447,
      "Ġdistant": 3448,
      "Ġ31": 3449,
      "Ġseeing": 3450,
      "Ġworkers": 3451,
      "Ġsword": 3452,
      "Ġwitness": 3453,
      "ĠPHILOSOPHY": 3454,
      "erved": 3455,
      "Ġbrief": 3456,
      "ril": 3457,
      "Ġsomewhat": 3458,
      "Ġfavor": 3459,
      "ĠSocrates": 3460,
      "ĠDE": 3461,
      "Ġdefined": 3462,
      "Ġconnected": 3463,
      "Ġphenomena": 3464,
      "Ġbeautiful": 3465,
      "ST": 3466,
      "cil": 3467,
      "Ġcu": 3468,
      "ĠAC": 3469,
      "ush": 3470,
      "Ġcompared": 3471,
      "Ġ40": 3472,
      "Ġreasoning": 3473,
      "Ġpursu": 3474,
      "Ġdeveloped": 3475,
      "ĠArm": 3476,
      "Ġofficers": 3477,
      "Ġoperation": 3478,
      "Ġhypot": 3479,
      "ingly": 3480,
      "right": 3481,
      "Ġsem": 3482,
      "ĠNAT": 3483,
      "Ġbrid": 3484,
      "Ġcrew": 3485,
      "CIP": 3486,
      "Ġenjoy": 3487,
      "ram": 3488,
      "ĠdÃ©": 3489,
      "ĠOur": 3490,
      "Ġwhereas": 3491,
      "Ġaxis": 3492,
      "Ġcivil": 3493,
      "bre": 3494,
      "way": 3495,
      "Ġbreed": 3496,
      "oured": 3497,
      "this": 3498,
      "Ġobsc": 3499,
      "Ġdelight": 3500,
      "Ġconsequently": 3501,
      "Ġreligious": 3502,
      "Ġwishes": 3503,
      "pper": 3504,
      "Ġperm": 3505,
      "Ġ35": 3506,
      "Ġroad": 3507,
      "Ġmembers": 3508,
      "ĠHowever": 3509,
      "MY": 3510,
      "Ġcum": 3511,
      "utes": 3512,
      "Ġves": 3513,
      "Ġrapid": 3514,
      "Ġaltogether": 3515,
      "Ġfluid": 3516,
      "That": 3517,
      "ging": 3518,
      "sect": 3519,
      "ĠSince": 3520,
      "Ġrace": 3521,
      "Ġdefend": 3522,
      "Ġestablish": 3523,
      "Ġobtained": 3524,
      "Ġdiameter": 3525,
      "sh": 3526,
      "icism": 3527,
      "imul": 3528,
      "Ġdear": 3529,
      "Ġhappy": 3530,
      "Ġkinds": 3531,
      "Ġfalling": 3532,
      "Ġdegrees": 3533,
      "ike": 3534,
      "enced": 3535,
      "Ġtoday": 3536,
      "ching": 3537,
      "osp": 3538,
      "Ġneigh": 3539,
      "Ġconvin": 3540,
      "ĠPRINCIP": 3541,
      "ĠIII": 3542,
      "ĠgÃ©nÃ©": 3543,
      "ĠEl": 3544,
      "Ġende": 3545,
      "Ġteach": 3546,
      "Ġremaining": 3547,
      "Ġcountries": 3548,
      "ĠORIG": 3549,
      "ĠARMY": 3550,
      "ĠDanzig": 3551,
      "And": 3552,
      "come": 3553,
      "ĠÂ": 3554,
      "Ġfast": 3555,
      "icy": 3556,
      "ĠPart": 3557,
      "ĠMA": 3558,
      "Ġperception": 3559,
      "Ġassign": 3560,
      "Ġstanding": 3561,
      "Ġjoin": 3562,
      "ĠORIGIN": 3563,
      "fort": 3564,
      "owed": 3565,
      "ĠDiv": 3566,
      "ogra": 3567,
      "Ġ32": 3568,
      "Ġgiving": 3569,
      "anding": 3570,
      "ourge": 3571,
      "wing": 3572,
      "Ġinstitut": 3573,
      "ĠItaly": 3574,
      "hension": 3575,
      "Ġobvious": 3576,
      "Ġelder": 3577,
      "Ġnar": 3578,
      "aph": 3579,
      "elf": 3580,
      "Ġlibert": 3581,
      "rupt": 3582,
      "Ġsuffering": 3583,
      "Ġaffairs": 3584,
      "Ġsuperior": 3585,
      "know": 3586,
      "Ġsize": 3587,
      "Ġindu": 3588,
      "Ġell": 3589,
      "Ġada": 3590,
      "Ġprobable": 3591,
      "Ġneighb": 3592,
      "OD": 3593,
      "ai": 3594,
      "atal": 3595,
      "Ġvan": 3596,
      "ĠFin": 3597,
      "Ġwhatsoever": 3598,
      "izes": 3599,
      "Ġcreated": 3600,
      "ĠPRINCE": 3601,
      "ĠAristot": 3602,
      "Ġendeav": 3603,
      "Ġsn": 3604,
      "Ġempt": 3605,
      "Ġ1811": 3606,
      "Ġearlier": 3607,
      "lict": 3608,
      "Ġinquir": 3609,
      "Ġusually": 3610,
      "angle": 3611,
      "Ġends": 3612,
      "Ġbread": 3613,
      "Ġseparated": 3614,
      "ributed": 3615,
      "Ġfulf": 3616,
      "Ġtranscendence": 3617,
      "Ġsquare": 3618,
      "Ġcell": 3619,
      "utation": 3620,
      "Ġconception": 3621,
      "Ġalter": 3622,
      "ĠMIN": 3623,
      "Ġ33": 3624,
      "Ġpersu": 3625,
      "Ġchoose": 3626,
      "ĠDeposit": 3627,
      "Ġvessel": 3628,
      "UM": 3629,
      "Ġwaking": 3630,
      "isation": 3631,
      "Ġpubl": 3632,
      "Ġpositive": 3633,
      "well": 3634,
      "bled": 3635,
      "Ġrealized": 3636,
      "Ġglass": 3637,
      "Ġutter": 3638,
      "Ġabsolutely": 3639,
      "Ġfunction": 3640,
      "ĠSPECIES": 3641,
      "ourgeois": 3642,
      ".[": 3643,
      "ios": 3644,
      "ris": 3645,
      "Ġpend": 3646,
      "Ġdoth": 3647,
      "els": 3648,
      "Ġfinal": 3649,
      "Ġaffirm": 3650,
      "Ġhistor": 3651,
      "ĠNATUR": 3652,
      "18": 3653,
      "IM": 3654,
      "ox": 3655,
      "Ġtask": 3656,
      "inations": 3657,
      "Ġthor": 3658,
      "Ġassoci": 3659,
      "Ġconqu": 3660,
      "eth": 3661,
      "ols": 3662,
      "Ġunknown": 3663,
      "Ġpred": 3664,
      "Ġ60": 3665,
      "ITION": 3666,
      "Ġdrink": 3667,
      "ĠNothing": 3668,
      "Ġfrequently": 3669,
      "Ġdesires": 3670,
      "Ġdiscovery": 3671,
      "Ġbelonging": 3672,
      "vere": 3673,
      "Ġexerc": 3674,
      "ĠPy": 3675,
      "Ġdecre": 3676,
      "sibility": 3677,
      "Ġprofess": 3678,
      "ĠEngland": 3679,
      "regor": 3680,
      "Ġprotect": 3681,
      "anced": 3682,
      "Ġwhilst": 3683,
      "Ġexter": 3684,
      "rible": 3685,
      "usions": 3686,
      "ĠSun": 3687,
      "ĠPar": 3688,
      "Ġflesh": 3689,
      "Ġsupply": 3690,
      "ĠGallic": 3691,
      "Ġproletariat": 3692,
      "Ġdaily": 3693,
      "ao": 3694,
      "irth": 3695,
      "ĠPh": 3696,
      "Ġperman": 3697,
      "Ġflight": 3698,
      "Ġregarded": 3699,
      "Ġinterests": 3700,
      "Ġpossession": 3701,
      "Ġprior": 3702,
      "Ġconsequences": 3703,
      "Ġrepeated": 3704,
      "Ġprepared": 3705,
      "Ġscarcely": 3706,
      "ĠNATURAL": 3707,
      "co": 3708,
      "ik": 3709,
      "Ġbased": 3710,
      "ĠAf": 3711,
      "Ġchapter": 3712,
      "Ġparticle": 3713,
      "Ġdivided": 3714,
      "Ġradio": 3715,
      "ĠGermans": 3716,
      "Ġarrange": 3717,
      "Ġbrigade": 3718,
      "Ġopportunity": 3719,
      "15": 3720,
      "Ġthick": 3721,
      "ĠIl": 3722,
      "ushed": 3723,
      "ĠFl": 3724,
      "ĠFirst": 3725,
      "Ġenv": 3726,
      "Ġpractical": 3727,
      "REAT": 3728,
      "ste": 3729,
      "ayed": 3730,
      "Ġsup": 3731,
      "ulse": 3732,
      "Ġ36": 3733,
      "Ġlaid": 3734,
      "Ġvisit": 3735,
      "Ġdiscussion": 3736,
      "Ġspecific": 3737,
      "hl": 3738,
      "pes": 3739,
      "Ġhath": 3740,
      "oted": 3741,
      "etic": 3742,
      "ourse": 3743,
      "Ġlikely": 3744,
      "Ġglad": 3745,
      "Ġbehav": 3746,
      "Ġinhabit": 3747,
      "ĠMoreover": 3748,
      "Ġcourage": 3749,
      "idden": 3750,
      "Ġchosen": 3751,
      "Ġorganization": 3752,
      "Ġpossibilities": 3753,
      "Ġconsequence": 3754,
      "Ġconstantly": 3755,
      "KE": 3756,
      "rict": 3757,
      "Ġsav": 3758,
      "ĠSov": 3759,
      "Ġsubjects": 3760,
      "Ġvolunt": 3761,
      "onomy": 3762,
      "ocratic": 3763,
      "Ġbirds": 3764,
      "ĠgÃ©nÃ©ral": 3765,
      "Ġpour": 3766,
      "Ġthir": 3767,
      "Ġyes": 3768,
      "ĠBrit": 3769,
      "ĠCertain": 3770,
      "ĠGregor": 3771,
      "Ġaccord": 3772,
      "Ġappoint": 3773,
      "Ġrealize": 3774,
      "Ġprovided": 3775,
      "Ġanswered": 3776,
      "Ġlegion": 3777,
      "Ġescap": 3778,
      "ashion": 3779,
      "Ġeconomic": 3780,
      "Ġintellectual": 3781,
      "19": 3782,
      "asy": 3783,
      "Ġwhite": 3784,
      "Ġforced": 3785,
      "Ġcomparis": 3786,
      "Ġpeoples": 3787,
      "Ġperceive": 3788,
      "ience": 3789,
      "Ġsat": 3790,
      "Ġinit": 3791,
      "Ġstimul": 3792,
      "Ġdeli": 3793,
      "ĠBook": 3794,
      "ired": 3795,
      "Ġsynt": 3796,
      "Ġcommunity": 3797,
      "Ġculture": 3798,
      "ĠJews": 3799,
      "Ġpenet": 3800,
      "Ġprincipal": 3801,
      "Ġinner": 3802,
      "Ġuseless": 3803,
      "Ġ100": 3804,
      "Ġgold": 3805,
      "ĠEn": 3806,
      "Ġgrasp": 3807,
      "Ġincom": 3808,
      "Ġcenter": 3809,
      "Ġcentri": 3810,
      "Ġadmitted": 3811,
      "Ġleads": 3812,
      "14": 3813,
      "isp": 3814,
      "aded": 3815,
      "Ġdifficulties": 3816,
      "Ġbelongs": 3817,
      "bed": 3818,
      "Ġwag": 3819,
      "Ġmine": 3820,
      "ales": 3821,
      "Ġexcess": 3822,
      "Ġstage": 3823,
      "pelled": 3824,
      "ĠThough": 3825,
      "Ġmodified": 3826,
      "Ġconsiderable": 3827,
      "Ġdouble": 3828,
      "petal": 3829,
      "rel": 3830,
      "ival": 3831,
      "Ġunjust": 3832,
      "Ġcolon": 3833,
      "Ġapplied": 3834,
      "Ġderived": 3835,
      "Ġcra": 3836,
      "Ġhar": 3837,
      "Ġexcell": 3838,
      "ĠMAR": 3839,
      "Ġrate": 3840,
      "ĠGREAT": 3841,
      "Ġneeds": 3842,
      "Ġvictory": 3843,
      "Ġslowly": 3844,
      "Ġtrouble": 3845,
      "uit": 3846,
      "ables": 3847,
      "Ġacquired": 3848,
      "Ġassist": 3849,
      "Ġstatement": 3850,
      "Ġvariety": 3851,
      "ublics": 3852,
      "Ġadminist": 3853,
      "Ġavail": 3854,
      "Ġoperations": 3855,
      "Ġconcepts": 3856,
      "Ġextraordinary": 3857,
      "ĠAfric": 3858,
      "//": 3859,
      "Yes": 3860,
      "fect": 3861,
      "gar": 3862,
      "hort": 3863,
      "chn": 3864,
      "ĠSch": 3865,
      "ĠBec": 3866,
      "auc": 3867,
      "Ġfacticity": 3868,
      "Ġriver": 3869,
      "Ġconstitution": 3870,
      "Ġbecoming": 3871,
      "Ġexpected": 3872,
      "Ġmechanics": 3873,
      "Ġparents": 3874,
      "Ġcontempl": 3875,
      "Ġbirth": 3876,
      "iced": 3877,
      "amm": 3878,
      "umn": 3879,
      "Ġapart": 3880,
      "Ġacce": 3881,
      "Ġsensation": 3882,
      "ky": 3883,
      "Ġaid": 3884,
      "Ġobst": 3885,
      "Ġ38": 3886,
      "Ġsuppl": 3887,
      "Ġcollect": 3888,
      "Ġdirected": 3889,
      "Ġdomest": 3890,
      "Ġgeomet": 3891,
      "No": 3892,
      "morrow": 3893,
      "ason": 3894,
      "ounds": 3895,
      "ATE": 3896,
      "Ġtext": 3897,
      "Ġorganic": 3898,
      "Ġhonor": 3899,
      "ervation": 3900,
      "Ġdistinguished": 3901,
      "Ġpicture": 3902,
      "Ġscientific": 3903,
      "Ġforgotten": 3904,
      "Ġast": 3905,
      "atur": 3906,
      "Ġfate": 3907,
      "Ġarises": 3908,
      "ĠThose": 3909,
      "ensive": 3910,
      "Ġreflected": 3911,
      "Ġrules": 3912,
      "ĠGreek": 3913,
      "Ġcitizens": 3914,
      "Ġintermediate": 3915,
      "Ġvers": 3916,
      "Ġastr": 3917,
      "Ġsed": 3918,
      "Ġep": 3919,
      "usted": 3920,
      "Ġune": 3921,
      "Ġconsists": 3922,
      "ague": 3923,
      "Ġfellow": 3924,
      "Ġcentripetal": 3925,
      "reen": 3926,
      "Ġmad": 3927,
      "Ġhat": 3928,
      "Ġnoble": 3929,
      "Ġposit": 3930,
      "Ġ45": 3931,
      "Ġadvance": 3932,
      "Ġshowed": 3933,
      "Ġlimits": 3934,
      "Ġproblems": 3935,
      "Ġcontradict": 3936,
      "IR": 3937,
      "tical": 3938,
      "erunt": 3939,
      "Ġcel": 3940,
      "Ġbell": 3941,
      "omb": 3942,
      "rag": 3943,
      "ĠMag": 3944,
      "ĠMAT": 3945,
      "Ġremoved": 3946,
      "Ġwarm": 3947,
      "Ġsumm": 3948,
      "Ġimmediate": 3949,
      "Ġaccompl": 3950,
      "Ġnarrow": 3951,
      "ah": 3952,
      "oot": 3953,
      "Ġlying": 3954,
      "Ġfashion": 3955,
      "Ġont": 3956,
      "chie": 3957,
      "ript": 3958,
      "ume": 3959,
      "ĠCousin": 3960,
      "inder": 3961,
      "Ġjoy": 3962,
      "ckm": 3963,
      "Ġlarger": 3964,
      "Ġnegative": 3965,
      "Ġperpendicular": 3966,
      "Ġliberty": 3967,
      "LES": 3968,
      "eed": 3969,
      "Ġchem": 3970,
      "Ġinher": 3971,
      "Ġisol": 3972,
      "Ġren": 3973,
      "ĠMarch": 3974,
      "Ġinterv": 3975,
      "Ġlabor": 3976,
      "Ġmathematical": 3977,
      "ĠAristotle": 3978,
      "Ġtang": 3979,
      "ening": 3980,
      "icate": 3981,
      "owing": 3982,
      "Ġ39": 3983,
      "Ġeverywhere": 3984,
      "ĠKar": 3985,
      "Ġoffer": 3986,
      "Ġesse": 3987,
      "Ġphilosoph": 3988,
      "Ġforeign": 3989,
      "Ġpurely": 3990,
      "Ġofficer": 3991,
      "Ġremarkable": 3992,
      "ĠJewish": 3993,
      "Ġmonths": 3994,
      "Ġtaste": 3995,
      "ĠSart": 3996,
      "ĠME": 3997,
      "Ġundert": 3998,
      "Ġ46": 3999,
      "Ġrefer": 4000,
      "Ġreply": 4001,
      "Ġthinks": 4002,
      "Ġcharge": 4003,
      "aneous": 4004,
      "Ġcomparison": 4005,
      "UCH": 4006,
      "Ġbourgeois": 4007,
      "imil": 4008,
      "ades": 4009,
      "ĠCl": 4010,
      "Ġdise": 4011,
      "ĠJune": 4012,
      "ifications": 4013,
      "Ġradius": 4014,
      "Ġduplicate": 4015,
      "ĠPrussi": 4016,
      "Ġtendency": 4017,
      "Ġsatisfied": 4018,
      "Ġreduced": 4019,
      "Ġterrit": 4020,
      "Ġindifferent": 4021,
      "Ġhitherto": 4022,
      "Ġban": 4023,
      "Ġaspect": 4024,
      "vert": 4025,
      "iled": 4026,
      "Ġprosecut": 4027,
      "ĠMay": 4028,
      "ĠHer": 4029,
      "ĠWest": 4030,
      "Ġcreation": 4031,
      "Ġsteps": 4032,
      "Ġemployed": 4033,
      "ĠAgain": 4034,
      "af": 4035,
      "Ġportion": 4036,
      "ution": 4037,
      "Ġareas": 4038,
      "Ġmeasures": 4039,
      "oles": 4040,
      "Ġ34": 4041,
      "Ġ48": 4042,
      "Ġrefers": 4043,
      "pected": 4044,
      "Ġcentury": 4045,
      "Ġstronger": 4046,
      "Ġiron": 4047,
      "Ġheavy": 4048,
      "Ġextremely": 4049,
      "Ġdedu": 4050,
      "ĠSartre": 4051,
      "Ġbott": 4052,
      "Ġfert": 4053,
      "Ġvain": 4054,
      "Ġvice": 4055,
      "Ġattached": 4056,
      "Ġinstruct": 4057,
      "Ã©s": 4058,
      "Ġletters": 4059,
      "Ġdescent": 4060,
      "Ġmodification": 4061,
      "Ġaware": 4062,
      "Ġtrad": 4063,
      "Ġinsist": 4064,
      "Ġbooks": 4065,
      "Ġdiminished": 4066,
      "Ġtransport": 4067,
      "Ġsuperfic": 4068,
      "ĠSoviet": 4069,
      "com": 4070,
      "Ġlady": 4071,
      "Ġshout": 4072,
      "Ġcontact": 4073,
      "arian": 4074,
      "Ġexisted": 4075,
      "Ġconstruct": 4076,
      "ENT": 4077,
      "Ġdeny": 4078,
      "Ġresponsible": 4079,
      "10": 4080,
      "sp": 4081,
      "ented": 4082,
      "gel": 4083,
      "Ġgenera": 4084,
      "Ġworking": 4085,
      "Ġtechn": 4086,
      "Ġpolicy": 4087,
      "Ġmulti": 4088,
      "ek": 4089,
      "zu": 4090,
      "Ġtions": 4091,
      "hetic": 4092,
      "Ġfru": 4093,
      "ifice": 4094,
      "Ġpartly": 4095,
      "Ġdispl": 4096,
      "Ġjour": 4097,
      "Ġspect": 4098,
      "Ġstruck": 4099,
      "Ġreader": 4100,
      "Ġopinions": 4101,
      "Ġconstitute": 4102,
      "Ġbesides": 4103,
      "Ġgradually": 4104,
      "bered": 4105,
      "sar": 4106,
      "Ġste": 4107,
      "Ġyield": 4108,
      "Ġworse": 4109,
      "Ġthence": 4110,
      "Ġgeneration": 4111,
      "Ġnevertheless": 4112,
      "Ġteacher": 4113,
      "Ġuncertain": 4114,
      "Ġsufficiently": 4115,
      "To": 4116,
      "but": 4117,
      "band": 4118,
      "crib": 4119,
      "Ġcat": 4120,
      "Ġmouth": 4121,
      "ovna": 4122,
      "sequently": 4123,
      "Ġfourth": 4124,
      "Ġseparate": 4125,
      "Ġconvinced": 4126,
      "ĠMAJ": 4127,
      "wo": 4128,
      "Ġ)": 4129,
      "Ġ*": 4130,
      "ĠRom": 4131,
      "Ġdivine": 4132,
      "Ġenemies": 4133,
      "Ġreadily": 4134,
      "Ġcharacteristic": 4135,
      "Ġfighting": 4136,
      "ĠPRINCIPLES": 4137,
      "12": 4138,
      "Ġachie": 4139,
      "icer": 4140,
      "Ġhabits": 4141,
      "esty": 4142,
      "Ġattain": 4143,
      "bling": 4144,
      "Ġacknow": 4145,
      "Ġpersonal": 4146,
      "Ġlocal": 4147,
      "Ġterrible": 4148,
      "Ġmusic": 4149,
      "Ġacceler": 4150,
      "ĠMAJOR": 4151,
      "inal": 4152,
      "ĠTzu": 4153,
      "iling": 4154,
      "Ġju": 4155,
      "Ġspoke": 4156,
      "anged": 4157,
      "ATEL": 4158,
      "Ġblind": 4159,
      "Ġexamples": 4160,
      "Ġwisdom": 4161,
      "Ġengaged": 4162,
      "Ġindependent": 4163,
      "conscious": 4164,
      "ĠAD": 4165,
      "Ġquae": 4166,
      "Ġrou": 4167,
      "Ġloved": 4168,
      "Ġtravel": 4169,
      "ĠQU": 4170,
      "Ġgravit": 4171,
      "Ġofficial": 4172,
      "Ġpatient": 4173,
      "Ġbeauty": 4174,
      "stein": 4175,
      "gies": 4176,
      "iis": 4177,
      "Ġwants": 4178,
      "ander": 4179,
      "Ġunable": 4180,
      "Ġregion": 4181,
      "icked": 4182,
      "object": 4183,
      "Ġhighly": 4184,
      "Ġmental": 4185,
      "MAT": 4186,
      "aff": 4187,
      "ule": 4188,
      "Ġsal": 4189,
      "Ġfem": 4190,
      "Ġpet": 4191,
      "Ġkill": 4192,
      "Ġunion": 4193,
      "Ġrare": 4194,
      "Ġseek": 4195,
      "Ġrights": 4196,
      "Ġfarther": 4197,
      "Ġexamine": 4198,
      "Ġwild": 4199,
      "orph": 4200,
      "icit": 4201,
      "Ġeternal": 4202,
      "ĠIm": 4203,
      "ĠSen": 4204,
      "ĠVen": 4205,
      "Ġfool": 4206,
      "ĠIvanovna": 4207,
      "Ġwait": 4208,
      "Ġdistinguish": 4209,
      "Ġridicul": 4210,
      "Ġignorance": 4211,
      "Ġfamiliar": 4212,
      "Ġdoctrine": 4213,
      "Ġimpressions": 4214,
      "iety": 4215,
      "Ġwaves": 4216,
      "itudes": 4217,
      "Ġcens": 4218,
      "Ġgain": 4219,
      "ĠCo": 4220,
      "ĠWell": 4221,
      "ĠGe": 4222,
      "ager": 4223,
      "Ġreturned": 4224,
      "Ġrepresented": 4225,
      "pring": 4226,
      "Ġdepends": 4227,
      "oned": 4228,
      "Ġkilled": 4229,
      "uding": 4230,
      "others": 4231,
      "Ġclot": 4232,
      "Ġapply": 4233,
      "Ġrepro": 4234,
      "Ġsimult": 4235,
      "Ġleaders": 4236,
      "Ġsciences": 4237,
      "ĠXXX": 4238,
      "ĠMATHE": 4239,
      "Ġburn": 4240,
      "Ġconven": 4241,
      "ĠCON": 4242,
      "Ġcontained": 4243,
      "Ġfell": 4244,
      "Ġpray": 4245,
      "Ġacross": 4246,
      "Ġabsence": 4247,
      "Ġwrit": 4248,
      "Ġneeded": 4249,
      "Ġcaused": 4250,
      "Ġinformation": 4251,
      "Ġnumerous": 4252,
      "ĠMATHEMAT": 4253,
      "Ġcru": 4254,
      "Ġhop": 4255,
      "ĠSec": 4256,
      "Ġvariation": 4257,
      "upid": 4258,
      "Ġrecognize": 4259,
      "Ġthyself": 4260,
      "ĠCertainly": 4261,
      "ĠMATHEMATICAL": 4262,
      "13": 4263,
      "Ġexceed": 4264,
      "apse": 4265,
      "Ġ44": 4266,
      "Ġthroughout": 4267,
      "Ġextend": 4268,
      "under": 4269,
      "ĠPROP": 4270,
      "Ġinfantry": 4271,
      "16": 4272,
      "VI": 4273,
      "Ġmars": 4274,
      "ĠSc": 4275,
      "Ġvast": 4276,
      "ĠWAGR": 4277,
      "oken": 4278,
      "Ġfinds": 4279,
      "Ġcontinually": 4280,
      "Ġgetting": 4281,
      "Ġquiet": 4282,
      "Ġdoctor": 4283,
      "Ġnearer": 4284,
      "ĠWAGRAM": 4285,
      "If": 4286,
      "iny": 4287,
      "Ġhero": 4288,
      "Ġexec": 4289,
      "rah": 4290,
      "ulum": 4291,
      "Ġenl": 4292,
      "Ġaccustom": 4293,
      "ĠVI": 4294,
      "their": 4295,
      "Ġpiece": 4296,
      "ĠAfrica": 4297,
      "icip": 4298,
      "ĠIV": 4299,
      "Ġsurely": 4300,
      "Ġstation": 4301,
      "Ġships": 4302,
      "Ġusual": 4303,
      "Ġdemocracy": 4304,
      "overn": 4305,
      "Ġreading": 4306,
      "Ġpossibly": 4307,
      "Ġreciprocally": 4308,
      "ĠFinally": 4309,
      "ĠMINIS": 4310,
      "Ġloss": 4311,
      "ghter": 4312,
      "usc": 4313,
      "osal": 4314,
      "Ġsees": 4315,
      "Ġvig": 4316,
      "Ġspeed": 4317,
      "ĠIndian": 4318,
      "Ġprimary": 4319,
      "ĠNEUCH": 4320,
      "ĠGuard": 4321,
      "ĠNEUCHATEL": 4322,
      "egr": 4323,
      "inated": 4324,
      "Ġosc": 4325,
      "Ġthreat": 4326,
      "Ġdil": 4327,
      "imately": 4328,
      "Ġweap": 4329,
      "ĠCast": 4330,
      "Ġrich": 4331,
      "ĠEckm": 4332,
      "Ġreserve": 4333,
      "Ġattraction": 4334,
      "Ġraise": 4335,
      "aterina": 4336,
      "Ġexperiences": 4337,
      "Ġdivers": 4338,
      "Ġcurrent": 4339,
      "Ġstrongly": 4340,
      "Ġstructures": 4341,
      "ITY": 4342,
      "Ġcopy": 4343,
      "olya": 4344,
      "called": 4345,
      "Ġfing": 4346,
      "Ġascend": 4347,
      "aced": 4348,
      "Ġleaves": 4349,
      "ensions": 4350,
      "Ġ37": 4351,
      "Ġvariations": 4352,
      "Ġpowerful": 4353,
      "Ġvelocities": 4354,
      "Ġspiritual": 4355,
      "Ġaffected": 4356,
      "ribution": 4357,
      "Ġapparently": 4358,
      "Ġsick": 4359,
      "Ġinsect": 4360,
      "ump": 4361,
      "cience": 4362,
      "peror": 4363,
      "Ġ43": 4364,
      "Ġflo": 4365,
      "they": 4366,
      "Ġgrand": 4367,
      "Ġopposed": 4368,
      "Ġproduct": 4369,
      "plicity": 4370,
      "ĠArch": 4371,
      "OSITION": 4372,
      "Ġaccompan": 4373,
      "Ġinferior": 4374,
      "ĠMINISTER": 4375,
      "ias": 4376,
      "Ġfresh": 4377,
      "lling": 4378,
      "Ġassem": 4379,
      "ode": 4380,
      "Ġcomets": 4381,
      "ĠKolya": 4382,
      "ĠTHEOR": 4383,
      "aneously": 4384,
      "Ġgentlemen": 4385,
      "Ġpreceding": 4386,
      "TR": 4387,
      "rs": 4388,
      "ĠMad": 4389,
      "ĠEX": 4390,
      "Ġmotive": 4391,
      "Ġinvol": 4392,
      "Ġmovements": 4393,
      "ĠIndia": 4394,
      "Ġprivate": 4395,
      "OW": 4396,
      "Ġtaught": 4397,
      "ese": 4398,
      "arn": 4399,
      "Ġaband": 4400,
      "Ġthrown": 4401,
      "Ġnationalities": 4402,
      "Ġlimited": 4403,
      "Ġmachine": 4404,
      "ĠApril": 4405,
      "17": 4406,
      "ked": 4407,
      "Ġfilled": 4408,
      "ĠNever": 4409,
      "Ġcorp": 4410,
      "Ġcolour": 4411,
      "Ġviews": 4412,
      "Ġconclude": 4413,
      "Ġwidely": 4414,
      "Ġdefinition": 4415,
      "Ġsignificance": 4416,
      "Ġbridge": 4417,
      "Why": 4418,
      "jus": 4419,
      "ties": 4420,
      "omer": 4421,
      "Ġsto": 4422,
      "Ġsty": 4423,
      "Ġstone": 4424,
      "ĠWill": 4425,
      "Ġrational": 4426,
      "Ġgreatly": 4427,
      "Ġsubt": 4428,
      "ĠVII": 4429,
      "Ġcapacity": 4430,
      "Ġmaintain": 4431,
      "Ġmajority": 4432,
      "dra": 4433,
      "sur": 4434,
      "Ġsister": 4435,
      "ito": 4436,
      "Ġmun": 4437,
      "Ġmiss": 4438,
      "lend": 4439,
      "ider": 4440,
      "Ġnotions": 4441,
      "ĠFeb": 4442,
      "Ġdistinction": 4443,
      "Ġmidst": 4444,
      "AMP": 4445,
      "Ġtemporal": 4446,
      "Ġsemi": 4447,
      "Ġoscill": 4448,
      "igs": 4449,
      "Ġspread": 4450,
      "ribute": 4451,
      "Ġpasses": 4452,
      "Ġrecol": 4453,
      "Ġrecall": 4454,
      "Ġdecision": 4455,
      "Ġfranc": 4456,
      "Ġcultural": 4457,
      "Ġbroken": 4458,
      "justice": 4459,
      "Ġstrictly": 4460,
      "lim": 4461,
      "Ġsad": 4462,
      "itum": 4463,
      "Ġstop": 4464,
      "osis": 4465,
      "Ġvary": 4466,
      "ĠGal": 4467,
      "Ġtrying": 4468,
      "Ġgoal": 4469,
      "ĠKaterina": 4470,
      "Ġentered": 4471,
      "Ġsystems": 4472,
      "Ġfamous": 4473,
      "Ġdemands": 4474,
      "Ġgirl": 4475,
      "ograph": 4476,
      "ĠPROPOSITION": 4477,
      "Ġaud": 4478,
      "Ġtheore": 4479,
      "Ġfine": 4480,
      "Ġpal": 4481,
      "eder": 4482,
      "Ġlu": 4483,
      "Ġster": 4484,
      "Ġrelated": 4485,
      "Ġremote": 4486,
      "Ġangry": 4487,
      "Ġthirty": 4488,
      "Ġaccustomed": 4489,
      "itin": 4490,
      "Ġhus": 4491,
      "Ġsust": 4492,
      "liament": 4493,
      "Ġconversation": 4494,
      "Ġellips": 4495,
      "Ġinquiry": 4496,
      "Ġinhabitants": 4497,
      "Ġsought": 4498,
      "uted": 4499,
      "uries": 4500,
      "amaz": 4501,
      "Ġsection": 4502,
      "mentaries": 4503,
      "Ġages": 4504,
      "Ġsafe": 4505,
      "Ġprepar": 4506,
      "Ġappar": 4507,
      "Ġ49": 4508,
      "Ġservant": 4509,
      "Ġsuccession": 4510,
      "ĠOrd": 4511,
      "Ġaux": 4512,
      "ĠDece": 4513,
      "Ġdomestic": 4514,
      "ners": 4515,
      "atum": 4516,
      "Ġbare": 4517,
      "âĢ²": 4518,
      "akitin": 4519,
      "Ġspoken": 4520,
      "ĠLu": 4521,
      "ĠRome": 4522,
      "Ġbelow": 4523,
      "Ġrock": 4524,
      "Ġconsidering": 4525,
      "Ġdetermination": 4526,
      "Ġfeelings": 4527,
      "Ġcarefully": 4528,
      "Ġfigures": 4529,
      "Ġsymp": 4530,
      "Ġwindow": 4531,
      "ĠAmerica": 4532,
      "],": 4533,
      "jo": 4534,
      "Ġowing": 4535,
      "Ġhot": 4536,
      "Ġnav": 4537,
      "Ġatoms": 4538,
      "ili": 4539,
      "Ġvent": 4540,
      "Ġdisci": 4541,
      "Ã©t": 4542,
      "ĠJust": 4543,
      "ĠChurch": 4544,
      "Ġpresented": 4545,
      "Ġsmaller": 4546,
      "Ġarguments": 4547,
      "Ġreflective": 4548,
      "ĠGaul": 4549,
      "Ġthorough": 4550,
      "will": 4551,
      "isse": 4552,
      "ifying": 4553,
      "Ġexception": 4554,
      "Ġleaving": 4555,
      "ords": 4556,
      "Ġcove": 4557,
      "ĠJan": 4558,
      "there": 4559,
      "Ġmodel": 4560,
      "Ġattracted": 4561,
      "ĠEmpire": 4562,
      "Ġgravitational": 4563,
      "amazov": 4564,
      ":âĢĶ": 4565,
      "DE": 4566,
      "sue": 4567,
      "inates": 4568,
      "ĠAT": 4569,
      "osc": 4570,
      "ĠGreat": 4571,
      "Ġhast": 4572,
      "ĠRakitin": 4573,
      "Ġsubs": 4574,
      "olutions": 4575,
      "Ġopposition": 4576,
      "Ġspirits": 4577,
      "Ġhonour": 4578,
      "Ġmethods": 4579,
      "Ġfortune": 4580,
      "Ġmultitude": 4581,
      "Ġcontrol": 4582,
      "Ġroubles": 4583,
      "ued": 4584,
      "Ġinjustice": 4585,
      "ulated": 4586,
      "umb": 4587,
      "ĠBr": 4588,
      "ĠMet": 4589,
      "Ġbetr": 4590,
      "Ġextension": 4591,
      "Ġdestruction": 4592,
      "Ġassumed": 4593,
      "ATIONAL": 4594,
      "Ġcaptain": 4595,
      "ĠSupp": 4596,
      "ĠBerlin": 4597,
      "Ġwagons": 4598,
      "Ġhusband": 4599,
      "ĠDecember": 4600,
      "25": 4601,
      "een": 4602,
      "iance": 4603,
      "uish": 4604,
      "Ġcustom": 4605,
      "Ġlest": 4606,
      "Ġupper": 4607,
      "race": 4608,
      "Ġtrust": 4609,
      "Ġwrote": 4610,
      "Ġoriginally": 4611,
      "Ġdecide": 4612,
      "Ġfreely": 4613,
      "Ġtreated": 4614,
      "Ġcontempor": 4615,
      "Ġpaper": 4616,
      "Ġignorant": 4617,
      "Ġdestroyed": 4618,
      "Ġempty": 4619,
      "ige": 4620,
      "Ġmort": 4621,
      "rigory": 4622,
      "Ġsilent": 4623,
      "Ġcontradiction": 4624,
      "Ġnodes": 4625,
      "BLE": 4626,
      "time": 4627,
      "ams": 4628,
      "Ġexer": 4629,
      "Ġatom": 4630,
      "ĠInst": 4631,
      "Ġopened": 4632,
      "Ġboys": 4633,
      "Ġtears": 4634,
      "ucle": 4635,
      "versely": 4636,
      "Ġillust": 4637,
      "Ġobtain": 4638,
      "Ġpublished": 4639,
      "ga": 4640,
      "mitted": 4641,
      "Ġpull": 4642,
      "ĠIde": 4643,
      "ĠTheir": 4644,
      "ĠBes": 4645,
      "Ġarbit": 4646,
      "Ġcontain": 4647,
      "ruary": 4648,
      "Ġeman": 4649,
      "Ġcondem": 4650,
      "Ġconceived": 4651,
      "Ġgenus": 4652,
      "Ġmarked": 4653,
      "Ġmistake": 4654,
      "asmuch": 4655,
      "',": 4656,
      "Ġbreat": 4657,
      "Ġdro": 4658,
      "Ġegg": 4659,
      "urity": 4660,
      "iring": 4661,
      "ifies": 4662,
      "Ġstupid": 4663,
      "ĠSEC": 4664,
      "ĠGovern": 4665,
      "Ġplant": 4666,
      "Ġscene": 4667,
      "Ġbegins": 4668,
      "ĠWho": 4669,
      "Ġnihilation": 4670,
      "Ġwinter": 4671,
      "ĠFebruary": 4672,
      "Ġtre": 4673,
      "Ġsi": 4674,
      "Ġdare": 4675,
      "Ġdied": 4676,
      "Ġsearch": 4677,
      "ĠSw": 4678,
      "ĠHaw": 4679,
      "ĠGrigory": 4680,
      "ephen": 4681,
      "Ġrepublics": 4682,
      "Ġabsor": 4683,
      "Ġfault": 4684,
      "Ġtalking": 4685,
      "Ġridiculous": 4686,
      "look": 4687,
      "uff": 4688,
      "Ġcog": 4689,
      "Ġash": 4690,
      "ĠCan": 4691,
      "gels": 4692,
      "Ġcontains": 4693,
      "Ġcohort": 4694,
      "Ġearn": 4695,
      "Ġformerly": 4696,
      "Ġvisible": 4697,
      "Ġsilence": 4698,
      "Ġautonomy": 4699,
      "Ġaston": 4700,
      "ĠHawking": 4701,
      "hus": 4702,
      "was": 4703,
      "inces": 4704,
      "erves": 4705,
      "Ġlot": 4706,
      "verted": 4707,
      "ilty": 4708,
      "Ġris": 4709,
      "Ġsave": 4710,
      "ormal": 4711,
      "Ġrecon": 4712,
      "Ġexamination": 4713,
      "Ġcommonly": 4714,
      "Ġprobability": 4715,
      "Ġpossessed": 4716,
      "ĠIndeed": 4717,
      "Ġinfinitely": 4718,
      "work": 4719,
      "Ġinvestigation": 4720,
      "Ġlogical": 4721,
      "ĠKaramazov": 4722,
      "Ġfrancs": 4723,
      "rons": 4724,
      "Ġapt": 4725,
      "atures": 4726,
      "Ġnotes": 4727,
      "Ġseven": 4728,
      "ĠSe": 4729,
      "ĠCOM": 4730,
      "Ġshad": 4731,
      "Ġspaces": 4732,
      "Ġimpulse": 4733,
      "Ġconfusion": 4734,
      "Ġ185": 4735,
      "Ġprevious": 4736,
      "Ġinnoc": 4737,
      "Ġrendered": 4738,
      "Ġcontingency": 4739,
      "Ġsurround": 4740,
      "Ġquadrat": 4741,
      "Ġcow": 4742,
      "Ġmaxim": 4743,
      "Ġnucle": 4744,
      "terday": 4745,
      "ests": 4746,
      "ĠThr": 4747,
      "ĠThorn": 4748,
      "ĠNATIONAL": 4749,
      "Ġcost": 4750,
      "Ġflowers": 4751,
      "Ġconfidence": 4752,
      "Ġ53": 4753,
      "Ġsouls": 4754,
      "Ġhybr": 4755,
      "Ġconstitutes": 4756,
      "Ġwatch": 4757,
      "Ġcomprehend": 4758,
      "Ġprisoner": 4759,
      "Ġexercise": 4760,
      "hal": 4761,
      "jud": 4762,
      "lit": 4763,
      "rect": 4764,
      "rence": 4765,
      "itated": 4766,
      "ici": 4767,
      "Ġlad": 4768,
      "ĠCc": 4769,
      "ĠLord": 4770,
      "Ġ47": 4771,
      "Ġcoinc": 4772,
      "Ġconfined": 4773,
      "Ġ54": 4774,
      "Ġmetaph": 4775,
      "Ġsingular": 4776,
      "Ġsucceeded": 4777,
      "Ġislands": 4778,
      "Ġfancy": 4779,
      "ĠRepublic": 4780,
      "ĠBecause": 4781,
      "ĠRomans": 4782,
      "ĠSecond": 4783,
      "11": 4784,
      "?âĢĻ": 4785,
      "CTION": 4786,
      "Ġtheories": 4787,
      "Ġdict": 4788,
      "leg": 4789,
      "ĠIS": 4790,
      "aked": 4791,
      "Ġshape": 4792,
      "Ġquum": 4793,
      "active": 4794,
      "Ġliber": 4795,
      "Ġrepres": 4796,
      "Ġoffered": 4797,
      "Ġlesser": 4798,
      "Ġarmed": 4799,
      "Ġarts": 4800,
      "Ġmorality": 4801,
      "ĠCommentaries": 4802,
      "Ġheavens": 4803,
      "Ġdangerous": 4804,
      "Ġsweet": 4805,
      "Ġpredict": 4806,
      "nic": 4807,
      "oz": 4808,
      "rical": 4809,
      "Ġtrem": 4810,
      "het": 4811,
      "Ġsitting": 4812,
      "itor": 4813,
      "Ġinev": 4814,
      "arity": 4815,
      "llen": 4816,
      "ĠDem": 4817,
      "Ġattend": 4818,
      "ĠVist": 4819,
      "Ġcertainty": 4820,
      "Ġcalls": 4821,
      "Ġcondens": 4822,
      "Ġturning": 4823,
      "Ġproperly": 4824,
      "Ġperiods": 4825,
      "Ġauthors": 4826,
      "Ġinteresting": 4827,
      ".\"]": 4828,
      "Ġdrun": 4829,
      "Ġperpetual": 4830,
      "Ġperpetually": 4831,
      ",[": 4832,
      "inism": 4833,
      "nder": 4834,
      "Ġcred": 4835,
      "Ġhidden": 4836,
      "Ġgard": 4837,
      "owd": 4838,
      "antur": 4839,
      "Ġquam": 4840,
      "Ġintended": 4841,
      "ĠThou": 4842,
      "ĠKAMP": 4843,
      "Ġreferred": 4844,
      "Ġreck": 4845,
      "Ġrecent": 4846,
      "Ġserved": 4847,
      "Ġconfused": 4848,
      "Ġproperties": 4849,
      "Ġsuspic": 4850,
      "Ġmurder": 4851,
      "Ġultimate": 4852,
      "Ġimplies": 4853,
      "ĠMEIN": 4854,
      "ĠSaint": 4855,
      "Ġallied": 4856,
      "ĠCong": 4857,
      "Ġdefense": 4858,
      "Ġconclusions": 4859,
      "Ġcreature": 4860,
      "Ġsatisfaction": 4861,
      "Ġdiscussed": 4862,
      "Ġconjun": 4863,
      "Ġstyle": 4864,
      "ĠKAMPF": 4865,
      ".--": 4866,
      "bing": 4867,
      "ĠÎ": 4868,
      "standing": 4869,
      "Ġchildhood": 4870,
      "Ġorganism": 4871,
      "Ġstands": 4872,
      "Ġcurve": 4873,
      "Ġprevail": 4874,
      "Ġreveal": 4875,
      "Ġremembered": 4876,
      "Ġstarted": 4877,
      "Ġexterior": 4878,
      "Ġyesterday": 4879,
      "Ġprosecutor": 4880,
      "Ġrepresents": 4881,
      "In": 4882,
      "St": 4883,
      "ront": 4884,
      "ola": 4885,
      "acles": 4886,
      "Ġforming": 4887,
      "ĠVery": 4888,
      "âĶĢâĶĢâĶĢâĶĢâĶĢâĶĢâĶĢâĶĢ": 4889,
      "ĠAustria": 4890,
      "Ġhypothesis": 4891,
      "Ġashamed": 4892,
      "ĠCongress": 4893,
      "We": 4894,
      "eper": 4895,
      "rated": 4896,
      "spring": 4897,
      "Ġbond": 4898,
      "Ġmal": 4899,
      "ani": 4900,
      "idently": 4901,
      "Ġwilling": 4902,
      "Ġpercept": 4903,
      "Ġ52": 4904,
      "Ġfounded": 4905,
      "note": 4906,
      "ney": 4907,
      "Ġprovide": 4908,
      "aws": 4909,
      "Ġcease": 4910,
      "Ġimperfect": 4911,
      "Ġsine": 4912,
      "Ġbeat": 4913,
      "ĠTime": 4914,
      "Ġhes": 4915,
      "rod": 4916,
      "Ġorbits": 4917,
      "Ġstat": 4918,
      "usha": 4919,
      "Ġcompar": 4920,
      "Ġinfinity": 4921,
      "Ġflour": 4922,
      "Ġdescribes": 4923,
      "Ġamongst": 4924,
      "Ġorganized": 4925,
      "nex": 4926,
      "Ġdepth": 4927,
      "Ġappreci": 4928,
      "Ġremarks": 4929,
      "Ġharmony": 4930,
      "ms": 4931,
      "anal": 4932,
      "Ġsuitable": 4933,
      "Ġexha": 4934,
      "Ġven": 4935,
      "Ġtwice": 4936,
      "Ġpeasant": 4937,
      "Ġirre": 4938,
      "ounced": 4939,
      "Ġoccurred": 4940,
      "Ġcorresponding": 4941,
      "Dem": 4942,
      "hether": 4943,
      "Ġsalt": 4944,
      "itary": 4945,
      "Ġwithdra": 4946,
      "quar": 4947,
      "Ġexhib": 4948,
      "istory": 4949,
      "Ġ(_": 4950,
      "ĠĠĠĠĠĠĠĠĠĠ": 4951,
      ".),": 4952,
      "IST": 4953,
      "Ġwaiting": 4954,
      "Ġveget": 4955,
      "PH": 4956,
      "nat": 4957,
      "Ġtrib": 4958,
      "heres": 4959,
      "Ġtouc": 4960,
      "Ġdau": 4961,
      "Ġgained": 4962,
      "Ġviz": 4963,
      "ĠON": 4964,
      "ressing": 4965,
      "Ġnatures": 4966,
      "Ġinches": 4967,
      "Ġ187": 4968,
      "Ġsurv": 4969,
      "Ġdimensions": 4970,
      "Ġtreatment": 4971,
      "Ġeat": 4972,
      "ulate": 4973,
      "ĠMi": 4974,
      "ople": 4975,
      "Ġspont": 4976,
      "ruc": 4977,
      "Ġdefe": 4978,
      "Ġsyzy": 4979,
      "Ġheads": 4980,
      "Ġimagination": 4981,
      "iihl": 4982,
      "Ġholds": 4983,
      "Ġweakness": 4984,
      "Ġrepeat": 4985,
      "ĠItalian": 4986,
      "Ġoccupied": 4987,
      "ĠChristianity": 4988,
      "Ġbitter": 4989,
      "Ġpendulum": 4990,
      "cont": 4991,
      "ique": 4992,
      "more": 4993,
      "ona": 4994,
      "Ġbatter": 4995,
      "enburg": 4996,
      "omy": 4997,
      "istics": 4998,
      "asts": 4999,
      "Ġconscience": 5000,
      "Ġequality": 5001,
      "Ġscale": 5002,
      "Ġcircles": 5003,
      "Ġpsycho": 5004,
      "Ġvalues": 5005,
      "Ġsigns": 5006,
      "Ġmarriage": 5007,
      "Ġexcit": 5008,
      "Ġfavour": 5009,
      "Ġoneself": 5010,
      "Ġperformed": 5011,
      "Ġanxiety": 5012,
      "mbre": 5013,
      "uge": 5014,
      "Ġmas": 5015,
      "ĠTH": 5016,
      "Ġsev": 5017,
      "Ġquint": 5018,
      "Ġnost": 5019,
      "Ġresolved": 5020,
      "Ġ42": 5021,
      "Ġconflict": 5022,
      "Ġreasonable": 5023,
      "Ġproduction": 5024,
      "Ġfright": 5025,
      "Ġclassical": 5026,
      "Ġangles": 5027,
      "Ġsuccessive": 5028,
      "Ġapplication": 5029,
      "Ġslightly": 5030,
      "Ġsuggested": 5031,
      "This": 5032,
      "Ġinasmuch": 5033,
      "Ġdial": 5034,
      "âĢľ": 5035,
      "ĠMinist": 5036,
      "Ġspent": 5037,
      "Ġcover": 5038,
      "phal": 5039,
      "Ġpleasures": 5040,
      "Ġanguish": 5041,
      "Ġquantities": 5042,
      "deburg": 5043,
      "Ġbroad": 5044,
      "Ġdetails": 5045,
      "ealous": 5046,
      "Ġapparatus": 5047,
      "AV": 5048,
      "lor": 5049,
      "ship": 5050,
      "Ġrele": 5051,
      "ĠTR": 5052,
      "iles": 5053,
      "Ġacting": 5054,
      "Ġoffspring": 5055,
      "Ġbegun": 5056,
      "Ġplease": 5057,
      "Ġleading": 5058,
      "Ġgenius": 5059,
      "Ġcheck": 5060,
      "Ġdisappear": 5061,
      "ĠMagdeburg": 5062,
      "ference": 5063,
      "oubt": 5064,
      "alg": 5065,
      "ĠPe": 5066,
      "Ġvision": 5067,
      "Ġshar": 5068,
      "ĠFur": 5069,
      "Ġenorm": 5070,
      "Ġspot": 5071,
      "Ġcouldn": 5072,
      "ĠVer": 5073,
      "Ġstrate": 5074,
      "Ġbless": 5075,
      "Ġfinite": 5076,
      "ISM": 5077,
      "Ġutil": 5078,
      "Ġlegs": 5079,
      "Ġrepresentation": 5080,
      "Ġrequires": 5081,
      "Ġsacrifice": 5082,
      "Ġphilosophical": 5083,
      "ĠBesides": 5084,
      "ĠGovernment": 5085,
      "iant": 5086,
      "och": 5087,
      "uary": 5088,
      "Ġwine": 5089,
      "Ġcou": 5090,
      "Ġhall": 5091,
      "ima": 5092,
      "Ġaside": 5093,
      "uses": 5094,
      "uman": 5095,
      "Ġvul": 5096,
      "Ġkiss": 5097,
      "ĠOh": 5098,
      "Ġcontempt": 5099,
      "ĠIts": 5100,
      "Ġpropositions": 5101,
      "Ġthousands": 5102,
      "Ġcrossed": 5103,
      "going": 5104,
      "Ġexclus": 5105,
      "Ġsurprised": 5106,
      "ĠDivision": 5107,
      "AND": 5108,
      "Ġexert": 5109,
      "rain": 5110,
      "Ġsoft": 5111,
      "ĠMY": 5112,
      "Ġwhence": 5113,
      "Ġwhenever": 5114,
      "Ġpreserved": 5115,
      "Ġmotives": 5116,
      "Ġacquire": 5117,
      "Ġcentral": 5118,
      "Ġabsent": 5119,
      "Ġcrowd": 5120,
      "Ġkeeping": 5121,
      "ĠSaturn": 5122,
      "vi": 5123,
      "Ġsit": 5124,
      "edly": 5125,
      "Ġhosp": 5126,
      "Ġeth": 5127,
      "Ġrese": 5128,
      "eterm": 5129,
      "Ġqua": 5130,
      "Ġimped": 5131,
      "Ġclim": 5132,
      "Ġthrow": 5133,
      "Ġobjection": 5134,
      "Ġlooks": 5135,
      "Ġconsiderations": 5136,
      "Ġeffected": 5137,
      "Ġimmense": 5138,
      "Ġfinished": 5139,
      "Ġsecondary": 5140,
      "Ġsentence": 5141,
      "Ġcommander": 5142,
      "Ġhoriz": 5143,
      "Ġengine": 5144,
      "Ġchiefly": 5145,
      "Ġidentity": 5146,
      "Ġpunishment": 5147,
      "ĠOrdre": 5148,
      "Ġsympath": 5149,
      "Ġcovered": 5150,
      ");": 5151,
      "BOOK": 5152,
      "had": 5153,
      "Ġil": 5154,
      "itud": 5155,
      "Ġfond": 5156,
      "Ġness": 5157,
      "ĠâĢ¢": 5158,
      "Ġchair": 5159,
      "Ġupsur": 5160,
      "Ġcompet": 5161,
      "Ġconform": 5162,
      "Ġtraining": 5163,
      "Ġwriting": 5164,
      "Ġminist": 5165,
      "Ġcareful": 5166,
      "Ġrecognized": 5167,
      "Ġcorrel": 5168,
      "Ġmutual": 5169,
      "Ġperceived": 5170,
      "Ġrender": 5171,
      "Ġprefer": 5172,
      "Ġtransformation": 5173,
      "ĠSTATE": 5174,
      "Ġupsurge": 5175,
      "THE": 5176,
      "Well": 5177,
      "tered": 5178,
      "uf": 5179,
      "Ġx": 5180,
      "head": 5181,
      "Ġsorrow": 5182,
      "itur": 5183,
      "Ġfill": 5184,
      "Ġrevel": 5185,
      "ĠAnt": 5186,
      "ĠCount": 5187,
      "ĠPQ": 5188,
      "ĠPa": 5189,
      "Ġability": 5190,
      "Ġens": 5191,
      "Ġclosed": 5192,
      "Ġaccident": 5193,
      "Ġempir": 5194,
      "Ġconstruction": 5195,
      "Ġessent": 5196,
      "Ġincreasing": 5197,
      "Ġdomin": 5198,
      "Ġstriking": 5199,
      "Ġpopular": 5200,
      "ĠMany": 5201,
      "Ġobscure": 5202,
      "Ġbottom": 5203,
      "quarters": 5204,
      "ĠFurther": 5205,
      "Ġbase": 5206,
      "icle": 5207,
      "Ġlink": 5208,
      "ĠHim": 5209,
      "ĠEF": 5210,
      "Ġtwelve": 5211,
      "Ġflower": 5212,
      "Ġ184": 5213,
      "Ġinclined": 5214,
      "Ġarrival": 5215,
      "Ġcreate": 5216,
      "ĠEuropean": 5217,
      "Ġsurprise": 5218,
      "Ġdeliber": 5219,
      "Ġavailable": 5220,
      "ĠNevertheless": 5221,
      "after": 5222,
      "pre": 5223,
      "ture": 5224,
      "yn": 5225,
      "Ġfix": 5226,
      "Ġdign": 5227,
      "Ġnoticed": 5228,
      "ĠAP": 5229,
      "Ġintend": 5230,
      "Ġattributed": 5231,
      "hensible": 5232,
      "Ġoffice": 5233,
      "Ġputting": 5234,
      "ĠTrue": 5235,
      "Ġaccepted": 5236,
      "Ġbarb": 5237,
      "Ġpressure": 5238,
      "Ġencoun": 5239,
      "Ġpopulation": 5240,
      "Ġacquainted": 5241,
      "Ġexcellent": 5242,
      "Ġdisease": 5243,
      "Ġfruit": 5244,
      "Ġellipsis": 5245,
      "point": 5246,
      "atory": 5247,
      "cean": 5248,
      "amorph": 5249,
      "cio": 5250,
      "ĠMars": 5251,
      "Ġmoreover": 5252,
      "Ġincap": 5253,
      "Ġblame": 5254,
      "Ġtraject": 5255,
      "Ġpolice": 5256,
      "ENCE": 5257,
      "ĠWhile": 5258,
      "Ġtranscendent": 5259,
      "Ġfailed": 5260,
      "ĠCommun": 5261,
      "Ġobliged": 5262,
      "Ġjuin": 5263,
      "Ġquintals": 5264,
      "fen": 5265,
      "lie": 5266,
      "ts": 5267,
      "would": 5268,
      "Ġinex": 5269,
      "Ġgri": 5270,
      "pel": 5271,
      "Ġseeds": 5272,
      "ĠBac": 5273,
      "Ġintu": 5274,
      "Ġunex": 5275,
      "Ġaccum": 5276,
      "Ġpassions": 5277,
      "Ġincon": 5278,
      "Ġtransition": 5279,
      "Ġnorth": 5280,
      "Ġexperienced": 5281,
      "Ġtruths": 5282,
      "Ġfalls": 5283,
      "Ġanger": 5284,
      "Ġdesired": 5285,
      "Ġmarried": 5286,
      "ugn": 5287,
      "Ġviolent": 5288,
      "ĠIlusha": 5289,
      "igsberg": 5290,
      "Ġquadratures": 5291,
      "30": 5292,
      "How": 5293,
      "ghed": 5294,
      "mach": 5295,
      "rum": 5296,
      "ta": 5297,
      "Ġtit": 5298,
      "Ġbi": 5299,
      "orous": 5300,
      "rov": 5301,
      "Ġalarm": 5302,
      "artes": 5303,
      "Ġabol": 5304,
      "ĠRh": 5305,
      "Ġremove": 5306,
      "Ġdreamer": 5307,
      "Ġincor": 5308,
      "Ġdoesn": 5309,
      "Ġwherein": 5310,
      "Ġadvanced": 5311,
      "Ġmagnitude": 5312,
      "Ġimperial": 5313,
      "Ġrectangle": 5314,
      "ĠParty": 5315,
      "Ġhistorical": 5316,
      "Ġhatred": 5317,
      "ĠEckmiihl": 5318,
      "bat": 5319,
      "how": 5320,
      "hand": 5321,
      "then": 5322,
      "Ġgarr": 5323,
      "Ġunre": 5324,
      "Ġworst": 5325,
      "Ġcontract": 5326,
      "ĠLab": 5327,
      "rupted": 5328,
      "inted": 5329,
      "Ġinterval": 5330,
      "Ġemotion": 5331,
      "Ġimmort": 5332,
      "Ġinsult": 5333,
      "Ġcrim": 5334,
      "Ġguilty": 5335,
      "Ġframe": 5336,
      "Ġlearning": 5337,
      "Ġpraise": 5338,
      "Ġcounsel": 5339,
      "ĠEmperor": 5340,
      "Ġcontingent": 5341,
      "Ġinitial": 5342,
      "ĠJanuary": 5343,
      "iated": 5344,
      "ients": 5345,
      "ki": 5346,
      "kin": 5347,
      "Ġwished": 5348,
      "Ġthirst": 5349,
      "ĠĠĠĠĠĠĠĠĠĠĠ": 5350,
      "orent": 5351,
      "ĠSIM": 5352,
      "Ġcompelled": 5353,
      "Ġmyst": 5354,
      "Ġdesert": 5355,
      "Ġcompass": 5356,
      "sov": 5357,
      "Ġgrat": 5358,
      "Ġentertain": 5359,
      "ESTION": 5360,
      "Ġmiles": 5361,
      "Ġvirtues": 5362,
      "Ġprocesses": 5363,
      "Ġfailure": 5364,
      "Ġintroduced": 5365,
      "Ġassigned": 5366,
      "Ġappointed": 5367,
      "ĠWestphal": 5368,
      "29": 5369,
      "bid": 5370,
      "hon": 5371,
      "iem": 5372,
      "ze": 5373,
      "Ġaug": 5374,
      "Ġfoc": 5375,
      "icient": 5376,
      "ett": 5377,
      "Ġvill": 5378,
      "Ġvac": 5379,
      "Ġalien": 5380,
      "ĠHistory": 5381,
      "ĠWor": 5382,
      "Ġarising": 5383,
      "ĠDU": 5384,
      "agn": 5385,
      "Ġpositions": 5386,
      "Ġtrace": 5387,
      "Ġoppressed": 5388,
      "Ġappearances": 5389,
      "Ġparliament": 5390,
      "erring": 5391,
      "Ġconstituted": 5392,
      "Ġdrawing": 5393,
      "Ġlaughed": 5394,
      "Ġdeeply": 5395,
      "ĠAlexey": 5396,
      "Ġfirmly": 5397,
      "Ġfaculty": 5398,
      "Ġintervals": 5399,
      "ĠQUESTION": 5400,
      "fa": 5401,
      "ipt": 5402,
      "itler": 5403,
      "Ġreb": 5404,
      "Ġwealth": 5405,
      "ĠBel": 5406,
      "ĠMod": 5407,
      "ĠWars": 5408,
      "Ġrange": 5409,
      "ĠDon": 5410,
      "ordinate": 5411,
      "Ġ188": 5412,
      "Ġexpans": 5413,
      "Ġsecure": 5414,
      "Ġbox": 5415,
      "Ġclean": 5416,
      "Ġcolumn": 5417,
      "Ġtemp": 5418,
      "Ġattempts": 5419,
      "Ġrunning": 5420,
      "ourable": 5421,
      "Ġworthy": 5422,
      "Ġfaculties": 5423,
      "Ġcyl": 5424,
      "Ġontological": 5425,
      "Ġcruel": 5426,
      "my": 5427,
      "Ġpains": 5428,
      "Ġhung": 5429,
      "ilment": 5430,
      "ĠWAR": 5431,
      "Ġanyone": 5432,
      "Ġliqu": 5433,
      "Ġexplo": 5434,
      "Ġglob": 5435,
      "Ġparad": 5436,
      "Ġturns": 5437,
      "Ġperiodic": 5438,
      "Ġnearest": 5439,
      "ĠPerhaps": 5440,
      "Ġmetaphys": 5441,
      "\",": 5442,
      "ming": 5443,
      "sis": 5444,
      "Ġthin": 5445,
      "Ġlif": 5446,
      "Ġhair": 5447,
      "Ġhearing": 5448,
      "ĠSir": 5449,
      "ĠMor": 5450,
      "mented": 5451,
      "agra": 5452,
      "Ġsplend": 5453,
      "ĠRev": 5454,
      "ĠREL": 5455,
      "Ġresolution": 5456,
      "Ġrefuse": 5457,
      "Ġphant": 5458,
      "onsense": 5459,
      "Ġcorn": 5460,
      "Ġpointed": 5461,
      "ĠStates": 5462,
      "Ġmoments": 5463,
      "Ġpsychological": 5464,
      "Ġafford": 5465,
      "Ġjoined": 5466,
      "Ġcircumstance": 5467,
      "Ġmaintained": 5468,
      "Ġefforts": 5469,
      "Ġlaughing": 5470,
      "Ġgranted": 5471,
      "ĠVistula": 5472,
      "^^": 5473,
      "ees": 5474,
      "Ã¦": 5475,
      "Ġtum": 5476,
      "Ġaltern": 5477,
      "ĠDuring": 5478,
      "Ġspring": 5479,
      "ĠLat": 5480,
      "Ġbrings": 5481,
      "Ġrig": 5482,
      "blance": 5483,
      "ĠJoh": 5484,
      "Ġ186": 5485,
      "ĠStr": 5486,
      "Ġpersist": 5487,
      "Ġapprehension": 5488,
      "Ġabsurdity": 5489,
      "Ġprivile": 5490,
      "Ġtemperature": 5491,
      "Ġdemonstrated": 5492,
      "Ġfifteen": 5493,
      "ĠSIMP": 5494,
      "do": 5495,
      "Ġwave": 5496,
      "Ġborder": 5497,
      "Ġbright": 5498,
      "Ġcogn": 5499,
      "Ġhind": 5500,
      "Ġgun": 5501,
      "ĠTwo": 5502,
      "ĠSee": 5503,
      "Ġjealous": 5504,
      "Ġlover": 5505,
      "Ġusing": 5506,
      "ĠLX": 5507,
      "Ġspend": 5508,
      "Ġclos": 5509,
      "Ġgrave": 5510,
      "Ġsmile": 5511,
      "Ġdescribing": 5512,
      "Ġtells": 5513,
      "gram": 5514,
      "Ġbuilt": 5515,
      "Ġmillions": 5516,
      "Ġanticip": 5517,
      "ATIONS": 5518,
      "Ġcounter": 5519,
      "OLU": 5520,
      "Ġdespair": 5521,
      "ĠEngels": 5522,
      "Ġinsects": 5523,
      "ĠMadame": 5524,
      "!âĢĻ": 5525,
      "'.": 5526,
      "Ġtrees": 5527,
      "inent": 5528,
      "Ġdig": 5529,
      "ĠCol": 5530,
      "ĠWes": 5531,
      "Ġrot": 5532,
      "Ġagreed": 5533,
      "enses": 5534,
      "Ġsubdu": 5535,
      "Ġovercome": 5536,
      "Ġmodes": 5537,
      "Ġconcent": 5538,
      "Ġcollected": 5539,
      "Ġcharacteristics": 5540,
      "Ġheadquarters": 5541,
      "Ġtyr": 5542,
      "Ġinformed": 5543,
      "Ġgrowing": 5544,
      "Ġresponsibility": 5545,
      "Ġfurnished": 5546,
      "Ġtranslation": 5547,
      "aign": 5548,
      "form": 5549,
      "gen": 5550,
      "oul": 5551,
      "Ġforty": 5552,
      "ĠSAL": 5553,
      "thern": 5554,
      "ĠHind": 5555,
      "ĠWu": 5556,
      "ĠKon": 5557,
      "Ġphr": 5558,
      "Ġdefect": 5559,
      "Ġentr": 5560,
      "Ġcenturies": 5561,
      "ĠXL": 5562,
      "Ġasking": 5563,
      "Ġsorts": 5564,
      "Ġlabour": 5565,
      "Ġdriven": 5566,
      "ĠArmÃ©e": 5567,
      "ĠWarsaw": 5568,
      "IF": 5569,
      "di": 5570,
      "sky": 5571,
      "Ġwicked": 5572,
      "ĠHelve": 5573,
      "Ġcompare": 5574,
      "Ġfeatures": 5575,
      "Ġpride": 5576,
      "ĠVien": 5577,
      "Ġgrown": 5578,
      "Ġ56": 5579,
      "ovember": 5580,
      "Ġretain": 5581,
      "Ġcompleted": 5582,
      "Ġshowing": 5583,
      "Ġpleased": 5584,
      "Ġhyster": 5585,
      "ĠOrder": 5586,
      "ĠAbrah": 5587,
      "Ġintelligence": 5588,
      "Ġpotential": 5589,
      "Ġplainly": 5590,
      "ĠREV": 5591,
      "Ġadapted": 5592,
      "ĠArchives": 5593,
      "Ġpsychoanal": 5594,
      "Ġstrategy": 5595,
      "ĠAbraham": 5596,
      "ET": 5597,
      "Germ": 5598,
      "cus": 5599,
      "med": 5600,
      "non": 5601,
      "Ġ/": 5602,
      "ini": 5603,
      "Ġbal": 5604,
      "rier": 5605,
      "Ġship": 5606,
      "ĠHitler": 5607,
      "Ġ55": 5608,
      "herent": 5609,
      "Ġhumanity": 5610,
      "Ġstandard": 5611,
      "Ġcontrast": 5612,
      "sub": 5613,
      "Ġpattern": 5614,
      "Ġmeasured": 5615,
      "Ġgrowth": 5616,
      "Ġpaid": 5617,
      "bo": 5618,
      "atu": 5619,
      "âĢĺ": 5620,
      "vement": 5621,
      "Ġstro": 5622,
      "ĠWay": 5623,
      "arded": 5624,
      "ĠNovember": 5625,
      "apers": 5626,
      "Ġassured": 5627,
      "Ġexposed": 5628,
      "Ġproposed": 5629,
      "happ": 5630,
      "Ġsubjective": 5631,
      "Ġfallen": 5632,
      "Ġinclination": 5633,
      "Ġaffection": 5634,
      "Ġexcited": 5635,
      "Ġsquares": 5636,
      "Ġarcs": 5637,
      "Ġmountain": 5638,
      "Ġpriori": 5639,
      "ĠHelvet": 5640,
      "NT": 5641,
      "met": 5642,
      "Ġbank": 5643,
      "Ġpressed": 5644,
      "Ġhate": 5645,
      "entions": 5646,
      "ulous": 5647,
      "ĠMen": 5648,
      "ĠMaj": 5649,
      "eret": 5650,
      "Ġintensity": 5651,
      "Ġmole": 5652,
      "Ġspecul": 5653,
      "Ġnative": 5654,
      "Ġgenerations": 5655,
      "Ġcorner": 5656,
      "Ġrob": 5657,
      "Ġdecree": 5658,
      "Ġdelay": 5659,
      "Ġsatisfy": 5660,
      "world": 5661,
      "Ġcollapse": 5662,
      "Ġpictures": 5663,
      "Ġlogic": 5664,
      "ĠGrande": 5665,
      "Ġutterly": 5666,
      "Ġpermanent": 5667,
      "ĠSALV": 5668,
      "27": 5669,
      "bly": 5670,
      "che": 5671,
      "iber": 5672,
      "kst": 5673,
      "Ġcaught": 5674,
      "Ġtop": 5675,
      "arant": 5676,
      "ĠAh": 5677,
      "Ġcomfort": 5678,
      "ĠCD": 5679,
      "Ġcomposition": 5680,
      "Ġprec": 5681,
      "Ġcommitted": 5682,
      "Ġreform": 5683,
      "iae": 5684,
      "Ġlearnt": 5685,
      "ĠAnother": 5686,
      "aimed": 5687,
      "Ġomnes": 5688,
      "Ġmechanical": 5689,
      "Ġsounds": 5690,
      "Ġwonderful": 5691,
      "ĠDUKE": 5692,
      "IX": 5693,
      "oon": 5694,
      "rid": 5695,
      "Ġtal": 5696,
      "lli": 5697,
      "ivable": 5698,
      "Ġuns": 5699,
      "Ġparties": 5700,
      "Ġspher": 5701,
      "ocks": 5702,
      "Ġpreserve": 5703,
      "Ġextrem": 5704,
      "attered": 5705,
      "Ġexamined": 5706,
      "Ġmonaster": 5707,
      "Ġplanet": 5708,
      "Ġillness": 5709,
      "Ġoccurs": 5710,
      "Ġcommunic": 5711,
      "Ġcutting": 5712,
      "Ġlacking": 5713,
      "Ġomnibus": 5714,
      "Ġinstruments": 5715,
      "Ġadopted": 5716,
      "Ġappropriate": 5717,
      "ootnote": 5718,
      "ĠCastruc": 5719,
      "Ġstopped": 5720,
      "Ġthoroughly": 5721,
      "Ġsyzygies": 5722,
      "Ġessentially": 5723,
      "ĠCastruccio": 5724,
      "23": 5725,
      "YS": 5726,
      "iour": 5727,
      "line": 5728,
      "pres": 5729,
      "rary": 5730,
      "Ġdread": 5731,
      "Ġseed": 5732,
      "Ġcomplic": 5733,
      "Ġproc": 5734,
      "Ġabund": 5735,
      "abor": 5736,
      "Ġappeal": 5737,
      "Ġequation": 5738,
      "ĠYu": 5739,
      "Ġadmir": 5740,
      "Ġincluding": 5741,
      "Ġreveals": 5742,
      "Ġlisten": 5743,
      "Ġkingdom": 5744,
      "Ġjourney": 5745,
      "Ġfocus": 5746,
      "ĠKonigsberg": 5747,
      "200": 5748,
      "CT": 5749,
      "Ã¼": 5750,
      "Ġnormal": 5751,
      "Ġeager": 5752,
      "Ġgame": 5753,
      "quis": 5754,
      "Ġatomic": 5755,
      "ĠSim": 5756,
      "ested": 5757,
      "ouses": 5758,
      "Ġdisorder": 5759,
      "clf": 5760,
      "Ġsuffered": 5761,
      "Ġolder": 5762,
      "archy": 5763,
      "Ġcurious": 5764,
      "Ġschools": 5765,
      "Ġquarters": 5766,
      "Ġinduced": 5767,
      "Ġsaved": 5768,
      "Ġexcitement": 5769,
      "OLUTION": 5770,
      "24": 5771,
      "mpe": 5772,
      "tr": 5773,
      "Ġbul": 5774,
      "otr": 5775,
      "ĠBoth": 5776,
      "erences": 5777,
      "Ġequival": 5778,
      "Ġextended": 5779,
      "Ġdefine": 5780,
      "Ġglory": 5781,
      "atively": 5782,
      "Ġadvice": 5783,
      "Ġdirections": 5784,
      "Ġperfection": 5785,
      "Ġoccasionally": 5786,
      "Ġbroke": 5787,
      "Ġforgive": 5788,
      "Ġidentical": 5789,
      "Ġadopt": 5790,
      "ĠMARX": 5791,
      "Ġsimultaneously": 5792,
      "Ġearnest": 5793,
      "Oh": 5794,
      "YPH": 5795,
      "aid": 5796,
      "bi": 5797,
      "upp": 5798,
      "zen": 5799,
      "reement": 5800,
      "encies": 5801,
      "Ġmixed": 5802,
      "rial": 5803,
      "usal": 5804,
      "ĠPS": 5805,
      "ĠLise": 5806,
      "Ġprejud": 5807,
      "Ġproud": 5808,
      "Ġdistribution": 5809,
      "Ġacted": 5810,
      "Ġflame": 5811,
      "Ġincident": 5812,
      "Ġconfront": 5813,
      "Ġdetect": 5814,
      "Ġproposition": 5815,
      "Ġnews": 5816,
      "Ġregards": 5817,
      "Ġsummer": 5818,
      "ugal": 5819,
      "Ġtrial": 5820,
      "Ġpolitics": 5821,
      "Ġremarked": 5822,
      "Ġfriendship": 5823,
      "Ġdeparture": 5824,
      "Ġsacrific": 5825,
      "Ġliterature": 5826,
      "Ġacknowled": 5827,
      "Ġdaughter": 5828,
      "Ġtrajectory": 5829,
      "Footnote": 5830,
      "kes": 5831,
      "ror": 5832,
      "Ġtant": 5833,
      "Ġaver": 5834,
      "isset": 5835,
      "ounce": 5836,
      "arge": 5837,
      "Ġascent": 5838,
      "Ġcong": 5839,
      "rav": 5840,
      "Ġmel": 5841,
      "place": 5842,
      "arians": 5843,
      "phas": 5844,
      "Ġhyper": 5845,
      "Ġsubstitut": 5846,
      "Ġswift": 5847,
      "Ġhonest": 5848,
      "Ġtrium": 5849,
      "ground": 5850,
      "while": 5851,
      "exist": 5852,
      "Ġsupported": 5853,
      "Ġdiameters": 5854,
      "ĠPolish": 5855,
      "Ġfairly": 5856,
      "Ġadministration": 5857,
      "Ġcoward": 5858,
      "Ġenormous": 5859,
      "nal": 5860,
      "anium": 5861,
      "Ġlod": 5862,
      "idity": 5863,
      "Ġante": 5864,
      "eter": 5865,
      "Ġstorm": 5866,
      "using": 5867,
      "ĠSIS": 5868,
      "anda": 5869,
      "ĠGo": 5870,
      "Ġintense": 5871,
      "ĠNational": 5872,
      "activity": 5873,
      "Ġconsult": 5874,
      "ĠEin": 5875,
      "Ġwhereby": 5876,
      "Ġendure": 5877,
      "Ġbold": 5878,
      "Ġneglect": 5879,
      "Ġspeaks": 5880,
      "Ġelsewhere": 5881,
      "Ġassumption": 5882,
      "Ġstreet": 5883,
      "Ġoccasions": 5884,
      "Ġfortun": 5885,
      "Ġannihil": 5886,
      "Ġaxi": 5887,
      "ĠMinister": 5888,
      "ĠMYTH": 5889,
      "YPHUS": 5890,
      "?'": 5891,
      "There": 5892,
      "long": 5893,
      "Ġcate": 5894,
      "Ġna": 5895,
      "Ġejus": 5896,
      "ley": 5897,
      "rose": 5898,
      "ĠAct": 5899,
      "aker": 5900,
      "pping": 5901,
      "erer": 5902,
      "Ġrout": 5903,
      "Ġmoves": 5904,
      "dui": 5905,
      "clock": 5906,
      "Ġemer": 5907,
      "Ġemphas": 5908,
      "Ġenthus": 5909,
      "ICS": 5910,
      "Ġbringing": 5911,
      "Ġcultiv": 5912,
      "Ġcampaign": 5913,
      "Ġdeclared": 5914,
      "Ġsacred": 5915,
      "Ġviolence": 5916,
      "Ġuniformly": 5917,
      "Ġaccurate": 5918,
      "Ġwalls": 5919,
      "Ġaccordance": 5920,
      "Ġincapable": 5921,
      "ĠREVOLUTION": 5922,
      "ĠSISYPHUS": 5923,
      "Ġenthusi": 5924,
      "ses": 5925,
      "Ġsons": 5926,
      "Ġekst": 5927,
      "Ġgal": 5928,
      "antly": 5929,
      "oph": 5930,
      "aucon": 5931,
      "Ġevidently": 5932,
      "Ġimpr": 5933,
      "Ġcler": 5934,
      "Ġseriously": 5935,
      "Ġproduces": 5936,
      "Ġsubjectivity": 5937,
      "Ġcontinent": 5938,
      "Ġsouth": 5939,
      "Ġsets": 5940,
      "ierke": 5941,
      "Ġholding": 5942,
      "Ġgenu": 5943,
      "Ġerrors": 5944,
      "Ġapprehended": 5945,
      "Ġoccupy": 5946,
      "ĠNorth": 5947,
      "Ġindicate": 5948,
      "Ġaims": 5949,
      "ĠGlaucon": 5950,
      "ĠSuppose": 5951,
      "Ġintuition": 5952,
      "Ġgarrison": 5953,
      "Ġexpansion": 5954,
      "iable": 5955,
      "ji": 5956,
      "Ġ\\": 5957,
      "Ġtow": 5958,
      "Ġnonsense": 5959,
      "otes": 5960,
      "ĠPast": 5961,
      "Ġrising": 5962,
      "Ġconsum": 5963,
      "Ġcontend": 5964,
      "Ġours": 5965,
      "Ġsomeone": 5966,
      "Ġsimpl": 5967,
      "Ġslave": 5968,
      "Ġfinding": 5969,
      "Ġdepri": 5970,
      "Ġcurv": 5971,
      "Ġcommanded": 5972,
      "ĠSpain": 5973,
      "ĠTrans": 5974,
      "Ġmistaken": 5975,
      "ĠNeither": 5976,
      "Ġdealing": 5977,
      "Ġbuilding": 5978,
      "Ġsurrounded": 5979,
      "Ġterritory": 5980,
      "ĠMARXISM": 5981,
      "finite": 5982,
      "anch": 5983,
      "Ġadvers": 5984,
      "Ġrarely": 5985,
      "ĠKierke": 5986,
      "Ġseeking": 5987,
      "them": 5988,
      "lessly": 5989,
      "Ġcolle": 5990,
      "Ġlegions": 5991,
      "Ġseparation": 5992,
      "Ġconviction": 5993,
      "Ġrevolutionary": 5994,
      "ĠProf": 5995,
      "Ġmedic": 5996,
      "Ġdeceived": 5997,
      "Ġcrews": 5998,
      "Ġastronom": 5999,
      "ĠBacon": 6000,
      "ĠEinstein": 6001,
      "ding": 6002,
      "rass": 6003,
      "Ġwid": 6004,
      "atives": 6005,
      "Ġfat": 6006,
      "Ġthread": 6007,
      "Ġsevere": 6008,
      "ĠCOU": 6009,
      "emed": 6010,
      "Ġchap": 6011,
      "Ġgenerated": 6012,
      "Ġequit": 6013,
      "ibi": 6014,
      "Ġcrime": 6015,
      "Ġutmost": 6016,
      "Ġminutes": 6017,
      "Ġprovince": 6018,
      "Ġslightest": 6019,
      "Ġcivit": 6020,
      "Ġunfortun": 6021,
      "Ġultimately": 6022,
      "Ġanalogy": 6023,
      "Ġsettled": 6024,
      "ĠArmy": 6025,
      "Ġadapt": 6026,
      "ĠPyotr": 6027,
      "Ġarrangement": 6028,
      "Ġsuperficies": 6029,
      "Ġweapons": 6030,
      "Ġfloor": 6031,
      "Ġdiscipl": 6032,
      "Ġeggs": 6033,
      "Ġgarden": 6034,
      "Ġsympathy": 6035,
      "ĠRhine": 6036,
      "\"--": 6037,
      "fl": 6038,
      "rating": 6039,
      "uz": 6040,
      "ysi": 6041,
      "ita": 6042,
      "itus": 6043,
      "Ġcart": 6044,
      "Ġcities": 6045,
      "ĠIDE": 6046,
      "Ġhab": 6047,
      "Ġneut": 6048,
      "Ġshare": 6049,
      "Ġring": 6050,
      "Ġunequ": 6051,
      "Ġpron": 6052,
      "Ġraces": 6053,
      "ĠVal": 6054,
      "Ġsupposing": 6055,
      "eca": 6056,
      "Ġ96": 6057,
      "Ġstrike": 6058,
      "Ġcastris": 6059,
      "ulses": 6060,
      "Ġfrequent": 6061,
      "Ġinstincts": 6062,
      "Ġbenefit": 6063,
      "Ġisolated": 6064,
      "Ġinnocent": 6065,
      "Ġmonastery": 6066,
      "ait": 6067,
      "vation": 6068,
      "Ġtel": 6069,
      "hered": 6070,
      "otic": 6071,
      "urance": 6072,
      "ĠSU": 6073,
      "thy": 6074,
      "ĠBund": 6075,
      "ĠPres": 6076,
      "ĠPier": 6077,
      "ĠThird": 6078,
      "irect": 6079,
      "Ġconsol": 6080,
      "agon": 6081,
      "ĠLike": 6082,
      "Ġrecord": 6083,
      "Ġrecently": 6084,
      "Ġassent": 6085,
      "Ġextinct": 6086,
      "Ġcircular": 6087,
      "Ġadvent": 6088,
      "Ġcausa": 6089,
      "Ġsentiment": 6090,
      "ĠAny": 6091,
      "ancing": 6092,
      "Ġrulers": 6093,
      "Ġdescendants": 6094,
      "Ġphysician": 6095,
      "Ġanalogous": 6096,
      "Ġsettle": 6097,
      "Ġchemical": 6098,
      "Ġempirical": 6099,
      "26": 6100,
      "cle": 6101,
      "gu": 6102,
      "hold": 6103,
      "oring": 6104,
      "Ġdans": 6105,
      "uten": 6106,
      "Ġstead": 6107,
      "ĠLem": 6108,
      "Ġdistrict": 6109,
      "Ġinterior": 6110,
      "Ġwherever": 6111,
      "Ġ57": 6112,
      "Ġdetach": 6113,
      "retched": 6114,
      "Ġcolours": 6115,
      "Ġtempt": 6116,
      "Ġmember": 6117,
      "Ġcontinuous": 6118,
      "Ġrecognition": 6119,
      "Ġconsistent": 6120,
      "Ġteaching": 6121,
      "ĠBritish": 6122,
      "Ġassistance": 6123,
      "Ġfemale": 6124,
      "gaard": 6125,
      "ĠIdeas": 6126,
      "Ġrevelation": 6127,
      "Ġcylinder": 6128,
      "Ġparadox": 6129,
      "Ġence": 6130,
      "icious": 6131,
      "icles": 6132,
      "ĠCent": 6133,
      "estion": 6134,
      "oused": 6135,
      "ĠHomer": 6136,
      "Ġdism": 6137,
      "ĠEd": 6138,
      "Ġspr": 6139,
      "Ġcompounded": 6140,
      "Ġ183": 6141,
      "Ġclever": 6142,
      "Ġcarriage": 6143,
      "Ġeste": 6144,
      "Ġ190": 6145,
      "Ġirrit": 6146,
      "ĠIndians": 6147,
      "Ġceased": 6148,
      "Ġsuspect": 6149,
      "Ġpromise": 6150,
      "Ġcapitalist": 6151,
      "Ġmountains": 6152,
      "Ġanxious": 6153,
      "Ġgeometry": 6154,
      "Ġdilig": 6155,
      "Ġdrunk": 6156,
      "Ġhorizon": 6157,
      "Ġencounter": 6158,
      "amorphosis": 6159,
      "German": 6160,
      "Ġgenuine": 6161,
      "top": 6162,
      "Ġtree": 6163,
      "Ġsate": 6164,
      "see": 6165,
      "Ġreverse": 6166,
      "Ġconic": 6167,
      "ĠMu": 6168,
      "Ġunite": 6169,
      "Ġunhapp": 6170,
      "Ġuses": 6171,
      "Ġgreatness": 6172,
      "Ġprem": 6173,
      "ĠHegel": 6174,
      "Ġpoets": 6175,
      "Ġremind": 6176,
      "arium": 6177,
      "Ġreputation": 6178,
      "ibility": 6179,
      "Ġparab": 6180,
      "Ġconcealed": 6181,
      "Ġdenied": 6182,
      "Ġpainful": 6183,
      "Ġsky": 6184,
      "Ġindicated": 6185,
      "Ġproletarian": 6186,
      "Ġconfirmed": 6187,
      "Ġpoetry": 6188,
      "Ġbreeds": 6189,
      "âĢ²_": 6190,
      "Ġhybrids": 6191,
      "Ġhyperbol": 6192,
      "Ġtriumph": 6193,
      "ĠKierkegaard": 6194,
      "ais": 6195,
      "ped": 6196,
      "ube": 6197,
      "rev": 6198,
      "Ġmix": 6199,
      "Ġfrag": 6200,
      "aron": 6201,
      "Ġears": 6202,
      "Ġeorum": 6203,
      "Ġrejo": 6204,
      "ims": 6205,
      "Ġhaunt": 6206,
      "iron": 6207,
      "Ġprogram": 6208,
      "ĠPort": 6209,
      "Ġshalt": 6210,
      "ĠEach": 6211,
      "Ġspheres": 6212,
      "Ġpossi": 6213,
      "Ġaccess": 6214,
      "Ġpeas": 6215,
      "Ġequator": 6216,
      "Ġmoder": 6217,
      "Ġslaves": 6218,
      "Ġcaiss": 6219,
      "Ġretained": 6220,
      "Ġcollection": 6221,
      "Ġdisposition": 6222,
      "ocked": 6223,
      "Ġpurposes": 6224,
      "Ġattempted": 6225,
      "Ġcalm": 6226,
      "ĠReg": 6227,
      "Ġengage": 6228,
      "Ġdescended": 6229,
      "Ġhurt": 6230,
      "Ġthickness": 6231,
      "cribed": 6232,
      "Ġcogito": 6233,
      "Ġtyrann": 6234,
      "So": 6235,
      "cr": 6236,
      "Ġsie": 6237,
      "Ġmess": 6238,
      "edy": 6239,
      "orious": 6240,
      "Ġhit": 6241,
      "Ġholes": 6242,
      "imony": 6243,
      "Ġasleep": 6244,
      "ĠAM": 6245,
      "ĠBD": 6246,
      "Ġprohib": 6247,
      "ĠCL": 6248,
      "ĠPresent": 6249,
      "ĠMari": 6250,
      "ĠHaving": 6251,
      "auv": 6252,
      "agger": 6253,
      "Ġliable": 6254,
      "oked": 6255,
      "Ġpreviously": 6256,
      "Ġincluded": 6257,
      "Ġmisery": 6258,
      "Ġplayed": 6259,
      "Ġprimitive": 6260,
      "ĠCorps": 6261,
      "Ġrapidly": 6262,
      "ĠNothingness": 6263,
      "Ġunexpected": 6264,
      "ĠVienna": 6265,
      "Ġaverage": 6266,
      "28": 6267,
      "bour": 6268,
      "Ġject": 6269,
      "Ġped": 6270,
      "Ġdressed": 6271,
      "asc": 6272,
      "asiness": 6273,
      "Ġecl": 6274,
      "Ġconject": 6275,
      "ĠAS": 6276,
      "estial": 6277,
      "Ġalike": 6278,
      "Ġthereof": 6279,
      "Ġquid": 6280,
      "Ġarch": 6281,
      "ĠNat": 6282,
      "Ġfeature": 6283,
      "anging": 6284,
      "Ġsetting": 6285,
      "Ġsensations": 6286,
      "Ġpretend": 6287,
      "Ġsolely": 6288,
      "Ġinstitutions": 6289,
      "Ġvoluntary": 6290,
      "Ġcensor": 6291,
      "Ġfinger": 6292,
      "Ed": 6293,
      "ns": 6294,
      "pro": 6295,
      "yal": 6296,
      "Ġmig": 6297,
      "orter": 6298,
      "Ġetern": 6299,
      "Ġstated": 6300,
      "ushing": 6301,
      "ĠPet": 6302,
      "Ġshut": 6303,
      "ĠMed": 6304,
      "arted": 6305,
      "Ġchlor": 6306,
      "Ġunm": 6307,
      "Ġimplic": 6308,
      "ĠNature": 6309,
      "Ġenable": 6310,
      "Ġgrad": 6311,
      "Ġputs": 6312,
      "Ġfeels": 6313,
      "Ġimages": 6314,
      "Ġincreases": 6315,
      "Ġchanging": 6316,
      "Ġruin": 6317,
      "Ġbrothers": 6318,
      "Ġsoldier": 6319,
      "regular": 6320,
      "Ġprogen": 6321,
      "Ġcarrying": 6322,
      "Ġrevolve": 6323,
      "Ġobviously": 6324,
      "ĠÂ£": 6325,
      "Ġbehaviour": 6326,
      "Ġtheoretical": 6327,
      "THER": 6328,
      "cause": 6329,
      "eks": 6330,
      "from": 6331,
      "four": 6332,
      "tem": 6333,
      "Ġfaint": 6334,
      "Ġreaction": 6335,
      "ĠTur": 6336,
      "amma": 6337,
      "raint": 6338,
      "things": 6339,
      "Ġjump": 6340,
      "Ġattained": 6341,
      "Ġindign": 6342,
      "Ġempire": 6343,
      "Ġoppon": 6344,
      "ĠPRO": 6345,
      "Ġaffair": 6346,
      "Ġbehold": 6347,
      "Ġsuccessful": 6348,
      "Ġcommunication": 6349,
      "Ġfields": 6350,
      "Ġinstitution": 6351,
      "Ġendeavour": 6352,
      "Ġprofession": 6353,
      "Ġsynthesis": 6354,
      "Ġcelestial": 6355,
      "Ġinherited": 6356,
      "Ġconstructed": 6357,
      "consciousness": 6358,
      "Ġrisk": 6359,
      "Ġsatell": 6360,
      "TE": 6361,
      "uan": 6362,
      "ancy": 6363,
      "Ġgift": 6364,
      "Ġnoted": 6365,
      "Ġseized": 6366,
      "antic": 6367,
      "Ġrefused": 6368,
      "Ġ189": 6369,
      "Ġtrade": 6370,
      "Ġregarding": 6371,
      "ĠBefore": 6372,
      "ĠProv": 6373,
      "Ġinternational": 6374,
      "Ġurged": 6375,
      "Ġuranium": 6376,
      "Ġintelligent": 6377,
      "Ġescapes": 6378,
      "Ġtradition": 6379,
      "Ġuncertainty": 6380,
      "Ġcateg": 6381,
      "Ġgalax": 6382,
      "ht": 6383,
      "Ġmale": 6384,
      "orix": 6385,
      "asse": 6386,
      "Ġgy": 6387,
      "Ġgrief": 6388,
      "Ġweek": 6389,
      "olve": 6390,
      "Ġintegr": 6391,
      "ĠNik": 6392,
      "Ġobey": 6393,
      "Ġpert": 6394,
      "abled": 6395,
      "Ġformations": 6396,
      "Ġreliqu": 6397,
      "Ġindisp": 6398,
      "Ġpreservation": 6399,
      "Ġreprodu": 6400,
      "Ġbelieves": 6401,
      "ĠXV": 6402,
      "Ġlawy": 6403,
      "Ġdetermines": 6404,
      "Ġdisposal": 6405,
      "Ġprojects": 6406,
      "Ġreplaced": 6407,
      "Ġguardians": 6408,
      "Ġmerch": 6409,
      "Ġsources": 6410,
      "Ġtransformed": 6411,
      "Ġbrain": 6412,
      "Ġindifference": 6413,
      "ĠPierre": 6414,
      ",)": 6415,
      "bility": 6416,
      "rays": 6417,
      "Ġsor": 6418,
      "Ġcas": 6419,
      "Ġcust": 6420,
      "Ġdress": 6421,
      "Ġnine": 6422,
      "ille": 6423,
      "ĠCons": 6424,
      "Ġmyster": 6425,
      "pernic": 6426,
      "ĠEr": 6427,
      "Ġsail": 6428,
      "Ġpollen": 6429,
      "Ġattribute": 6430,
      "Ġ300": 6431,
      "Ġobserver": 6432,
      "ERS": 6433,
      "Ġinside": 6434,
      "Ġrestrict": 6435,
      "ĠSociety": 6436,
      "Ġallows": 6437,
      "Ġhostile": 6438,
      "reflect": 6439,
      "ĠSaty": 6440,
      "Ġsnow": 6441,
      "ĠCopernic": 6442,
      "Ġwritings": 6443,
      "ĠGalile": 6444,
      "vant": 6445,
      "Ġbag": 6446,
      "Ġfil": 6447,
      "ano": 6448,
      "vey": 6449,
      "ĠAN": 6450,
      "Ġstones": 6451,
      "Ġmeat": 6452,
      "assad": 6453,
      "Ġdisint": 6454,
      "arer": 6455,
      "ĠLa": 6456,
      "Ġattach": 6457,
      "Ġflow": 6458,
      "Ġ500": 6459,
      "Ġrightly": 6460,
      "ĠStill": 6461,
      "Ġcalling": 6462,
      "Ġartific": 6463,
      "Ġirregular": 6464,
      "Ġmilk": 6465,
      "ĠWhich": 6466,
      "Ġcastra": 6467,
      "Ġcapitalism": 6468,
      "Ġcontemplation": 6469,
      "ĠTHEOREM": 6470,
      "Ġsuspicion": 6471,
      "Ġdialect": 6472,
      "Ġ!": 6473,
      "Ġarose": 6474,
      "Ġod": 6475,
      "Ġocean": 6476,
      "Ġborrow": 6477,
      "Ġfitted": 6478,
      "Ġfoss": 6479,
      "Ġtomorrow": 6480,
      "omp": 6481,
      "ĠIT": 6482,
      "Ġgrew": 6483,
      "ĠâĢĻ": 6484,
      "ĠPole": 6485,
      "Ġchurch": 6486,
      "ĠNa": 6487,
      "Ġconsent": 6488,
      "Ġ200": 6489,
      "Ġclimate": 6490,
      "Ġcloud": 6491,
      "urnal": 6492,
      "Ġsupposition": 6493,
      "Ġrecover": 6494,
      "Ġholy": 6495,
      "Ġawaken": 6496,
      "Ġoppression": 6497,
      "gger": 6498,
      "Ġdelicate": 6499,
      "Ġstudies": 6500,
      "ĠPlut": 6501,
      "ulsion": 6502,
      "Ġrevolving": 6503,
      "Ġindependently": 6504,
      "Ġneighbour": 6505,
      "Ġabandon": 6506,
      "Ġnucleus": 6507,
      "Ġexteriority": 6508,
      "Ġpeasants": 6509,
      "):": 6510,
      "Do": 6511,
      "nam": 6512,
      "war": 6513,
      "xim": 6514,
      "Ġox": 6515,
      "Ġdam": 6516,
      "rol": 6517,
      "ĠAri": 6518,
      "rade": 6519,
      "ĠBomb": 6520,
      "Ġquo": 6521,
      "Ġhaste": 6522,
      "ruption": 6523,
      "Ġphysi": 6524,
      "Ġseeks": 6525,
      "Ġwhereof": 6526,
      "Ġsurre": 6527,
      "Ġfaire": 6528,
      "cket": 6529,
      "Ġproducing": 6530,
      "issent": 6531,
      "Ġreceives": 6532,
      "Ġdegrad": 6533,
      "Ġminor": 6534,
      "Ġdistinctly": 6535,
      "ANS": 6536,
      "Ġskill": 6537,
      "ĠAmong": 6538,
      "Ġtangent": 6539,
      "Ġofficials": 6540,
      "Ġtouched": 6541,
      "Ġcloser": 6542,
      "ĠBombay": 6543,
      "21": 6544,
      "gence": 6545,
      "hi": 6546,
      "ivers": 6547,
      "Â®": 6548,
      "Ġfly": 6549,
      "Ġfatal": 6550,
      "ĠInt": 6551,
      "Ġasc": 6552,
      "ading": 6553,
      "Ġalive": 6554,
      "ĠMil": 6555,
      "orted": 6556,
      "Ġtran": 6557,
      "ĠDel": 6558,
      "Ġdesper": 6559,
      "Ġprinces": 6560,
      "Ġexistent": 6561,
      "Ġslim": 6562,
      "Ġobserving": 6563,
      "Ġscreen": 6564,
      "Ġretreat": 6565,
      "Ġconceal": 6566,
      "ĠReich": 6567,
      "Ġtalked": 6568,
      "ĠAlthough": 6569,
      "Ġelectric": 6570,
      "Ġmutually": 6571,
      "restrial": 6572,
      "Ġaccomplished": 6573,
      "Ġreproach": 6574,
      "ĠPeople": 6575,
      "Ġvulgar": 6576,
      "ĠRevolution": 6577,
      "Ġcomplicated": 6578,
      "\".": 6579,
      ";âĢĶ": 6580,
      "UL": 6581,
      "].": 6582,
      "part": 6583,
      "Â£": 6584,
      "Ġtoler": 6585,
      "Ġrebus": 6586,
      "ctor": 6587,
      "change": 6588,
      "ands": 6589,
      "Ġhasten": 6590,
      "orders": 6591,
      "ĠKant": 6592,
      "fulness": 6593,
      "Ġbranc": 6594,
      "Ġsimplicity": 6595,
      "Ġincons": 6596,
      "Ġrecomm": 6597,
      "Ġdecis": 6598,
      "Ġinvolved": 6599,
      "Ġorganisation": 6600,
      "Ġinclude": 6601,
      "Ġtends": 6602,
      "Ġtending": 6603,
      "Ġdevoted": 6604,
      "Ġpractically": 6605,
      "Ġproceeds": 6606,
      "Ġembry": 6607,
      "Ġelectron": 6608,
      "Ġexperimental": 6609,
      "Ġrejected": 6610,
      "ĠAustrian": 6611,
      "ĠSeneca": 6612,
      "Ġequivalent": 6613,
      "ĠCOUNT": 6614,
      "Ġsiege": 6615,
      "IA": 6616,
      "Tt": 6617,
      "national": 6618,
      "ss": 6619,
      "such": 6620,
      "Ġip": 6621,
      "inus": 6622,
      "Ġsion": 6623,
      "Ġcub": 6624,
      "Ġfer": 6625,
      "Ġpil": 6626,
      "orne": 6627,
      "any": 6628,
      "Ġdin": 6629,
      "lls": 6630,
      "ĠIly": 6631,
      "Ġstages": 6632,
      "essor": 6633,
      "iline": 6634,
      "ĠBrief": 6635,
      "Ġprocl": 6636,
      "ĠWOR": 6637,
      "ĠFOR": 6638,
      "Ġnovel": 6639,
      "actory": 6640,
      "aud": 6641,
      "Ġconsc": 6642,
      "Ġagreement": 6643,
      "Ġlips": 6644,
      "Ġimpressed": 6645,
      "ittee": 6646,
      "Ġobjections": 6647,
      "Ġrole": 6648,
      "Ġcentres": 6649,
      "Ġforest": 6650,
      "Ġforegoing": 6651,
      "Ġlatitude": 6652,
      "Ġservants": 6653,
      "rades": 6654,
      "Ġgrounds": 6655,
      "Ġtyrant": 6656,
      "Ġruling": 6657,
      "Ġambassad": 6658,
      "Ġcriticism": 6659,
      "Ġuneasiness": 6660,
      "Ġrecollection": 6661,
      "nexion": 6662,
      "oubtedly": 6663,
      "Th": 6664,
      "_)": 6665,
      "cher": 6666,
      "iate": 6667,
      "mod": 6668,
      "ĠÃ©": 6669,
      "itance": 6670,
      "Ġnaked": 6671,
      "Ġbearing": 6672,
      "Ġlumin": 6673,
      "Ġstream": 6674,
      "Ġatm": 6675,
      "Ġyell": 6676,
      "olay": 6677,
      "iveness": 6678,
      "ĠMon": 6679,
      "acc": 6680,
      "ĠFig": 6681,
      "Ġwouldn": 6682,
      "Ġtrif": 6683,
      "open": 6684,
      "ĠDO": 6685,
      "ĠDec": 6686,
      "Ġcontaining": 6687,
      "Ġsubsequently": 6688,
      "Ġcommission": 6689,
      "Ġrail": 6690,
      "ibly": 6691,
      "Ġmodifications": 6692,
      "attle": 6693,
      "Ġinvention": 6694,
      "Ġunique": 6695,
      "Ġleader": 6696,
      "Ġstudied": 6697,
      "Ġreflecting": 6698,
      "semble": 6699,
      "Ġreplace": 6700,
      "Ġresemblance": 6701,
      "Ġflee": 6702,
      "Ġaccompanied": 6703,
      "Ġresearch": 6704,
      "Ġspherical": 6705,
      "Ch": 6706,
      "oys": 6707,
      "inn": 6708,
      "inarily": 6709,
      "itz": 6710,
      "Ġpity": 6711,
      "Ġhouses": 6712,
      "ĠAug": 6713,
      "ĠMosc": 6714,
      "ĠWhether": 6715,
      "Ġrud": 6716,
      "aux": 6717,
      "ĠVol": 6718,
      "Ġinterc": 6719,
      "Ġconsiders": 6720,
      ".).": 6721,
      "Ġindefinite": 6722,
      "Ġgets": 6723,
      "Ġsooner": 6724,
      "Ġimaginary": 6725,
      "Ġdevil": 6726,
      "Ġcreatures": 6727,
      "Ġtries": 6728,
      "Ġpatients": 6729,
      "Ġsympt": 6730,
      "Ġattacked": 6731,
      "Ġstrengthen": 6732,
      "Ġfalsehood": 6733,
      "Ġfurnish": 6734,
      "Ġsurpassing": 6735,
      "ĠGauls": 6736,
      "Ġaccuracy": 6737,
      "Ġmiracle": 6738,
      "Ġacquaintance": 6739,
      "ĠGeorg": 6740,
      "ĠCOMM": 6741,
      "LD": 6742,
      "bel": 6743,
      "rm": 6744,
      "itably": 6745,
      "Ġcad": 6746,
      "Ġecc": 6747,
      "Ġerect": 6748,
      "Ġgest": 6749,
      "ĠTake": 6750,
      "Ġconverted": 6751,
      "Ġorb": 6752,
      "ĠSY": 6753,
      "ĠSomet": 6754,
      "ĠGood": 6755,
      "ĠNiem": 6756,
      "Ġdisag": 6757,
      "Ġspat": 6758,
      "Ġbodily": 6759,
      "Ġbeloved": 6760,
      "Ġcoff": 6761,
      "Ġcharged": 6762,
      "version": 6763,
      "Ġcarries": 6764,
      "Ġteeth": 6765,
      "Ġwanting": 6766,
      "Ġguarant": 6767,
      "Ġmonk": 6768,
      "Ġvalu": 6769,
      "Ġanswers": 6770,
      "Ġdispers": 6771,
      "Ġcrossing": 6772,
      "Ġsurprising": 6773,
      "Ġwaters": 6774,
      "Ġduties": 6775,
      "Ġlowest": 6776,
      "Ġintelligible": 6777,
      "Ġtestimony": 6778,
      "Ġdisgrace": 6779,
      "Ġshadow": 6780,
      "Ġwithdraw": 6781,
      "Ġsharp": 6782,
      "lo": 6783,
      "ux": 6784,
      "isl": 6785,
      "Ġdry": 6786,
      "Ġdwell": 6787,
      "seen": 6788,
      "Ġdeb": 6789,
      "ĠSj": 6790,
      "Ġproves": 6791,
      "Ġalliance": 6792,
      "ĠOnce": 6793,
      "ĠWould": 6794,
      "Ġplate": 6795,
      "Ġenabled": 6796,
      "Ġinfin": 6797,
      "Ġroot": 6798,
      "Ġproductions": 6799,
      "Ġdiet": 6800,
      "Ġsituated": 6801,
      "ossima": 6802,
      "ĠConsequently": 6803,
      "ĠPHYS": 6804,
      "ĠZossima": 6805,
      "Ġcouncil": 6806,
      "Ġtails": 6807,
      "Ġpositively": 6808,
      "Ġhopes": 6809,
      "Ġdignity": 6810,
      "ĠLabien": 6811,
      "ĠNikolay": 6812,
      "Ġatmosp": 6813,
      "ĠMoscow": 6814,
      "ĠNiemen": 6815,
      "iat": 6816,
      "rust": 6817,
      "yev": 6818,
      "Ã¯": 6819,
      "Ġsan": 6820,
      "onic": 6821,
      "Ġball": 6822,
      "Ġinversely": 6823,
      "Ġnin": 6824,
      "Ġnerv": 6825,
      "ĠAre": 6826,
      "Ġcomment": 6827,
      "Ġarrest": 6828,
      "Ġflood": 6829,
      "Ġexpense": 6830,
      "Ġdeter": 6831,
      "ĠStephen": 6832,
      "ologists": 6833,
      "ARY": 6834,
      "Ġpsychology": 6835,
      "Ġjudged": 6836,
      "Ġincludes": 6837,
      "Ġdependent": 6838,
      "Ġsleeping": 6839,
      "ĠMarxism": 6840,
      "Ġimproved": 6841,
      "Ġmachines": 6842,
      "Ġcomprehension": 6843,
      "Ġwalking": 6844,
      "ODU": 6845,
      "Ġeternity": 6846,
      "ĠPlutarch": 6847,
      "40": 6848,
      "oper": 6849,
      "Ġtlie": 6850,
      "esse": 6851,
      "Ġdif": 6852,
      "Ġease": 6853,
      "Ġgre": 6854,
      "Ġconnexion": 6855,
      "Ġweep": 6856,
      "ĠSH": 6857,
      "ĠCont": 6858,
      "ĠrÃ©": 6859,
      "Ġintimate": 6860,
      "agne": 6861,
      "Ġindul": 6862,
      "ordinates": 6863,
      "Ġcorrupt": 6864,
      "Ġpropose": 6865,
      "Ġstatements": 6866,
      "Ġexpresses": 6867,
      "Ġrespects": 6868,
      "Ġedition": 6869,
      "Ġstudent": 6870,
      "Ġdispute": 6871,
      "ICE": 6872,
      "Ġanti": 6873,
      "Ġgentleman": 6874,
      "Ġreciprocal": 6875,
      "Ġpropagated": 6876,
      "Ġbatteries": 6877,
      "Ġchloride": 6878,
      "'t": 6879,
      "22": 6880,
      "PS": 6881,
      "acious": 6882,
      "now": 6883,
      "uum": 6884,
      "Ġscious": 6885,
      "isible": 6886,
      "Ġpont": 6887,
      "ĠIr": 6888,
      "Ġreward": 6889,
      "cto": 6890,
      "Ġexagger": 6891,
      "Ġstore": 6892,
      "Ġstick": 6893,
      "rained": 6894,
      "ĠSm": 6895,
      "umer": 6896,
      "Ġneck": 6897,
      "ĠMa": 6898,
      "ĠMun": 6899,
      "allen": 6900,
      "Ġnostr": 6901,
      "ĠNap": 6902,
      "aret": 6903,
      "angers": 6904,
      "Ġsupposes": 6905,
      "Ġserves": 6906,
      "Ġdiscern": 6907,
      "ĠStett": 6908,
      "Ġtelling": 6909,
      "Ġreturning": 6910,
      "Ġlargely": 6911,
      "Ġmarry": 6912,
      "Ġmiserable": 6913,
      "ributes": 6914,
      "ĠConf": 6915,
      "ĠNEW": 6916,
      "Ġheavenly": 6917,
      "ĠParfen": 6918,
      "Ġenviron": 6919,
      "Ġstimuli": 6920,
      "Ġburning": 6921,
      "ĠFurthermore": 6922,
      "Ġglobes": 6923,
      "Ġmedicine": 6924,
      "Ġunhappy": 6925,
      "Ġascertain": 6926,
      "ĠStettin": 6927,
      "ĠParfenovitch": 6928,
      "ds": 6929,
      "ipped": 6930,
      "pos": 6931,
      "heme": 6932,
      "Ġsle": 6933,
      "Ġsch": 6934,
      "isen": 6935,
      "Ġcert": 6936,
      "Ġhill": 6937,
      "Ġbears": 6938,
      "ĠTu": 6939,
      "ĠSE": 6940,
      "olit": 6941,
      "Ġvid": 6942,
      "ection": 6943,
      "ĠMaxim": 6944,
      "ĠDesc": 6945,
      "Ġliked": 6946,
      "Ġresour": 6947,
      "Ġsomewhere": 6948,
      "Ġformal": 6949,
      "Ġpresents": 6950,
      "velope": 6951,
      "Ġinterf": 6952,
      "Ġexped": 6953,
      "have": 6954,
      "Ġscound": 6955,
      "lessness": 6956,
      "cked": 6957,
      "edience": 6958,
      "Ġrevolutions": 6959,
      "Ġillusion": 6960,
      "Ġhearts": 6961,
      "Ġargue": 6962,
      "Ġstarting": 6963,
      "Ġconsisting": 6964,
      "ĠGreeks": 6965,
      "Ġpaths": 6966,
      "Ġfamilies": 6967,
      "ĠdÃ©ce": 6968,
      "Ġbreadth": 6969,
      "ĠCloud": 6970,
      "ĠPrussia": 6971,
      "Ġauxil": 6972,
      "Ġbreath": 6973,
      "Ġexclusively": 6974,
      "ilinear": 6975,
      "Ġtact": 6976,
      "Ġmerc": 6977,
      "Ġmamm": 6978,
      "Ġgather": 6979,
      "amb": 6980,
      "Ġdeed": 6981,
      "Ġmeas": 6982,
      "ĠSams": 6983,
      "Ġpros": 6984,
      "Ġproel": 6985,
      "Ġneur": 6986,
      "ĠOTHER": 6987,
      "Ġrough": 6988,
      "Ġunus": 6989,
      "Ġimit": 6990,
      "Ġnobody": 6991,
      "auer": 6992,
      "ĠRel": 6993,
      "abs": 6994,
      "Ġoutward": 6995,
      "ogene": 6996,
      "ondon": 6997,
      "plex": 6998,
      "fulf": 6999,
      "ĠJes": 7000,
      "Ġhumble": 7001,
      "Ġexplicit": 7002,
      "Ġglance": 7003,
      "Ġguide": 7004,
      "Ġimagined": 7005,
      "Ġannual": 7006,
      "Ġfunctions": 7007,
      "Ġarranged": 7008,
      "Ġpunish": 7009,
      "Ġdarkness": 7010,
      "Ġconquer": 7011,
      "Ġsupreme": 7012,
      "Ġinstructions": 7013,
      ".--_": 7014,
      "uk": 7015,
      "uity": 7016,
      "Ġlust": 7017,
      "ĠAL": 7018,
      "umerable": 7019,
      "ĠBav": 7020,
      "ĠPill": 7021,
      "ĠMost": 7022,
      "ĠHoh": 7023,
      "Ġwheel": 7024,
      "Ġrhy": 7025,
      "Ġchain": 7026,
      "Ġouter": 7027,
      "Ġregret": 7028,
      "Ġrose": 7029,
      "Ġblow": 7030,
      "Ġdecay": 7031,
      "Ġestim": 7032,
      "Ġpursue": 7033,
      "ĠUnder": 7034,
      "engers": 7035,
      "Ġdoubtful": 7036,
      "Ġdestined": 7037,
      "Ġtional": 7038,
      "Ġproceeding": 7039,
      "Ġattacks": 7040,
      "ĠUnion": 7041,
      "Ġbeside": 7042,
      "Ġpersuaded": 7043,
      "Ġceler": 7044,
      "Ġfoolish": 7045,
      "Ġmasters": 7046,
      "Ġcriminal": 7047,
      "ĠProfessor": 7048,
      "Ġgymn": 7049,
      "lakov": 7050,
      "mon": 7051,
      "yr": 7052,
      "reur": 7053,
      "Ġwings": 7054,
      "Ġbow": 7055,
      "icable": 7056,
      "Ġrear": 7057,
      "irass": 7058,
      "amation": 7059,
      "chief": 7060,
      "Ġstock": 7061,
      "ĠSal": 7062,
      "ĠBell": 7063,
      "Ġshop": 7064,
      "Ġchauv": 7065,
      "Ġensemble": 7066,
      "Ġsaf": 7067,
      "ĠHeide": 7068,
      "Ġemitted": 7069,
      "Ġfoundations": 7070,
      "Ġinvari": 7071,
      "Ġbackward": 7072,
      "Ġasks": 7073,
      "Ġguess": 7074,
      "ussian": 7075,
      "Ġauthorities": 7076,
      "Ġplaying": 7077,
      "Ġbene": 7078,
      "ocrats": 7079,
      "Ġclaims": 7080,
      "Ġaccurately": 7081,
      "ĠAmb": 7082,
      "Ġpropaganda": 7083,
      "Ġsynthetic": 7084,
      "Ġchemist": 7085,
      "ĠVenus": 7086,
      "Ġladies": 7087,
      "agraha": 7088,
      "Ġcaissons": 7089,
      "Ġbranches": 7090,
      "ĠHohlakov": 7091,
      "dat": 7092,
      "Ġpark": 7093,
      "Ġpaces": 7094,
      "Ġdate": 7095,
      "Ġdrew": 7096,
      "ĠIX": 7097,
      "otions": 7098,
      "Ġlic": 7099,
      "ĠTs": 7100,
      "ldom": 7101,
      "qui": 7102,
      "iller": 7103,
      "Ġselect": 7104,
      "ĠâĢľ_": 7105,
      "Ġric": 7106,
      "Ġplans": 7107,
      "ĠDuc": 7108,
      "Ġadequ": 7109,
      "Ġprice": 7110,
      "ovist": 7111,
      "Ġscheme": 7112,
      "Ġdifferently": 7113,
      "Ġoppid": 7114,
      "Ġexplains": 7115,
      "Ġsuffice": 7116,
      "Ġforever": 7117,
      "Ġavo": 7118,
      "Ġexpectation": 7119,
      "Ġcontinues": 7120,
      "Ġsends": 7121,
      "who": 7122,
      "Ġingen": 7123,
      "Ġruler": 7124,
      "Ġattractive": 7125,
      "Ġcorrespondence": 7126,
      "Ġdeclare": 7127,
      "Ġterrestrial": 7128,
      "Ġcombination": 7129,
      "pired": 7130,
      "Ġharmon": 7131,
      "Ġdrive": 7132,
      "Ġdemonstration": 7133,
      "Ġintroduce": 7134,
      "Ġtemporality": 7135,
      "Ġregularly": 7136,
      "Ġwalked": 7137,
      "ĠAlexand": 7138,
      "Ġgirls": 7139,
      "Ġinheritance": 7140,
      "Ġcontemporary": 7141,
      "Ġarbitrary": 7142,
      "Ġexhausted": 7143,
      "ANDING": 7144,
      "Ġphrase": 7145,
      "UT": 7146,
      "bant": 7147,
      "liness": 7148,
      "ucl": 7149,
      "ye": 7150,
      "Ġii": 7151,
      "Ġcand": 7152,
      "Ġmur": 7153,
      "Ġpup": 7154,
      "Ġhide": 7155,
      "anim": 7156,
      "Ġdrop": 7157,
      "Ġloses": 7158,
      "Ġgaz": 7159,
      "ura": 7160,
      "room": 7161,
      "Ġstir": 7162,
      "ĠSimil": 7163,
      "ĠPT": 7164,
      "gend": 7165,
      "ĠOb": 7166,
      "Ġnoct": 7167,
      "arya": 7168,
      "IND": 7169,
      "Ġequations": 7170,
      "Ġoverth": 7171,
      "Ġartist": 7172,
      "ucid": 7173,
      "Ġradical": 7174,
      "Ġedge": 7175,
      "usser": 7176,
      "....âĢĿ": 7177,
      "Ġcele": 7178,
      "Ġinnumerable": 7179,
      "ĠĠĠĠĠĠĠĠĠĠĠĠĠĠĠĠĠĠĠĠĠĠĠĠ": 7180,
      "Ġweaker": 7181,
      "Ġlacks": 7182,
      "Ġsuspected": 7183,
      "Ġweights": 7184,
      "Ġcorresponds": 7185,
      "Ġlieuten": 7186,
      "ensional": 7187,
      "Ġcombined": 7188,
      "Ġdisgu": 7189,
      "Ġbehavior": 7190,
      "Ġdefeat": 7191,
      "ĠAriovist": 7192,
      "Ġdecisive": 7193,
      "ĠSjt": 7194,
      "Empe": 7195,
      "apt": 7196,
      "bon": 7197,
      "fee": 7198,
      "rim": 7199,
      "whel": 7200,
      "Ġ#": 7201,
      "Ġtides": 7202,
      "held": 7203,
      "atically": 7204,
      "iti": 7205,
      "itors": 7206,
      "Ġfile": 7207,
      "Ġflying": 7208,
      "lla": 7209,
      "Ġseas": 7210,
      "ĠSl": 7211,
      "ĠSy": 7212,
      "ĠSax": 7213,
      "ĠCAS": 7214,
      "ivities": 7215,
      "ivered": 7216,
      "Ġplates": 7217,
      "Ġconsil": 7218,
      "Ġloves": 7219,
      "ĠLondon": 7220,
      "Ġamaz": 7221,
      "Ġresign": 7222,
      "Ġjustified": 7223,
      "Ġtransmitted": 7224,
      "Ġblue": 7225,
      "Ġgrace": 7226,
      "Ġconcur": 7227,
      "Ġeasier": 7228,
      "Ġinterested": 7229,
      "Ġvolume": 7230,
      "Ġpromised": 7231,
      "Ġgeological": 7232,
      "ĠPART": 7233,
      "Ġtouching": 7234,
      "ĠSocialist": 7235,
      "Ġprepare": 7236,
      "Ġterror": 7237,
      "Ġcritical": 7238,
      "Ġbourgeoisie": 7239,
      "ĠMetamorphosis": 7240,
      "Ġacknowledged": 7241,
      "Ġchapters": 7242,
      "bourg": 7243,
      "openh": 7244,
      "ĠPHYSICS": 7245,
      "://": 7246,
      "avery": 7247,
      "iest": 7248,
      "Ġ{": 7249,
      "ino": 7250,
      "ero": 7251,
      "Ġfought": 7252,
      "icide": 7253,
      "Ġlosing": 7254,
      "Ġhem": 7255,
      "Ġseize": 7256,
      "ĠSAGR": 7257,
      "thag": 7258,
      "cible": 7259,
      "Ġintentions": 7260,
      "Ġenvelope": 7261,
      "âĢĶâĢĿ": 7262,
      "ĠRem": 7263,
      "Ġthank": 7264,
      "resses": 7265,
      "Ġattitudes": 7266,
      "inking": 7267,
      "Ġoverwhel": 7268,
      "racted": 7269,
      "Ġfollowers": 7270,
      "Ġscrib": 7271,
      "Ġscattered": 7272,
      "Ġvaried": 7273,
      "Ġnationalism": 7274,
      "sequent": 7275,
      "Ġneglected": 7276,
      "Ġaccordingly": 7277,
      "Ġdeviation": 7278,
      "ĠSheth": 7279,
      "Ġantiqu": 7280,
      "ĠRegg": 7281,
      "Ġverte": 7282,
      "Ġpursuit": 7283,
      "Ġescaped": 7284,
      "Ġsupplied": 7285,
      "Ġsubtle": 7286,
      "Ġsterility": 7287,
      "Ġcondemned": 7288,
      "Ġcohorts": 7289,
      "Ġtitle": 7290,
      "Ġsubduplicate": 7291,
      "ĠIDEAS": 7292,
      "Ġcustoms": 7293,
      "ĠIlyitch": 7294,
      "Ġschol": 7295,
      "ĠdÃ©cembre": 7296,
      "Ġborders": 7297,
      "Ġcure": 7298,
      "Ġfeder": 7299,
      "Ġinward": 7300,
      "Ġthrew": 7301,
      "Ġgreen": 7302,
      "urable": 7303,
      "ĠBC": 7304,
      "Ġvoid": 7305,
      "ems": 7306,
      "ĠHave": 7307,
      "ĠWr": 7308,
      "Ġquas": 7309,
      "Ġworry": 7310,
      "Ġenquir": 7311,
      "Ġdesir": 7312,
      "ĠKir": 7313,
      "Ġgenerals": 7314,
      "ĠYour": 7315,
      "Ġpresently": 7316,
      "Ġsubjected": 7317,
      "Ġkey": 7318,
      "Ġcircumference": 7319,
      "Ġderive": 7320,
      "Ġuniversally": 7321,
      "Ġbrave": 7322,
      "Ġprevented": 7323,
      "Ġresemble": 7324,
      "Ġburst": 7325,
      "fortune": 7326,
      "iosity": 7327,
      "Ġsuperficial": 7328,
      "Ġwriters": 7329,
      "Ġinevitable": 7330,
      "ĠWorld": 7331,
      "Ġsorry": 7332,
      "ĠSatyagraha": 7333,
      "ĠDescartes": 7334,
      "ĠReggio": 7335,
      "Baron": 7336,
      "On": 7337,
      "oe": 7338,
      "rations": 7339,
      "Ġom": 7340,
      "orable": 7341,
      "quet": 7342,
      "Ġseldom": 7343,
      "cile": 7344,
      "ĠPan": 7345,
      "Ġimitation": 7346,
      "Ġprecip": 7347,
      "Ġinference": 7348,
      "Ġobjectivity": 7349,
      "ovno": 7350,
      "Ġgoodness": 7351,
      "hess": 7352,
      "Ġtrave": 7353,
      "Ġinsign": 7354,
      "Ġnaturalists": 7355,
      "Ġtender": 7356,
      "Ġassuming": 7357,
      "Ġsilver": 7358,
      "Ġaltitude": 7359,
      "Ġelementary": 7360,
      "Ġfifth": 7361,
      "Ġranks": 7362,
      "Ġnode": 7363,
      "Ġwitnesses": 7364,
      "Ġpursued": 7365,
      "Ġpermitted": 7366,
      "Ġcells": 7367,
      "ĠTHEORY": 7368,
      "BLEM": 7369,
      "Ġcredit": 7370,
      "ĠPROBLEM": 7371,
      "Ġsciousness": 7372,
      "Ġcelebr": 7373,
      "Com": 7374,
      "She": 7375,
      "va": 7376,
      "vent": 7377,
      "Ġwax": 7378,
      "Ġmic": 7379,
      "Ġinquire": 7380,
      "alc": 7381,
      "icial": 7382,
      "Ġreced": 7383,
      "Ġreven": 7384,
      "stand": 7385,
      "Ġgate": 7386,
      "ĠAH": 7387,
      "Ġcomrades": 7388,
      "ĠPosen": 7389,
      "ĠHo": 7390,
      "Ġcannon": 7391,
      "Ġmanuf": 7392,
      "Ġunlike": 7393,
      "Ġplays": 7394,
      "Ġpartial": 7395,
      "Ġobli": 7396,
      "unci": 7397,
      "Ġfeed": 7398,
      "Ġprelim": 7399,
      "Ġcommer": 7400,
      "Ġeverybody": 7401,
      "Ġsuppressed": 7402,
      "Ġgoods": 7403,
      "heses": 7404,
      "Ġassure": 7405,
      "Ġmeanings": 7406,
      "Ġtrag": 7407,
      "ĠXI": 7408,
      "Ġappearing": 7409,
      "Ġelabor": 7410,
      "Ġsentiments": 7411,
      "ĠINTR": 7412,
      "Ġpriest": 7413,
      "Ġbreast": 7414,
      "Ġmisunder": 7415,
      "Ġadvantages": 7416,
      "Ġenterpr": 7417,
      "ĠAlexander": 7418,
      "Ġtechnical": 7419,
      "Ġachieved": 7420,
      "ĠHeidegger": 7421,
      "50": 7422,
      "Not": 7423,
      "dim": 7424,
      "hor": 7425,
      "ooth": 7426,
      "Â«": 7427,
      "aning": 7428,
      "Ġwhis": 7429,
      "ession": 7430,
      "orem": 7431,
      "Ġwasn": 7432,
      "ĠBrig": 7433,
      "ĠPD": 7434,
      "ĠPal": 7435,
      "Ġsoil": 7436,
      "âĢĿ;": 7437,
      "Ġunwill": 7438,
      "Ġworship": 7439,
      "ĠDid": 7440,
      "Ġencl": 7441,
      "Ġadult": 7442,
      "ĠEast": 7443,
      "Ġspin": 7444,
      "ĠLaws": 7445,
      "Ġcomput": 7446,
      "ĠInter": 7447,
      "Ġdreaming": 7448,
      "ĠVerc": 7449,
      "ĠJa": 7450,
      "Ġparticip": 7451,
      "Ġbelieving": 7452,
      "Ġvariable": 7453,
      "Ġdiver": 7454,
      "Ġdestiny": 7455,
      "Ġsuperst": 7456,
      "Ġtypes": 7457,
      "Ġ150": 7458,
      "Ġsuspend": 7459,
      "Ġboundary": 7460,
      "Ġeventually": 7461,
      "Ġtowns": 7462,
      "Ġamounts": 7463,
      "Ġreduce": 7464,
      "Ġindicates": 7465,
      "Ġindependence": 7466,
      "Ġlistened": 7467,
      "Ġsurpassed": 7468,
      "Ġfifty": 7469,
      "ĠAmerican": 7470,
      "Ġcryst": 7471,
      "asymach": 7472,
      "ĠPrussian": 7473,
      "Ġclothes": 7474,
      "Ġsurrounding": 7475,
      "Ġaugmented": 7476,
      "Ġvillage": 7477,
      "ĠNaples": 7478,
      "ODUCTION": 7479,
      "asymachus": 7480,
      "RES": 7481,
      "ext": 7482,
      "oqu": 7483,
      "vis": 7484,
      "Ġfu": 7485,
      "Ġpist": 7486,
      "Ġinequ": 7487,
      "Ġhinder": 7488,
      "Ġham": 7489,
      "Ġsul": 7490,
      "Ġsequ": 7491,
      "Ġseason": 7492,
      "ĠSequ": 7493,
      "ĠBad": 7494,
      "ĠHusser": 7495,
      "Ġabrupt": 7496,
      "Ġconspic": 7497,
      "Ġpocket": 7498,
      "Ġsubmit": 7499,
      "Ġpresum": 7500,
      "Ġinstruction": 7501,
      "Ã©v": 7502,
      "Ġphot": 7503,
      "Ġworked": 7504,
      "upon": 7505,
      "sibly": 7506,
      "Ġadds": 7507,
      "Ġpersonality": 7508,
      "Ġcuriosity": 7509,
      "Ġhelped": 7510,
      "Ġanaly": 7511,
      "Ġmisfortune": 7512,
      "Ġdenom": 7513,
      "Ġlands": 7514,
      "Ġskin": 7515,
      "ĠXXV": 7516,
      "ĠPoles": 7517,
      "Ġdissolved": 7518,
      "withstanding": 7519,
      "Ġdrinking": 7520,
      "Ġshouted": 7521,
      "Ġachieve": 7522,
      "Ġperceptions": 7523,
      "natural": 7524,
      "iptic": 7525,
      "Ġaxioms": 7526,
      "ĠDOING": 7527,
      "Ġscoundrel": 7528,
      "irassiers": 7529,
      "Ġbeneath": 7530,
      "when": 7531,
      "you": 7532,
      "inem": 7533,
      "Ġwest": 7534,
      "Ġbarium": 7535,
      "Ġpit": 7536,
      "Ġduc": 7537,
      "Ġnur": 7538,
      "ĠSpe": 7539,
      "Ġanywhere": 7540,
      "Ġlovers": 7541,
      "Ġposited": 7542,
      "aven": 7543,
      "Ġclock": 7544,
      "Ġindirect": 7545,
      "Ġjustly": 7546,
      "Ġpassive": 7547,
      "Ġhereafter": 7548,
      "because": 7549,
      "imentary": 7550,
      "Ġminister": 7551,
      "Ġprovisions": 7552,
      "Ġdoubts": 7553,
      "Ġservices": 7554,
      "Ġlegisl": 7555,
      "Ġcommands": 7556,
      "Ġpossesses": 7557,
      "lets": 7558,
      "They": 7559,
      "ANT": 7560,
      "Ġfavourable": 7561,
      "Ġhostes": 7562,
      "Ġmurdered": 7563,
      "Ġapproaching": 7564,
      "Ġphysicist": 7565,
      "Ġhorsemen": 7566,
      "Ġinstrumental": 7567,
      "Ġfulfilled": 7568,
      "Ġpersuade": 7569,
      "Ġprotection": 7570,
      "Ġepoch": 7571,
      "iceroy": 7572,
      "ĠThrasymachus": 7573,
      "ĠSecondly": 7574,
      "ĠWesel": 7575,
      "Ġenvironment": 7576,
      "ogeneous": 7577,
      "ĠPillau": 7578,
      "48": 7579,
      "URE": 7580,
      "ml": 7581,
      "were": 7582,
      "Ġta": 7583,
      "Ġsaint": 7584,
      "onium": 7585,
      "Ġbind": 7586,
      "Ġfish": 7587,
      "Ġpale": 7588,
      "Ġpapers": 7589,
      "inget": 7590,
      "Ġlis": 7591,
      "Ġdebt": 7592,
      "ĠCicer": 7593,
      "Ġvow": 7594,
      "ĠFore": 7595,
      "Ġarrow": 7596,
      "ĠDes": 7597,
      "ĠLy": 7598,
      "Ġagg": 7599,
      "Ġfee": 7600,
      "Ġsubsequent": 7601,
      "ogue": 7602,
      "Ġpresupp": 7603,
      "ĠKung": 7604,
      "ĠVIII": 7605,
      "Ġrepublic": 7606,
      "Ġinterrupted": 7607,
      "Ġsmiled": 7608,
      "Ġimmov": 7609,
      "Ġcausing": 7610,
      "Ġsignify": 7611,
      "Ġcareer": 7612,
      "Ġirres": 7613,
      "ITH": 7614,
      "Ġseparates": 7615,
      "Ġinterpreted": 7616,
      "Ġantagon": 7617,
      "ĠIsa": 7618,
      "Ġreported": 7619,
      "Ġrequest": 7620,
      "Ġquarter": 7621,
      "Ġdecrease": 7622,
      "Ġteachers": 7623,
      "Ġacknowledge": 7624,
      "ĠCONC": 7625,
      "OWS": 7626,
      "Ġsterile": 7627,
      "Ġsubsist": 7628,
      "Ġconjunction": 7629,
      "Ġhunger": 7630,
      "Ġliquid": 7631,
      "ĠLatin": 7632,
      "Ġbalance": 7633,
      "Ġfatig": 7634,
      "Ġdiscipline": 7635,
      "Ġhyperbola": 7636,
      "Is": 7637,
      "light": 7638,
      "Ġtur": 7639,
      "Ġss": 7640,
      "Ġbent": 7641,
      "Ġborne": 7642,
      "Ġfraction": 7643,
      "Ġinert": 7644,
      "anes": 7645,
      "Ġdust": 7646,
      "aine": 7647,
      "ĠPo": 7648,
      "Ġvague": 7649,
      "ĠMake": 7650,
      "erson": 7651,
      "Ġmanage": 7652,
      "Ġdoc": 7653,
      "Ġunp": 7654,
      "pless": 7655,
      "Ġdisch": 7656,
      "Ġloving": 7657,
      "ĠLight": 7658,
      "oking": 7659,
      "Ġpoison": 7660,
      "Ġfactor": 7661,
      "Ġcoast": 7662,
      "Ġregul": 7663,
      "Ġcorruption": 7664,
      "Ġconference": 7665,
      "ĠChar": 7666,
      "arks": 7667,
      "cks": 7668,
      "Ġcolor": 7669,
      "gged": 7670,
      "Ġpurch": 7671,
      "Ġdepos": 7672,
      "Ġelev": 7673,
      "Ġprofit": 7674,
      "Ġdisposed": 7675,
      "Ġresisting": 7676,
      "Ġarrives": 7677,
      "Ġdimension": 7678,
      "Ġvisited": 7679,
      "Ġsending": 7680,
      "ĠWithout": 7681,
      "Ġexclaimed": 7682,
      "Ġcorrectly": 7683,
      "Ġdiscoveries": 7684,
      "helion": 7685,
      "Ġobstacle": 7686,
      "ĠThrough": 7687,
      "diamet": 7688,
      "Ġdeprived": 7689,
      "Ġcurvature": 7690,
      "Ġpossibles": 7691,
      "Ġdisintegr": 7692,
      "ctober": 7693,
      "ĠCASE": 7694,
      "Ġpreliminary": 7695,
      "AIN": 7696,
      "De": 7697,
      "Des": 7698,
      "Edui": 7699,
      "aur": 7700,
      "sing": 7701,
      "yl": 7702,
      "inter": 7703,
      "rels": 7704,
      "itals": 7705,
      "Ġcup": 7706,
      "Ġfut": 7707,
      "Ġfro": 7708,
      "Ġfier": 7709,
      "Ġissue": 7710,
      "ĠTy": 7711,
      "vering": 7712,
      "ĠSub": 7713,
      "olic": 7714,
      "Ġvap": 7715,
      "ember": 7716,
      "ĠOctober": 7717,
      "ĠFRE": 7718,
      "ĠLast": 7719,
      "Ġfeared": 7720,
      "ensable": 7721,
      "Ġindust": 7722,
      "uchy": 7723,
      "ĠKovno": 7724,
      "Ġbranch": 7725,
      "Ġcoat": 7726,
      "Ġtransm": 7727,
      "Ġproposal": 7728,
      "Ġtrained": 7729,
      "Ġboats": 7730,
      "Ġwriter": 7731,
      "Ġwrites": 7732,
      "inese": 7733,
      "Ġelastic": 7734,
      "Ġplacing": 7735,
      "Ġtotally": 7736,
      "Ġconcluded": 7737,
      "Ġbreaking": 7738,
      "Ġopening": 7739,
      "ĠMarcus": 7740,
      "Ġsixth": 7741,
      "Ġrelationship": 7742,
      "Ġsquad": 7743,
      "Ġsuggestion": 7744,
      "Ġbrigades": 7745,
      "appre": 7746,
      "Ġphysicists": 7747,
      "Ġcalculation": 7748,
      "Ġdisturbed": 7749,
      "ĠGlog": 7750,
      "Ġdelighted": 7751,
      "Ġabsorbed": 7752,
      "ĠWestphalia": 7753,
      "Ġenthusiasm": 7754,
      "Ġunequal": 7755,
      "Ġtelesc": 7756,
      "ĠAugust": 7757,
      "Ġatmosphere": 7758,
      "dimensional": 7759,
      "45": 7760,
      "500": 7761,
      "AD": 7762,
      "having": 7763,
      "nes": 7764,
      "Ġwont": 7765,
      "itious": 7766,
      "oral": 7767,
      "Ġdens": 7768,
      "Ġdyn": 7769,
      "Ġloud": 7770,
      "Ġweeks": 7771,
      "Ġsections": 7772,
      "ĠNatal": 7773,
      "Ġpermit": 7774,
      "Ġjan": 7775,
      "Ġundergo": 7776,
      "Ġappet": 7777,
      "Ã©re": 7778,
      "Ġyours": 7779,
      "Ġsheep": 7780,
      "Ġ58": 7781,
      "Ġslavery": 7782,
      "Ġawake": 7783,
      "Ġdemocratic": 7784,
      "Ġdetermining": 7785,
      "parable": 7786,
      "Ġtermed": 7787,
      "Ġchoosing": 7788,
      "Ġencoura": 7789,
      "itatem": 7790,
      "Ġeconomy": 7791,
      "Ġhealthy": 7792,
      "organ": 7793,
      "Ġcontradictions": 7794,
      "Ġdominant": 7795,
      "Ġmetaphysical": 7796,
      "Empereur": 7797,
      "Ġmanufact": 7798,
      "ĠINTRODUCTION": 7799,
      "For": 7800,
      "PER": 7801,
      "When": 7802,
      "eenth": 7803,
      "Ġsibi": 7804,
      "era": 7805,
      "Ġfant": 7806,
      "Ġpill": 7807,
      "Ġeating": 7808,
      "ĠIM": 7809,
      "Ġgas": 7810,
      "ĠTell": 7811,
      "osure": 7812,
      "adem": 7813,
      "those": 7814,
      "Ġquos": 7815,
      "ĠFEL": 7816,
      "Ġdishon": 7817,
      "Ġupwards": 7818,
      "sip": 7819,
      "Ġprecious": 7820,
      "ĠKe": 7821,
      "Ġoffers": 7822,
      "Ġassimil": 7823,
      "ĠSto": 7824,
      "Ġreasonings": 7825,
      "ĠOthers": 7826,
      "Ġmonks": 7827,
      "Ġfrument": 7828,
      "Ġlatent": 7829,
      "Ġkeeps": 7830,
      "Ġapprove": 7831,
      "ANCE": 7832,
      "Ġlanguages": 7833,
      "Ġmagnet": 7834,
      "Ġconcerns": 7835,
      "Ġmarks": 7836,
      "Ġcombat": 7837,
      "Ġcheer": 7838,
      "Ġfleet": 7839,
      "Ġvanity": 7840,
      "Ġassociation": 7841,
      "Ġstimulus": 7842,
      "Ġfingers": 7843,
      "Ġassembled": 7844,
      "Ġpulled": 7845,
      "Ġrigid": 7846,
      "Ġpsychoanalysis": 7847,
      "Ġslimy": 7848,
      "ĠCOMMANDING": 7849,
      "Ġmeasuring": 7850,
      "Ġavoided": 7851,
      "ĠAlexandrov": 7852,
      "ĠSimilarly": 7853,
      "ĠGlogau": 7854,
      ".âĢĶ": 7855,
      "Russian": 7856,
      "bor": 7857,
      "ktop": 7858,
      "Ġtong": 7859,
      "Ġopt": 7860,
      "Ġsins": 7861,
      "athered": 7862,
      "Ġbud": 7863,
      "Ġbab": 7864,
      "Ġreaches": 7865,
      "Ġlately": 7866,
      "entric": 7867,
      "amber": 7868,
      "Ġstaff": 7869,
      "Ġwaste": 7870,
      "Ġneque": 7871,
      "ĠGive": 7872,
      "ourt": 7873,
      "Ġdisapp": 7874,
      "Ġloose": 7875,
      "ĠLaw": 7876,
      "ĠRaj": 7877,
      "blah": 7878,
      "pective": 7879,
      "ĠChinese": 7880,
      "Ġinvent": 7881,
      "Ġorganiz": 7882,
      "ARKE": 7883,
      "Ġguilt": 7884,
      "cules": 7885,
      "Ġstrongest": 7886,
      "Ġaccounts": 7887,
      "Ġprojected": 7888,
      "Ġfaithful": 7889,
      "Ġoperate": 7890,
      "Ġbadly": 7891,
      "Ġproceeded": 7892,
      "Ġattractions": 7893,
      "Ġembra": 7894,
      "Ġeducated": 7895,
      "Ġcycl": 7896,
      "Ġvessels": 7897,
      "ĠBritain": 7898,
      "Ġsupplies": 7899,
      "Ġfertility": 7900,
      "Ġweapon": 7901,
      "Ġoscillations": 7902,
      "Stephen": 7903,
      "Ġcompassion": 7904,
      "ĠMajesty": 7905,
      "2001": 7906,
      "Ġparabola": 7907,
      "ĠCLARKE": 7908,
      "html": 7909,
      "Ġdinner": 7910,
      "Ġambassadors": 7911,
      "Ġyellow": 7912,
      "Ġnervous": 7913,
      "Ġchauvinism": 7914,
      "Ġsafety": 7915,
      "INDOWS": 7916,
      ":///": 7917,
      "ĠIsaac": 7918,
      "Desktop": 7919,
      "blahh": 7920,
      "UE": 7921,
      "gent": 7922,
      "occ": 7923,
      "phy": 7924,
      "Ġ~": 7925,
      "hearted": 7926,
      "Ġolig": 7927,
      "Ġsist": 7928,
      "Ġfol": 7929,
      "Ġfiction": 7930,
      "Ġpan": 7931,
      "Ġtools": 7932,
      "aly": 7933,
      "Ġisn": 7934,
      "Ġhaven": 7935,
      "owder": 7936,
      "ethe": 7937,
      "cia": 7938,
      "ĠCle": 7939,
      "ĠCces": 7940,
      "Ġvivid": 7941,
      "ĠWas": 7942,
      "Ġarid": 7943,
      "ĠDres": 7944,
      "Ġevolution": 7945,
      "Ġcompound": 7946,
      "Ġundoubtedly": 7947,
      "Ġsubm": 7948,
      "Ġeveryone": 7949,
      "Ġrain": 7950,
      "ĠKol": 7951,
      "Ġworldly": 7952,
      "Ġinterven": 7953,
      "Ġlonging": 7954,
      "Ġpassages": 7955,
      "Ġoverlook": 7956,
      "Ġincred": 7957,
      "Ġrecru": 7958,
      "Ġserving": 7959,
      "Ġtraged": 7960,
      "Ġsmell": 7961,
      "bear": 7962,
      "Ġinvited": 7963,
      "Ġpleasant": 7964,
      "ropy": 7965,
      "Ġsensitive": 7966,
      "armÃ©e": 7967,
      "Ġconnections": 7968,
      "Ġhyd": 7969,
      "aneity": 7970,
      "Ġlengths": 7971,
      "ĠConst": 7972,
      "Ġmarket": 7973,
      "Ġreports": 7974,
      "Ġdeceive": 7975,
      "Ġinjur": 7976,
      "ĠPythag": 7977,
      "ĠFlorent": 7978,
      "Ġpenetrate": 7979,
      "Ġterritories": 7980,
      "Ġexecution": 7981,
      "uscle": 7982,
      "Ġabandoned": 7983,
      "Ġventure": 7984,
      "Ġindispensable": 7985,
      "Ġawakening": 7986,
      "Ġsulph": 7987,
      "ĠHusserl": 7988,
      "Ġimmovable": 7989,
      "five": 7990,
      "fty": 7991,
      "ipp": 7992,
      "rational": 7993,
      "Ġcattle": 7994,
      "Ġnom": 7995,
      "Ġego": 7996,
      "Ġissu": 7997,
      "Ġrewards": 7998,
      "Ġwear": 7999,
      "Ġdeeper": 8000,
      "Ġprolong": 8001,
      "cius": 8002,
      "ĠFuture": 8003,
      "ĠEucl": 8004,
      "okh": 8005,
      "Ġpole": 8006,
      "Ġrelief": 8007,
      "Ġactivities": 8008,
      "ĠKaut": 8009,
      "Ġexistential": 8010,
      "Ġdiscont": 8011,
      "Ġdiscourse": 8012,
      "Ġpresentation": 8013,
      "Ġawful": 8014,
      "Ġsmoke": 8015,
      "Ġsecondly": 8016,
      "ĠWhence": 8017,
      "Ġfathers": 8018,
      "Ġmemories": 8019,
      "Ġmarvel": 8020,
      "Ġestablishment": 8021,
      "Ġrecognised": 8022,
      "Ġopenly": 8023,
      "Ġhostium": 8024,
      "worthy": 8025,
      "Ġintroduction": 8026,
      "Ġwoods": 8027,
      "Ġgeometrical": 8028,
      "Ġrecollect": 8029,
      "Ġcoincide": 8030,
      "Ġhospital": 8031,
      "Ã¼sov": 8032,
      "Ġunwilling": 8033,
      "99": 8034,
      "Ah": 8035,
      "An": 8036,
      "ca": 8037,
      "mo": 8038,
      "oen": 8039,
      "pent": 8040,
      "she": 8041,
      "Ġsir": 8042,
      "Ġsese": 8043,
      "erity": 8044,
      "iture": 8045,
      "Ġbrand": 8046,
      "Ġchest": 8047,
      "Ġpair": 8048,
      "oria": 8049,
      "Ġhuge": 8050,
      "Ġnice": 8051,
      "Ġgathered": 8052,
      "Ġanc": 8053,
      "amen": 8054,
      "Ġsuicide": 8055,
      "quam": 8056,
      "ĠPE": 8057,
      "Ġvit": 8058,
      "Ġsoci": 8059,
      "Ġally": 8060,
      "ĠMAN": 8061,
      "ĠObs": 8062,
      "ĠWH": 8063,
      "Ġperplex": 8064,
      "Ġenumer": 8065,
      "ĠEC": 8066,
      "Ġcomprom": 8067,
      "Ġpover": 8068,
      "rup": 8069,
      "Ġdreamed": 8070,
      "angles": 8071,
      "ĠVir": 8072,
      "Ġflat": 8073,
      "bler": 8074,
      "Ġnewsp": 8075,
      "Ġdiurnal": 8076,
      "necess": 8077,
      "Ġstandpoint": 8078,
      "Ġprovision": 8079,
      "Ġ120": 8080,
      "Ġsimilarly": 8081,
      "Ġtriangle": 8082,
      "Ġceases": 8083,
      "Ġgoverned": 8084,
      "Ġsixty": 8085,
      "Ġruns": 8086,
      "Ġelectrons": 8087,
      "Ġancients": 8088,
      "Ġgradual": 8089,
      "Ġassertion": 8090,
      "Ġdisappears": 8091,
      "Ġdoctrines": 8092,
      "Ġcrying": 8093,
      "Ġcuirassiers": 8094,
      "ĠElbe": 8095,
      "vereign": 8096,
      "Ġemancip": 8097,
      "Ġreckon": 8098,
      "ĠMiÃ¼sov": 8099,
      "ĠModlin": 8100,
      "ĠRELATIONS": 8101,
      "Ġrailway": 8102,
      "ĠOTHERS": 8103,
      ".*": 8104,
      "Tum": 8105,
      "dem": 8106,
      "vable": 8107,
      "ĠÃ": 8108,
      "Ġtone": 8109,
      "Ġwars": 8110,
      "itÃ©": 8111,
      "enes": 8112,
      "arse": 8113,
      "ette": 8114,
      "Ġsugar": 8115,
      "istical": 8116,
      "pered": 8117,
      "adays": 8118,
      "ĠBatt": 8119,
      "Ġquot": 8120,
      "Ġlect": 8121,
      "Ġaroused": 8122,
      "ieve": 8123,
      "Ġagitation": 8124,
      "Ġformula": 8125,
      "Ġremo": 8126,
      "aria": 8127,
      "plete": 8128,
      "Ġworker": 8129,
      "Ġstring": 8130,
      "Ġarmies": 8131,
      "ologist": 8132,
      "Ġkeen": 8133,
      "Ġdevotion": 8134,
      "Ġhorror": 8135,
      "Ġmaterials": 8136,
      "Ġmagnetic": 8137,
      "Ġwishing": 8138,
      "brid": 8139,
      "Ġhostages": 8140,
      "Ġpraes": 8141,
      "Ġjudges": 8142,
      "Ġlistening": 8143,
      "Ġambition": 8144,
      "ĠEverything": 8145,
      "Ġpermission": 8146,
      "Ġpermanence": 8147,
      "aucas": 8148,
      "Ġenlight": 8149,
      "Ġcorpuscle": 8150,
      "Ġvarying": 8151,
      "Ġappreciate": 8152,
      "Democratic": 8153,
      "ĠHelvetii": 8154,
      "Ġekstatic": 8155,
      "ĠWORLD": 8156,
      "Ġchemistry": 8157,
      "Ġadequate": 8158,
      "Comte": 8159,
      "Ġindustry": 8160,
      "Ġpoverty": 8161,
      "!\"": 8162,
      "42": 8163,
      "My": 8164,
      "TRE": 8165,
      "mas": 8166,
      "ui": 8167,
      "Ġow": 8168,
      "Ġsom": 8169,
      "Ġmitt": 8170,
      "Ġpaint": 8171,
      "Ġhated": 8172,
      "Ġdual": 8173,
      "arc": 8174,
      "Ġbeak": 8175,
      "Ġeast": 8176,
      "iri": 8177,
      "road": 8178,
      "Ġweigh": 8179,
      "Ġwearing": 8180,
      "ĠAde": 8181,
      "Ġsunt": 8182,
      "ria": 8183,
      "ĠâĢĿ": 8184,
      "adier": 8185,
      "ĠBY": 8186,
      "ĠCA": 8187,
      "ĠMess": 8188,
      "ĠMain": 8189,
      "iguous": 8190,
      "Ġmyth": 8191,
      "Ġtheme": 8192,
      "Ġdiscl": 8193,
      "Ġcontri": 8194,
      "Ġjam": 8195,
      "ĠLook": 8196,
      "Ġagent": 8197,
      "Ġposter": 8198,
      "Ġattended": 8199,
      "ĠVil": 8200,
      "Ġemotions": 8201,
      "Ġbeforehand": 8202,
      "Ġendowed": 8203,
      "Ġmodest": 8204,
      "Ġsmooth": 8205,
      "Ġvariability": 8206,
      "Ġeffective": 8207,
      "Ġelim": 8208,
      "Ġplanes": 8209,
      "Ġ70": 8210,
      "Ġillumin": 8211,
      "Ġsensory": 8212,
      "Ġlegal": 8213,
      "Ġassumes": 8214,
      "Ġdraws": 8215,
      "Ġwaited": 8216,
      "Ġdemanded": 8217,
      "Ġelectrom": 8218,
      "Ġhurried": 8219,
      "ACT": 8220,
      "Ġpretty": 8221,
      "Ġfrightened": 8222,
      "Ġimmortal": 8223,
      "Ġhysterical": 8224,
      "Ġstroke": 8225,
      "ĠPortugal": 8226,
      "ĠCopernicus": 8227,
      "Ġrhyth": 8228,
      "ĠWrite": 8229,
      "ID": 8230,
      "back": 8231,
      "born": 8232,
      "can": 8233,
      "father": 8234,
      "gre": 8235,
      "night": 8236,
      "overs": 8237,
      "son": 8238,
      "vol": 8239,
      "wer": 8240,
      "Ġscept": 8241,
      "anov": 8242,
      "Ġnest": 8243,
      "imant": 8244,
      "ĠTe": 8245,
      "Ġheated": 8246,
      "chal": 8247,
      "cient": 8248,
      "Ġvib": 8249,
      "Ġparte": 8250,
      "Ġtrick": 8251,
      "aging": 8252,
      "Ġamid": 8253,
      "Ġsomehow": 8254,
      "Ġpredom": 8255,
      "Ġeveryday": 8256,
      "Ġraising": 8257,
      "Ġ400": 8258,
      "Ġspecially": 8259,
      "Ġseeming": 8260,
      "edient": 8261,
      "Ġchildish": 8262,
      "Ġdraft": 8263,
      "force": 8264,
      "forth": 8265,
      "Ġprofitable": 8266,
      "Ġfaces": 8267,
      "Ġapplies": 8268,
      "Ġenergies": 8269,
      "Ġbounds": 8270,
      "arrass": 8271,
      "Ġcritic": 8272,
      "Ġmiracles": 8273,
      "Ġfavorable": 8274,
      "Ġfulfill": 8275,
      "Ġexterm": 8276,
      "Ġconvenient": 8277,
      "Ġcondensation": 8278,
      "Ġunfortunate": 8279,
      "ĠPresident": 8280,
      "asseurs": 8281,
      "Ġinconsist": 8282,
      "Ġinsignific": 8283,
      "ĠDresden": 8284,
      "ĠBattal": 8285,
      "Don": 8286,
      "KING": 8287,
      "fold": 8288,
      "pical": 8289,
      "rÃ©": 8290,
      "vier": 8291,
      "Ġsong": 8292,
      "isite": 8293,
      "Ġfolly": 8294,
      "arged": 8295,
      "Ġeg": 8296,
      "Ġforb": 8297,
      "anted": 8298,
      "Ġsofa": 8299,
      "ĠHsi": 8300,
      "actions": 8301,
      "Ġdisreg": 8302,
      "ĠRad": 8303,
      "Ġrespond": 8304,
      "Ġphase": 8305,
      "Ġrival": 8306,
      "Ġincarn": 8307,
      "Ġ59": 8308,
      "aterial": 8309,
      "Ġassurance": 8310,
      "Ġentit": 8311,
      "Ġsecurity": 8312,
      "Ġconsiderably": 8313,
      "Ġteaches": 8314,
      "Ġreceiving": 8315,
      "Ġsatisfactory": 8316,
      "Ġexcuse": 8317,
      "Ġannounced": 8318,
      "Ġbasic": 8319,
      "Ġconsisted": 8320,
      "Ġrenders": 8321,
      "ĠCommittee": 8322,
      "Ġmercy": 8323,
      "Ġadvantageous": 8324,
      "ĠUnivers": 8325,
      "Ġmathematics": 8326,
      "ĠWherefore": 8327,
      "Ġsolemn": 8328,
      "Ġaccomplish": 8329,
      "Ġrenew": 8330,
      "Ġaspects": 8331,
      "Ġdisplace": 8332,
      "Ġtrembling": 8333,
      "Ġmystery": 8334,
      "Ġastronomers": 8335,
      "Ġcadres": 8336,
      "ĠCcesar": 8337,
      "80": 8338,
      "AB": 8339,
      "LY": 8340,
      "ault": 8341,
      "iver": 8342,
      "mat": 8343,
      "rin": 8344,
      "inating": 8345,
      "atya": 8346,
      "erving": 8347,
      "Ġcos": 8348,
      "Ġfame": 8349,
      "Ġdies": 8350,
      "Ġnour": 8351,
      "Ġnamed": 8352,
      "ician": 8353,
      "urt": 8354,
      "ama": 8355,
      "Ġseg": 8356,
      "Ġdeck": 8357,
      "Ġwillingly": 8358,
      "âĢĻâĢĶ": 8359,
      "ements": 8360,
      "ĠMat": 8361,
      "ĠMal": 8362,
      "ĠMach": 8363,
      "igation": 8364,
      "Ġrushed": 8365,
      "Ġdost": 8366,
      "Ġnoise": 8367,
      "Ġspare": 8368,
      "ĠLi": 8369,
      "ĠRef": 8370,
      "Ġoutline": 8371,
      "Ġfever": 8372,
      "ends": 8373,
      "anges": 8374,
      "isms": 8375,
      "Ġconfer": 8376,
      "Ġcaut": 8377,
      "Ġcoloured": 8378,
      "eches": 8379,
      "Ġpoles": 8380,
      "Ġaddressed": 8381,
      "Ġexpressions": 8382,
      "Ġsignifies": 8383,
      "Ġduke": 8384,
      "Ġrepresentative": 8385,
      "Ġestablishing": 8386,
      "Ġcompanions": 8387,
      "Ġapproaches": 8388,
      "Ġeffic": 8389,
      "Ġmultitud": 8390,
      "ĠAlso": 8391,
      "Ġrevolt": 8392,
      "Ġreaching": 8393,
      "Ġspecim": 8394,
      "Ġwatching": 8395,
      "iculars": 8396,
      "Ġinstantly": 8397,
      "Ġbuildings": 8398,
      "Ġhurry": 8399,
      "Ġliterary": 8400,
      "Ġincompre": 8401,
      "Ġcolonies": 8402,
      "Ġisolation": 8403,
      "Ġaudience": 8404,
      "Ġpreparing": 8405,
      "ĠInstead": 8406,
      "Ġinevitably": 8407,
      "Ġministre": 8408,
      "ĠSimplic": 8409,
      "Ġbulk": 8410,
      "Ġdismiss": 8411,
      "Ġsymptoms": 8412,
      "fulfilment": 8413,
      "ĠFELTRE": 8414,
      "Ġtragedy": 8415,
      "36": 8416,
      "off": 8417,
      "present": 8418,
      "var": 8419,
      "Ġthesis": 8420,
      "inqu": 8421,
      "itimate": 8422,
      "Ġfre": 8423,
      "Ġfra": 8424,
      "Ġink": 8425,
      "Ġhorn": 8426,
      "Ġnarr": 8427,
      "ĠTrev": 8428,
      "Ġsuit": 8429,
      "Ġselected": 8430,
      "Ġdeeds": 8431,
      "ĠSab": 8432,
      "ĠMerc": 8433,
      "ĠOt": 8434,
      "ĠGra": 8435,
      "perf": 8436,
      "idean": 8437,
      "Ġpled": 8438,
      "asting": 8439,
      "agues": 8440,
      "Ġrela": 8441,
      "Ġcommit": 8442,
      "Ġreferring": 8443,
      "Ġrepent": 8444,
      "Ġflum": 8445,
      "Ġoffensive": 8446,
      "Ġarticle": 8447,
      "Ġclearer": 8448,
      "apsed": 8449,
      "Ġdepot": 8450,
      "Ġvalid": 8451,
      "Ġ80": 8452,
      "LECTION": 8453,
      "Ġdelivered": 8454,
      "ĠRussians": 8455,
      "Ġcrosses": 8456,
      "Ġattracting": 8457,
      "Ġembarrass": 8458,
      "Ġprompt": 8459,
      "ĠAbout": 8460,
      "Ġsocialism": 8461,
      "Ġnihilating": 8462,
      "ĠDoes": 8463,
      "Ġmurderer": 8464,
      "ĠSTR": 8465,
      "Ġmainly": 8466,
      "Ġburden": 8467,
      "Ġconquered": 8468,
      "Ġfertile": 8469,
      "Ġinsisted": 8470,
      "Ġpreparation": 8471,
      "Ġexhaust": 8472,
      "Ġprejudice": 8473,
      "ĠActually": 8474,
      "Ġprogenitor": 8475,
      "ĠLabienus": 8476,
      "Ġresources": 8477,
      "Ġunusual": 8478,
      "ĠAdeimant": 8479,
      "ĠMainz": 8480,
      "ĠAdeimantus": 8481,
      "determ": 8482,
      "mpt": 8483,
      "ssy": 8484,
      "ua": 8485,
      "iner": 8486,
      "Ġments": 8487,
      "ania": 8488,
      "icing": 8489,
      "asion": 8490,
      "ashed": 8491,
      "Ġgerm": 8492,
      "Ġproced": 8493,
      "Ġvic": 8494,
      "ĠOder": 8495,
      "Ġchasseurs": 8496,
      "Ġuna": 8497,
      "ĠDuchy": 8498,
      "Ġcontents": 8499,
      "ĠLen": 8500,
      "Ġsubordinate": 8501,
      "ĠVICE": 8502,
      "Ġcool": 8503,
      "Ġexpand": 8504,
      "Ġ600": 8505,
      "Ġradii": 8506,
      "ĠUpon": 8507,
      "Ġadmits": 8508,
      "Ġsmallest": 8509,
      "Ġdevi": 8510,
      "Ġexpecting": 8511,
      "Ġcreative": 8512,
      "Ġfortifications": 8513,
      "Ġstriving": 8514,
      "Ġabstraction": 8515,
      "ĠQuite": 8516,
      "Ġcitizen": 8517,
      "Ġdisgust": 8518,
      "Ġranked": 8519,
      "Ġdeduced": 8520,
      "Ġclothing": 8521,
      "Ġconjunct": 8522,
      "Ġbeaten": 8523,
      "ĠPaÃ¯": 8524,
      "Ġconjecture": 8525,
      "ĠKautsky": 8526,
      "ĠPaÃ¯ssy": 8527,
      "55": 8528,
      "Be": 8529,
      "MA": 8530,
      "Pl": 8531,
      "SH": 8532,
      "UN": 8533,
      "bb": 8534,
      "hn": 8535,
      "hot": 8536,
      "uously": 8537,
      "Ġice": 8538,
      "Ġ....": 8539,
      "Ġtert": 8540,
      "Ġbill": 8541,
      "Ġbore": 8542,
      "Ġcher": 8543,
      "Ġpac": 8544,
      "Ġtoiling": 8545,
      "Ġthine": 8546,
      "Ġhal": 8547,
      "Ġdying": 8548,
      "Ġrein": 8549,
      "Ġrevers": 8550,
      "Ġlun": 8551,
      "Ġgar": 8552,
      "Ġwel": 8553,
      "Ġseat": 8554,
      "ĠSever": 8555,
      "ĠBl": 8556,
      "Ġshorter": 8557,
      "Ġalle": 8558,
      "Ġrises": 8559,
      "Ġmanners": 8560,
      "Ġworn": 8561,
      "Ġimpelled": 8562,
      "Ġlofty": 8563,
      "ĠLI": 8564,
      "Ġdeserve": 8565,
      "Ġprey": 8566,
      "Ġthrust": 8567,
      "Ġbrute": 8568,
      "Ġrepet": 8569,
      "Ġentering": 8570,
      "Ġconstitu": 8571,
      "ERN": 8572,
      "issim": 8573,
      "Ġinval": 8574,
      "itute": 8575,
      "Ġbattles": 8576,
      "Ġlimiting": 8577,
      "Ġcommanding": 8578,
      "Ġrepresentatives": 8579,
      "ĠChristians": 8580,
      "Ġjoining": 8581,
      "Ġjudgments": 8582,
      "urban": 8583,
      "ĠCommune": 8584,
      "Ġdetailed": 8585,
      "Ġidi": 8586,
      "Ġdefinitely": 8587,
      "Ġdisappeared": 8588,
      "atorship": 8589,
      "uminium": 8590,
      "Ġappropriation": 8591,
      "Ġcomplaint": 8592,
      "STEM": 8593,
      "Ġhypotheses": 8594,
      "Ġbetray": 8595,
      "Ġmortal": 8596,
      "Ġcondemn": 8597,
      "Ġshadows": 8598,
      "ĠLXX": 8599,
      "ĠHindu": 8600,
      "Ġecliptic": 8601,
      "ĠSYSTEM": 8602,
      "Ġdisagree": 8603,
      "Ġvaluable": 8604,
      "Ġmammals": 8605,
      "ĠDuchess": 8606,
      "Ġtongue": 8607,
      "ĠSimplicio": 8608,
      "As": 8609,
      "SE": 8610,
      "chen": 8611,
      "hram": 8612,
      "uly": 8613,
      "Ġ<": 8614,
      "Ġwounded": 8615,
      "itic": 8616,
      "Ġbure": 8617,
      "Ġhu": 8618,
      "Ġhun": 8619,
      "Ġdull": 8620,
      "Ġbeast": 8621,
      "otkin": 8622,
      "state": 8623,
      "entia": 8624,
      "Ġgall": 8625,
      "ĠAE": 8626,
      "Ġexchange": 8627,
      "isten": 8628,
      "ĠOB": 8629,
      "andi": 8630,
      "ĠGumb": 8631,
      "ĠFen": 8632,
      "Ġnose": 8633,
      "ifferent": 8634,
      "Ġfec": 8635,
      "arsh": 8636,
      "Ġclient": 8637,
      "ordered": 8638,
      "Ġinfl": 8639,
      "Ġrefined": 8640,
      "Ġequip": 8641,
      "Ġrecalled": 8642,
      "Ġended": 8643,
      "hesion": 8644,
      "Ġexpenses": 8645,
      "Ġstranger": 8646,
      "ĠXII": 8647,
      "Ġwarri": 8648,
      "ĠGods": 8649,
      "Ġfrig": 8650,
      "Ġorganize": 8651,
      "Ġtemple": 8652,
      "Ġadding": 8653,
      "Ġsensual": 8654,
      "Ġsolved": 8655,
      "Ġirrational": 8656,
      "Ġhelpless": 8657,
      "obs": 8658,
      "Ġtypical": 8659,
      "ĠWhatever": 8660,
      "Ġtransferred": 8661,
      "Ġpreferred": 8662,
      "ĠMarxist": 8663,
      "iques": 8664,
      "Ġimprob": 8665,
      "Ġforgetting": 8666,
      "Ġsuperflu": 8667,
      "Ġbriefly": 8668,
      "Ġenjoyment": 8669,
      "Ġassociations": 8670,
      "Ġluck": 8671,
      "Ġmaxims": 8672,
      "Ġethical": 8673,
      "Ġgrie": 8674,
      "Ġincorpor": 8675,
      "subject": 8676,
      "Ġimplicit": 8677,
      "ĠIrma": 8678,
      "ĠAriovistus": 8679,
      "Ġtelescope": 8680,
      "okhale": 8681,
      "IRE": 8682,
      "Ta": 8683,
      "col": 8684,
      "even": 8685,
      "gin": 8686,
      "jar": 8687,
      "must": 8688,
      "zed": 8689,
      "Ġoil": 8690,
      "Ġsand": 8691,
      "Ġpushed": 8692,
      "Ġhoc": 8693,
      "ica": 8694,
      "Ġbees": 8695,
      "Ġlit": 8696,
      "cel": 8697,
      "Ġnotwithstanding": 8698,
      "changed": 8699,
      "rium": 8700,
      "Ġsel": 8701,
      "Ġseve": 8702,
      "Ġquibus": 8703,
      "ĠGokhale": 8704,
      "Ġchrom": 8705,
      "iend": 8706,
      "agram": 8707,
      "Ġamalg": 8708,
      "abat": 8709,
      "Ġfactors": 8710,
      "Ġ41": 8711,
      "Ġbrut": 8712,
      "Ġpassengers": 8713,
      "Ġrecovered": 8714,
      "Ġpropter": 8715,
      "Ġawa": 8716,
      "Ġinsol": 8717,
      "ĠAshram": 8718,
      "Ġradically": 8719,
      "Ġreview": 8720,
      "Ġselfness": 8721,
      "Ġfrank": 8722,
      "Ġuttered": 8723,
      "Ġsignal": 8724,
      "Ġreturns": 8725,
      "Ġmarine": 8726,
      "Ġoccurrence": 8727,
      "Ġpublication": 8728,
      "Ġsymmet": 8729,
      "Ġmagnific": 8730,
      "Ġsusp": 8731,
      "Ġfails": 8732,
      "Ġcombinations": 8733,
      "Ġoccupation": 8734,
      "ĠQuum": 8735,
      "Ġpeculiarities": 8736,
      "Ġimprovement": 8737,
      "Ġportions": 8738,
      "Ġarrangements": 8739,
      "Ġpenetrating": 8740,
      "ripts": 8741,
      "Ġfertil": 8742,
      "ographical": 8743,
      "Ġastonishment": 8744,
      "Ġreconcil": 8745,
      "Ġimmortality": 8746,
      "Ġparliamentary": 8747,
      "rassotkin": 8748,
      "ĠNatural": 8749,
      "Ġcategory": 8750,
      "Ġlawyer": 8751,
      "reflective": 8752,
      "Ġguarantee": 8753,
      "Ġtragic": 8754,
      "ĠVercinget": 8755,
      "Ġjanvier": 8756,
      "ĠBattalion": 8757,
      "ĠMercury": 8758,
      "eu": 8759,
      "fortun": 8760,
      "mark": 8761,
      "nis": 8762,
      "uo": 8763,
      "Ġtive": 8764,
      "Ġwound": 8765,
      "Ġses": 8766,
      "Ġscend": 8767,
      "Ġble": 8768,
      "Ġcard": 8769,
      "Ġmission": 8770,
      "Ġfines": 8771,
      "Ġpick": 8772,
      "Ġpush": 8773,
      "orial": 8774,
      "Ġdir": 8775,
      "Ġbeasts": 8776,
      "Ġreun": 8777,
      "sters": 8778,
      "stone": 8779,
      "uti": 8780,
      "ĠTim": 8781,
      "ĠAust": 8782,
      "Ġsuited": 8783,
      "Ġstern": 8784,
      "ĠBo": 8785,
      "ĠCP": 8786,
      "ĠCam": 8787,
      "ĠPre": 8788,
      "Ġsho": 8789,
      "empl": 8790,
      "ĠHam": 8791,
      "andhi": 8792,
      "Ġlend": 8793,
      "Ġleap": 8794,
      "ĠThy": 8795,
      "Ġpartem": 8796,
      "ĠĠĠĠĠĠĠĠĠĠĠĠĠ": 8797,
      "Ġobedience": 8798,
      "Ġperse": 8799,
      "Ġload": 8800,
      "Ġimply": 8801,
      "Ġremedy": 8802,
      "cession": 8803,
      "ĠKatya": 8804,
      "Ġbrill": 8805,
      "Ġdidst": 8806,
      "Ġextinction": 8807,
      "Ġletting": 8808,
      "Ġawak": 8809,
      "Ġinvitation": 8810,
      "Ġlastly": 8811,
      "Ġinsert": 8812,
      "Ġinspired": 8813,
      "Ġbackground": 8814,
      "untur": 8815,
      "Ġadmire": 8816,
      "Ġcausality": 8817,
      "Ġsituations": 8818,
      "Ġratios": 8819,
      "Ġsimilarity": 8820,
      "Ġapproached": 8821,
      "ECT": 8822,
      "Ġdiscussions": 8823,
      "Ġaltered": 8824,
      "Ġmuttered": 8825,
      "Ġguardian": 8826,
      "Ġmanifests": 8827,
      "Ġtroubled": 8828,
      "Ġrelatively": 8829,
      "EDOM": 8830,
      "Ġsurpasses": 8831,
      "Ġprofoundly": 8832,
      "Ġsignificant": 8833,
      "Ġdogs": 8834,
      "ĠBerg": 8835,
      "Ġalteration": 8836,
      "Ġmadness": 8837,
      "Ġcatch": 8838,
      "Ġaccelerative": 8839,
      "Ġsafely": 8840,
      "ĠTRANS": 8841,
      "ĠPaul": 8842,
      "Ġinconven": 8843,
      "trans": 8844,
      "Ġtemptation": 8845,
      "ĠMarienburg": 8846,
      "Ġsatellites": 8847,
      "Ġmysterious": 8848,
      "ĠFREEDOM": 8849,
      "Ġancest": 8850,
      "Ġincomprehensible": 8851,
      "56": 8852,
      "Let": 8853,
      "POR": 8854,
      "Then": 8855,
      "bur": 8856,
      "cum": 8857,
      "des": 8858,
      "eous": 8859,
      "eff": 8860,
      "fast": 8861,
      "gage": 8862,
      "iary": 8863,
      "rus": 8864,
      "uct": 8865,
      "Ġtherm": 8866,
      "Ġwing": 8867,
      "Ġwretched": 8868,
      "Ġshed": 8869,
      "ĠfÃ©v": 8870,
      "Ġhunt": 8871,
      "Ġdense": 8872,
      "idents": 8873,
      "riages": 8874,
      "osity": 8875,
      "ĠCourt": 8876,
      "ĠPle": 8877,
      "Ġvort": 8878,
      "Ġaloud": 8879,
      "ĠHI": 8880,
      "ĠHad": 8881,
      "ĠWil": 8882,
      "Ġwheat": 8883,
      "Ġmanaged": 8884,
      "Ġarith": 8885,
      "Ġplen": 8886,
      "ĠEgo": 8887,
      "ĠLIF": 8888,
      "Ġcomparing": 8889,
      "Ġspeeches": 8890,
      "Ġprud": 8891,
      "dulla": 8892,
      "Ġrealization": 8893,
      "Ġkindly": 8894,
      "Ġcontinual": 8895,
      "Ġadvis": 8896,
      "Ġpolonium": 8897,
      "Ġfriendly": 8898,
      "Ġmorals": 8899,
      "Ġconceivable": 8900,
      "Ġmagist": 8901,
      "Ġbelonged": 8902,
      "Ġyounger": 8903,
      "Ġuncle": 8904,
      "owski": 8905,
      "Ġfunds": 8906,
      "Ġprogression": 8907,
      "Ġpopul": 8908,
      "Ġdepartment": 8909,
      "Ġdiminish": 8910,
      "Ġagreeable": 8911,
      "incerity": 8912,
      "Ġconversion": 8913,
      "chingen": 8914,
      "Ġbellum": 8915,
      "Ġundertaken": 8916,
      "Ġdiversity": 8917,
      "Ġbarely": 8918,
      "Ġspontaneous": 8919,
      "Ġimpediment": 8920,
      "Ġaccidental": 8921,
      "ĠMarshal": 8922,
      "Ġabolition": 8923,
      "Ġjealousy": 8924,
      "Ġmolecules": 8925,
      "ĠCentral": 8926,
      "ĠPeters": 8927,
      "Ġborrowed": 8928,
      "Ġsurrender": 8929,
      "Ġintercourse": 8930,
      "Ġinequality": 8931,
      "ĠCicero": 8932,
      "ĠLIFE": 8933,
      "?\"": 8934,
      "Wh": 8935,
      "WINDOWS": 8936,
      "aus": 8937,
      "human": 8938,
      "ĠÃ©t": 8939,
      "Ġture": 8940,
      "Ġtide": 8941,
      "Ġtick": 8942,
      "inu": 8943,
      "Ġoct": 8944,
      "Ġfasc": 8945,
      "Ġpige": 8946,
      "ione": 8947,
      "Ġnull": 8948,
      "ĠAZ": 8949,
      "ĠAry": 8950,
      "Ġprod": 8951,
      "Ġallusion": 8952,
      "ected": 8953,
      "Ġkit": 8954,
      "Ġcanal": 8955,
      "ĠFried": 8956,
      "Ġunav": 8957,
      "Ġunint": 8958,
      "Ġunsu": 8959,
      "Ġimitate": 8960,
      "ĠThree": 8961,
      "Ġjury": 8962,
      "agen": 8963,
      "Ġimpulses": 8964,
      "Ġshoulders": 8965,
      "Ġordinate": 8966,
      "Ġexistim": 8967,
      "Ġcoarse": 8968,
      "ictions": 8969,
      "Ġrecourse": 8970,
      "Ġinsen": 8971,
      "Ġinsuff": 8972,
      "Ġfinish": 8973,
      "Ġadmission": 8974,
      "Ġfourteen": 8975,
      "Ġlatus": 8976,
      "anean": 8977,
      "Ġgovernor": 8978,
      "Ġevils": 8979,
      "Ġhousehold": 8980,
      "Ġexplaining": 8981,
      "ASS": 8982,
      "Ġtroubles": 8983,
      "ĠAbdulla": 8984,
      "ĠGreece": 8985,
      "Ġtort": 8986,
      "Ġasserted": 8987,
      "Ġprisoners": 8988,
      "Ġcivilization": 8989,
      "Ġtechnique": 8990,
      "Ġmultipl": 8991,
      "Ġdisplay": 8992,
      "Ġmunition": 8993,
      "Ġorganisms": 8994,
      "alganov": 8995,
      "Ġalarmed": 8996,
      "orentz": 8997,
      "Ġentrance": 8998,
      "Ġsacrifices": 8999,
      "Ġsteadily": 9000,
      "Ġesteemed": 9001,
      "Ġsailors": 9002,
      "Ġdesperate": 9003,
      "innen": 9004,
      "Ġenquiry": 9005,
      "Ġsuperfluous": 9006,
      "ĠfÃ©vrier": 9007,
      "47": 9008,
      "TON": 9009,
      "bal": 9010,
      "ford": 9011,
      "him": 9012,
      "house": 9013,
      "jet": 9014,
      "pher": 9015,
      "rous": 9016,
      "water": 9017,
      "Â»": 9018,
      "Ġties": 9019,
      "inable": 9020,
      "Ġbis": 9021,
      "Ġcess": 9022,
      "Ġmai": 9023,
      "Ġfest": 9024,
      "Ġpi": 9025,
      "oris": 9026,
      "Ġhid": 9027,
      "utable": 9028,
      "Ġgross": 9029,
      "Ġanarch": 9030,
      "Ġangel": 9031,
      "Ġstom": 9032,
      "Ġstamp": 9033,
      "rian": 9034,
      "Ġmeets": 9035,
      "ĠCur": 9036,
      "ĠPon": 9037,
      "ĠHan": 9038,
      "Ġnove": 9039,
      "Ġnobility": 9040,
      "ortions": 9041,
      "mentary": 9042,
      "Ġspo": 9043,
      "Ġspies": 9044,
      "Ġrelates": 9045,
      "Ġcommence": 9046,
      "...âĢĿ": 9047,
      "ĠKrassotkin": 9048,
      "ĠKalganov": 9049,
      "Ġrefuge": 9050,
      "Ġnowadays": 9051,
      "Ġendless": 9052,
      "iave": 9053,
      "Ġmighty": 9054,
      "Ġdivide": 9055,
      "Ġoppose": 9056,
      "Ġ66": 9057,
      "Ġrestored": 9058,
      "itution": 9059,
      "Ġcrown": 9060,
      "Ġreaders": 9061,
      "Ġchooses": 9062,
      "Ġvirtuous": 9063,
      "Ġrecognise": 9064,
      "Ġjoke": 9065,
      "Ġantip": 9066,
      "Ġstrive": 9067,
      "Ġsexes": 9068,
      "Ġrevolved": 9069,
      "Ġdesignated": 9070,
      "Ġinjury": 9071,
      "Ġconfessed": 9072,
      "Ġbridges": 9073,
      "Ġassociated": 9074,
      "Ġexercised": 9075,
      "Ġmultiplicity": 9076,
      "Ġhoped": 9077,
      "Ġlux": 9078,
      "Ġdepths": 9079,
      "Ġlinks": 9080,
      "ĠBelg": 9081,
      "Ġsplendid": 9082,
      "ĠJohn": 9083,
      "ĠJohann": 9084,
      "Ġmolec": 9085,
      "Ġprecaut": 9086,
      "Ġtyranny": 9087,
      "Ġgalaxies": 9088,
      "Ġentitled": 9089,
      "ĠGumbinnen": 9090,
      "Ġchromos": 9091,
      "32": 9092,
      "OG": 9093,
      "Ġ]": 9094,
      "Ġips": 9095,
      "Ġahead": 9096,
      "Ġsii": 9097,
      "itis": 9098,
      "itating": 9099,
      "Ġband": 9100,
      "Ġcere": 9101,
      "Ġmud": 9102,
      "Ġpest": 9103,
      "Ġpond": 9104,
      "Ġpack": 9105,
      "Ġinse": 9106,
      "Ġdata": 9107,
      "Ġdangers": 9108,
      "icated": 9109,
      "ĠTA": 9110,
      "ĠPis": 9111,
      "ĠMOD": 9112,
      "Ġ(âĢľ": 9113,
      "Ġrash": 9114,
      "Ġchose": 9115,
      "ptions": 9116,
      "Ġarist": 9117,
      "Ġresolve": 9118,
      "Ġapsis": 9119,
      "ĠKL": 9120,
      "Ġentropy": 9121,
      "EST": 9122,
      "Ġtele": 9123,
      "Ġinsight": 9124,
      "Ġtempted": 9125,
      "Ġrepresenting": 9126,
      "ĠPlat": 9127,
      "Ġruined": 9128,
      "pecies": 9129,
      "ductive": 9130,
      "Ġprimarily": 9131,
      "ĠTruth": 9132,
      "Ġdescending": 9133,
      "Ġpreference": 9134,
      "Ġmanifested": 9135,
      "piration": 9136,
      "Ġmarching": 9137,
      "Ġdefinitions": 9138,
[...]
