{
  "version": "1.0",
  "truncation": null,
  "padding": null,
  "added_tokens": [
    {
      "id": 0,
      "content": "<pad>",
      "single_word": false,
      "lstrip": false,
      "rstrip": false,
      "normalized": false,
      "special": true
    },
    {
      "id": 1,
      "content": "<unk>",
      "single_word": false,
      "lstrip": false,
      "rstrip": false,
      "normalized": false,
      "special": true
    },
    {
      "id": 2,
      "content": "<bos>",
      "single_word": false,
      "lstrip": false,
      "rstrip": false,
      "normalized": false,
      "special": true
    },
    {
      "id": 3,
      "content": "<eos>",
      "single_word": false,
      "lstrip": false,
      "rstrip": false,
      "normalized": false,
      "special": true
    }
  ],
  "normalizer": {
    "type": "Sequence",
    "normalizers": [
      {
        "type": "Replace",
        "pattern": {
          "String": "“"
        },
        "content": "\""
      },
      {
        "type": "Replace",
        "pattern": {
          "String": "”"
        },
        "content": "\""
      },
      {
        "type": "Replace",
        "pattern": {
          "String": "‘"
        },
        "content": "'"
      },
      {
        "type": "Replace",
        "pattern": {
          "String": "’"
        },
        "content": "'"
      },
      {
        "type": "Replace",
        "pattern": {
          "String": "—"
        },
        "content": "-"
      },
      {
        "type": "Replace",
        "pattern": {
          "String": "–"
        },
        "content": "-"
      },
      {
        "type": "Replace",
        "pattern": {
          "String": "…"
        },
        "content": "..."
      },
      {
        "type": "NFD"
      },
      {
        "type": "Lowercase"
      },
      {
        "type": "StripAccents"
      }
    ]
  },
  "pre_tokenizer": {
    "type": "ByteLevel",
    "add_prefix_space": true,
    "trim_offsets": true,
    "use_regex": true
  },
  "post_processor": {
    "type": "TemplateProcessing",
    "single": [
      {
        "SpecialToken": {
          "id": "<bos>",
          "type_id": 0
        }
      },
      {
        "Sequence": {
          "id": "A",
          "type_id": 0
        }
      },
      {
        "SpecialToken": {
          "id": "<eos>",
          "type_id": 0
        }
      }
    ],
    "pair": [
      {
        "SpecialToken": {
          "id": "<bos>",
          "type_id": 0
        }
      },
      {
        "Sequence": {
          "id": "A",
          "type_id": 0
        }
      },
      {
        "SpecialToken": {
          "id": "<eos>",
          "type_id": 0
        }
      },
      {
        "SpecialToken": {
          "id": "<bos>",
          "type_id": 0
        }
      },
      {
        "Sequence": {
          "id": "B",
          "type_id": 1
        }
      },
      {
        "SpecialToken": {
          "id": "<eos>",
          "type_id": 1
        }
      }
    ],
    "special_tokens": {
      "<bos>": {
        "id": "<bos>",
        "ids": [
          2
        ],
        "tokens": [
          "<bos>"
        ]
      },
      "<eos>": {
        "id": "<eos>",
        "ids": [
          3
        ],
        "tokens": [
          "<eos>"
        ]
      }
    }
  },
  "decoder": {
    "type": "ByteLevel",
    "add_prefix_space": true,
    "trim_offsets": true,
    "use_regex": true
  },
  "model": {
    "type": "BPE",
    "dropout": null,
    "unk_token": "<unk>",
    "continuing_subword_prefix": null,
    "end_of_word_suffix": null,
    "fuse_unk": false,
    "byte_fallback": false,
    "ignore_merges": false,
    "vocab": {
      "<pad>": 0,
      "<unk>": 1,
      "<bos>": 2,
      "<eos>": 3,
      "!": 4,
      "\"": 5,
      "#": 6,
      "$": 7,
      "%": 8,
      "&": 9,
      "'": 10,
      "(": 11,
      ")": 12,
      "*": 13,
      "+": 14,
      ",": 15,
      "-": 16,
      ".": 17,
      "/": 18,
      "0": 19,
      "1": 20,
      "2": 21,
      "3": 22,
      "4": 23,
      "5": 24,
      "6": 25,
      "7": 26,
      "8": 27,
      "9": 28,
      ":": 29,
      ";": 30,
      "<": 31,
      "=": 32,
      ">": 33,
      "?": 34,
      "@": 35,
      "[": 36,
      "\\": 37,
      "]": 38,
      "^": 39,
      "_": 40,
      "`": 41,
      "a": 42,
      "b": 43,
      "c": 44,
      "d": 45,
      "e": 46,
      "f": 47,
      "g": 48,
      "h": 49,
      "i": 50,
      "j": 51,
      "k": 52,
      "l": 53,
      "m": 54,
      "n": 55,
      "o": 56,
      "p": 57,
      "q": 58,
      "r": 59,
      "s": 60,
      "t": 61,
      "u": 62,
      "v": 63,
      "w": 64,
      "x": 65,
      "y": 66,
      "z": 67,
      "{": 68,
      "|": 69,
      "}": 70,
      "~": 71,
      "¢": 72,
      "£": 73,
      "¥": 74,
      "¦": 75,
      "§": 76,
      "©": 77,
      "«": 78,
      "¬": 79,
      "®": 80,
      "°": 81,
      "±": 82,
      "²": 83,
      "³": 84,
      "´": 85,
      "µ": 86,
      "·": 87,
      "¸": 88,
      "¹": 89,
      "º": 90,
      "»": 91,
      "¼": 92,
      "½": 93,
      "¾": 94,
      "¿": 95,
      "Â": 96,
      "Ã": 97,
      "Å": 98,
      "Î": 99,
      "Ï": 100,
      "á": 101,
      "â": 102,
      "Ċ": 103,
      "č": 104,
      "Ġ": 105,
      "Ģ": 106,
      "ģ": 107,
      "Ĥ": 108,
      "ĥ": 109,
      "Ħ": 110,
      "ħ": 111,
      "Ĩ": 112,
      "ĩ": 113,
      "Ī": 114,
      "ī": 115,
      "Ĳ": 116,
      "Ĵ": 117,
      "ĵ": 118,
      "ĸ": 119,
      "ŀ": 120,
      "ł": 121,
      "Ġt": 122,
      "he": 123,
      "Ġa": 124,
      "čĊ": 125,
      "Ġi": 126,
      "Ġthe": 127,
      "Ġo": 128,
      "re": 129,
      "Ġw": 130,
      "Ġs": 131,
      "in": 132,
      "at": 133,
      "ĠčĊ": 134,
      "Ġb": 135,
      "on": 136,
      "er": 137,
      "nd": 138,
      "Ġof": 139,
      "Ġc": 140,
      "Ġm": 141,
      "en": 142,
      "Ġf": 143,
      "Ġh": 144,
      "Ġth": 145,
      "Ġp": 146,
      "es": 147,
      "ou": 148,
      "it": 149,
      "Ġto": 150,
      "is": 151,
      "Ġin": 152,
      "ed": 153,
      "or": 154,
      "ing": 155,
      "Ġd": 156,
      "Ġand": 157,
      "an": 158,
      "Ġn": 159,
      "ic": 160,
      "Ġbe": 161,
      "al": 162,
      "ar": 163,
      "ion": 164,
      "as": 165,
      "Ġe": 166,
      "Ġis": 167,
      "le": 168,
      "ly": 169,
      "Ġwh": 170,
      "Ġit": 171,
      "om": 172,
      "ot": 173,
      "se": 174,
      "Ġhe": 175,
      "Ġl": 176,
      "Ġre": 177,
      "Ġthat": 178,
      "ll": 179,
      "ve": 180,
      "ct": 181,
      "st": 182,
      "ut": 183,
      "ce": 184,
      "Ġon": 185,
      "ent": 186,
      "Ġg": 187,
      "im": 188,
      "Ġas": 189,
      "Ġfor": 190,
      "Ġha": 191,
      "ow": 192,
      "Ġnot": 193,
      "Ġu": 194,
      "ld": 195,
      "Ġcon": 196,
      "her": 197,
      "ich": 198,
      "ver": 199,
      "Ġan": 200,
      "Ġwhich": 201,
      "Ġy": 202,
      "Ġwe": 203,
      "ith": 204,
      "id": 205,
      "ay": 206,
      "gh": 207,
      "ur": 208,
      "ation": 209,
      "am": 210,
      "Ġwith": 211,
      "ch": 212,
      "Ġst": 213,
      "Ġthis": 214,
      "ess": 215,
      "ro": 216,
      "ir": 217,
      "Ġ\"": 218,
      "Ġex": 219,
      "Ġhis": 220,
      "et": 221,
      "Ġat": 222,
      "Ġor": 223,
      "Ġyou": 224,
      "Ġbut": 225,
      "ity": 226,
      "Ġsu": 227,
      "lf": 228,
      "Ġme": 229,
      "ain": 230,
      "os": 231,
      "Ġby": 232,
      "ri": 233,
      "od": 234,
      "Ġwas": 235,
      "ter": 236,
      "ould": 237,
      "ect": 238,
      "ad": 239,
      "ght": 240,
      "self": 241,
      "Ġse": 242,
      "ul": 243,
      "Ġhave": 244,
      "ak": 245,
      "il": 246,
      "Ġare": 247,
      "ill": 248,
      "if": 249,
      "rom": 250,
      "ist": 251,
      "Ġk": 252,
      "pp": 253,
      "Ġhim": 254,
      "qu": 255,
      "ble": 256,
      "us": 257,
      "Ġmy": 258,
      "res": 259,
      "ther": 260,
      "Ġone": 261,
      "ous": 262,
      "ore": 263,
      "Ġde": 264,
      "Ġfrom": 265,
      "Ġso": 266,
      "Ġall": 267,
      "Ġne": 268,
      "ci": 269,
      "th": 270,
      "Ġr": 271,
      "Ġsh": 272,
      "Ġch": 273,
      "ust": 274,
      "Ġal": 275,
      "ate": 276,
      "iv": 277,
      "Ġthere": 278,
      "ol": 279,
      "Ġcom": 280,
      "Ġother": 281,
      "Ġpro": 282,
      "Ġcan": 283,
      "ure": 284,
      "est": 285,
      "'s": 286,
      "Ġthey": 287,
      "Ġbeing": 288,
      "ge": 289,
      "ive": 290,
      "mp": 291,
      "Ġdo": 292,
      "Ġv": 293,
      "Ġun": 294,
      "Ġwho": 295,
      "Ġtr": 296,
      "ant": 297,
      "Ġwor": 298,
      "Ġwhe": 299,
      "Ġhad": 300,
      "Ġman": 301,
      "act": 302,
      "ence": 303,
      "um": 304,
      "Ġhas": 305,
      "Ġif": 306,
      "Ġwill": 307,
      "very": 308,
      "ac": 309,
      "art": 310,
      "Ġab": 311,
      "Ġwhat": 312,
      "Ġint": 313,
      "ig": 314,
      "Ġsp": 315,
      "red": 316,
      "Ġthem": 317,
      "and": 318,
      "Ġonly": 319,
      "all": 320,
      "Ġno": 321,
      "Ġwould": 322,
      "Ġper": 323,
      "ness": 324,
      "ĠĠ": 325,
      "Ġle": 326,
      "ject": 327,
      "ream": 328,
      "out": 329,
      "Ġli": 330,
      "Ġlo": 331,
      "op": 332,
      "Ġdream": 333,
      "Ġkn": 334,
      "Ġj": 335,
      "ard": 336,
      "ap": 337,
      "Ġits": 338,
      "Ġob": 339,
      "ally": 340,
      "ind": 341,
      "ame": 342,
      "Ġev": 343,
      "Ġqu": 344,
      "Ġexp": 345,
      "ast": 346,
      "ment": 347,
      "Ġcons": 348,
      "Ġgo": 349,
      "Ġapp": 350,
      "nt": 351,
      "ies": 352,
      "Ġsom": 353,
      "hing": 354,
      "ong": 355,
      "Ġup": 356,
      "ough": 357,
      "au": 358,
      "Ġam": 359,
      "Ġknow": 360,
      "Ġtim": 361,
      "Ġtheir": 362,
      "ie": 363,
      "ke": 364,
      "Ġher": 365,
      "our": 366,
      "Ġbeen": 367,
      "Ġdis": 368,
      "Ġwhen": 369,
      "Ġmore": 370,
      "Ġcont": 371,
      "ical": 372,
      "Ġus": 373,
      "Ġpos": 374,
      "Ġ(": 375,
      "ans": 376,
      "em": 377,
      "ear": 378,
      "Ġar": 379,
      "ions": 380,
      "Ġbec": 381,
      "si": 382,
      "ound": 383,
      "Ġsa": 384,
      "Ġpl": 385,
      "able": 386,
      "Ġany": 387,
      "..": 388,
      "Ġour": 389,
      "ance": 390,
      "ace": 391,
      "cc": 392,
      ".\"": 393,
      "Ġpr": 394,
      "ort": 395,
      "Ġen": 396,
      "ight": 397,
      "ert": 398,
      "Ġout": 399,
      "reat": 400,
      "ake": 401,
      "pt": 402,
      "Ġag": 403,
      "Ġtime": 404,
      "ok": 405,
      "ass": 406,
      "de": 407,
      "ue": 408,
      "ose": 409,
      "ff": 410,
      "Ġpart": 411,
      "Ġwere": 412,
      "ov": 413,
      "Ġinto": 414,
      "ag": 415,
      "Ġthen": 416,
      "ere": 417,
      "Ġrel": 418,
      "Ġmay": 419,
      "ory": 420,
      "ers": 421,
      "Ġmust": 422,
      "Ġshe": 423,
      "ary": 424,
      "Ġdes": 425,
      "ost": 426,
      "Ġgr": 427,
      "fore": 428,
      "Ġhow": 429,
      "other": 430,
      "Ġcomp": 431,
      "Ġsuch": 432,
      "Ġ'": 433,
      "Ġte": 434,
      "cious": 435,
      "te": 436,
      "Ġph": 437,
      "iz": 438,
      "Ġind": 439,
      "ree": 440,
      "un": 441,
      "Ġimp": 442,
      "av": 443,
      ",\"": 444,
      "ite": 445,
      "Ġpres": 446,
      "og": 447,
      "Ġfe": 448,
      "Ġvery": 449,
      "Ġsay": 450,
      "ire": 451,
      "Ġsaid": 452,
      "Ġthese": 453,
      "Ġund": 454,
      "Ġworld": 455,
      "ought": 456,
      "Ġitself": 457,
      "Ġthan": 458,
      "ality": 459,
      "ice": 460,
      "Ġnow": 461,
      "Ġevery": 462,
      "Ġrep": 463,
      "Ġfact": 464,
      "Ġlike": 465,
      "one": 466,
      "ause": 467,
      "ated": 468,
      "ide": 469,
      "ress": 470,
      "iff": 471,
      "Ġeven": 472,
      "way": 473,
      "wn": 474,
      "Ġstr": 475,
      "the": 476,
      "Ġpre": 477,
      "Ġsome": 478,
      "itself": 479,
      "Ġact": 480,
      "ise": 481,
      "Ġpo": 482,
      "we": 483,
      "ations": 484,
      "Ġad": 485,
      "ife": 486,
      "ab": 487,
      "Ġref": 488,
      "Ġabout": 489,
      "ish": 490,
      "irst": 491,
      "ens": 492,
      "Ġnothing": 493,
      "ine": 494,
      "Ġrem": 495,
      "ult": 496,
      "Ġobject": 497,
      "ach": 498,
      "'t": 499,
      "Ġjust": 500,
      "Ġsame": 501,
      "Ġtw": 502,
      "ition": 503,
      "eri": 504,
      "Ġres": 505,
      "lect": 506,
      "ather": 507,
      "hed": 508,
      "are": 509,
      "ack": 510,
      "Ġagain": 511,
      "Ġexist": 512,
      "age": 513,
      "ond": 514,
      "Ġcould": 515,
      "Ġunder": 516,
      "ep": 517,
      "Ġfirst": 518,
      "so": 519,
      "Ġbet": 520,
      "ings": 521,
      "Ġcl": 522,
      "Ġdiff": 523,
      "Ġlife": 524,
      "les": 525,
      "Ġspe": 526,
      "Ġsee": 527,
      "itt": 528,
      "Ġshould": 529,
      "Ġconscious": 530,
      "ces": 531,
      "Ġbr": 532,
      "Ġgreat": 533,
      "Ġ_": 534,
      "Ġim": 535,
      "--": 536,
      "Ġown": 537,
      "Ġhimself": 538,
      "Ġdoes": 539,
      "ertain": 540,
      "ys": 541,
      "Ġaf": 542,
      "Ġtwo": 543,
      "ud": 544,
      "Ġbel": 545,
      "Ġform": 546,
      "Ġway": 547,
      "erm": 548,
      "Ġmat": 549,
      "Ġpossi": 550,
      "Ġthought": 551,
      "Ġacc": 552,
      "Ġbecause": 553,
      "el": 554,
      "ple": 555,
      "der": 556,
      "ful": 557,
      "end": 558,
      "cl": 559,
      "ase": 560,
      "cess": 561,
      "ual": 562,
      "Ġnat": 563,
      "Ġyour": 564,
      "ink": 565,
      "ha": 566,
      "Ġ1": 567,
      "Ġwithout": 568,
      "Ġsub": 569,
      "int": 570,
      "ict": 571,
      "Ġstate": 572,
      "Ġthr": 573,
      "Ġmean": 574,
      "cept": 575,
      "Ġhere": 576,
      "ĠĠĠĠ": 577,
      "ward": 578,
      "urn": 579,
      "uc": 580,
      "Ġdid": 581,
      "own": 582,
      "ves": 583,
      "uct": 584,
      "Ġgood": 585,
      "ile": 586,
      "Ġcertain": 587,
      "Ġsim": 588,
      "ry": 589,
      "hen": 590,
      "ons": 591,
      "ied": 592,
      "Ġinst": 593,
      "ody": 594,
      "led": 595,
      "Ġalso": 596,
      "Ġmad": 597,
      "ang": 598,
      "Ġbefore": 599,
      "Ġlook": 600,
      "Ġmost": 601,
      "Ġafter": 602,
      "aw": 603,
      "Ġconsciousness": 604,
      "Ġrec": 605,
      "Ġthus": 606,
      "Ġpe": 607,
      "Ġover": 608,
      "ious": 609,
      "Ġfo": 610,
      "Ġinter": 611,
      "Ġide": 612,
      "sy": 613,
      "Ġlong": 614,
      "Ġdist": 615,
      "Ġanother": 616,
      "Ġhand": 617,
      "Ġthose": 618,
      "ince": 619,
      "Ġnever": 620,
      "ates": 621,
      "Ġsy": 622,
      "Ġgen": 623,
      "Ġfre": 624,
      "Ġmake": 625,
      "Ġshall": 626,
      "ord": 627,
      "ither": 628,
      "ears": 629,
      "Ġatt": 630,
      "Ġpresent": 631,
      "Ġgiv": 632,
      "?\"": 633,
      "Ġgod": 634,
      "ign": 635,
      "ved": 636,
      "Ġend": 637,
      "Ġorder": 638,
      "Ġinf": 639,
      "ense": 640,
      "âĢ": 641,
      "Ġbl": 642,
      "Ġsm": 643,
      "ild": 644,
      "Ġco": 645,
      "Ġpers": 646,
      "ome": 647,
      "Ġhum": 648,
      "Ġtrans": 649,
      "ber": 650,
      "Ġmen": 651,
      "Ġsomet": 652,
      "Ġabs": 653,
      "Ġtoo": 654,
      "uch": 655,
      "Ġro": 656,
      "Ġword": 657,
      "nce": 658,
      "vel": 659,
      "ath": 660,
      "Ġbeg": 661,
      "Ġpoint": 662,
      "Ġmade": 663,
      "Ġcome": 664,
      "aking": 665,
      "ics": 666,
      "Ġwell": 667,
      "Ġstill": 668,
      "oc": 669,
      "not": 670,
      "Ġnew": 671,
      "uth": 672,
      "thing": 673,
      "Ġmyself": 674,
      "Ġpsy": 675,
      "Ġthrough": 676,
      "ular": 677,
      "Ġpartic": 678,
      "ady": 679,
      "Ġquest": 680,
      "ween": 681,
      "hes": 682,
      "Ġbo": 683,
      "Ġri": 684,
      "Ġbody": 685,
      "Ġpass": 686,
      "Ġlet": 687,
      "ute": 688,
      "ility": 689,
      "sel": 690,
      "ily": 691,
      "ents": 692,
      "Ġcall": 693,
      "Ġfather": 694,
      "Ġfl": 695,
      "Ġoff": 696,
      "Ġpsych": 697,
      "llow": 698,
      "ial": 699,
      "Ġdiffere": 700,
      "Ġthink": 701,
      "Ġdisc": 702,
      "for": 703,
      "Ġass": 704,
      "Ġbetween": 705,
      "Ġthough": 706,
      "âĢĲ": 707,
      "ount": 708,
      "Ġfar": 709,
      "Ġseem": 710,
      "ways": 711,
      "Ġfound": 712,
      "Ġbelie": 713,
      "ood": 714,
      "Ġyet": 715,
      "Ġchar": 716,
      "Ġop": 717,
      "Ġsc": 718,
      "Ġear": 719,
      "Ġday": 720,
      "Ġupon": 721,
      "Ġcour": 722,
      "iver": 723,
      "Ġent": 724,
      "Ġfa": 725,
      "Ġdet": 726,
      "wh": 727,
      "Ġreal": 728,
      "Ġsec": 729,
      "Ġalways": 730,
      "ving": 731,
      "Ġphil": 732,
      "mpt": 733,
      "Ġtrue": 734,
      "be": 735,
      "Ġhuman": 736,
      "ern": 737,
      "osha": 738,
      "ret": 739,
      "Ġcr": 740,
      "Ġcond": 741,
      "less": 742,
      "ked": 743,
      "Ġmany": 744,
      "osop": 745,
      "Ġsince": 746,
      "olog": 747,
      "Ġconst": 748,
      "Ġmod": 749,
      "Ġwhere": 750,
      "Ġgener": 751,
      "Ġaly": 752,
      "Ġmuch": 753,
      "Ġalyosha": 754,
      "Ġphilosop": 755,
      "ian": 756,
      "Ġrelation": 757,
      "ities": 758,
      "itch": 759,
      "Ġunderst": 760,
      "Ġreas": 761,
      "itu": 762,
      "Ġdef": 763,
      "lic": 764,
      "Ġcomm": 765,
      "Ġlove": 766,
      "den": 767,
      "ove": 768,
      "aps": 769,
      "Ġreg": 770,
      "ried": 771,
      "ever": 772,
      "Ġsur": 773,
      "ave": 774,
      "Ġsupp": 775,
      "ific": 776,
      "Ġchild": 777,
      "Ġonce": 778,
      "Ġconf": 779,
      "Ġtheory": 780,
      "Ġtherefore": 781,
      "Ġsomething": 782,
      "ip": 783,
      "Ġmeans": 784,
      "Ġmind": 785,
      "!\"": 786,
      "Ġhapp": 787,
      "ater": 788,
      "Ġmight": 789,
      "Ġnature": 790,
      "Ġtake": 791,
      "Ġnecess": 792,
      "Ġcor": 793,
      "Ġlight": 794,
      "Ġquestion": 795,
      "pect": 796,
      "Ġgiven": 797,
      "Ġlaw": 798,
      "ained": 799,
      "ittle": 800,
      "selves": 801,
      "Ġsubject": 802,
      "ks": 803,
      "Ġsl": 804,
      "Ġinc": 805,
      "ivity": 806,
      "Ġwr": 807,
      "Ġlittle": 808,
      "cri": 809,
      "Ġdr": 810,
      "ser": 811,
      "und": 812,
      "Ġho": 813,
      "Ġthings": 814,
      "Ġplace": 815,
      "Ġwhy": 816,
      "med": 817,
      "Ġold": 818,
      "ism": 819,
      "ined": 820,
      "Ġcase": 821,
      "ished": 822,
      "Ġnor": 823,
      "oth": 824,
      "Ġac": 825,
      "ange": 826,
      "Ġfind": 827,
      "Ġuniver": 828,
      "Ġmatter": 829,
      "Ġfollow": 830,
      "Ġfreed": 831,
      "Ġconc": 832,
      "ently": 833,
      "Ġright": 834,
      "Ġcontr": 835,
      "haps": 836,
      "Ġorig": 837,
      "Ġprin": 838,
      "Ġprop": 839,
      "Ġdifferent": 840,
      "Ġwom": 841,
      "Ġphys": 842,
      "Ġfreedom": 843,
      "Ġorigin": 844,
      "Ġsou": 845,
      "Ġeach": 846,
      "Ġreason": 847,
      "Ġpossible": 848,
      "ures": 849,
      "Ġwant": 850,
      "ledge": 851,
      "van": 852,
      "Ġback": 853,
      "Ġwhole": 854,
      "Ġexam": 855,
      "Ġexpl": 856,
      "Ġsense": 857,
      "Ġturn": 858,
      "Ġappear": 859,
      "Ġothers": 860,
      "ffect": 861,
      "akes": 862,
      "ider": 863,
      "Ġaway": 864,
      "Ġperhaps": 865,
      "ner": 866,
      "Ġself": 867,
      "Ġpeop": 868,
      "Ġgl": 869,
      "Ġmeaning": 870,
      "Ġtoward": 871,
      "Ġexperi": 872,
      "ning": 873,
      "Ġcannot": 874,
      "Ġmom": 875,
      "Ġinv": 876,
      "Ġpast": 877,
      "Ġunderstand": 878,
      "Ġcharact": 879,
      "ating": 880,
      "Ġsuff": 881,
      "Ġpossib": 882,
      "Ġprinci": 883,
      "Ġfeel": 884,
      "Ġcle": 885,
      "Ġfri": 886,
      "Ġdown": 887,
      "ower": 888,
      "ors": 889,
      "Ġser": 890,
      "Ġsoul": 891,
      "Ġknowledge": 892,
      "Ġpeople": 893,
      "ten": 894,
      "ually": 895,
      "Ġtruth": 896,
      "ains": 897,
      "Ġocc": 898,
      "oub": 899,
      "ments": 900,
      "Ġobser": 901,
      "Ġivan": 902,
      "Ġhowever": 903,
      "Ġreflect": 904,
      "its": 905,
      "Ġsud": 906,
      "itya": 907,
      "ative": 908,
      "Ġlast": 909,
      "ovitch": 910,
      "to": 911,
      "Ġthree": 912,
      "Ġexpress": 913,
      "Ġcomple": 914,
      "Ġagainst": 915,
      "ced": 916,
      "Ġsudden": 917,
      "ty": 918,
      "Ġtell": 919,
      "Ġcourse": 920,
      "ren": 921,
      "Ġboth": 922,
      "Ġwhether": 923,
      "Ġconsider": 924,
      "yes": 925,
      "aken": 926,
      "Ġmitya": 927,
      "cend": 928,
      "Ġperson": 929,
      "Ġgive": 930,
      "str": 931,
      "ention": 932,
      "Ġneg": 933,
      "that": 934,
      "Ġcharacter": 935,
      "ub": 936,
      "Ġdescri": 937,
      "ived": 938,
      "king": 939,
      "Ġget": 940,
      "Ġval": 941,
      "Ġke": 942,
      "cy": 943,
      "Ġput": 944,
      "Ġmot": 945,
      "Ġmar": 946,
      "Ġmoment": 947,
      "mb": 948,
      "Ġmet": 949,
      "Ġheart": 950,
      "ra": 951,
      "Ġfin": 952,
      "Ġnum": 953,
      "ready": 954,
      "Ġmor": 955,
      "Ġext": 956,
      "Ġparticular": 957,
      "Ġdon": 958,
      "Ġel": 959,
      "Ġexistence": 960,
      "Ġalready": 961,
      "Ġwhile": 962,
      "Ġnothingness": 963,
      "Ġshow": 964,
      "Ġwhom": 965,
      "Ġsci": 966,
      "Ġart": 967,
      "ft": 968,
      "Ġca": 969,
      "iew": 970,
      "Ġsecond": 971,
      "Ġins": 972,
      "Ġhaving": 973,
      "ited": 974,
      "Ġpure": 975,
      "here": 976,
      "Ġwords": 977,
      "Ġappre": 978,
      "irect": 979,
      "Ġes": 980,
      "sion": 981,
      "Ġrather": 982,
      "...": 983,
      "Ġbecome": 984,
      "Ġuse": 985,
      "als": 986,
      "Ġgu": 987,
      "Ġopp": 988,
      "Ġthing": 989,
      "mit": 990,
      "yp": 991,
      "Ġcho": 992,
      "ier": 993,
      "Ġable": 994,
      "ental": 995,
      "Ġterm": 996,
      "sible": 997,
      "Ġgeneral": 998,
      "Ġwork": 999,
      "Ġans": 1000,
      "Ġkind": 1001,
      "Ġtemp": 1002,
      "Ġdeterm": 1003,
      "ized": 1004,
      ").": 1005,
      "ared": 1006,
      "Ġview": 1007,
      "Ġsuddenly": 1008,
      "Ġinde": 1009,
      "Ġuniverse": 1010,
      "Ġwish": 1011,
      "Ġfriend": 1012,
      "get": 1013,
      "Ġequ": 1014,
      "ivid": 1015,
      "Ġmon": 1016,
      "Ġyes": 1017,
      "Ġdreams": 1018,
      "Ġdirect": 1019,
      "Ġfut": 1020,
      "most": 1021,
      "Ġphilosoph": 1022,
      "Ġreve": 1023,
      "Ġconn": 1024,
      "Ġdeath": 1025,
      "Ġcar": 1026,
      "Ġfree": 1027,
      "ope": 1028,
      "iness": 1029,
      "Ġbelieve": 1030,
      "Ġdec": 1031,
      "Ġinterp": 1032,
      "Ġhist": 1033,
      "Ġple": 1034,
      "Ġeverything": 1035,
      "man": 1036,
      "up": 1037,
      "Ġyears": 1038,
      "Ġidea": 1039,
      "Ġpsychic": 1040,
      "ution": 1041,
      "Ġpur": 1042,
      "Ġconcept": 1043,
      "Ġthemselves": 1044,
      "ened": 1045,
      "Ġquite": 1046,
      "Ġwoman": 1047,
      "Ġdep": 1048,
      "Ġfuture": 1049,
      "aint": 1050,
      "Ġadd": 1051,
      "Ġresult": 1052,
      "ell": 1053,
      "ĠĠĠĠĠĠĠĠ": 1054,
      "Ġeither": 1055,
      "Ġret": 1056,
      "Ġproject": 1057,
      "Ġfr": 1058,
      "Ġele": 1059,
      "Ġconnect": 1060,
      "Ġreality": 1061,
      "ize": 1062,
      "Ġspeak": 1063,
      "Ġcap": 1064,
      "Ġreally": 1065,
      "Ġaccord": 1066,
      "Ġpower": 1067,
      "ull": 1068,
      "tern": 1069,
      "Ġill": 1070,
      "stem": 1071,
      "icult": 1072,
      "Ġamong": 1073,
      "Ġseen": 1074,
      "Ġneed": 1075,
      "irt": 1076,
      "ick": 1077,
      "pl": 1078,
      "Ġest": 1079,
      "Ġdesire": 1080,
      "over": 1081,
      "Ġdifficult": 1082,
      "ised": 1083,
      "Ġunc": 1084,
      "Ġbetter": 1085,
      "Ġsign": 1086,
      "Ġspace": 1087,
      "uring": 1088,
      "Ġpar": 1089,
      "Ġbegin": 1090,
      "Ġrepres": 1091,
      "Ġsystem": 1092,
      "rist": 1093,
      "Ġsat": 1094,
      "ix": 1095,
      "Ġcalled": 1096,
      "air": 1097,
      "Ġir": 1098,
      "Ġtot": 1099,
      "Ġexperience": 1100,
      "osed": 1101,
      "Ġess": 1102,
      "Ġset": 1103,
      "Ġlim": 1104,
      "ives": 1105,
      "ately": 1106,
      "hem": 1107,
      "),": 1108,
      ".'": 1109,
      "Ġfur": 1110,
      "Ġbeh": 1111,
      "Ġimag": 1112,
      "ences": 1113,
      "Ġnecessary": 1114,
      "ered": 1115,
      "ail": 1116,
      "Ġever": 1117,
      "Ġread": 1118,
      "'ll": 1119,
      "odor": 1120,
      "Ġconstit": 1121,
      "yodor": 1122,
      "Ġaw": 1123,
      "Ġtranscend": 1124,
      "Ġinterpret": 1125,
      "asure": 1126,
      "but": 1127,
      "ient": 1128,
      "of": 1129,
      "olute": 1130,
      "Ġclear": 1131,
      "Ġindeed": 1132,
      "sess": 1133,
      "Ġfyodor": 1134,
      "Ġeyes": 1135,
      "oney": 1136,
      "Ġless": 1137,
      "ably": 1138,
      "Ġalmost": 1139,
      "Ġprinciple": 1140,
      "ont": 1141,
      "Ġstruct": 1142,
      "ically": 1143,
      "urd": 1144,
      "oy": 1145,
      "Ġstand": 1146,
      "par": 1147,
      "Ġ2": 1148,
      "hend": 1149,
      "Ġemp": 1150,
      "rop": 1151,
      "ogn": 1152,
      "gr": 1153,
      "Ġface": 1154,
      "Ġchrist": 1155,
      "ane": 1156,
      "Ġsure": 1157,
      "Ġcontin": 1158,
      "Ġsurp": 1159,
      "Ġconce": 1160,
      "ng": 1161,
      "Ġmoney": 1162,
      "Ġfaith": 1163,
      "erg": 1164,
      "Ġdem": 1165,
      "igh": 1166,
      "sequ": 1167,
      "Ġquant": 1168,
      "....": 1169,
      "Ġmakes": 1170,
      "'ve": 1171,
      "Ġ-": 1172,
      "Ġnatur": 1173,
      "Ġindivid": 1174,
      "cise": 1175,
      "ines": 1176,
      "ological": 1177,
      "Ġvirt": 1178,
      "Ġpossess": 1179,
      "lt": 1180,
      "Ġanything": 1181,
      "Ġsimp": 1182,
      "Ġcaus": 1183,
      "what": 1184,
      "Ġabsolute": 1185,
      "Ġoften": 1186,
      "Ġeffect": 1187,
      "Ġrest": 1188,
      "ms": 1189,
      "Ġsitu": 1190,
      "Ġsol": 1191,
      "ists": 1192,
      "Ġjud": 1193,
      "erence": 1194,
      "medi": 1195,
      "oubt": 1196,
      "gg": 1197,
      "ering": 1198,
      "Ġpri": 1199,
      "Ġyoung": 1200,
      "Ġlonger": 1201,
      "Ġthoughts": 1202,
      "cul": 1203,
      "ew": 1204,
      "Ġtaken": 1205,
      "Ġexample": 1206,
      "erest": 1207,
      "row": 1208,
      "Ġsmall": 1209,
      "usion": 1210,
      "Ġproble": 1211,
      "Ġsens": 1212,
      "vers": 1213,
      "Ġaccording": 1214,
      "Ġ...": 1215,
      "Ġtal": 1216,
      "Ġprob": 1217,
      "Ġcomplete": 1218,
      "Ġwent": 1219,
      "ible": 1220,
      "Ġsing": 1221,
      "Ġregard": 1222,
      "Ġfall": 1223,
      "Ġnumber": 1224,
      "Ġindividual": 1225,
      "bed": 1226,
      "ars": 1227,
      "Ġearth": 1228,
      "omen": 1229,
      "Ġleft": 1230,
      "Ġleast": 1231,
      "Ġansw": 1232,
      "isf": 1233,
      "Ġanal": 1234,
      "ef": 1235,
      "ired": 1236,
      "inct": 1237,
      ",'": 1238,
      "Ġvis": 1239,
      "Ġbecom": 1240,
      "Ġphilosophy": 1241,
      "Ġfam": 1242,
      "Ġhel": 1243,
      "arn": 1244,
      "ousand": 1245,
      "Ġelse": 1246,
      "Ġrecogn": 1247,
      "Ġabsurd": 1248,
      "Ġappears": 1249,
      "Ġthousand": 1250,
      "Ġhold": 1251,
      "ven": 1252,
      "ety": 1253,
      "Ġimport": 1254,
      "Ġclass": 1255,
      "Ġcertainly": 1256,
      "Ġconcern": 1257,
      "ying": 1258,
      "Ġhon": 1259,
      "itions": 1260,
      "Ġremem": 1261,
      "Ġseems": 1262,
      "arm": 1263,
      "Ġlater": 1264,
      "Ġspir": 1265,
      "ting": 1266,
      "ught": 1267,
      "inite": 1268,
      "Ġcol": 1269,
      "Ġcame": 1270,
      "ency": 1271,
      "ances": 1272,
      "Ġorg": 1273,
      "Ġrespect": 1274,
      "aster": 1275,
      "Ġtimes": 1276,
      "Ġrepresent": 1277,
      "xt": 1278,
      "Ġallow": 1279,
      "Ġneither": 1280,
      "Ġfurther": 1281,
      "Ġfore": 1282,
      "Ġdoubt": 1283,
      "leep": 1284,
      "ouse": 1285,
      "Ġsort": 1286,
      "ceed": 1287,
      "ination": 1288,
      "Ġwithin": 1289,
      "itude": 1290,
      "Ġsimply": 1291,
      "Ġlau": 1292,
      "Ġhistory": 1293,
      "Ġed": 1294,
      "Ġbad": 1295,
      "Ġni": 1296,
      "Ġinterest": 1297,
      "Ġtold": 1298,
      "Ġenough": 1299,
      "Ġprocess": 1300,
      "Ġbook": 1301,
      "Ġatte": 1302,
      "Ġknown": 1303,
      "onscious": 1304,
      "li": 1305,
      "Ġeas": 1306,
      "Ġchap": 1307,
      "Ġnon": 1308,
      "Ġpat": 1309,
      "hil": 1310,
      "aled": 1311,
      "Ġang": 1312,
      "Ġsent": 1313,
      "Ġgre": 1314,
      "app": 1315,
      "itation": 1316,
      "Ġprof": 1317,
      "Ġprod": 1318,
      "Ġplat": 1319,
      "though": 1320,
      "ark": 1321,
      "you": 1322,
      "Ġphen": 1323,
      "Ġroom": 1324,
      "cap": 1325,
      "fect": 1326,
      "Ġgoing": 1327,
      "Ġought": 1328,
      "Ġprecise": 1329,
      "day": 1330,
      "Ġcent": 1331,
      "az": 1332,
      "Ġtri": 1333,
      "Ġbas": 1334,
      "Ġconsequ": 1335,
      "lied": 1336,
      "Ġplay": 1337,
      "Ġcare": 1338,
      "Ġevid": 1339,
      "Ġchapter": 1340,
      "Ġrequ": 1341,
      "Ġpresence": 1342,
      "Ġhelp": 1343,
      "ĠĠĠ": 1344,
      "irc": 1345,
      "abl": 1346,
      "Ġinstr": 1347,
      "Ġlaws": 1348,
      "cial": 1349,
      "rod": 1350,
      "Ġcried": 1351,
      "Ġpol": 1352,
      "Ġsoon": 1353,
      "iving": 1354,
      "Ġcontent": 1355,
      "Ġphenomen": 1356,
      "Ġpossibility": 1357,
      "Ġapprehend": 1358,
      "Ġcommon": 1359,
      "ument": 1360,
      "Ġbrother": 1361,
      "ases": 1362,
      "Ġopin": 1363,
      "ib": 1364,
      "Ġet": 1365,
      "Ġhands": 1366,
      "just": 1367,
      "akov": 1368,
      "ka": 1369,
      "Ġwa": 1370,
      "erial": 1371,
      "Ġnegation": 1372,
      "Ġchildren": 1373,
      "Ġbest": 1374,
      "iss": 1375,
      "Ġsup": 1376,
      "Ġoriginal": 1377,
      "Ġ3": 1378,
      "Ġmanner": 1379,
      "Ġcirc": 1380,
      "Ġmother": 1381,
      "Ġevil": 1382,
      "Ġexpect": 1383,
      "Ġsituation": 1384,
      "Ġnight": 1385,
      "Ġshort": 1386,
      "Ġlead": 1387,
      "Ġterms": 1388,
      "Ġwhose": 1389,
      "yond": 1390,
      "Ġaff": 1391,
      "Ġfear": 1392,
      "ides": 1393,
      "na": 1394,
      "err": 1395,
      "Ġcontrary": 1396,
      "Ġduring": 1397,
      "oun": 1398,
      "Ġatom": 1399,
      "Ġstrong": 1400,
      "Ġbelong": 1401,
      "Ġlack": 1402,
      "ential": 1403,
      "tic": 1404,
      "Ġdest": 1405,
      "Ġem": 1406,
      "Ġhead": 1407,
      "Ġcomes": 1408,
      "iting": 1409,
      "Ġabove": 1410,
      "Ġcondition": 1411,
      "Ġattempt": 1412,
      "Ġwis": 1413,
      "atic": 1414,
      "arch": 1415,
      "ously": 1416,
      "arent": 1417,
      "Ġquantum": 1418,
      "Ġthir": 1419,
      "Ġconcl": 1420,
      "Ġlooked": 1421,
      "aut": 1422,
      "Ġkeep": 1423,
      "_,": 1424,
      "Ġstud": 1425,
      "Ġstructure": 1426,
      "Ġposition": 1427,
      "Ġjustice": 1428,
      "Ġcreat": 1429,
      "Ġhouse": 1430,
      "Ġru": 1431,
      "Ġfew": 1432,
      "Ġprev": 1433,
      "ues": 1434,
      "Ġcause": 1435,
      "orm": 1436,
      "Ġimmedi": 1437,
      "Ġanswer": 1438,
      "Ġchange": 1439,
      "Ġenerg": 1440,
      "Ġbegan": 1441,
      "Ġestabl": 1442,
      "ises": 1443,
      "Ġphilosopher": 1444,
      "Ġmere": 1445,
      "Ġbrought": 1446,
      "Ġlar": 1447,
      "ia": 1448,
      "inary": 1449,
      "ison": 1450,
      "uced": 1451,
      "Ġphysics": 1452,
      "Ġid": 1453,
      "Ġsil": 1454,
      "Ġrelations": 1455,
      "Ġdev": 1456,
      "Ġbeyond": 1457,
      "itted": 1458,
      "Ġmaterial": 1459,
      "Ġname": 1460,
      "Ġexact": 1461,
      "ex": 1462,
      "Ġescap": 1463,
      "Ġmaking": 1464,
      "itive": 1465,
      "Ġprov": 1466,
      "ged": 1467,
      "men": 1468,
      "vant": 1469,
      "Ġheav": 1470,
      "Ġbre": 1471,
      "Ġhard": 1472,
      "Ġalthough": 1473,
      "Ġobjects": 1474,
      "Ġideas": 1475,
      "Ġplato": 1476,
      "ows": 1477,
      "Ġorgan": 1478,
      "Ġhig": 1479,
      "Ġmem": 1480,
      "Ġrelat": 1481,
      "Ġground": 1482,
      "Ġforg": 1483,
      "ified": 1484,
      "ield": 1485,
      "Ġaccount": 1486,
      "Ġlat": 1487,
      "side": 1488,
      "Ġut": 1489,
      "ority": 1490,
      "Ġasked": 1491,
      "Ġassum": 1492,
      "Ġentire": 1493,
      "Ġtoget": 1494,
      "ured": 1495,
      "Ġtogether": 1496,
      "ilar": 1497,
      "Ġdel": 1498,
      "Ġperfect": 1499,
      "Ġinterpretation": 1500,
      "Ġnatural": 1501,
      "ling": 1502,
      "pe": 1503,
      "uction": 1504,
      "Ġcur": 1505,
      "Ġconte": 1506,
      "Ġimpress": 1507,
      "Ġsimple": 1508,
      "Ġscience": 1509,
      "Ġopen": 1510,
      "Ġarg": 1511,
      "Ġsatisf": 1512,
      "gth": 1513,
      "me": 1514,
      "Ġrom": 1515,
      "Ġside": 1516,
      "chan": 1517,
      "Ġimpos": 1518,
      "Ġreturn": 1519,
      "Ġsleep": 1520,
      "Ġused": 1521,
      "Ġden": 1522,
      "Ġdiv": 1523,
      "Ġask": 1524,
      "Ġsimilar": 1525,
      "Ġspirit": 1526,
      "ph": 1527,
      "ted": 1528,
      "Ġbri": 1529,
      "Ġpain": 1530,
      "Ġoccur": 1531,
      "Ġprecisely": 1532,
      "action": 1533,
      "Ġfull": 1534,
      "orn": 1535,
      "by": 1536,
      "Ġvalue": 1537,
      "ax": 1538,
      "Ġfund": 1539,
      "dy": 1540,
      "Ġrece": 1541,
      "cr": 1542,
      "iar": 1543,
      "Ġdone": 1544,
      "Ġexc": 1545,
      "aim": 1546,
      "Ġheard": 1547,
      "Ġmechan": 1548,
      "oses": 1549,
      "Ġmotion": 1550,
      "Ġstep": 1551,
      "Ġadm": 1552,
      "angu": 1553,
      "Ġinfl": 1554,
      "Ġcorre": 1555,
      "ob": 1556,
      "Ġexcept": 1557,
      "Ġalone": 1558,
      "ysis": 1559,
      "ided": 1560,
      "ros": 1561,
      "Ġeng": 1562,
      "ians": 1563,
      "rete": 1564,
      "Ġfour": 1565,
      "Ġsays": 1566,
      "Ġchoice": 1567,
      "where": 1568,
      ".,": 1569,
      "Ġauth": 1570,
      "Ġvar": 1571,
      "wards": 1572,
      "old": 1573,
      "Ġcount": 1574,
      "irm": 1575,
      "Ġdistance": 1576,
      "ature": 1577,
      "Ġproblem": 1578,
      "Ġrelativity": 1579,
      "ru": 1580,
      "Ġsepar": 1581,
      "Ġtion": 1582,
      "ime": 1583,
      "istic": 1584,
      "Ġunt": 1585,
      "velop": 1586,
      "Ġred": 1587,
      "Ġremain": 1588,
      "Ġideal": 1589,
      "Ġconnection": 1590,
      "Ġlearn": 1591,
      "ification": 1592,
      "Ġlangu": 1593,
      "Ġbecomes": 1594,
      "Ġmin": 1595,
      "Ġstart": 1596,
      "ology": 1597,
      "ternal": 1598,
      "Ġmur": 1599,
      "Ġelect": 1600,
      "imes": 1601,
      "Ġenergy": 1602,
      "Ġaction": 1603,
      "Ġce": 1604,
      "Ġtempor": 1605,
      "ck": 1606,
      "fully": 1607,
      "ublic": 1608,
      "Ġfundam": 1609,
      "Ġlive": 1610,
      "Ġrul": 1611,
      "Ġremember": 1612,
      "sp": 1613,
      "Ġwon": 1614,
      "erdy": 1615,
      "Ġtotality": 1616,
      "Ġopinion": 1617,
      "wise": 1618,
      "iter": 1619,
      "Ġoppos": 1620,
      "Ġforce": 1621,
      "erdyakov": 1622,
      "ene": 1623,
      "Ġincl": 1624,
      "ption": 1625,
      "Ġappearance": 1626,
      "Ġgent": 1627,
      "Ġchang": 1628,
      "Ġdiscus": 1629,
      "Ġaffect": 1630,
      "Ġknew": 1631,
      "Ġgrav": 1632,
      "mitri": 1633,
      "Ġtreat": 1634,
      "Ġblack": 1635,
      "Ġnihil": 1636,
      "Ġsis": 1637,
      "Ġnext": 1638,
      "form": 1639,
      "Ġpoet": 1640,
      "Ġconstitut": 1641,
      "ples": 1642,
      "Ġsmerdyakov": 1643,
      "ires": 1644,
      "erim": 1645,
      "Ġhal": 1646,
      "Ġacqu": 1647,
      "Ġsingle": 1648,
      "Ġrun": 1649,
      "Ġimportant": 1650,
      "Ġhear": 1651,
      "Ġsex": 1652,
      "Ġvi": 1653,
      "Ġsaying": 1654,
      "Ġlanguage": 1655,
      "Ġ4": 1656,
      "Ġtyp": 1657,
      "Ġav": 1658,
      "Ġbeaut": 1659,
      "Ġdoing": 1660,
      "ief": 1661,
      "Ġlaugh": 1662,
      "Ġdmitri": 1663,
      "aces": 1664,
      "Ġevent": 1665,
      "Ġgrus": 1666,
      "Ġtook": 1667,
      "Ġdevelop": 1668,
      "Ġremains": 1669,
      "Ġmodern": 1670,
      "Ġexpression": 1671,
      "no": 1672,
      "Ġexplain": 1673,
      "iction": 1674,
      "Ġmov": 1675,
      "Ġgot": 1676,
      "henka": 1677,
      "Ġson": 1678,
      "Ġmove": 1679,
      "illed": 1680,
      "Ġexperim": 1681,
      "Ġoutside": 1682,
      "Ġindic": 1683,
      "Ġseemed": 1684,
      "Ġsuppose": 1685,
      "Ġturned": 1686,
      "Ġfollowing": 1687,
      "Ġhigh": 1688,
      "Ġones": 1689,
      "Ġrad": 1690,
      "Ġfinally": 1691,
      "Ġpurp": 1692,
      "Ġliving": 1693,
      "Ġrevealed": 1694,
      "unt": 1695,
      "Ġsum": 1696,
      "Ġvirtue": 1697,
      "Ġjudg": 1698,
      "Ġmis": 1699,
      "Ġdistinct": 1700,
      "ories": 1701,
      "aves": 1702,
      "Ġfeeling": 1703,
      "vern": 1704,
      "Ġvo": 1705,
      "ability": 1706,
      "orrow": 1707,
      "Ġourselves": 1708,
      "Ġgreater": 1709,
      "ock": 1710,
      "Ġthird": 1711,
      "uce": 1712,
      "Ġtable": 1713,
      "Ġsch": 1714,
      "anger": 1715,
      "Ġimpossible": 1716,
      "Ġgrushenka": 1717,
      "ius": 1718,
      "Ġsin": 1719,
      "ale": 1720,
      "Ġsun": 1721,
      "Ġsaw": 1722,
      "Ġconcrete": 1723,
      "Ġconv": 1724,
      "idered": 1725,
      "Ġmid": 1726,
      "Ġstates": 1727,
      "Ġrid": 1728,
      "use": 1729,
      "Ġinstant": 1730,
      "hip": 1731,
      "ank": 1732,
      "Ġreflection": 1733,
      "Ġgentle": 1734,
      "Ġmode": 1735,
      "ead": 1736,
      "asp": 1737,
      "ury": 1738,
      "Ġpract": 1739,
      "Ġinflu": 1740,
      "aged": 1741,
      "well": 1742,
      "Ġfyodorovitch": 1743,
      "ey": 1744,
      "Ġcre": 1745,
      "Ġfig": 1746,
      "Ġfield": 1747,
      "Ġfelt": 1748,
      "Ġfundamental": 1749,
      "lex": 1750,
      "ilities": 1751,
      "Ġ5": 1752,
      "Ġz": 1753,
      "Ġunity": 1754,
      "Ġobjective": 1755,
      "Ġbring": 1756,
      "Ġap": 1757,
      "Ġident": 1758,
      "bit": 1759,
      "Ġpict": 1760,
      "Ġwar": 1761,
      "Ġconsidered": 1762,
      "eness": 1763,
      "pond": 1764,
      "Ġmass": 1765,
      "Ġing": 1766,
      "this": 1767,
      "Ġmanif": 1768,
      "Ġbeginning": 1769,
      "Ġlarge": 1770,
      "ash": 1771,
      "Ġgree": 1772,
      "Ġmed": 1773,
      "Ġmach": 1774,
      "Ġhalf": 1775,
      "ingu": 1776,
      "Ġlist": 1777,
      "being": 1778,
      "Ġcontrad": 1779,
      "Ġ[": 1780,
      "Ġdisp": 1781,
      "Ġfoundation": 1782,
      "ross": 1783,
      "Ġcal": 1784,
      "gn": 1785,
      "hod": 1786,
      "Ġsw": 1787,
      "arily": 1788,
      "Ġeff": 1789,
      "Ġsucc": 1790,
      "Ġsuffic": 1791,
      "Ġchristian": 1792,
      "Ġeduc": 1793,
      "con": 1794,
      "kn": 1795,
      "Ġmeasure": 1796,
      "Ġsever": 1797,
      "ressed": 1798,
      "Ġstrange": 1799,
      "Ġlooking": 1800,
      "Ġhor": 1801,
      "Ġweak": 1802,
      "aced": 1803,
      "Ġfriends": 1804,
      "Ġcast": 1805,
      "Ġgri": 1806,
      "Ġappro": 1807,
      "Ġreference": 1808,
      "00": 1809,
      "Ġrus": 1810,
      "ached": 1811,
      "._": 1812,
      "Ġreplied": 1813,
      "Ġactually": 1814,
      "Ġcontinu": 1815,
      "Ġlatter": 1816,
      "Ġage": 1817,
      "Ġbes": 1818,
      "aph": 1819,
      "Ġinfinite": 1820,
      "Ġsurpass": 1821,
      "vation": 1822,
      "Ġharm": 1823,
      "cially": 1824,
      "Ġdesp": 1825,
      "ization": 1826,
      "Ġmethod": 1827,
      "Ġuntil": 1828,
      "iously": 1829,
      "ched": 1830,
      "Ġhour": 1831,
      "icity": 1832,
      "Ġra": 1833,
      "Ġdoor": 1834,
      "Ġtend": 1835,
      "Ġmo": 1836,
      "Ġdays": 1837,
      "ye": 1838,
      "Ġche": 1839,
      "ased": 1840,
      "Ġknows": 1841,
      "Ġsometimes": 1842,
      "iqu": 1843,
      "Ġrepe": 1844,
      "Ġimage": 1845,
      "Ġfail": 1846,
      "Ġpropert": 1847,
      "Ġunconscious": 1848,
      "Ġfix": 1849,
      "Ġrelig": 1850,
      "undred": 1851,
      "gor": 1852,
      "Ġx": 1853,
      "ina": 1854,
      "Ġhundred": 1855,
      "wor": 1856,
      "ision": 1857,
      "Ġsk": 1858,
      "Ġpav": 1859,
      "Ġexplan": 1860,
      "go": 1861,
      "tain": 1862,
      "Ġparticles": 1863,
      "Ġphysic": 1864,
      "Ġoccas": 1865,
      "'m": 1866,
      "Ġhope": 1867,
      "ants": 1868,
      "Ġpersons": 1869,
      "Ġwomen": 1870,
      "Ġcity": 1871,
      "yr": 1872,
      "Ġfun": 1873,
      "Ġetc": 1874,
      "oke": 1875,
      "Ġalex": 1876,
      "Ġspecial": 1877,
      "Ġwater": 1878,
      "oud": 1879,
      "Ġpavl": 1880,
      "Ġmaster": 1881,
      "lying": 1882,
      "Ġclose": 1883,
      "Ġpavlovitch": 1884,
      "Ġwind": 1885,
      "ising": 1886,
      "Ġhence": 1887,
      "Ġfort": 1888,
      "Ġbehind": 1889,
      "Ġanalysis": 1890,
      "Ġsuccess": 1891,
      "eal": 1892,
      "acy": 1893,
      "Ġqual": 1894,
      "ortun": 1895,
      "Ġcircum": 1896,
      "su": 1897,
      "Ġbro": 1898,
      "Ġlost": 1899,
      "Ġunivers": 1900,
      "Ġtranscendence": 1901,
      "Ġdeg": 1902,
      "Ġlog": 1903,
      "Ġexists": 1904,
      "Ġinstance": 1905,
      "Ġmerely": 1906,
      "ulf": 1907,
      "ony": 1908,
      "Ġdanger": 1909,
      "Ġyouth": 1910,
      "respond": 1911,
      "Ġdoct": 1912,
      "Ġconting": 1913,
      "Ġtowards": 1914,
      "Ġmemory": 1915,
      "Ġeld": 1916,
      "Ġrev": 1917,
      "Ġaccom": 1918,
      "Ġboy": 1919,
      "Ġthinking": 1920,
      "Ġseri": 1921,
      "Ġactivity": 1922,
      "Ġmathem": 1923,
      "Ġbed": 1924,
      "Ġspeaking": 1925,
      "Ġsubst": 1926,
      "pecially": 1927,
      "Ġtakes": 1928,
      "Ġhigher": 1929,
      "Ġbu": 1930,
      "Ġder": 1931,
      "Ġgovern": 1932,
      "Ġcorrespond": 1933,
      "Ġbrief": 1934,
      "Ġcorrect": 1935,
      "ham": 1936,
      "imens": 1937,
      "Ġant": 1938,
      "Ġord": 1939,
      "Ġnear": 1940,
      "itting": 1941,
      "Ġyourself": 1942,
      "Ġprobably": 1943,
      "Ġvoice": 1944,
      "Ġmus": 1945,
      "alth": 1946,
      "Ġintrod": 1947,
      "Ġimm": 1948,
      "Ġ19": 1949,
      "Ġinstead": 1950,
      "Ġdraw": 1951,
      "Ġscient": 1952,
      "Ġsight": 1953,
      "Ġbus": 1954,
      "Ġstri": 1955,
      "Ġexcl": 1956,
      "ters": 1957,
      "Ġgreatest": 1958,
      "Ġexactly": 1959,
      "Ġpurpose": 1960,
      "Ġmanifest": 1961,
      "Ġprom": 1962,
      "Ġprim": 1963,
      "Ġsurpr": 1964,
      "irl": 1965,
      "Ġespecially": 1966,
      "Ġcontemp": 1967,
      "Ġnecessity": 1968,
      "mbol": 1969,
      "Ġtou": 1970,
      "Ġgods": 1971,
      "Ġver": 1972,
      "Ġwit": 1973,
      "uck": 1974,
      "Ġpleasure": 1975,
      "Ġdepend": 1976,
      "Ġcauses": 1977,
      "Ġsymbol": 1978,
      "Ġconstant": 1979,
      "Ġimmediately": 1980,
      "ouble": 1981,
      "sec": 1982,
      "Ġdescribed": 1983,
      "Ġentirely": 1984,
      "ger": 1985,
      "hood": 1986,
      "pon": 1987,
      "Ġpun": 1988,
      "ster": 1989,
      "Ġmention": 1990,
      "Ġdead": 1991,
      "Ġelements": 1992,
      "Ġtaking": 1993,
      "Ġfav": 1994,
      "Ġpen": 1995,
      "Ġpath": 1996,
      "Ġprot": 1997,
      "Ġagree": 1998,
      "dered": 1999,
      "Ġsecret": 2000,
      "ma": 2001,
      "read": 2002,
      "Ġbod": 2003,
      "Ġalong": 2004,
      "ands": 2005,
      "oly": 2006,
      "Ġtown": 2007,
      "Ġmeet": 2008,
      "Ġessential": 2009,
      "Ġter": 2010,
      "Ġaim": 2011,
      "Ġlay": 2012,
      "Ġvol": 2013,
      "Ġafterwards": 2014,
      "Ġblood": 2015,
      "dom": 2016,
      "ction": 2017,
      "Ġworth": 2018,
      "agn": 2019,
      "there": 2020,
      "Ġaccept": 2021,
      "Ġelement": 2022,
      "ump": 2023,
      "Ġhome": 2024,
      "Ġattention": 2025,
      "Ġevidence": 2026,
      "Ġseveral": 2027,
      "body": 2028,
      "Ġmer": 2029,
      "Ġproceed": 2030,
      "ively": 2031,
      "gory": 2032,
      "Ġbound": 2033,
      "Ġhus": 2034,
      "Ġpercept": 2035,
      "Ġarri": 2036,
      "Ġdifference": 2037,
      "Ġmoral": 2038,
      "Ġextent": 2039,
      "pet": 2040,
      "Ġgirl": 2041,
      "Ġabstr": 2042,
      "hesis": 2043,
      "Ġobserved": 2044,
      "Ġtemper": 2045,
      "tered": 2046,
      "Ġindiff": 2047,
      "Ġhappened": 2048,
      "Ġcompletely": 2049,
      "Ġwal": 2050,
      "Ġgave": 2051,
      "Ġaround": 2052,
      "Ġadv": 2053,
      "eared": 2054,
      "ton": 2055,
      "Ġenc": 2056,
      "theless": 2057,
      "lection": 2058,
      "Ġgives": 2059,
      "Ġfal": 2060,
      "Ġrefer": 2061,
      "Ġdistingu": 2062,
      "Ġclearly": 2063,
      "my": 2064,
      "oid": 2065,
      "Ġtor": 2066,
      "Ġdiscover": 2067,
      "Ġfamily": 2068,
      "Ġescape": 2069,
      "Ġopposite": 2070,
      "Ġgerm": 2071,
      "imate": 2072,
      "ify": 2073,
      "Ġelectr": 2074,
      "Ġtype": 2075,
      "aid": 2076,
      "Ġcases": 2077,
      "Ġdeal": 2078,
      "Ġchur": 2079,
      "Ġevents": 2080,
      "Ġsac": 2081,
      "Ġforget": 2082,
      "Ġsocr": 2083,
      "Ġprison": 2084,
      "Ġnevertheless": 2085,
      "Ġguard": 2086,
      "Ġoccasion": 2087,
      "atch": 2088,
      "Ġmut": 2089,
      "Ġpred": 2090,
      "imul": 2091,
      "Ġimagine": 2092,
      "ropri": 2093,
      "Ġdecl": 2094,
      "Ġfacticity": 2095,
      "Ġformer": 2096,
      "Ġfollows": 2097,
      "Ġgregor": 2098,
      "Ġexplanation": 2099,
      "Ġmathemat": 2100,
      "tle": 2101,
      "Ġdear": 2102,
      "Ġconduct": 2103,
      "Ġdescription": 2104,
      "Ġeasily": 2105,
      "Ġpolit": 2106,
      "Ġign": 2107,
      "ote": 2108,
      "Ġrespon": 2109,
      "Ġwrong": 2110,
      "Ġdifficulty": 2111,
      "Ġcircumst": 2112,
      "ii": 2113,
      "Ġcit": 2114,
      "Ġhy": 2115,
      "Ġthou": 2116,
      "osing": 2117,
      "Ġshown": 2118,
      "aught": 2119,
      "Ġdidn": 2120,
      "Ġsynt": 2121,
      "Ġconditions": 2122,
      "Ġphysical": 2123,
      "Ġkept": 2124,
      "Ġsour": 2125,
      "Ġmaint": 2126,
      "Ġstren": 2127,
      "Ġquality": 2128,
      "Ġplan": 2129,
      "Ġforms": 2130,
      "ocr": 2131,
      "lig": 2132,
      "Ġpublic": 2133,
      "Ġforces": 2134,
      "olly": 2135,
      "Ġherself": 2136,
      "Ġelder": 2137,
      "how": 2138,
      "Ġborn": 2139,
      "Ġont": 2140,
      "Ġenem": 2141,
      "ages": 2142,
      "airs": 2143,
      "ator": 2144,
      "ices": 2145,
      "ade": 2146,
      "Ġobv": 2147,
      "Ġclaim": 2148,
      "Ġlimit": 2149,
      "ational": 2150,
      "Ġstood": 2151,
      "Ġparts": 2152,
      "Ġphenomenon": 2153,
      "Ġanim": 2154,
      "Ġexternal": 2155,
      "like": 2156,
      "Ġdri": 2157,
      "Ġready": 2158,
      "erent": 2159,
      "Ġcrit": 2160,
      "Ġinfluence": 2161,
      "ah": 2162,
      "ya": 2163,
      "Ġdece": 2164,
      "Ġquestions": 2165,
      "Ġeffort": 2166,
      "Ġchurch": 2167,
      "Ġtre": 2168,
      "rif": 2169,
      "Ġpossibilities": 2170,
      "Ġwaking": 2171,
      "ident": 2172,
      "Ġtra": 2173,
      "Ġstudy": 2174,
      "Ġerr": 2175,
      "Ġstimul": 2176,
      "Ġspee": 2177,
      "raid": 2178,
      "Ġresults": 2179,
      "ional": 2180,
      "iful": 2181,
      "Ġperpet": 2182,
      "Ġdisapp": 2183,
      "Ġpoor": 2184,
      "oubles": 2185,
      "Ġconcepts": 2186,
      "hus": 2187,
      "Ġsn": 2188,
      "Ġmill": 2189,
      "Ġled": 2190,
      "used": 2191,
      "Ġlie": 2192,
      "Ġsocrates": 2193,
      "ining": 2194,
      "let": 2195,
      "Ġtry": 2196,
      "overed": 2197,
      "Ġbir": 2198,
      "Ġmist": 2199,
      "Ġargument": 2200,
      "_.": 2201,
      "iety": 2202,
      "ract": 2203,
      "Ġemb": 2204,
      "Ġsoci": 2205,
      "Ġround": 2206,
      "Ġappropri": 2207,
      "Ġbecame": 2208,
      "Ġdesign": 2209,
      "Ġcitiz": 2210,
      "lies": 2211,
      "Ġsart": 2212,
      "Ġfan": 2213,
      "atever": 2214,
      "Ġcoming": 2215,
      "Ġmoreover": 2216,
      "Ġafraid": 2217,
      "Ġpoints": 2218,
      "Ġincre": 2219,
      "Ġbehav": 2220,
      "ggest": 2221,
      "Ġeducation": 2222,
      "ring": 2223,
      "Ġwife": 2224,
      "asy": 2225,
      "osition": 2226,
      "pped": 2227,
      "Ġperce": 2228,
      "Ġleave": 2229,
      "Ġprince": 2230,
      "Ġdirection": 2231,
      "Ġsignific": 2232,
      "come": 2233,
      "sc": 2234,
      "Ġsuc": 2235,
      "Ġrelative": 2236,
      "Ġsuggest": 2237,
      "Ġperi": 2238,
      "izing": 2239,
      "why": 2240,
      "Ġsartre": 2241,
      "itable": 2242,
      "Ġpecul": 2243,
      "Ġsuffering": 2244,
      "Ġmorning": 2245,
      "Ġdestro": 2246,
      "Ġrule": 2247,
      "Ġhardly": 2248,
      "Ġmechanics": 2249,
      "Ġwitness": 2250,
      "'d": 2251,
      "Ġtyr": 2252,
      "Ġanx": 2253,
      "Ġshame": 2254,
      "Ġunf": 2255,
      "Ġcompar": 2256,
      "Ġunderstood": 2257,
      "Ġreach": 2258,
      "Ġleg": 2259,
      "tend": 2260,
      "Ġpref": 2261,
      "Ġremark": 2262,
      "lesh": 2263,
      "Ġbelief": 2264,
      "Ġpeculiar": 2265,
      "Ġnote": 2266,
      "riage": 2267,
      "Ġpassion": 2268,
      "Ġwanted": 2269,
      "Ġfalse": 2270,
      "Ġdom": 2271,
      "Ġann": 2272,
      "Ġearly": 2273,
      "Ġdetermined": 2274,
      "rupt": 2275,
      "uous": 2276,
      "ovna": 2277,
      "Ġemot": 2278,
      "Ġhyp": 2279,
      "Ġquick": 2280,
      "Ġslight": 2281,
      "Ġservant": 2282,
      "Ġheaven": 2283,
      "Ġgravitation": 2284,
      "br": 2285,
      "ook": 2286,
      "ref": 2287,
      "Ġgal": 2288,
      "Ġapparent": 2289,
      "sib": 2290,
      "ordin": 2291,
      "Ġconstr": 2292,
      "Ġdrink": 2293,
      "Ġinvol": 2294,
      "Ġtest": 2295,
      "Ġhither": 2296,
      "Ġdeep": 2297,
      "Ġfrequ": 2298,
      "Ġinvest": 2299,
      "Ġbusiness": 2300,
      "ool": 2301,
      "Ġtast": 2302,
      "Ġcry": 2303,
      "verse": 2304,
      "Ġstars": 2305,
      "oss": 2306,
      "Ġforgot": 2307,
      "Ġfixed": 2308,
      "mn": 2309,
      "ude": 2310,
      "Ġflesh": 2311,
      "Ġdue": 2312,
      "Ġdark": 2313,
      "any": 2314,
      "ays": 2315,
      "Ġstory": 2316,
      "rib": 2317,
      "Ġran": 2318,
      "Ġproof": 2319,
      "Ġintell": 2320,
      "Ġevening": 2321,
      "soci": 2322,
      "Ġwishes": 2323,
      "Ġking": 2324,
      "ev": 2325,
      "oh": 2326,
      "reme": 2327,
      "Ġbit": 2328,
      "Ġpie": 2329,
      "Ġep": 2330,
      "Ġspite": 2331,
      "which": 2332,
      "Ġivanovna": 2333,
      "Ġ6": 2334,
      "omet": 2335,
      "Ġintel": 2336,
      "Ġconcerning": 2337,
      "Ġsuper": 2338,
      "Ġassume": 2339,
      "oup": 2340,
      "Ġbear": 2341,
      "Ġwhatever": 2342,
      "Ġunjust": 2343,
      "Ġfigure": 2344,
      "aly": 2345,
      "Ġprosec": 2346,
      "erior": 2347,
      "Ġassert": 2348,
      "object": 2349,
      "Ġdegree": 2350,
      "ength": 2351,
      "icul": 2352,
      "Ġlady": 2353,
      "Ġgrasp": 2354,
      "Ġcommun": 2355,
      "Ġsexual": 2356,
      "owing": 2357,
      "izes": 2358,
      "Ġdetail": 2359,
      "Ġtotal": 2360,
      "Ġintellig": 2361,
      "Ġfurn": 2362,
      "aining": 2363,
      "rible": 2364,
      "cies": 2365,
      "Ġlevel": 2366,
      "Ġunderstanding": 2367,
      "Ġconclusion": 2368,
      "oint": 2369,
      "with": 2370,
      "Ġyear": 2371,
      "ended": 2372,
      "Ġchoose": 2373,
      "Ġeasy": 2374,
      "Ġphilosophers": 2375,
      "Ġintellect": 2376,
      "bl": 2377,
      "conscious": 2378,
      "Ġ9": 2379,
      "Ġhid": 2380,
      "wered": 2381,
      "Ġadmit": 2382,
      "ĠĠĠĠĠĠĠĠĠĠĠĠĠĠĠĠ": 2383,
      "Ġlisten": 2384,
      "Ġperiod": 2385,
      "Ġinvestig": 2386,
      "ts": 2387,
      "Ġhom": 2388,
      "Ġempt": 2389,
      "olution": 2390,
      "gel": 2391,
      "Ġago": 2392,
      "Ġproperty": 2393,
      "Ġsociety": 2394,
      "bers": 2395,
      "nal": 2396,
      "ites": 2397,
      "Ġdefin": 2398,
      "aterina": 2399,
      "Ġjudgment": 2400,
      "olya": 2401,
      "iet": 2402,
      "Ġmyth": 2403,
      "ishment": 2404,
      "Ġends": 2405,
      "Ġhappen": 2406,
      "Ġcapable": 2407,
      "Ġfortun": 2408,
      "Ġstrength": 2409,
      "bing": 2410,
      "Ġdesires": 2411,
      "hension": 2412,
      "Ġproper": 2413,
      "Ġessence": 2414,
      "Ġserious": 2415,
      ".)": 2416,
      "Ġ|": 2417,
      "Ġvel": 2418,
      "Ġkolya": 2419,
      "Ġpositive": 2420,
      "Ġfacts": 2421,
      "Ġgentlemen": 2422,
      "ins": 2423,
      "Ġalt": 2424,
      "Ġthereby": 2425,
      "ung": 2426,
      "Ġcomplex": 2427,
      "Ġanswered": 2428,
      "Ġconception": 2429,
      "Ġinstrument": 2430,
      "Ġestablished": 2431,
      "Ġdiscuss": 2432,
      "Ġsucceed": 2433,
      "lier": 2434,
      "Ġten": 2435,
      "Ġparent": 2436,
      "ann": 2437,
      "Ġlives": 2438,
      "Ġmeant": 2439,
      "Ġknowing": 2440,
      "Ġarist": 2441,
      "Ġpassed": 2442,
      "Ġhole": 2443,
      "Ġhonour": 2444,
      "Ġimpression": 2445,
      "Ġspeech": 2446,
      "Ġwond": 2447,
      "Ġhur": 2448,
      "Ġhappy": 2449,
      "Ġsound": 2450,
      "Ġstrict": 2451,
      "Ġrefers": 2452,
      "Ġattitude": 2453,
      "Ġenter": 2454,
      "Ġcarried": 2455,
      "Ġpriv": 2456,
      "osen": 2457,
      "Ġhappiness": 2458,
      "Ġpleas": 2459,
      "Ġtemporal": 2460,
      "Ġrussi": 2461,
      "Ġmusic": 2462,
      "Ġbehavi": 2463,
      "Ġveloc": 2464,
      "Ġinn": 2465,
      "iced": 2466,
      "asm": 2467,
      "Ġkar": 2468,
      "ustom": 2469,
      "Ġdefined": 2470,
      "Ġdetermine": 2471,
      "Ġscientific": 2472,
      "iation": 2473,
      "kind": 2474,
      "Ġfle": 2475,
      "utor": 2476,
      "Ġkaterina": 2477,
      "Ġloved": 2478,
      "others": 2479,
      "Ġgravitational": 2480,
      "ches": 2481,
      "ken": 2482,
      "Ġil": 2483,
      "Ġlived": 2484,
      "ries": 2485,
      "Ġattack": 2486,
      "Ġearlier": 2487,
      "Ġexpressed": 2488,
      "Ġbasis": 2489,
      "af": 2490,
      "umpt": 2491,
      "Ġinqu": 2492,
      "Ġeur": 2493,
      "osis": 2494,
      "Ġdirectly": 2495,
      "Ġmoving": 2496,
      "io": 2497,
      "rel": 2498,
      "Ġfive": 2499,
      "Ġheld": 2500,
      "Ġconsist": 2501,
      "Ġamount": 2502,
      "Ġacts": 2503,
      "Ġresist": 2504,
      "Ġgenerally": 2505,
      "Ġreflective": 2506,
      "azov": 2507,
      "Ġabstract": 2508,
      "Ġve": 2509,
      "Ġpy": 2510,
      "itin": 2511,
      "Ġge": 2512,
      "ets": 2513,
      "akitin": 2514,
      "udes": 2515,
      "Ġequally": 2516,
      "Ġcountry": 2517,
      "dle": 2518,
      "hetic": 2519,
      "ery": 2520,
      "amazov": 2521,
      "ether": 2522,
      "anding": 2523,
      "Ġappeared": 2524,
      "Ġpreser": 2525,
      "Ġactual": 2526,
      "Ġprofound": 2527,
      "Ġgreek": 2528,
      "Ġeye": 2529,
      "enty": 2530,
      "amp": 2531,
      "ribut": 2532,
      "Ġchosen": 2533,
      "Ġquar": 2534,
      "Ġgroup": 2535,
      "Ġfool": 2536,
      "Ġexplained": 2537,
      "do": 2538,
      "ience": 2539,
      "Ġassoci": 2540,
      "Ġrakitin": 2541,
      "Ġloc": 2542,
      "oved": 2543,
      "Ġcompre": 2544,
      "Ġoccup": 2545,
      "Ġconsequently": 2546,
      "Ġuniversal": 2547,
      "Ġcoun": 2548,
      "cip": 2549,
      "cient": 2550,
      "Ġ18": 2551,
      "Ġhappens": 2552,
      "Ġreflected": 2553,
      "Ġprior": 2554,
      "Ġbodies": 2555,
      "val": 2556,
      "Ġbur": 2557,
      "Ġdut": 2558,
      "ask": 2559,
      "Ġliter": 2560,
      "Ġmankind": 2561,
      "Ġenj": 2562,
      "Ġsurf": 2563,
      "sur": 2564,
      "Ġhaw": 2565,
      "iled": 2566,
      "Ġsole": 2567,
      "Ġdog": 2568,
      "Ġnoble": 2569,
      "Ġseeing": 2570,
      "Ġpatient": 2571,
      "Ġviol": 2572,
      "gress": 2573,
      "oot": 2574,
      "Ġwholly": 2575,
      "imin": 2576,
      "astic": 2577,
      "Ġstra": 2578,
      "Ġsupport": 2579,
      "Ġvisit": 2580,
      "Ġconcerned": 2581,
      "Ġbeautiful": 2582,
      "Ġcitizens": 2583,
      "Ġ:": 2584,
      "Ġroubles": 2585,
      "Ġintention": 2586,
      "Ġgoes": 2587,
      "ogether": 2588,
      "Ġtransl": 2589,
      "Ġrealized": 2590,
      "Ġnihilation": 2591,
      "fe": 2592,
      "Ġsake": 2593,
      "Ġmult": 2594,
      "Ġdimens": 2595,
      "Ġshows": 2596,
      "Ġadded": 2597,
      "Ġdevelopment": 2598,
      "Ġqualities": 2599,
      "pan": 2600,
      "Ġair": 2601,
      "ored": 2602,
      "Ġenv": 2603,
      "Ġrecall": 2604,
      "Ġcoll": 2605,
      "Ġsister": 2606,
      "Ġgrigory": 2607,
      "Ġhawking": 2608,
      "Ġben": 2609,
      "Ġbig": 2610,
      "itten": 2611,
      "Ġserv": 2612,
      "Ġseries": 2613,
      "Ġforgotten": 2614,
      "Ġaltogether": 2615,
      "Ġkaramazov": 2616,
      "Ġfulf": 2617,
      "ital": 2618,
      "isp": 2619,
      "Ġaspect": 2620,
      "Ġcomb": 2621,
      "Ġotherwise": 2622,
      "uments": 2623,
      "Ġways": 2624,
      "âĢ²": 2625,
      "Ġconsideration": 2626,
      "Ġauthor": 2627,
      "Ġmurder": 2628,
      "ashion": 2629,
      "Ġwindow": 2630,
      "Ġmathematical": 2631,
      "Ġprosecutor": 2632,
      "ially": 2633,
      "hest": 2634,
      "Ġrich": 2635,
      "Ġjoy": 2636,
      "Ġarms": 2637,
      "Ġspec": 2638,
      "Ġconfess": 2639,
      "Ġreceived": 2640,
      "Ġeurope": 2641,
      "Ġgone": 2642,
      "Ġsold": 2643,
      "Ġstatement": 2644,
      "Ġinternal": 2645,
      "Ġsuffer": 2646,
      "Ġpicture": 2647,
      "ique": 2648,
      "ingly": 2649,
      "Ġlab": 2650,
      "Ġforth": 2651,
      "Ġsto": 2652,
      "Ġperfectly": 2653,
      "Ġschool": 2654,
      "Ġsufficient": 2655,
      "Ġstraight": 2656,
      ".[": 2657,
      "inc": 2658,
      "chn": 2659,
      "Ġali": 2660,
      "aches": 2661,
      "Ġpray": 2662,
      "Ġnewton": 2663,
      "Ġobserve": 2664,
      "Ġextra": 2665,
      "Ġaware": 2666,
      "Ġconceive": 2667,
      "Ġtalk": 2668,
      "Ġtill": 2669,
      "Ġmil": 2670,
      "Ġfac": 2671,
      "Ġpeace": 2672,
      "Ġbelieved": 2673,
      "Ġrealize": 2674,
      "uish": 2675,
      "Ġstre": 2676,
      "Ġlose": 2677,
      "Ġindep": 2678,
      "Ġimpul": 2679,
      "Ġpsycho": 2680,
      "Ġprinciples": 2681,
      "Ġmonth": 2682,
      "Ġaddition": 2683,
      "Ġdelight": 2684,
      "Ġfunction": 2685,
      "Ġcontingency": 2686,
      "Ġterrible": 2687,
      "Ġmillion": 2688,
      "?'": 2689,
      "Ġoh": 2690,
      "Ġma": 2691,
      "Ġpot": 2692,
      "Ġconvers": 2693,
      "Ġfren": 2694,
      "Ġirr": 2695,
      "Ġtouch": 2696,
      "Ġprisoner": 2697,
      "Ġindepend": 2698,
      "Ġ=": 2699,
      "Ġreached": 2700,
      "Ġtru": 2701,
      "Ġarr": 2702,
      "Ġexisting": 2703,
      "Ġpurely": 2704,
      "Ġphenomena": 2705,
      "justice": 2706,
      "Ġavoid": 2707,
      "Ġbesides": 2708,
      "Ġhypot": 2709,
      "ec": 2710,
      "Ġsqu": 2711,
      "ishing": 2712,
      "Ġline": 2713,
      "Ġfellow": 2714,
      "Ġfair": 2715,
      "Ġguil": 2716,
      "Ġbreak": 2717,
      "Ġminute": 2718,
      "'re": 2719,
      "Ġfat": 2720,
      "ste": 2721,
      "Ġstar": 2722,
      "Ġsusp": 2723,
      "ortion": 2724,
      "Ġlikely": 2725,
      "Ġformul": 2726,
      "Ġdiscovered": 2727,
      "Ġcarry": 2728,
      "Ġdestroy": 2729,
      "rew": 2730,
      "Ġwise": 2731,
      "Ġwaves": 2732,
      "Ġfashion": 2733,
      "Ġreject": 2734,
      "ented": 2735,
      "usha": 2736,
      "Ġtransform": 2737,
      "Ġperception": 2738,
      "Ġignor": 2739,
      "Ġwall": 2740,
      "Ġsix": 2741,
      "Ġcut": 2742,
      "Ġdie": 2743,
      "idity": 2744,
      "they": 2745,
      "Ġdefinite": 2746,
      "Ġprofess": 2747,
      "Ġcontradict": 2748,
      "ned": 2749,
      "Ġ8": 2750,
      "Ġtears": 2751,
      "enced": 2752,
      "Ġpost": 2753,
      "icism": 2754,
      "owed": 2755,
      "Ġchief": 2756,
      "Ġpeas": 2757,
      "ugg": 2758,
      "Ġbar": 2759,
      "Ġfirm": 2760,
      "ensity": 2761,
      "Ġglad": 2762,
      "Ġextreme": 2763,
      "Ġpossession": 2764,
      "Ġproduce": 2765,
      "Ġwait": 2766,
      "Ġatoms": 2767,
      "Ġdoctor": 2768,
      "Ġcircumstances": 2769,
      "Ġtaste": 2770,
      "ox": 2771,
      "Ġcens": 2772,
      "Ġmine": 2773,
      "Ġpa": 2774,
      "ishes": 2775,
      "Ġlow": 2776,
      "Ġlength": 2777,
      "Ġkill": 2778,
      "ival": 2779,
      "Ġdise": 2780,
      "ultane": 2781,
      "Ġequal": 2782,
      "Ġconstitute": 2783,
      "Ġproblems": 2784,
      "Ġdivine": 2785,
      "Ġlearned": 2786,
      "Ġquickly": 2787,
      "Ġchem": 2788,
      "Ġcross": 2789,
      "Ġful": 2790,
      "Ġdu": 2791,
      "Ġrese": 2792,
      "Ġperman": 2793,
      "Ġtechn": 2794,
      "Ġdistur": 2795,
      "Ġvarious": 2796,
      "Ġvelocity": 2797,
      "ium": 2798,
      "time": 2799,
      "Ġtried": 2800,
      "Ġcop": 2801,
      "Ġinjustice": 2802,
      "Ġrend": 2803,
      "Ġlikewise": 2804,
      "Ġwritten": 2805,
      "Ġdrun": 2806,
      "Ġwants": 2807,
      "Ġdescribe": 2808,
      "Ġparticularly": 2809,
      "Ġconnected": 2810,
      "Ġstanding": 2811,
      "Ġanguish": 2812,
      "Ġpredict": 2813,
      "Ġsurface": 2814,
      "ca": 2815,
      "tical": 2816,
      "Ġwatch": 2817,
      "Ġnotion": 2818,
      "Ġremained": 2819,
      "ucle": 2820,
      "Ġhonor": 2821,
      "Ġdiscussion": 2822,
      "Ġbeauty": 2823,
      "//": 2824,
      "Ġpay": 2825,
      "cell": 2826,
      "Ġkiss": 2827,
      "Ġshout": 2828,
      "Ġoper": 2829,
      "Ġwhereas": 2830,
      "Ġcharacteristic": 2831,
      "elled": 2832,
      "Ġsignificance": 2833,
      "Ġenjoy": 2834,
      "mer": 2835,
      "overy": 2836,
      "ses": 2837,
      "icked": 2838,
      "Ġhealth": 2839,
      "Ġvict": 2840,
      "Ġadvant": 2841,
      "Ġincom": 2842,
      "Ġfollowed": 2843,
      "Ġmovement": 2844,
      "Ġridicul": 2845,
      "Ġsacrif": 2846,
      "Ġlying": 2847,
      "Ġnucle": 2848,
      "Ġrap": 2849,
      "Ġworks": 2850,
      "acher": 2851,
      "Ġfoot": 2852,
      "Ġpursu": 2853,
      "Ġclassical": 2854,
      "Ġordinary": 2855,
      "Ġindifferent": 2856,
      "Ġsad": 2857,
      "ission": 2858,
      "Ġsees": 2859,
      "iliar": 2860,
      "Ġupsur": 2861,
      "Ġbased": 2862,
      "Ġapart": 2863,
      "Ġrepeated": 2864,
      "Ġsource": 2865,
      "ler": 2866,
      "Ġcell": 2867,
      "Ġmir": 2868,
      "Ġsend": 2869,
      "acle": 2870,
      "Ġ(_": 2871,
      "Ġchildhood": 2872,
      "Ġbelongs": 2873,
      "Ġmidst": 2874,
      "com": 2875,
      "Ġsitting": 2876,
      "onstr": 2877,
      "Ġfire": 2878,
      "Ġchance": 2879,
      "uel": 2880,
      "Ġreasons": 2881,
      "Ġempl": 2882,
      "Ġconsequences": 2883,
      "Ġimmediate": 2884,
      "sibility": 2885,
      "Ġupsurge": 2886,
      "cience": 2887,
      "Ġunless": 2888,
      "Ġsimultane": 2889,
      "Ġlimits": 2890,
      "Ġregarded": 2891,
      "Ġchanges": 2892,
      ",-": 2893,
      "Ġ.": 2894,
      "Ġ7": 2895,
      "Ġmax": 2896,
      "Ġda": 2897,
      "Ġforward": 2898,
      "Ġparticle": 2899,
      "licit": 2900,
      "Ġbecoming": 2901,
      "Ġallowed": 2902,
      "Ġrequire": 2903,
      "iently": 2904,
      "ric": 2905,
      "Ġprove": 2906,
      "Ġpra": 2907,
      "Ġcourt": 2908,
      "Ġexamples": 2909,
      "Ġexperiences": 2910,
      "Ġnumbers": 2911,
      "Ġempir": 2912,
      "Ġaccompl": 2913,
      "Ġbirth": 2914,
      "gu": 2915,
      "Ġpull": 2916,
      "Ġdi": 2917,
      "Ġye": 2918,
      "oles": 2919,
      "Ġsurely": 2920,
      "Ġnaturally": 2921,
      "Ġgeomet": 2922,
      "Ġpreced": 2923,
      "Ġobservation": 2924,
      "Ġmotive": 2925,
      "Ġjudge": 2926,
      "Ġsilent": 2927,
      "Ġgovernment": 2928,
      "Ġilusha": 2929,
      "Ġult": 2930,
      "Ġstup": 2931,
      "Ġpassage": 2932,
      "Ġnegative": 2933,
      "Ġrecognize": 2934,
      "Ġmachine": 2935,
      "know": 2936,
      "Ġpsychoan": 2937,
      "fa": 2938,
      "Ġast": 2939,
      "Ġfing": 2940,
      "Ġfif": 2941,
      "Ġlate": 2942,
      "idence": 2943,
      "Ġexter": 2944,
      "Ġbeings": 2945,
      "Ġdreamer": 2946,
      "Ġarise": 2947,
      "Ġvalues": 2948,
      "Ġchanged": 2949,
      "Ġlogical": 2950,
      "Ġswe": 2951,
      "Ġinner": 2952,
      "Ġheat": 2953,
      "Ġancient": 2954,
      "Ġexcell": 2955,
      "Ġformation": 2956,
      "Ġassumpt": 2957,
      "Ġcourage": 2958,
      "Ġslow": 2959,
      "yphus": 2960,
      "Ġhistor": 2961,
      "Ġcaptain": 2962,
      "Ġsolid": 2963,
      "Ġimportance": 2964,
      "Ġconstitutes": 2965,
      "Ġcastr": 2966,
      "Ġgerman": 2967,
      "Ġontological": 2968,
      "Ġwonder": 2969,
      "Ġow": 2970,
      "Ġbot": 2971,
      "Ġstruck": 2972,
      "note": 2973,
      "Ġflight": 2974,
      "Ġfeelings": 2975,
      "place": 2976,
      "Ġstructures": 2977,
      "Ġsolution": 2978,
      "Ġtemporality": 2979,
      "Ġsisyphus": 2980,
      "Ġalexey": 2981,
      "stein": 2982,
      "Ġhop": 2983,
      "Ġlord": 2984,
      "Ġrare": 2985,
      "Ġusually": 2986,
      "Ġoffic": 2987,
      "licity": 2988,
      "Ġregular": 2989,
      "Ġfinal": 2990,
      "Ġangry": 2991,
      "Ġestablish": 2992,
      "Ġsilence": 2993,
      "Ġexperiment": 2994,
      "Ġtravel": 2995,
      "bert": 2996,
      "elf": 2997,
      "fen": 2998,
      "Ġmagn": 2999,
      "Ġhat": 3000,
      "Ġlad": 3001,
      "orent": 3002,
      "Ġunable": 3003,
      "Ġintu": 3004,
      "Ġconscience": 3005,
      "Ġgiving": 3006,
      "bered": 3007,
      "Ġobserv": 3008,
      "Ġrequired": 3009,
      "Ġoneself": 3010,
      "foot": 3011,
      "atus": 3012,
      "Ġhero": 3013,
      "Ġexer": 3014,
      "etr": 3015,
      "usions": 3016,
      "Ġactions": 3017,
      "Ġtwenty": 3018,
      "Ġshowed": 3019,
      "Ġtalking": 3020,
      "Ġhighest": 3021,
      "Ġmentioned": 3022,
      "Ġhitherto": 3023,
      "Ġconversation": 3024,
      "Ġfully": 3025,
      "Ġdial": 3026,
      "Ġkilled": 3027,
      "acity": 3028,
      "Ġspoke": 3029,
      "Ġgold": 3030,
      "Ġgrow": 3031,
      "Ġremar": 3032,
      "Ġsubjects": 3033,
      "Ġforgive": 3034,
      "known": 3035,
      "Ġemploy": 3036,
      "mble": 3037,
      "Ġtheore": 3038,
      "Ġmental": 3039,
      "Ġpier": 3040,
      "itary": 3041,
      "Ġner": 3042,
      "Ġnone": 3043,
      "aring": 3044,
      "owers": 3045,
      "ection": 3046,
      "Ġperm": 3047,
      "Ġlies": 3048,
      "augh": 3049,
      "Ġdiss": 3050,
      "formed": 3051,
      "Ġwrit": 3052,
      "Ġserve": 3053,
      "Ġalexand": 3054,
      "Ġridiculous": 3055,
      "hib": 3056,
      "iers": 3057,
      "iated": 3058,
      "Ġcog": 3059,
      "Ġfate": 3060,
      "Ġpap": 3061,
      "Ġstay": 3062,
      "aded": 3063,
      "Ġrise": 3064,
      "Ġtrying": 3065,
      "Ġlover": 3066,
      "Ġreply": 3067,
      "uded": 3068,
      "ucci": 3069,
      "Ġmetaph": 3070,
      "Ġreveal": 3071,
      "Ġparad": 3072,
      "Ġdemand": 3073,
      "Ġrepresentation": 3074,
      "Ġproduced": 3075,
      "Ġwisdom": 3076,
      "Ġexcite": 3077,
      "Ġcontempor": 3078,
      "Ġhusb": 3079,
      "spect": 3080,
      "Ġfit": 3081,
      "Ġrestr": 3082,
      "Ġur": 3083,
      "Ġlear": 3084,
      "Ġopportun": 3085,
      "Ġconceived": 3086,
      "Ġcontradiction": 3087,
      "Ġraised": 3088,
      "Ġreligion": 3089,
      "Ġdefinition": 3090,
      "ges": 3091,
      "she": 3092,
      "Ġtheories": 3093,
      "inity": 3094,
      "Ġland": 3095,
      "Ġworse": 3096,
      "Ġimit": 3097,
      "Ġ11": 3098,
      "Ġsymp": 3099,
      "Ġabsence": 3100,
      "Ġprobability": 3101,
      "Ġsubstance": 3102,
      "ga": 3103,
      "Ġlower": 3104,
      "Ġrate": 3105,
      "Ġgrad": 3106,
      "aving": 3107,
      "Ġspeed": 3108,
      "Ġletter": 3109,
      "Ġnecessarily": 3110,
      "Ġdecided": 3111,
      "Ġirre": 3112,
      "Ġutter": 3113,
      "ealous": 3114,
      "Ġfortune": 3115,
      "asmuch": 3116,
      "ghed": 3117,
      "iority": 3118,
      "look": 3119,
      "ne": 3120,
      "round": 3121,
      "son": 3122,
      "Ġmount": 3123,
      "Ġeth": 3124,
      "Ġrevel": 3125,
      "iry": 3126,
      "Ġextend": 3127,
      "terday": 3128,
      "ilment": 3129,
      "Ġfinds": 3130,
      "Ġmorality": 3131,
      "Ġconsequence": 3132,
      "Ġsatisfied": 3133,
      "uccio": 3134,
      "Ġhusband": 3135,
      "iable": 3136,
      "kst": 3137,
      "tr": 3138,
      "will": 3139,
      "Ġinit": 3140,
      "Ġnar": 3141,
      "Ġisol": 3142,
      "Ġabra": 3143,
      "Ġquiet": 3144,
      "Ġamb": 3145,
      "Ġscene": 3146,
      "Ġyesterday": 3147,
      "Ġreader": 3148,
      "Ġprocesses": 3149,
      "Ġexpected": 3150,
      "Ġcreation": 3151,
      "Ġresponsible": 3152,
      "Ġanxiety": 3153,
      "Ġcastruccio": 3154,
      "Ġabraham": 3155,
      "ps": 3156,
      "erable": 3157,
      "Ġeternal": 3158,
      "Ġprogress": 3159,
      "Ġstrugg": 3160,
      "Ġformed": 3161,
      "haust": 3162,
      "Ġpassing": 3163,
      "Ġminds": 3164,
      "Ġabsolutely": 3165,
      "Ġlaughed": 3166,
      "Ġcalcul": 3167,
      "Ġchristianity": 3168,
      "Ġpiece": 3169,
      "bid": 3170,
      "Ġsal": 3171,
      "Ġbi": 3172,
      "Ġpop": 3173,
      "Ġinasmuch": 3174,
      "Ġein": 3175,
      "Ġrace": 3176,
      "artes": 3177,
      "Ġoblig": 3178,
      "ager": 3179,
      "Ġrepro": 3180,
      "Ġprep": 3181,
      "Ġ15": 3182,
      "Ġflo": 3183,
      "Ġsupposed": 3184,
      "Ġturning": 3185,
      "Ġglau": 3186,
      "Ġmonaster": 3187,
      "Ġdifficulties": 3188,
      "Ġroman": 3189,
      "Ġmiddle": 3190,
      "Ġadvantage": 3191,
      "Ġach": 3192,
      "Ġade": 3193,
      "Ġthee": 3194,
      "Ġthirst": 3195,
      "Ġness": 3196,
      "Ġmyst": 3197,
      "Ġaband": 3198,
      "Ġspect": 3199,
      "Ġcompared": 3200,
      "Ġfell": 3201,
      "ression": 3202,
      "Ġdepart": 3203,
      "Ġuncertain": 3204,
      "Ġaffairs": 3205,
      "Ġstronger": 3206,
      "Ġdeny": 3207,
      "Ġlaughing": 3208,
      "Ġparents": 3209,
      "Ġfrench": 3210,
      "Ġtruly": 3211,
      "!'": 3212,
      "kin": 3213,
      "lim": 3214,
      "Ġtask": 3215,
      "isc": 3216,
      "aries": 3217,
      "Ġconqu": 3218,
      "Ġneigh": 3219,
      "Ġchair": 3220,
      "Ġvan": 3221,
      "Ġtrain": 3222,
      "Ġcontro": 3223,
      "Ġbless": 3224,
      "Ġtranscendent": 3225,
      "Ġleads": 3226,
      "footnote": 3227,
      "Ġsorrow": 3228,
      "Ġban": 3229,
      "Ġbreat": 3230,
      "Ġmal": 3231,
      "Ġasham": 3232,
      "ament": 3233,
      "etic": 3234,
      "ifies": 3235,
      "Ġshad": 3236,
      "Ġimplies": 3237,
      "Ġsomewhat": 3238,
      "Ġbetr": 3239,
      "Ġsmile": 3240,
      "Ġpsychological": 3241,
      "Ġsurround": 3242,
      "Ġsubjective": 3243,
      "Ġcentury": 3244,
      "Ġengaged": 3245,
      "Ġreligious": 3246,
      "world": 3247,
      "Ġcontempl": 3248,
      "Ġfavour": 3249,
      "Ġstrictly": 3250,
      "Ġashamed": 3251,
      "morrow": 3252,
      "pr": 3253,
      "ito": 3254,
      "order": 3255,
      "orph": 3256,
      "Ġlot": 3257,
      "Ġlise": 3258,
      "Ġstat": 3259,
      "Ġunre": 3260,
      "Ġtrouble": 3261,
      "Ġjealous": 3262,
      "Ġgoal": 3263,
      "Ġappar": 3264,
      "Ġphant": 3265,
      "Ġmatters": 3266,
      "Ġglass": 3267,
      "Ġlimited": 3268,
      "Ġawaken": 3269,
      "Ġdemocr": 3270,
      "Ġapproach": 3271,
      "Ġmole": 3272,
      "Ġhidden": 3273,
      "Ġstreet": 3274,
      ",[": 3275,
      "Ġii": 3276,
      "Ġwave": 3277,
      "Ġlu": 3278,
      "Ġsty": 3279,
      "iring": 3280,
      "Ġsocial": 3281,
      "teen": 3282,
      "Ġpress": 3283,
      "Ġinstinct": 3284,
      "Ġrecol": 3285,
      "Ġattract": 3286,
      "under": 3287,
      "Ġnorm": 3288,
      "Ġfright": 3289,
      "Ġfamiliar": 3290,
      "Ġfancy": 3291,
      "reflect": 3292,
      "Ġintellectual": 3293,
      "Ġempty": 3294,
      "Ġfight": 3295,
      "Ġdaugh": 3296,
      "Ġlaid": 3297,
      "Ġjo": 3298,
      "Ġgetting": 3299,
      "Ġremembered": 3300,
      "Ġprevious": 3301,
      "Ġerror": 3302,
      "Ġneighb": 3303,
      "co": 3304,
      "lish": 3305,
      "hel": 3306,
      "ones": 3307,
      "Ġdied": 3308,
      "Ġekst": 3309,
      "Ġhell": 3310,
      "lli": 3311,
      "Ġobsc": 3312,
      "Ġarm": 3313,
      "Ġrepublic": 3314,
      "Ġcommand": 3315,
      "Ġwrite": 3316,
      "Ġacross": 3317,
      "Ġanalog": 3318,
      "Ġrepresented": 3319,
      "Ġwaiting": 3320,
      "Ġreceive": 3321,
      "Ġservice": 3322,
      "20": 3323,
      "cing": 3324,
      "Ġciv": 3325,
      "Ġcult": 3326,
      "Ġhall": 3327,
      "Ġinj": 3328,
      "Ġego": 3329,
      "otr": 3330,
      "ushed": 3331,
      "Ġtempt": 3332,
      "Ġseek": 3333,
      "Ġcalls": 3334,
      "Ġsubjectivity": 3335,
      "Ġcontrast": 3336,
      "Ġprincip": 3337,
      "ierke": 3338,
      "Ġdemonstr": 3339,
      "Ġcreated": 3340,
      "Ġseparated": 3341,
      "Ġexperiments": 3342,
      "Ġpolitical": 3343,
      "Ġenemies": 3344,
      "Ġapparently": 3345,
      "Ġfrequently": 3346,
      "Ġempirical": 3347,
      "Ġeinstein": 3348,
      "Ġglaucon": 3349,
      "ture": 3350,
      "ames": 3351,
      "istics": 3352,
      "Ġpersu": 3353,
      "Ġmodel": 3354,
      "Ġphilosophical": 3355,
      "Ġrome": 3356,
      "Ġpictures": 3357,
      "Ġprefer": 3358,
      "Ġintuition": 3359,
      "Ġopportunity": 3360,
      "Ġabandon": 3361,
      "more": 3362,
      "sh": 3363,
      "Ġsick": 3364,
      "iny": 3365,
      "Ġkierke": 3366,
      "Ġtrad": 3367,
      "Ġplaces": 3368,
      "Ġsouls": 3369,
      "Ġreveals": 3370,
      "Ġevident": 3371,
      "Ġpleasures": 3372,
      "inced": 3373,
      "Ġfem": 3374,
      "oted": 3375,
      "Ġstone": 3376,
      "Ġboys": 3377,
      "Ġopened": 3378,
      "Ġoriginally": 3379,
      "Ġdecide": 3380,
      "Ġrepresents": 3381,
      "Ġsystems": 3382,
      "Ġdistinguished": 3383,
      "Ġpyotr": 3384,
      "-\"": 3385,
      "ron": 3386,
      "Ġpet": 3387,
      "Ġgain": 3388,
      "Ġstop": 3389,
      "Ġunif": 3390,
      "Ġsphere": 3391,
      "Ġsave": 3392,
      "ague": 3393,
      "Ġaccur": 3394,
      "ordinary": 3395,
      "Ġmarriage": 3396,
      "Ġinsist": 3397,
      "Ġfamous": 3398,
      "Ġaffirm": 3399,
      "Ġanimals": 3400,
      "Ġcomparison": 3401,
      "Ġbenef": 3402,
      "Ġmonastery": 3403,
      "ming": 3404,
      "raph": 3405,
      "uit": 3406,
      "Ã¦": 3407,
      "Ġer": 3408,
      "Ġsen": 3409,
      "Ġment": 3410,
      "enth": 3411,
      "Ġhabit": 3412,
      "rog": 3413,
      "Ġdeed": 3414,
      "anged": 3415,
      "Ġcondem": 3416,
      "Ġpersonal": 3417,
      "Ġdetermin": 3418,
      "Ġacquaint": 3419,
      "Ġobvious": 3420,
      "Ġcogito": 3421,
      "Ġexcitement": 3422,
      "Ġlif": 3423,
      "iment": 3424,
      "ourse": 3425,
      "Ġpole": 3426,
      "Ġinform": 3427,
      "Ġcruel": 3428,
      "Ġemph": 3429,
      "Ġharmony": 3430,
      "Ġencoun": 3431,
      "Ġinnoc": 3432,
      "Ġmetaphys": 3433,
      "gaard": 3434,
      "Ġsit": 3435,
      "Ġmain": 3436,
      "Ġthy": 3437,
      "Ġwhite": 3438,
      "Ġrele": 3439,
      "Ġmeas": 3440,
      "resh": 3441,
      "Ġattain": 3442,
      "Ġsenses": 3443,
      "Ġsensation": 3444,
      "Ġutil": 3445,
      "Ġimpressions": 3446,
      "Ġgravity": 3447,
      "Ġconstituted": 3448,
      "Ġduty": 3449,
      "Ġextraordinary": 3450,
      "Ġbat": 3451,
      "Ġhegel": 3452,
      "Ġgard": 3453,
      "Ġforced": 3454,
      "Ġnotes": 3455,
      "Ġste": 3456,
      "Ġcompany": 3457,
      "arer": 3458,
      "Ġroad": 3459,
      "Ġthinks": 3460,
      "âĢ²_": 3461,
      "Ġkierkegaard": 3462,
      "\";": 3463,
      "uted": 3464,
      "iding": 3465,
      "amorph": 3466,
      "ards": 3467,
      "Ġplaced": 3468,
      "Ġgrand": 3469,
      "Ġteach": 3470,
      "Ġmotives": 3471,
      "Ġatomic": 3472,
      "Ġalien": 3473,
      "ee": 3474,
      "hl": 3475,
      "nam": 3476,
      "Ġastr": 3477,
      "Ġwild": 3478,
      "Ġthreat": 3479,
      "Ġdare": 3480,
      "omy": 3481,
      "Ġdeb": 3482,
      "Ġarises": 3483,
      "Ġlooks": 3484,
      "Ġmetamorph": 3485,
      "Ġapprehension": 3486,
      "Ġillust": 3487,
      "Ġinteresting": 3488,
      "Ġsentence": 3489,
      "Ġconvinced": 3490,
      "Ġrepeat": 3491,
      "Ġperceive": 3492,
      "rass": 3493,
      "Ġmess": 3494,
      "Ġnons": 3495,
      "Ġspont": 3496,
      "Ġrepl": 3497,
      "ables": 3498,
      "Ġrefus": 3499,
      "Ġholy": 3500,
      "Ġkinds": 3501,
      "Ġsingular": 3502,
      "Ġanger": 3503,
      "Ġprovided": 3504,
      "Ġadmitted": 3505,
      "Ġpoetry": 3506,
      "Ġcensor": 3507,
      "ging": 3508,
      "hy": 3509,
      "Ġdread": 3510,
      "set": 3511,
      "utes": 3512,
      "Ġnotice": 3513,
      "Ġexhaust": 3514,
      "Ġsoft": 3515,
      "Ġapplic": 3516,
      "Ġfeet": 3517,
      "Ġapprehended": 3518,
      "Ġcontempt": 3519,
      "Ġrulers": 3520,
      "Ġmoved": 3521,
      "Ġdangerous": 3522,
      "Ġsynthesis": 3523,
      "Ġenemy": 3524,
      "Ġaristot": 3525,
      "Ġmaxim": 3526,
      "ds": 3527,
      "des": 3528,
      "Ġhate": 3529,
      "vere": 3530,
      "Ġnoticed": 3531,
      "uries": 3532,
      "Ġsea": 3533,
      "Ġvain": 3534,
      "Ġeverywhere": 3535,
      "Ġdiscovery": 3536,
      "Ġstands": 3537,
      "Ġpossessed": 3538,
      "consciousness": 3539,
      "Ġcivil": 3540,
      "awn": 3541,
      "Ġsene": 3542,
      "Ġfast": 3543,
      "ima": 3544,
      "Ġreport": 3545,
      "Ġacknow": 3546,
      "Ġarts": 3547,
      "Ġdecision": 3548,
      "Ġdemands": 3549,
      "Ġrules": 3550,
      "Ġsufficiently": 3551,
      "Ġsurprised": 3552,
      "Ġremarkable": 3553,
      "cent": 3554,
      "atures": 3555,
      "Ġdiver": 3556,
      "rov": 3557,
      "osc": 3558,
      "Ġproud": 3559,
      "oken": 3560,
      "Ġmadame": 3561,
      "seless": 3562,
      "Ġoffer": 3563,
      "Ġillness": 3564,
      "Ġvirtues": 3565,
      "Ġstarted": 3566,
      "Ġdistinction": 3567,
      "Ġmaintain": 3568,
      "Ġobviously": 3569,
      "Ġgalax": 3570,
      "Ġtransformation": 3571,
      "Ġdrunk": 3572,
      "Ġinitial": 3573,
      "Ġfloor": 3574,
      "lict": 3575,
      "pres": 3576,
      "Ġfond": 3577,
      "Ġhot": 3578,
      "Ġeight": 3579,
      "ots": 3580,
      "Ġimper": 3581,
      "Ġsomeone": 3582,
      "Ġadop": 3583,
      "happ": 3584,
      "Ġtransf": 3585,
      "Ġmark": 3586,
      "Ġmarried": 3587,
      "Ġnik": 3588,
      "Ġpoets": 3589,
      "Ġimmort": 3590,
      "Ġpriori": 3591,
      "Ġfacult": 3592,
      "Ġguilty": 3593,
      "Ġdisease": 3594,
      "Ġowing": 3595,
      "Ġobservations": 3596,
      "ug": 3597,
      "Ġbond": 3598,
      "oured": 3599,
      "Ġgame": 3600,
      "aked": 3601,
      "Ġobtain": 3602,
      "Ġundert": 3603,
      "Ġ10": 3604,
      "Ġblind": 3605,
      "Ġcontinue": 3606,
      "Ġsteps": 3607,
      "Ġhours": 3608,
      "Ġfavor": 3609,
      "Ġmultip": 3610,
      "Ġaston": 3611,
      "Ġstyle": 3612,
      "Ġseneca": 3613,
      "uff": 3614,
      "Ġwarm": 3615,
      "Ġmr": 3616,
      "Ġuseless": 3617,
      "amma": 3618,
      "roc": 3619,
      "Ġposit": 3620,
      "Ġ14": 3621,
      "Ġpresented": 3622,
      "Ġdevil": 3623,
      "Ġcorrel": 3624,
      "Ġclosely": 3625,
      "Ġcontingent": 3626,
      "Ġbuild": 3627,
      "Ġhomer": 3628,
      "Ġexteriority": 3629,
      "Ġnormal": 3630,
      "Ġspontane": 3631,
      "ky": 3632,
      "rence": 3633,
      "Ġwicked": 3634,
      "Ġholes": 3635,
      "asing": 3636,
      "Ġsuspect": 3637,
      "Ġven": 3638,
      "Ġpride": 3639,
      "Ġexisted": 3640,
      "Ġcorner": 3641,
      "Ġcreature": 3642,
      "Ġsimilarly": 3643,
      "Ġauthority": 3644,
      "Ġpractice": 3645,
      "Ġhyster": 3646,
      "Ġpierre": 3647,
      "Ġrevelation": 3648,
      "Ġmetamorphosis": 3649,
      ".]": 3650,
      "Ġcat": 3651,
      "Ġren": 3652,
      "step": 3653,
      "Ġkant": 3654,
      "Ġplut": 3655,
      "Ġteacher": 3656,
      "Ġcold": 3657,
      "Ġassist": 3658,
      "Ġcrow": 3659,
      "Ġequival": 3660,
      "Ġcaused": 3661,
      "Ġholds": 3662,
      "Ġheavy": 3663,
      "Ġmedic": 3664,
      "Ġperpetually": 3665,
      "Ġassumption": 3666,
      "ront": 3667,
      "alysis": 3668,
      "oms": 3669,
      "entially": 3670,
      "Ġstage": 3671,
      "Ġconsists": 3672,
      "Ġplain": 3673,
      "Ġoutl": 3674,
      "Ġcomplic": 3675,
      "ressing": 3676,
      "Ġinfant": 3677,
      "Ġcove": 3678,
      "Ġscar": 3679,
      "Ġcharacteristics": 3680,
      "Ġelectron": 3681,
      "Ġparadox": 3682,
      "Ġapparatus": 3683,
      "Ġdaughter": 3684,
      "Ġmag": 3685,
      "Ġwithd": 3686,
      "Ġrational": 3687,
      "Ġunex": 3688,
      "Ġperform": 3689,
      "lected": 3690,
      "hensible": 3691,
      "athy": 3692,
      "Ġflat": 3693,
      "Ġhonest": 3694,
      "Ġprimary": 3695,
      "Ġtemperature": 3696,
      "Ġconstruct": 3697,
      "Ġprivate": 3698,
      "ae": 3699,
      "ihil": 3700,
      "sub": 3701,
      "rer": 3702,
      "ators": 3703,
      "Ġhost": 3704,
      "Ġgy": 3705,
      "uration": 3706,
      "osp": 3707,
      "olay": 3708,
      "Ġjump": 3709,
      "apse": 3710,
      "Ġobt": 3711,
      "Ġgrant": 3712,
      "Ġdestr": 3713,
      "Ġguardians": 3714,
      "Ġarrange": 3715,
      "Ġpeasant": 3716,
      "Ġgarden": 3717,
      "Ġnonsense": 3718,
      "mon": 3719,
      "Ġaut": 3720,
      "Ġsam": 3721,
      "Ġfilled": 3722,
      "semble": 3723,
      "Ġhaunt": 3724,
      "ayed": 3725,
      "olved": 3726,
      "Ġspoken": 3727,
      "Ġexistent": 3728,
      "Ġcoinc": 3729,
      "Ġpsychology": 3730,
      "Ġnumer": 3731,
      "ground": 3732,
      "Ġsuperior": 3733,
      "Ġassumed": 3734,
      "Ġtreatment": 3735,
      "Ġexclaim": 3736,
      "Ġtyrann": 3737,
      "Ġrussian": 3738,
      "ek": 3739,
      "ration": 3740,
      "Ġaver": 3741,
      "Ġded": 3742,
      "Ġeat": 3743,
      "otic": 3744,
      "Ġasleep": 3745,
      "amed": 3746,
      "Ġvice": 3747,
      "Ġwilling": 3748,
      "Ġcontains": 3749,
      "Ġgeneration": 3750,
      "Ġpossibly": 3751,
      "Ġprojects": 3752,
      "Ġprevent": 3753,
      "Ġenglish": 3754,
      "bits": 3755,
      "gar": 3756,
      "hum": 3757,
      "ners": 3758,
      "uces": 3759,
      "reed": 3760,
      "Ġbeat": 3761,
      "arp": 3762,
      "Ġlod": 3763,
      "osity": 3764,
      "ush": 3765,
      "Ġvent": 3766,
      "Ġunp": 3767,
      "Ġgrave": 3768,
      "Ġclosed": 3769,
      "Ġdefend": 3770,
      "Ġslim": 3771,
      "Ġexamination": 3772,
      "Ġmonk": 3773,
      "Ġindividuals": 3774,
      "Ġsatisfaction": 3775,
      "Ġauthors": 3776,
      "Ġzoss": 3777,
      "Ġlogic": 3778,
      "Ġresistance": 3779,
      "Ġmaj": 3780,
      "Ġnikolay": 3781,
      "Ġzossima": 3782,
      "Ġcate": 3783,
      "Ġcaught": 3784,
      "icious": 3785,
      "cely": 3786,
      "Ġstro": 3787,
      "Ġrank": 3788,
      "umb": 3789,
      "ume": 3790,
      "Ġcontained": 3791,
      "Ġgrat": 3792,
      "Ġcompelled": 3793,
      "ograph": 3794,
      "ension": 3795,
      "Ġremind": 3796,
      "Ġbelow": 3797,
      "Ġnatures": 3798,
      "Ġearn": 3799,
      "who": 3800,
      "Ġcrime": 3801,
      "Ġslave": 3802,
      "Ġuseful": 3803,
      "Ġfrag": 3804,
      "Ġcircle": 3805,
      "Ġattempts": 3806,
      "Ġstephen": 3807,
      "Ġphysician": 3808,
      "Ġsurprise": 3809,
      "Ġbitter": 3810,
      "ributed": 3811,
      "Ġdimensions": 3812,
      "Ġrapid": 3813,
      "Ġplutarch": 3814,
      "ror": 3815,
      "Ġily": 3816,
      "ural": 3817,
      "iling": 3818,
      "Ġune": 3819,
      "Ġunknown": 3820,
      "ours": 3821,
      "Ġrob": 3822,
      "Ġreading": 3823,
      "Ġrecognized": 3824,
      "Ġcenter": 3825,
      "Ġopinions": 3826,
      "Ġreduced": 3827,
      "Ġbroken": 3828,
      "Ġaccompan": 3829,
      "Ġintroduction": 3830,
      "Ġpunishment": 3831,
      "Ġreferred": 3832,
      "Ġstimuli": 3833,
      "Ġperpetual": 3834,
      "Ġemotion": 3835,
      "Ġintelligence": 3836,
      "Ġbehaviour": 3837,
      "Ġstupid": 3838,
      "Ġhatred": 3839,
      "ysi": 3840,
      "Ġsed": 3841,
      "inate": 3842,
      "inte": 3843,
      "Ġfine": 3844,
      "Ġport": 3845,
      "Ġdouble": 3846,
      "utation": 3847,
      "Ġneur": 3848,
      "Ġaccustom": 3849,
      "Ġcertainty": 3850,
      "Ġrecent": 3851,
      "Ġpointed": 3852,
      "Ġentered": 3853,
      "Ġconfront": 3854,
      "Ġinsult": 3855,
      "Ġparfen": 3856,
      "Ġabsurdity": 3857,
      "Ġcolle": 3858,
      "Ġcontinued": 3859,
      "Ġpenetr": 3860,
      "ordinates": 3861,
      "Ġgeometry": 3862,
      "Ġpaper": 3863,
      "Ġgradually": 3864,
      "Ġuniform": 3865,
      "Ġparfenovitch": 3866,
      "\"--": 3867,
      "ior": 3868,
      "light": 3869,
      "uality": 3870,
      "Ġtaught": 3871,
      "Ġmosc": 3872,
      "Ġdivid": 3873,
      "Ġreverse": 3874,
      "lling": 3875,
      "iron": 3876,
      "Ġunhapp": 3877,
      "Ġjour": 3878,
      "Ġdisorder": 3879,
      "Ġcompass": 3880,
      "Ġimpro": 3881,
      "then": 3882,
      "Ġbrings": 3883,
      "Ġfood": 3884,
      "Ġschem": 3885,
      "Ġdefine": 3886,
      "Ġclever": 3887,
      "Ġbegins": 3888,
      "Ġconstitution": 3889,
      "Ġspiritual": 3890,
      "Ġpainful": 3891,
      "Ġtreated": 3892,
      "Ġprimitive": 3893,
      "Ġtyrant": 3894,
      "Ġimpulse": 3895,
      "ral": 3896,
      "when": 3897,
      "Ġscious": 3898,
      "Ġmou": 3899,
      "Ġpub": 3900,
      "Ġgest": 3901,
      "Ġstation": 3902,
      "Ġ\"_": 3903,
      "ifying": 3904,
      "Ġintended": 3905,
      "Ġdoesn": 3906,
      "Ġfault": 3907,
      "Ġopposed": 3908,
      "gger": 3909,
      "Ġpattern": 3910,
      "Ġevidently": 3911,
      "Ġlacking": 3912,
      "Ġsurpassing": 3913,
      "Ġtendency": 3914,
      "Ġproperties": 3915,
      "Ġdoctr": 3916,
      "Ġderived": 3917,
      "Ġachie": 3918,
      "Ġgymn": 3919,
      "Ġmoscow": 3920,
      "bel": 3921,
      "jo": 3922,
      "Ġwished": 3923,
      "aning": 3924,
      "Ġgif": 3925,
      "Ġwealth": 3926,
      "Ġworst": 3927,
      "Ġliber": 3928,
      "Ġarbit": 3929,
      "Ġrefuse": 3930,
      "Ġcouldn": 3931,
      "Ġhohl": 3932,
      "Ġglory": 3933,
      "Ġneeded": 3934,
      "Ġessentially": 3935,
      "Ġbrothers": 3936,
      "Ġescapes": 3937,
      "work": 3938,
      "Ġindependent": 3939,
      "Ġdisturb": 3940,
      "Ġsweet": 3941,
      "Ġcrowd": 3942,
      "Ġmouth": 3943,
      "Ġhohlakov": 3944,
      "_)": 3945,
      "Ġburn": 3946,
      "Ġthor": 3947,
      "Ġspent": 3948,
      "Ġplane": 3949,
      "Ġensemble": 3950,
      "Ġgenius": 3951,
      "Ġexperienced": 3952,
      "Ġtells": 3953,
      "Ġsciences": 3954,
      "Ġfront": 3955,
      "Ġvision": 3956,
      "Ġfurthermore": 3957,
      "Ġbooks": 3958,
      "Ġbelonging": 3959,
      "Ġdespair": 3960,
      "Ġannihil": 3961,
      "Ġsimultaneously": 3962,
      "fort": 3963,
      "met": 3964,
      "mach": 3965,
      "point": 3966,
      "Ġterr": 3967,
      "enh": 3968,
      "itudes": 3969,
      "Ġlines": 3970,
      "Ġaside": 3971,
      "tering": 3972,
      "ected": 3973,
      "Ġgrown": 3974,
      "Ġpassions": 3975,
      "Ġplease": 3976,
      "Ġprobable": 3977,
      "Ġrevol": 3978,
      "Ġsynthetic": 3979,
      "Ġdeceived": 3980,
      "Ġdisappear": 3981,
      "ordinate": 3982,
      "Ġsoldiers": 3983,
      "Ġhypothesis": 3984,
      "Ġpreceding": 3985,
      "Ġaristotle": 3986,
      "Ġscarcely": 3987,
      "Ġarbitr": 3988,
      ":-": 3989,
      "cont": 3990,
      "rust": 3991,
      "ship": 3992,
      "uz": 3993,
      "erate": 3994,
      "alle": 3995,
      "Ġheide": 3996,
      "Ġdelic": 3997,
      "Ġris": 3998,
      "Ġrot": 3999,
      "Ġunited": 4000,
      "Ġapply": 4001,
      "oughly": 4002,
      "Ġpartly": 4003,
      "Ġcompl": 4004,
      "Ġoffered": 4005,
      "Ġdrawn": 4006,
      "Ġinsp": 4007,
      "Ġdirected": 4008,
      "Ġcarriage": 4009,
      "Ġcenturies": 4010,
      "Ġaffected": 4011,
      "Ġrunning": 4012,
      "Ġidentity": 4013,
      "Ġhorse": 4014,
      "Ġarrived": 4015,
      "Ġindifference": 4016,
      "Ġinvestigation": 4017,
      "Ġlabor": 4018,
      "Ġaccustomed": 4019,
      "from": 4020,
      "iality": 4021,
      "upp": 4022,
      "Ġmix": 4023,
      "Ġfer": 4024,
      "oral": 4025,
      "Ġneut": 4026,
      "antly": 4027,
      "Ġinte": 4028,
      "apt": 4029,
      "Ġobst": 4030,
      "Ġdisci": 4031,
      "Ġdesired": 4032,
      "have": 4033,
      "Ġblame": 4034,
      "Ġmoments": 4035,
      "Ġfinished": 4036,
      "Ġdepth": 4037,
      "Ġcapacity": 4038,
      "Ġimagination": 4039,
      "Ġrequires": 4040,
      "ounced": 4041,
      "Ġindicate": 4042,
      "Ġsky": 4043,
      "Ġdistinguish": 4044,
      "Ġappropriate": 4045,
      "Ġ96": 4046,
      "Ġdiscussed": 4047,
      "Ġbehavior": 4048,
      "kt": 4049,
      "raction": 4050,
      "uge": 4051,
      "ze": 4052,
      "Ġcustom": 4053,
      "Ġdam": 4054,
      "Ġdro": 4055,
      "utions": 4056,
      "Ġsearch": 4057,
      "Ġtrust": 4058,
      "Ġlips": 4059,
      "Ġfeatures": 4060,
      "Ġregion": 4061,
      "Ġpriest": 4062,
      "Ġfalling": 4063,
      "Ġtrial": 4064,
      "Ġorganism": 4065,
      "Ġhighly": 4066,
      "Ġpractical": 4067,
      "Ġincrease": 4068,
      "Ġsucceeded": 4069,
      "Ġcomplicated": 4070,
      "Ġilyitch": 4071,
      "fl": 4072,
      "Ġiii": 4073,
      "rees": 4074,
      "asc": 4075,
      "standing": 4076,
      "osal": 4077,
      "ode": 4078,
      "que": 4079,
      "Ġsharp": 4080,
      "umental": 4081,
      "Ġclot": 4082,
      "Ġhumanity": 4083,
      "Ġpowerful": 4084,
      "Ġimages": 4085,
      "....\"": 4086,
      "Ġsummer": 4087,
      "Ġbott": 4088,
      "Ġastron": 4089,
      "cartes": 4090,
      "hand": 4091,
      "per": 4092,
      "rest": 4093,
      "Ġsir": 4094,
      "Ġsaint": 4095,
      "Ġasking": 4096,
      "Ġantic": 4097,
      "Ġexcess": 4098,
      "Ġproved": 4099,
      "Ġspot": 4100,
      "oundrel": 4101,
      "Ġgreatly": 4102,
      "Ġthroughout": 4103,
      "Ġconflict": 4104,
      "Ġconsidering": 4105,
      "Ġmarry": 4106,
      "Ġinstruments": 4107,
      "Ġmechanical": 4108,
      "Ġvolunt": 4109,
      "rupted": 4110,
      "Ġcommunic": 4111,
      "Ġnucleus": 4112,
      "Ġslowly": 4113,
      "Ġdialect": 4114,
      "Ġsciousness": 4115,
      "bes": 4116,
      "good": 4117,
      "nces": 4118,
      "het": 4119,
      "Ġsought": 4120,
      "atically": 4121,
      "encies": 4122,
      "Ġpowers": 4123,
      "irmed": 4124,
      "Ġwouldn": 4125,
      "ounded": 4126,
      "Ġpock": 4127,
      "Ġseeks": 4128,
      "Ġbeloved": 4129,
      "Ġreck": 4130,
      "velope": 4131,
      "Ġobserver": 4132,
      "Ġsmaller": 4133,
      "Ġtalked": 4134,
      "Ġrecognition": 4135,
      "Ġthirty": 4136,
      "Ġcease": 4137,
      "Ġfailure": 4138,
      "Ġrevolution": 4139,
      "Ġfirmly": 4140,
      "Ġpsychoanalysis": 4141,
      "Ġtheoretical": 4142,
      "Ġsympathy": 4143,
      "Ġreproach": 4144,
      "Ġprepared": 4145,
      "Ġuncertainty": 4146,
      "Ġearnest": 4147,
      "dimens": 4148,
      "hon": 4149,
      "ls": 4150,
      "Ġah": 4151,
      "Ġaud": 4152,
      "Ġwin": 4153,
      "Ġdig": 4154,
      "alg": 4155,
      "Ġhes": 4156,
      "Ġweep": 4157,
      "ape": 4158,
      "Ġwhenever": 4159,
      "Ġfeature": 4160,
      "Ġbox": 4161,
      "Ġincap": 4162,
      "Ġartist": 4163,
      "Ġdetermination": 4164,
      "Ġsensations": 4165,
      "Ġoccurred": 4166,
      "Ġacquired": 4167,
      "Ġidentical": 4168,
      "Ġbeside": 4169,
      "Ġconstantly": 4170,
      "Ġhusser": 4171,
      "asymach": 4172,
      "Ġgalile": 4173,
      "Ġrussia": 4174,
      "Ġignorance": 4175,
      "Ġduke": 4176,
      "Ġpopular": 4177,
      "Ġanticip": 4178,
      "asymachus": 4179,
      "jud": 4180,
      "ole": 4181,
      "uci": 4182,
      "ucl": 4183,
      "erred": 4184,
      "Ġmiss": 4185,
      "Ġinex": 4186,
      "Ġhaste": 4187,
      "Ġspin": 4188,
      "Ġusing": 4189,
      "Ġsav": 4190,
      "Ġprepar": 4191,
      "Ġexistential": 4192,
      "uding": 4193,
      "Ġrecover": 4194,
      "Ġpasses": 4195,
      "Ġscoundrel": 4196,
      "Ġcrimin": 4197,
      "pected": 4198,
      "atively": 4199,
      "mbling": 4200,
      "Ġfinite": 4201,
      "Ġallows": 4202,
      "Ġtrif": 4203,
      "Ġdivision": 4204,
      "Ġmachines": 4205,
      "Ġphysicist": 4206,
      "Ġaims": 4207,
      "Ġspecific": 4208,
      "Ġpraise": 4209,
      "Ġultimate": 4210,
      "Ġencounter": 4211,
      "Ġcovered": 4212,
      "Ġobtained": 4213,
      "Ġheidegger": 4214,
      "dimensional": 4215,
      "call": 4216,
      "fulf": 4217,
      "Ġax": 4218,
      "Ġsize": 4219,
      "Ġdign": 4220,
      "Ġwhisp": 4221,
      "Ġmel": 4222,
      "quet": 4223,
      "Ġunique": 4224,
      "Ġloves": 4225,
      "Ġarmy": 4226,
      "Ġages": 4227,
      "Ġdescartes": 4228,
      "Ġspend": 4229,
      "Ġthrasymachus": 4230,
      "Ġintermedi": 4231,
      "Ġentertain": 4232,
      "Ġcommitted": 4233,
      "Ġwrote": 4234,
      "Ġfeels": 4235,
      "Ġappreci": 4236,
      "Ġillusion": 4237,
      "Ġfalls": 4238,
      "Ġvisible": 4239,
      "Ġindicated": 4240,
      "Ġnearly": 4241,
      "Ġdealing": 4242,
      "Ġmonths": 4243,
      "Ġwritings": 4244,
      "Ġrecollection": 4245,
      "Ġemphas": 4246,
      "clf": 4247,
      "Ġject": 4248,
      "reg": 4249,
      "Ġwine": 4250,
      "Ġcup": 4251,
      "icide": 4252,
      "Ġconver": 4253,
      "Ġcontain": 4254,
      "eria": 4255,
      "Ġseeking": 4256,
      "Ġthrown": 4257,
      "Ġinstit": 4258,
      "Ġassign": 4259,
      "Ġolder": 4260,
      "Ġtelling": 4261,
      "herent": 4262,
      "Ġbehold": 4263,
      "grace": 4264,
      "Ġeffects": 4265,
      "Ġelsewhere": 4266,
      "Ġclasses": 4267,
      "Ġorgans": 4268,
      "Ġinstrumental": 4269,
      "Ġmoon": 4270,
      "yev": 4271,
      "Ġliterature": 4272,
      "Ġdaily": 4273,
      "ares": 4274,
      "don": 4275,
      "ule": 4276,
      "Ġence": 4277,
      "ilt": 4278,
      "oused": 4279,
      "Ġintense": 4280,
      "Ġenvelope": 4281,
      "Ġcomput": 4282,
      "Ġobjection": 4283,
      "Ġobjectivity": 4284,
      "eriority": 4285,
      "Ġ12": 4286,
      "Ġ16": 4287,
      "uctive": 4288,
      "Ġrole": 4289,
      "Ġpsycholog": 4290,
      "ips": 4291,
      "Ġlawy": 4292,
      "Ġturns": 4293,
      "Ġspeaks": 4294,
      "Ġcollect": 4295,
      "Ġradiation": 4296,
      "Ġchest": 4297,
      "Ġbroke": 4298,
      "Ġwalked": 4299,
      "Ġresponsibility": 4300,
      "Ġemotions": 4301,
      "Ġchemist": 4302,
      "Ġequivalent": 4303,
      "cher": 4304,
      "ml": 4305,
      "Ġ+": 4306,
      "eration": 4307,
      "ening": 4308,
      "Ġfile": 4309,
      "Ġpains": 4310,
      "Ġnur": 4311,
      "Ġangel": 4312,
      "Ġdeli": 4313,
      "Ġtrace": 4314,
      "Ġapplied": 4315,
      "ucing": 4316,
      "ignation": 4317,
      "Ġpossibles": 4318,
      "Ġleading": 4319,
      "Ġconclusions": 4320,
      "Ġseparate": 4321,
      "Ġmistake": 4322,
      "Ġstopped": 4323,
      "Ġsacrifice": 4324,
      "bs": 4325,
      "cil": 4326,
      "ht": 4327,
      "mat": 4328,
      "oz": 4329,
      "Ġcy": 4330,
      "Ġcow": 4331,
      "Ġmort": 4332,
      "Ġdensity": 4333,
      "icle": 4334,
      "Ġitaly": 4335,
      "eth": 4336,
      "acing": 4337,
      "Ġexplicit": 4338,
      "Ġposited": 4339,
      "Ġrelated": 4340,
      "Ġphr": 4341,
      "Ġregul": 4342,
      "Ġconfused": 4343,
      "Ġwriting": 4344,
      "Ġsuffered": 4345,
      "Ġinterpreted": 4346,
      "Ġmurdered": 4347,
      "Ġinclined": 4348,
      "001": 4349,
      "Ġdepends": 4350,
      "Ġsources": 4351,
      "Ġanimal": 4352,
      "Ġpositively": 4353,
      "Ġenviron": 4354,
      "Ġfinger": 4355,
      "Ġnumerous": 4356,
      "Ġunhappy": 4357,
      "://": 4358,
      "che": 4359,
      "hr": 4360,
      "inated": 4361,
      "Ġbal": 4362,
      "erity": 4363,
      "Ġtoday": 4364,
      "Ġgained": 4365,
      "imately": 4366,
      "pping": 4367,
      "Ġrail": 4368,
      "Ġcomfort": 4369,
      "acles": 4370,
      "Ġlovers": 4371,
      "Ġjew": 4372,
      "Ġobey": 4373,
      "Ġphysi": 4374,
      "Ġactive": 4375,
      "retched": 4376,
      "Ġexpresses": 4377,
      "Ġconsiderations": 4378,
      "ropy": 4379,
      "Ġfallen": 4380,
      "Ġcareful": 4381,
      "Ġsatisfy": 4382,
      "Ġcreate": 4383,
      "Ġwalk": 4384,
      "Ġdetails": 4385,
      "Ġextremely": 4386,
      "Ġshouted": 4387,
      "Ġremarks": 4388,
      "Ġnerv": 4389,
      "Ġalexandrov": 4390,
      "2001": 4391,
      "sis": 4392,
      "Ġpity": 4393,
      "Ġbeast": 4394,
      "Ġeager": 4395,
      "lend": 4396,
      "Ġleaves": 4397,
      "Ġremoved": 4398,
      "Ġsubsequ": 4399,
      "Ġpleased": 4400,
      "Ġiron": 4401,
      "Ġlacks": 4402,
      "Ġkeeping": 4403,
      "Ġruin": 4404,
      "Ġraise": 4405,
      "ahh": 4406,
      "Ġsuggested": 4407,
      "blahh": 4408,
      "Ġflee": 4409,
      "Ġcounter": 4410,
      "Ġfifteen": 4411,
      "Ġexcellent": 4412,
      "Ġhistorical": 4413,
      "Ġlearning": 4414,
      "Ġprincipal": 4415,
      "deskt": 4416,
      "stephen": 4417,
      "Ġhusserl": 4418,
      "html": 4419,
      ":///": 4420,
      "desktop": 4421,
      "15": 4422,
      "ding": 4423,
      "kes": 4424,
      "Ġolig": 4425,
      "Ġwide": 4426,
      "ero": 4427,
      "Ġdegr": 4428,
      "thy": 4429,
      "Ġtraged": 4430,
      "Ġenorm": 4431,
      "Ġdescend": 4432,
      "Ġmeanings": 4433,
      "Ġinfinity": 4434,
      "Ġcoff": 4435,
      "Ġpersist": 4436,
      "Ġconfusion": 4437,
      "Ġfreely": 4438,
      "Ġillum": 4439,
      "Ġsigns": 4440,
      "Ġanswers": 4441,
      "erring": 4442,
      "Ġprevail": 4443,
      "Ġavail": 4444,
      "Ġsubstit": 4445,
      "Ġcorresponds": 4446,
      "Ġcorresponding": 4447,
      "Ġadvance": 4448,
      "ribute": 4449,
      "Ġcommunity": 4450,
      "Ġpermanence": 4451,
      "Ġladies": 4452,
      "Ġbreath": 4453,
      "Ġincapable": 4454,
      "Ġoligarch": 4455,
      "head": 4456,
      "inations": 4457,
      "ats": 4458,
      "atory": 4459,
      "Ġbab": 4460,
      "Ġhar": 4461,
      "Ġforbid": 4462,
      "Ġshare": 4463,
      "Ġusual": 4464,
      "derer": 4465,
      "Ġreprod": 4466,
      "Ġpret": 4467,
      "abor": 4468,
      "Ġimitation": 4469,
      "Ġsmiled": 4470,
      "ocks": 4471,
      "Ġfathers": 4472,
      "Ġflorent": 4473,
      "Ġviews": 4474,
      "Ġmonks": 4475,
      "Ġcontinually": 4476,
      "Ġconcealed": 4477,
      "Ġoccurs": 4478,
      "Ġfourth": 4479,
      "iusov": 4480,
      "Ġbodily": 4481,
      "Ġarrive": 4482,
      "Ġgirls": 4483,
      "Ġpolitics": 4484,
      "Ġkingdom": 4485,
      "Ġignorant": 4486,
      "Ġunexpected": 4487,
      "Ġslimy": 4488,
      "Ġdeliber": 4489,
      "bar": 4490,
      "can": 4491,
      "gid": 4492,
      "now": 4493,
      "ued": 4494,
      "wind": 4495,
      "Ġsons": 4496,
      "Ġsection": 4497,
      "Ġmiusov": 4498,
      "Ġpale": 4499,
      "see": 4500,
      "Ġseized": 4501,
      "Ġrhy": 4502,
      "Ġalive": 4503,
      "Ġnovel": 4504,
      "Ġdeser": 4505,
      "Ġgrace": 4506,
      "Ġimpat": 4507,
      "els": 4508,
      "Ġbold": 4509,
      "Ġgets": 4510,
      "Ġimaginary": 4511,
      "Ġsensory": 4512,
      "Ġforeign": 4513,
      "Ġplaying": 4514,
      "Ġbread": 4515,
      "Ġbreast": 4516,
      "Ġmurderer": 4517,
      "Ġopposition": 4518,
      "Ġsurpassed": 4519,
      "Ġseriously": 4520,
      "Ġelectrons": 4521,
      "Ġstimulus": 4522,
      "Ġperceived": 4523,
      "ribution": 4524,
      "Ġstruggle": 4525,
      "Ġsensible": 4526,
      "Ġinnocent": 4527,
      "Ġmedicine": 4528,
      "human": 4529,
      "bur": 4530,
      "father": 4531,
      "Ġpist": 4532,
      "Ġdress": 4533,
      "Ġnoted": 4534,
      "Ġsuicide": 4535,
      "right": 4536,
      "Ġshut": 4537,
      "Ġdreaming": 4538,
      "erted": 4539,
      "agement": 4540,
      "Ġ13": 4541,
      "Ġinterv": 4542,
      "Ġgenu": 4543,
      "Ġabsent": 4544,
      "lessness": 4545,
      "Ġregions": 4546,
      "Ġdescribing": 4547,
      "Ġputting": 4548,
      "Ġneeds": 4549,
      "Ġreadily": 4550,
      "Ġexpectation": 4551,
      "Ġlarger": 4552,
      "Ġreturned": 4553,
      "Ġdenied": 4554,
      "Ġvari": 4555,
      "Ġstarting": 4556,
      "Ġdeveloped": 4557,
      "Ġmethods": 4558,
      "Ġpaths": 4559,
      "Ġmaintained": 4560,
      "Ġclaims": 4561,
      "Ġpieces": 4562,
      "Ġnarrow": 4563,
      "Ġcontrol": 4564,
      "Ġekstatic": 4565,
      "',": 4566,
      "nat": 4567,
      "rent": 4568,
      "rehensible": 4569,
      "Ġsor": 4570,
      "Ġbow": 4571,
      "itated": 4572,
      "seen": 4573,
      "Ġgaz": 4574,
      "irable": 4575,
      "Ġshop": 4576,
      "ols": 4577,
      "Ġdisgrace": 4578,
      "Ġthrow": 4579,
      "Ġsympt": 4580,
      "Ġattained": 4581,
      "Ġcover": 4582,
      "Ġcharge": 4583,
      "Ġconnections": 4584,
      "Ġawful": 4585,
      "Ġconceal": 4586,
      "Ġeffected": 4587,
      "Ġplayed": 4588,
      "Ġcarefully": 4589,
      "Ġsleeping": 4590,
      "Ġaffection": 4591,
      "Ġexperimental": 4592,
      "Ġmasses": 4593,
      "Ġharmon": 4594,
      "Ġtender": 4595,
      "Ġpromise": 4596,
      "Ġworthy": 4597,
      "Ġservants": 4598,
      "Ġprivile": 4599,
      "Ġinformation": 4600,
      "Ġhysterical": 4601,
      "called": 4602,
      ");": 4603,
      "raw": 4604,
      "sue": 4605,
      "Ġiv": 4606,
      "itate": 4607,
      "lled": 4608,
      "Ġhaven": 4609,
      "Ġweight": 4610,
      "urity": 4611,
      "ivable": 4612,
      "iveness": 4613,
      "Ġspat": 4614,
      "Ġlibert": 4615,
      "Ġconsp": 4616,
      "Ġdisgu": 4617,
      "Ġcompan": 4618,
      "Ġcomposed": 4619,
      "Ġeverybody": 4620,
      "idean": 4621,
      "Ġrecon": 4622,
      "Ġovercome": 4623,
      "Ġbelieves": 4624,
      "Ġears": 4625,
      "Ġsecondary": 4626,
      "Ġfrance": 4627,
      "Ġsets": 4628,
      "Ġanaly": 4629,
      "Ġinterests": 4630,
      "exist": 4631,
      "Ġfields": 4632,
      "Ġdeclared": 4633,
      "Ġontology": 4634,
      "Ġmistaken": 4635,
      "Ġslightest": 4636,
      "Ġsolely": 4637,
      "Ġviolent": 4638,
      "Ġcollapse": 4639,
      "Ġdestroyed": 4640,
      "Ġchemical": 4641,
      "Ġfemale": 4642,
      "Ġbattle": 4643,
      "Ġdestruction": 4644,
      "Ġdivided": 4645,
      "och": 4646,
      "pos": 4647,
      "atya": 4648,
      "Ġborrow": 4649,
      "eror": 4650,
      "Ġmic": 4651,
      "Ġhide": 4652,
      "Ġnames": 4653,
      "Ġla": 4654,
      "Ġrejo": 4655,
      "Ġsofa": 4656,
      "Ġuns": 4657,
      "Ġnob": 4658,
      "Ġours": 4659,
      "Ġens": 4660,
      "agon": 4661,
      "agen": 4662,
      "temp": 4663,
      "Ġreputation": 4664,
      "fulness": 4665,
      "Ġsubtle": 4666,
      "Ġinferior": 4667,
      "Ġconfirm": 4668,
      "Ġincor": 4669,
      "Ġcontract": 4670,
      "Ġkey": 4671,
      "Ġgentleman": 4672,
      "Ġhoriz": 4673,
      "Ġelementary": 4674,
      "Ġcircumstance": 4675,
      "Ġcrying": 4676,
      "Ġoccupied": 4677,
      "Ġdimension": 4678,
      "Ġofficial": 4679,
      "Ġexercise": 4680,
      "Ġexclaimed": 4681,
      "Ġbottom": 4682,
      "Ġcriminal": 4683,
      "fulfilment": 4684,
      "Ġenvironment": 4685,
      "'.": 4686,
      "ients": 4687,
      "liness": 4688,
      "Ġly": 4689,
      "Ġaid": 4690,
      "Ġfill": 4691,
      "Ġinev": 4692,
      "Ġasks": 4693,
      "room": 4694,
      "Ġordered": 4695,
      "ulsion": 4696,
      "aker": 4697,
      "antus": 4698,
      "arted": 4699,
      "Ġdisag": 4700,
      "Ġparty": 4701,
      "agger": 4702,
      "wel": 4703,
      "ensation": 4704,
      "Ġreser": 4705,
      "Ġclock": 4706,
      "clock": 4707,
      "Ġscale": 4708,
      "lessly": 4709,
      "Ġshowing": 4710,
      "cules": 4711,
      "isfortun": 4712,
      "Ġspirits": 4713,
      "Ġpolice": 4714,
      "Ġorganization": 4715,
      "Ġcalm": 4716,
      "Ġinfinitely": 4717,
      "Ġdrinking": 4718,
      "Ġsquare": 4719,
      "Ġpulled": 4720,
      "Ġillustr": 4721,
      "uclidean": 4722,
      "Ġgenuine": 4723,
      "mar": 4724,
      "ney": 4725,
      "oon": 4726,
      "Ġther": 4727,
      "Ġwid": 4728,
      "Ġbent": 4729,
      "eric": 4730,
      "Ġmisfortun": 4731,
      "Ġthin": 4732,
      "ounce": 4733,
      "Ġtop": 4734,
      "isen": 4735,
      "Ġdrop": 4736,
      "anch": 4737,
      "Ġisa": 4738,
      "imantus": 4739,
      "eterm": 4740,
      "istical": 4741,
      "acc": 4742,
      "Ġdreamed": 4743,
      "Ġkne": 4744,
      "Ġque": 4745,
      "Ġdisplace": 4746,
      "Ġtwice": 4747,
      "Ġclim": 4748,
      "Ġformal": 4749,
      "Ġrock": 4750,
      "ocked": 4751,
      "Ġcalling": 4752,
      "while": 4753,
      "Ġsupposes": 4754,
      "Ġconsiderable": 4755,
      "Ġequations": 4756,
      "Ġdepri": 4757,
      "Ġtries": 4758,
      "Ġconclude": 4759,
      "Ġexcited": 4760,
      "Ġnihilating": 4761,
      "Ġlistened": 4762,
      "Ġderive": 4763,
      "Ġexerc": 4764,
      "Ġadeimantus": 4765,
      "Ġapplication": 4766,
      "Ġpocket": 4767,
      "eav": 4768,
      "god": 4769,
      "issy": 4770,
      "Ġetern": 4771,
      "Ġrecip": 4772,
      "Ġseven": 4773,
      "Ġspring": 4774,
      "Ġamaz": 4775,
      "Ġenable": 4776,
      "Ġpresupp": 4777,
      "Ġsomewhere": 4778,
      "Ġjustified": 4779,
      "Ġendeav": 4780,
      "Ġabsor": 4781,
      "heses": 4782,
      "Ġdefense": 4783,
      "Ġincarn": 4784,
      "Ġfinding": 4785,
      "Ġelabor": 4786,
      "Ġinside": 4787,
      "Ġchoosing": 4788,
      "Ġthousands": 4789,
      "Ġorganic": 4790,
      "Ġarguments": 4791,
      "Ġeventually": 4792,
      "Ġradical": 4793,
      "Ġxx": 4794,
      "Ġintroduced": 4795,
      "Ġsacred": 4796,
      "Ġsnow": 4797,
      "Ġfurnish": 4798,
      "Ġfoolish": 4799,
      "Ġcounsel": 4800,
      "Ġfatal": 4801,
      "Ġpaissy": 4802,
      "Ġtradition": 4803,
      "Ġmetaphysical": 4804,
      "Ġcoward": 4805,
      ".--": 4806,
      "gust": 4807,
      "iate": 4808,
      "edy": 4809,
      "Ġluc": 4810,
      "Ġyield": 4811,
      "Ġsevere": 4812,
      "Ġmyster": 4813,
      "Ġring": 4814,
      "ests": 4815,
      "Ġtrag": 4816,
      "Ġworking": 4817,
      "Ġju": 4818,
      "Ġbrain": 4819,
      "Ġpresentation": 4820,
      "Ġchildish": 4821,
      "Ġselfness": 4822,
      "Ġglance": 4823,
      "Ġpersonality": 4824,
      "Ġdecis": 4825,
      "Ġframe": 4826,
      "Ġparalle": 4827,
      "Ġindicates": 4828,
      "Ġmisunder": 4829,
      "Ġaccepted": 4830,
      "Ġdriven": 4831,
      "Ġcriticism": 4832,
      "Ġunfortun": 4833,
      "Ġlegs": 4834,
      "Ġconsistent": 4835,
      "Ġcomprehend": 4836,
      "Ġfairly": 4837,
      "Ġpursuit": 4838,
      "Ġawakening": 4839,
      "reflective": 4840,
      "Ġcompassion": 4841,
      "Ġscheme": 4842,
      "Ġpubl": 4843,
      "hered": 4844,
      "Ġthesis": 4845,
      "Ġom": 4846,
      "rect": 4847,
      "Ġsan": 4848,
      "Ġfen": 4849,
      "Ġportion": 4850,
      "Ġdressed": 4851,
      "alt": 4852,
      "Ġlink": 4853,
      "Ġreaction": 4854,
      "Ġexec": 4855,
      "ils": 4856,
      "Ġintensity": 4857,
      "Ġobed": 4858,
      "Ġpositions": 4859,
      "Ġpron": 4860,
      "Ġtext": 4861,
      "Ġacting": 4862,
      "Ġadvers": 4863,
      "Ġ17": 4864,
      "Ġattitudes": 4865,
      "Ġcoat": 4866,
      "Ġwherever": 4867,
      "oubled": 4868,
      "Ġdetermines": 4869,
      "Ġaccordance": 4870,
      "Ġirma": 4871,
      "Ġempire": 4872,
      "Ġgreen": 4873,
      "Ġseparates": 4874,
      "Ġhearing": 4875,
      "Ġgreeks": 4876,
      "Ġweakness": 4877,
      "Ġphysicists": 4878,
      "Ġsuccession": 4879,
      "Ġdrawing": 4880,
      "Ġboundary": 4881,
      "Ġtorment": 4882,
      "Ġdeeply": 4883,
      "Ġcomprehension": 4884,
      "Ġsuspic": 4885,
      "Ġcopenh": 4886,
      "Ġisolated": 4887,
      "rassot": 4888,
      "Ġwithdraw": 4889,
      "Ġaverage": 4890,
      "aus": 4891,
      "iosity": 4892,
      "ube": 4893,
      "Ġot": 4894,
      "Ġcities": 4895,
      "Ġmas": 4896,
      "Ġlest": 4897,
      "Ġhair": 4898,
      "Ġconverse": 4899,
      "ching": 4900,
      "chant": 4901,
      "Ġathen": 4902,
      "Ġkatya": 4903,
      "Ġalle": 4904,
      "Ġtran": 4905,
      "Ġspr": 4906,
      "Ġleaving": 4907,
      "Ġdisgust": 4908,
      "Ġsimpl": 4909,
      "angers": 4910,
      "Ġflow": 4911,
      "Ġassured": 4912,
      "Ġmodest": 4913,
      "aneous": 4914,
      "Ġcausality": 4915,
      "Ġtriump": 4916,
      "Ġnamely": 4917,
      "Ġromans": 4918,
      "Ġtouched": 4919,
      "Ġmeeting": 4920,
      "Ġappropriation": 4921,
      "Ġpermanent": 4922,
      "Ġaccomplished": 4923,
      "Ġcontemporary": 4924,
      "Ġobliged": 4925,
      "Ġmeasuring": 4926,
      "Ġexhausted": 4927,
      "Ġfaculty": 4928,
      "subject": 4929,
      "Ġarbitrary": 4930,
      "Ġintegr": 4931,
      "Ġliberty": 4932,
      "Ġdisagree": 4933,
      "Ġcopenhagen": 4934,
      "rassotkin": 4935,
      "aur": 4936,
      "his": 4937,
      "iest": 4938,
      "land": 4939,
      "ĠÃ¦": 4940,
      "attered": 4941,
      "Ġbang": 4942,
      "Ġcred": 4943,
      "Ġcav": 4944,
      "Ġthrew": 4945,
      "Ġpil": 4946,
      "Ġdy": 4947,
      "Ġwhil": 4948,
      "rose": 4949,
      "uls": 4950,
      "Ġkir": 4951,
      "pper": 4952,
      "using": 4953,
      "Ġchrom": 4954,
      "Ġaltern": 4955,
      "Ġhast": 4956,
      "Ġexpans": 4957,
      "Ġappeal": 4958,
      "Ġenqu": 4959,
      "Ġindul": 4960,
      "Ġdistant": 4961,
      "Ġattached": 4962,
      "Ġbegun": 4963,
      "Ġletters": 4964,
      "Ġentropy": 4965,
      "Ġsecure": 4966,
      "cribed": 4967,
      "Ġexamine": 4968,
      "Ġholding": 4969,
      "Ġforever": 4970,
      "Ġplays": 4971,
      "Ġorganized": 4972,
      "Ġmeasured": 4973,
      "Ġhorror": 4974,
      "Ġgrief": 4975,
      "Ġcritical": 4976,
      "Ġburst": 4977,
      "Ġpostul": 4978,
      "Ġshadow": 4979,
      "Ġobscure": 4980,
      "Ġjourney": 4981,
      "Ġdignity": 4982,
      "Ġchemistry": 4983,
      "ux": 4984,
      "Ġ*": 4985,
      "onic": 4986,
      "Ġcost": 4987,
      "Ġmamma": 4988,
      "Ġinert": 4989,
      "Ġdan": 4990,
      "anov": 4991,
      "icial": 4992,
      "arity": 4993,
      "char": 4994,
      "iration": 4995,
      "Ġorbit": 4996,
      "Ġsust": 4997,
      "Ġsuitable": 4998,
      "ouses": 4999,
      "Ġconsol": 5000,
      "Ġdispl": 5001,
      "Ġouter": 5002,
      "Ġagreed": 5003,
      "oked": 5004,
      "Ġattraction": 5005,
      "Ġenthus": 5006,
      "Ġcorp": 5007,
      "Ġreflecting": 5008,
      "Ġputs": 5009,
      "Ġguess": 5010,
      "Ġregards": 5011,
      "Ġrecognised": 5012,
      "Ġcuriosity": 5013,
      "Ġbright": 5014,
      "Ġremaining": 5015,
      "Ġceased": 5016,
      "Ġrushed": 5017,
      "Ġexclus": 5018,
      "Ġwalking": 5019,
      "Ġmuttered": 5020,
      "Ġdarkness": 5021,
      "Ġpreserve": 5022,
      "Ġwalls": 5023,
      "Ġhopes": 5024,
      "orentz": 5025,
      "Ġmolecules": 5026,
      "Ġanalogy": 5027,
      "Ġrisk": 5028,
      "Ġenormous": 5029,
      "Ġisaac": 5030,
      "Ġenthusi": 5031,
      "gen": 5032,
      "oll": 5033,
      "was": 5034,
      "Ġsides": 5035,
      "Ġbor": 5036,
      "Ġbase": 5037,
      "Ġhun": 5038,
      "Ġnations": 5039,
      "Ġreven": 5040,
      "Ġgar": 5041,
      "Ġnotions": 5042,
      "chief": 5043,
      "Ġstones": 5044,
      "Ġexhib": 5045,
      "Ġmemb": 5046,
      "osm": 5047,
      "Ġsev": 5048,
      "Ġsoph": 5049,
      "Ġcompare": 5050,
      "ensive": 5051,
      "erious": 5052,
      "Ġendure": 5053,
      "Ġslaves": 5054,
      "Ġdram": 5055,
      "Ġprinces": 5056,
      "Ġmarked": 5057,
      "Ġawake": 5058,
      "Ġsorts": 5059,
      "Ġradically": 5060,
      "Ġstriking": 5061,
      "Ġtrembling": 5062,
      "Ġenterpr": 5063,
      "Ġfatig": 5064,
      "Ġfingers": 5065,
      "Ġethical": 5066,
      "Ġfrightened": 5067,
      "alganov": 5068,
      "windows": 5069,
      "Ġwhilst": 5070,
      "Ġchromos": 5071,
      "such": 5072,
      "yal": 5073,
      "Ġod": 5074,
      "Ġfiction": 5075,
      "Ġink": 5076,
      "Ġdwell": 5077,
      "Ġnaked": 5078,
      "Ġlands": 5079,
      "Ġgate": 5080,
      "ete": 5081,
      "Ġoran": 5082,
      "Ġkrassotkin": 5083,
      "Ġkalganov": 5084,
      "gend": 5085,
      "Ġability": 5086,
      "Ġarrow": 5087,
      "Ġsaved": 5088,
      "Ġthank": 5089,
      "Ġadvan": 5090,
      "Ġdiffer": 5091,
      "Ġaccess": 5092,
      "Ġperspect": 5093,
      "Ġtransformed": 5094,
      "berg": 5095,
      "Ġfarther": 5096,
      "Ġglo": 5097,
      "orses": 5098,
      "Ġconviction": 5099,
      "Ġlistening": 5100,
      "Ġinquiry": 5101,
      "Ġprofessor": 5102,
      "Ġgalaxies": 5103,
      "Ġimperfect": 5104,
      "Ġdoctrine": 5105,
      "Ġterror": 5106,
      "Ġhorizon": 5107,
      "pro": 5108,
      "tled": 5109,
      "zen": 5110,
      "Ġtro": 5111,
      "rem": 5112,
      "Ġcand": 5113,
      "Ġfil": 5114,
      "Ġfresh": 5115,
      "Ġhang": 5116,
      "Ġisn": 5117,
      "omp": 5118,
      "celer": 5119,
      "change": 5120,
      "ositions": 5121,
      "Ġric": 5122,
      "Ġrange": 5123,
      "antic": 5124,
      "Ġspread": 5125,
      "Ġloving": 5126,
      "Ġcontents": 5127,
      "erer": 5128,
      "Ġphot": 5129,
      "Ġpresident": 5130,
      "Ġprelim": 5131,
      "Ġhumil": 5132,
      "Ġhumble": 5133,
      "Ġincons": 5134,
      "Ġreasoning": 5135,
      "Ġtruths": 5136,
      "Ġdirections": 5137,
      "upon": 5138,
      "Ġcapt": 5139,
      "Ġawa": 5140,
      "Ġdestiny": 5141,
      "Ġcreator": 5142,
      "Ġdevoted": 5143,
      "Ġdistinctly": 5144,
      "Ġfigures": 5145,
      "Ġgreece": 5146,
      "Ġweaker": 5147,
      "Ġabstraction": 5148,
      "Ġeuropean": 5149,
      "Ġresemb": 5150,
      "Ġdemocracy": 5151,
      "Ġnervous": 5152,
      "Ġtragedy": 5153,
      "bo": 5154,
      "cause": 5155,
      "every": 5156,
      "eks": 5157,
      "vol": 5158,
      "Ġ&": 5159,
      "Ġtit": 5160,
      "Ġwat": 5161,
      "Ġsong": 5162,
      "Ġbare": 5163,
      "Ġcure": 5164,
      "Ġcosm": 5165,
      "Ġhind": 5166,
      "Ġpere": 5167,
      "Ġtow": 5168,
      "Ġinher": 5169,
      "Ġlosing": 5170,
      "imp": 5171,
      "adays": 5172,
      "ulation": 5173,
      "Ġaloud": 5174,
      "Ġtheme": 5175,
      "thetic": 5176,
      "Ġprec": 5177,
      "Ġpresents": 5178,
      "Ġrigid": 5179,
      "Ġsuppressed": 5180,
      "Ġconfirmed": 5181,
      "Ġkeen": 5182,
      "Ġquantity": 5183,
      "Ġforeconscious": 5184,
      "Ġedge": 5185,
      "Ġpatients": 5186,
      "Ġenergies": 5187,
      "Ġmiserable": 5188,
      "Ġwitnesses": 5189,
      "Ġanxious": 5190,
      "Ġsounds": 5191,
      "Ġmilitary": 5192,
      "Ġcontradictions": 5193,
      "Ġresearch": 5194,
      "Ġincomp": 5195,
      "Ġmolec": 5196,
      "Ġdeeds": 5197,
      "Ġmaximov": 5198,
      "present": 5199,
      "Ġdialectic": 5200,
      "ucible": 5201,
      "Ġreciproc": 5202,
      "Ġtriumph": 5203,
      "Ġpreliminary": 5204,
      "):": 5205,
      "avery": 5206,
      "iave": 5207,
      "|/": 5208,
      "Ġwood": 5209,
      "Ġfasc": 5210,
      "Ġpill": 5211,
      "Ġeman": 5212,
      "Ġstern": 5213,
      "thag": 5214,
      "Ġworship": 5215,
      "Ġabund": 5216,
      "aud": 5217,
      "Ġdishon": 5218,
      "Ġpartial": 5219,
      "Ġundiff": 5220,
      "Ġstatements": 5221,
      "Ġlonging": 5222,
      "Ġtransp": 5223,
      "Ġacceler": 5224,
      "Ġrights": 5225,
      "Ġproportion": 5226,
      "Ġcharacters": 5227,
      "Ġexception": 5228,
      "Ġchanging": 5229,
      "Ġpurposes": 5230,
      "Ġsurpasses": 5231,
      "Ġcorrectly": 5232,
      "Ġpunish": 5233,
      "Ġassociations": 5234,
      "Ġtechnical": 5235,
      "Ġrender": 5236,
      "Ġrarely": 5237,
      "Ġcondemned": 5238,
      "Ġacknowled": 5239,
      "Ġoutline": 5240,
      "Ġmajority": 5241,
      "Ġaccompanied": 5242,
      "Ġsorry": 5243,
      "Ġeternity": 5244,
      "Ġtragic": 5245,
      "Ġparallel": 5246,
      "Ġexpansion": 5247,
      "iavelli": 5248,
      "cle": 5249,
      "rav": 5250,
      "Ġtions": 5251,
      "eral": 5252,
      "Ġhated": 5253,
      "ancy": 5254,
      "icient": 5255,
      "Ġgall": 5256,
      "idge": 5257,
      "Ġshape": 5258,
      "Ġvill": 5259,
      "Ġintent": 5260,
      "Ġjury": 5261,
      "Ġqua": 5262,
      "Ġdisinte": 5263,
      "Ġuses": 5264,
      "emed": 5265,
      "Ġarrest": 5266,
      "Ġcloud": 5267,
      "Ġnews": 5268,
      "Ġmodification": 5269,
      "Ġglor": 5270,
      "Ġparis": 5271,
      "Ġheavens": 5272,
      "Ġmerc": 5273,
      "Ġforgetting": 5274,
      "Ġguardian": 5275,
      "Ġdomin": 5276,
      "Ġinvolved": 5277,
      "Ġfurnished": 5278,
      "Ġhurried": 5279,
      "Ġaspects": 5280,
      "Ġpotent": 5281,
      "Ġkissed": 5282,
      "trans": 5283,
      "Ġjealousy": 5284,
      "Ġphantasy": 5285,
      "Ġsingularity": 5286,
      "Ġmarket": 5287,
      "Ġreckon": 5288,
      "Ġfenya": 5289,
      "acious": 5290,
      "cf": 5291,
      "rance": 5292,
      "Ġwound": 5293,
      "inal": 5294,
      "Ġbind": 5295,
      "Ġcou": 5296,
      "Ġcatch": 5297,
      "Ġfaint": 5298,
      "Ġhorses": 5299,
      "itably": 5300,
      "icles": 5301,
      "ason": 5302,
      "ashed": 5303,
      "Ġeuclidean": 5304,
      "ley": 5305,
      "otion": 5306,
      "Ġloss": 5307,
      "Ġstated": 5308,
      "roe": 5309,
      "Ġexagger": 5310,
      "ethe": 5311,
      "ivation": 5312,
      "Ġvig": 5313,
      "Ġunlike": 5314,
      "Ġintimate": 5315,
      "Ġsplend": 5316,
      "Ġnose": 5317,
      "Ġexpanding": 5318,
      "Ġappoint": 5319,
      "Ġanyone": 5320,
      "Ġstring": 5321,
      "Ġpretend": 5322,
      "Ġprejud": 5323,
      "Ġgreatness": 5324,
      "Ġyours": 5325,
      "Ġconsciousnesses": 5326,
      "Ġinterrupted": 5327,
      "Ġrose": 5328,
      "Ġoffice": 5329,
      "Ġscr": 5330,
      "Ġmodes": 5331,
      "Ġreasonable": 5332,
      "Ġvalid": 5333,
      "Ġmorals": 5334,
      "Ġinterested": 5335,
      "Ġmechanism": 5336,
      "Ġmachiavelli": 5337,
      "Ġsuccessful": 5338,
      "Ġdeclare": 5339,
      "Ġembr": 5340,
      "Ġpassionate": 5341,
      "Ġconstruction": 5342,
      "after": 5343,
      "Ġguilt": 5344,
      "Ġformula": 5345,
      "Ġpeasants": 5346,
      "Ġbanquet": 5347,
      "Ġcondemn": 5348,
      "Ġimmortality": 5349,
      "Ġstroke": 5350,
      "Ġgymnastic": 5351,
      "Ġflorentines": 5352,
      "Ġrhyth": 5353,
      "burg": 5354,
      "Ġta": 5355,
      "atyev": 5356,
      "Ġbears": 5357,
      "Ġheight": 5358,
      "urance": 5359,
      "Ġrays": 5360,
      "Ġviz": 5361,
      "Ġworry": 5362,
      "actions": 5363,
      "Ġje": 5364,
      "Ġjoke": 5365,
      "sight": 5366,
      "Ġplen": 5367,
      "Ġanyway": 5368,
      "okroe": 5369,
      "aging": 5370,
      "Ġnowadays": 5371,
      "Ġprecious": 5372,
      "Ġspecies": 5373,
      "Ġbeforehand": 5374,
      "Ġattributed": 5375,
      "Ġtransm": 5376,
      "Ġbelieving": 5377,
      "Ġappearances": 5378,
      "Ġhearts": 5379,
      "Ġequation": 5380,
      "Ġcollection": 5381,
      "Ġgrew": 5382,
      "Ġcareer": 5383,
      "Ġstudent": 5384,
      "Ġcontinuous": 5385,
      "Ġadvent": 5386,
      "Ġdrive": 5387,
      "Ġpreserved": 5388,
      "Ġassociation": 5389,
      "Ġduties": 5390,
      "Ġpotential": 5391,
      "Ġchiefly": 5392,
      "Ġneighbour": 5393,
      "Ġalienation": 5394,
      "Ġmultiplicity": 5395,
      "Ġinfantile": 5396,
      "Ġdelicate": 5397,
      "gent": 5398,
      "hab": 5399,
      "long": 5400,
      "Ġmokroe": 5401,
      "Ġthief": 5402,
      "ordered": 5403,
      "Ġdat": 5404,
      "icing": 5405,
      "Ġlorentz": 5406,
      "Ġweek": 5407,
      "Ġstir": 5408,
      "Ġalarm": 5409,
      "Ġdism": 5410,
      "Ġsafe": 5411,
      "Ġgrowing": 5412,
      "Ġindisp": 5413,
      "Ġimplicit": 5414,
      "Ġfever": 5415,
      "Ġfactual": 5416,
      "Ġadam": 5417,
      "Ġrefused": 5418,
      "Ġcharming": 5419,
      "Ġrealism": 5420,
      "Ġrealizes": 5421,
      "Ġregret": 5422,
      "Ġdifferently": 5423,
      "Ġsecondly": 5424,
      "Ġchooses": 5425,
      "Ġpossesses": 5426,
      "Ġattend": 5427,
      "Ġproduces": 5428,
      "Ġapprehends": 5429,
      "Ġruler": 5430,
      "Ġinclude": 5431,
      "Ġjudgments": 5432,
      "Ġbroad": 5433,
      "Ġagreement": 5434,
      "Ġtemperance": 5435,
      "Ġefforts": 5436,
      "Ġintelligible": 5437,
      "Ġproperly": 5438,
      "Ġfulfilment": 5439,
      "Ġsoldier": 5440,
      "Ġwatching": 5441,
      "Ġlearnt": 5442,
      "Ġambition": 5443,
      "Ġstatistical": 5444,
      "Ġunreal": 5445,
      "Ġdeterminism": 5446,
      "Ġvoluntary": 5447,
      "Ġmisfortune": 5448,
      "Ġdisintegr": 5449,
      "atyevna": 5450,
      ";\"": 5451,
      "uk": 5452,
      "whel": 5453,
      "yl": 5454,
      "Ġtone": 5455,
      "enes": 5456,
      "armed": 5457,
      "Ġeating": 5458,
      "state": 5459,
      "Ġham": 5460,
      "urable": 5461,
      "Ġneck": 5462,
      "Ġchain": 5463,
      "Ġalas": 5464,
      "Ġvast": 5465,
      "Ġperformed": 5466,
      "Ġrefined": 5467,
      "Ġspecul": 5468,
      "Ġinterf": 5469,
      "Ġsym": 5470,
      "Ġfounded": 5471,
      "Ġscream": 5472,
      "Ġbackground": 5473,
      "Ġinvent": 5474,
      "Ġmarvel": 5475,
      "Ġsetting": 5476,
      "Ġsolitude": 5477,
      "ibly": 5478,
      "Ġwaited": 5479,
      "Ġkeeps": 5480,
      "Ġpreviously": 5481,
      "Ġcurious": 5482,
      "Ġopening": 5483,
      "Ġseparation": 5484,
      "Ġmovements": 5485,
      "Ġmercy": 5486,
      "Ġtort": 5487,
      "Ġslightly": 5488,
      "Ġamounts": 5489,
      "Ġquarrel": 5490,
      "Ġfulfilled": 5491,
      "Ġremarked": 5492,
      "Ġutterly": 5493,
      "Ġethics": 5494,
      "Ġlucc": 5495,
      "Ġculture": 5496,
      "Ġgranted": 5497,
      "Ġarrangement": 5498,
      "Ġthoroughly": 5499,
      "Ġmystery": 5500,
      "Ġsuspicion": 5501,
      "Ġmembers": 5502,
      "hold": 5503,
      "Ġ0": 5504,
      "Ġbene": 5505,
      "Ġhit": 5506,
      "isl": 5507,
      "isation": 5508,
      "edly": 5509,
      "Ġdin": 5510,
      "Ġdying": 5511,
      "Ġstream": 5512,
      "Ġexceed": 5513,
      "Ġselect": 5514,
      "Ġselection": 5515,
      "ushing": 5516,
      "Ġnearer": 5517,
      "Ġproves": 5518,
      "ested": 5519,
      "Ġunified": 5520,
      "Ġunification": 5521,
      "Ġtrave": 5522,
      "Ġjes": 5523,
      "Ġconsid": 5524,
      "Ġdiscl": 5525,
      "Ġdischar": 5526,
      "Ġcontact": 5527,
      "ems": 5528,
      "ogue": 5529,
      "Ġoverwhel": 5530,
      "Ġinfor": 5531,
      "Ġblue": 5532,
      "Ġcondensation": 5533,
      "Ġsupposing": 5534,
      "Ġwriter": 5535,
      "Ġserved": 5536,
      "Ġdoubtless": 5537,
      "Ġattempted": 5538,
      "Ġmemories": 5539,
      "Ġassuming": 5540,
      "Ġcheer": 5541,
      "Ġimmense": 5542,
      "Ġmanifests": 5543,
      "Ġdependent": 5544,
      "Ġsymbolic": 5545,
      "Ġmathematics": 5546,
      "Ġhurt": 5547,
      "Ġhurry": 5548,
      "Ġlocal": 5549,
      "Ġvictim": 5550,
      "Ġpsychoanaly": 5551,
      "Ġpermitted": 5552,
      "Ġwriters": 5553,
      "Ġalexander": 5554,
      "Ġdeparture": 5555,
      "Ġvanity": 5556,
      "Ġshadows": 5557,
      "Ġassistance": 5558,
      "perhaps": 5559,
      "Ġknees": 5560,
      "16": 5561,
      "ooth": 5562,
      "sed": 5563,
      "uity": 5564,
      "Ġsle": 5565,
      "inent": 5566,
      "Ġinapp": 5567,
      "eds": 5568,
      "Ġnin": 5569,
      "Ġnation": 5570,
      "Ġnap": 5571,
      "Ġconven": 5572,
      "Ġweap": 5573,
      "ades": 5574,
      "Ġallusion": 5575,
      "Ġvague": 5576,
      "Ġamid": 5577,
      "Ġarch": 5578,
      "Ġaroused": 5579,
      "...\"": 5580,
      "Ġimply": 5581,
      "Ġresolved": 5582,
      "Ġaccid": 5583,
      "Ġdidst": 5584,
      "Ġgoodness": 5585,
      "bell": 5586,
      "Ġrightly": 5587,
      "itsclf": 5588,
      "Ġmarfa": 5589,
      "Ġcapital": 5590,
      "Ġtotally": 5591,
      "Ġcolor": 5592,
      "apped": 5593,
      "Ġstudies": 5594,
      "Ġrelationship": 5595,
      "Ġprovide": 5596,
      "spring": 5597,
      "Ġinstantly": 5598,
      "Ġbringing": 5599,
      "Ġidentification": 5600,
      "Ġmedi": 5601,
      "Ġprotect": 5602,
      "Ġassertion": 5603,
      "Ġvisitors": 5604,
      "Ġimpulses": 5605,
      "Ġirrational": 5606,
      "Ġpaul": 5607,
      "Ġemployed": 5608,
      "Ġambig": 5609,
      "Ġmysterious": 5610,
      "Ġpeters": 5611,
      "Ġacquaintance": 5612,
      "Ġhostile": 5613,
      "Ġjumped": 5614,
      "Ġtavern": 5615,
      ",--": 5616,
      "14": 5617,
      "cs": 5618,
      "even": 5619,
      "hal": 5620,
      "Ġbid": 5621,
      "Ġfety": 5622,
      "Ġfaces": 5623,
      "Ġpan": 5624,
      "itus": 5625,
      "Ġinward": 5626,
      "Ġduration": 5627,
      "ici": 5628,
      "Ġhered": 5629,
      "Ġloud": 5630,
      "stand": 5631,
      "Ġhabits": 5632,
      "urov": 5633,
      "Ġwasn": 5634,
      "Ġunm": 5635,
      "Ġintend": 5636,
      "Ġspart": 5637,
      "Ġwhence": 5638,
      "orted": 5639,
      "Ġdesert": 5640,
      "Ġteaches": 5641,
      "resses": 5642,
      "Ġremote": 5643,
      "Ġbrute": 5644,
      "Ġrecord": 5645,
      "Ġrecently": 5646,
      "Ġpresentations": 5647,
      "Ġpassive": 5648,
      "Ġsincere": 5649,
      "Ġconfer": 5650,
      "Ġinval": 5651,
      "Ġserves": 5652,
      "Ġcarries": 5653,
      "plan": 5654,
      "Ġimagined": 5655,
      "Ġsimplicity": 5656,
      "Ġwishing": 5657,
      "Ġescaped": 5658,
      "Ġexcuse": 5659,
      "ruption": 5660,
      "Ġcontinuum": 5661,
      "Ġfailed": 5662,
      "Ġantip": 5663,
      "Ġpromised": 5664,
      "Ġsurprising": 5665,
      "Ġlegisl": 5666,
      "Ġconfession": 5667,
      "Ġtouching": 5668,
      "Ġofficer": 5669,
      "Ġpersuaded": 5670,
      "Ġreplaced": 5671,
      "Ġadopt": 5672,
      "Ġtyranny": 5673,
      "Ġventure": 5674,
      "Ġcategory": 5675,
      "Ġrailway": 5676,
      "Ġsubsequently": 5677,
      "Ġpublished": 5678,
      "Ġadversity": 5679,
      "Ġinconsist": 5680,
      "ukovitch": 5681,
      "Ġfetyukovitch": 5682,
      ";-": 5683,
      "certain": 5684,
      "rical": 5685,
      "sky": 5686,
      "Ġtree": 5687,
      "hearted": 5688,
      "Ġsink": 5689,
      "Ġfly": 5690,
      "Ġpope": 5691,
      "orous": 5692,
      "Ġna": 5693,
      "Ġhend": 5694,
      "imil": 5695,
      "Ġascend": 5696,
      "Ġug": 5697,
      "changed": 5698,
      "ift": 5699,
      "romagn": 5700,
      "Ġrat": 5701,
      "ivities": 5702,
      "Ġtraining": 5703,
      "ander": 5704,
      "Ġliqu": 5705,
      "Ġexped": 5706,
      "Ġsomehow": 5707,
      "Ġundergo": 5708,
      "Ġmeanwhile": 5709,
      "Ġsmooth": 5710,
      "Ġsmurov": 5711,
      "Ġtransition": 5712,
      "Ġdiscern": 5713,
      "Ġincon": 5714,
      "Ġdrag": 5715,
      "Ġbasic": 5716,
      "Ġstrongly": 5717,
      "Ġemitted": 5718,
      "Ġutmost": 5719,
      "Ġperfection": 5720,
      "Ġsatisfact": 5721,
      "Ġincludes": 5722,
      "Ġincluding": 5723,
      "Ġtypes": 5724,
      "Ġschol": 5725,
      "Ġfriendship": 5726,
      "Ġsignificant": 5727,
      "Ġsuperf": 5728,
      "Ġgrasped": 5729,
      "Ġrecalled": 5730,
      "Ġhypotheses": 5731,
      "Ġaccomplish": 5732,
      "Ġsalvation": 5733,
      "Ġblessed": 5734,
      "Ġcruelty": 5735,
      "regard": 5736,
      "Ġcoffin": 5737,
      "Ġdisplacement": 5738,
      "Ġdeprived": 5739,
      "Ġotto": 5740,
      "Ġfatigue": 5741,
      "19": 5742,
      "fig": 5743,
      "gree": 5744,
      "Â®": 5745,
      "Ġwarn": 5746,
      "Ġsion": 5747,
      "Ġscend": 5748,
      "atisf": 5749,
      "onent": 5750,
      "Ġdance": 5751,
      "Ġbeard": 5752,
      "Ġforty": 5753,
      "oser": 5754,
      "Ġsequ": 5755,
      "quate": 5756,
      "olve": 5757,
      "Ġunwill": 5758,
      "Ġtroubled": 5759,
      "Ġworked": 5760,
      "mentary": 5761,
      "oking": 5762,
      "erences": 5763,
      "une": 5764,
      "Ġeveryday": 5765,
      "Ġresolution": 5766,
      "plex": 5767,
      "Ġinterrog": 5768,
      "nothing": 5769,
      "Ġcraz": 5770,
      "Ġincident": 5771,
      "Ġwanting": 5772,
      "mann": 5773,
      "Ġirred": 5774,
      "Ġstandpoint": 5775,
      "Ġemperor": 5776,
      "Ġfaithful": 5777,
      "Ġvariety": 5778,
      "Ġminutes": 5779,
      "Ġruling": 5780,
      "Ġacquire": 5781,
      "ankment": 5782,
      "Ġwindows": 5783,
      "Ġhencefor": 5784,
      "Ġoccasionally": 5785,
      "Ġaristocr": 5786,
      "Ġsolemn": 5787,
      "Ġalike": 5788,
      "Ġbarbar": 5789,
      "Ġmagnific": 5790,
      "Ġrestrict": 5791,
      "Ġacknowledge": 5792,
      "Ġimmortal": 5793,
      "Ġpretty": 5794,
      "Ġsymmet": 5795,
      "iant": 5796,
      "rons": 5797,
      "some": 5798,
      "zv": 5799,
      "onents": 5800,
      "Ġhint": 5801,
      "Ġthick": 5802,
      "Ġinver": 5803,
      "Ġdar": 5804,
      "Ġdrew": 5805,
      "Ġnice": 5806,
      "Ġreward": 5807,
      "imation": 5808,
      "iments": 5809,
      "ading": 5810,
      "Ġkuz": 5811,
      "Ġrub": 5812,
      "olit": 5813,
      "Ġabrupt": 5814,
      "Ġjoh": 5815,
      "Ġconsent": 5816,
      "Ġameric": 5817,
      "soever": 5818,
      "Ġattach": 5819,
      "Ġriver": 5820,
      "Ġdetect": 5821,
      "Ġvalu": 5822,
      "Ġeste": 5823,
      "Ġirres": 5824,
      "Ġsensual": 5825,
      "Ġaffair": 5826,
      "Ġruined": 5827,
      "Ġmember": 5828,
      "Ġuttered": 5829,
      "Ġelectromagn": 5830,
      "Ġintroduce": 5831,
      "Ġdeceive": 5832,
      "Ġdisappears": 5833,
      "Ġembankment": 5834,
      "ribly": 5835,
      "Ġflew": 5836,
      "Ġsufferings": 5837,
      "Ġdrunken": 5838,
      "Ġultimately": 5839,
      "Ġimitate": 5840,
      "Ġcontemplation": 5841,
      "Ġconstructed": 5842,
      "Ġgesture": 5843,
      "Ġmixed": 5844,
      "Ġphrase": 5845,
      "Ġobedience": 5846,
      "Ġhunger": 5847,
      "Ġconsiders": 5848,
      "eus": 5849,
      "ias": 5850,
      "ipped": 5851,
      "Ġapt": 5852,
      "Ġarose": 5853,
      "Ġsib": 5854,
      "Ġball": 5855,
      "Ġflying": 5856,
      "Ġfolly": 5857,
      "Ġpaid": 5858,
      "isions": 5859,
      "anes": 5860,
      "Ġluck": 5861,
      "lls": 5862,
      "Ġupper": 5863,
      "orence": 5864,
      "Ġ(\"": 5865,
      "Ġrela": 5866,
      "Ġfactor": 5867,
      "Ġbrand": 5868,
      "Ġthrust": 5869,
      "Ġdistances": 5870,
      "Ġcoar": 5871,
      "ocking": 5872,
      "Ġrival": 5873,
      "Ġflorence": 5874,
      "Ġdeter": 5875,
      "Ġcorrupt": 5876,
      "Ġslavery": 5877,
      "Ġexamined": 5878,
      "Ġinvention": 5879,
      "Ġneglect": 5880,
      "Ġindef": 5881,
      "Ġsignifies": 5882,
      "Ġvirtuous": 5883,
      "Ġjudged": 5884,
      "Ġsentiment": 5885,
      "Ġafford": 5886,
      "Ġassumes": 5887,
      "Ġavo": 5888,
      "Ġlaughter": 5889,
      "Ġjudges": 5890,
      "Ġsinc": 5891,
      "Ġingen": 5892,
      "Ġuniversity": 5893,
      "Ġantiqu": 5894,
      "Ġordin": 5895,
      "Ġorders": 5896,
      "Ġsymbols": 5897,
      "Ġpunished": 5898,
      "Ġvolume": 5899,
      "Ġadvice": 5900,
      "Ġencour": 5901,
      "Ġinvolves": 5902,
      "Ġbearing": 5903,
      "Ġpythag": 5904,
      "Ġviolence": 5905,
      "Ġtranslation": 5906,
      "Ġdelighted": 5907,
      "Ġenjoyment": 5908,
      "Ġvictory": 5909,
      "Ġmountain": 5910,
      "Ġextended": 5911,
      "Ġjoin": 5912,
      "Ġneighbor": 5913,
      "Ġhalluc": 5914,
      "Ġdivers": 5915,
      "Ġgalaxy": 5916,
      "Ġdiscipl": 5917,
      "Ġclothes": 5918,
      "Ġsymptoms": 5919,
      "Ġtherm": 5920,
      "Ġconsolation": 5921,
      "Ġrevenge": 5922,
      "Ġundifferent": 5923,
      "Ġsymmetry": 5924,
      "Ġelectromagnetic": 5925,
      "'-": 5926,
      "?-": 5927,
      "fty": 5928,
      "ker": 5929,
      "law": 5930,
      "uously": 5931,
      "Ġ{": 5932,
      "Ġtur": 5933,
      "Ġtear": 5934,
      "Ġcher": 5935,
      "eng": 5936,
      "Ġfest": 5937,
      "Ġhouses": 5938,
      "Ġpaint": 5939,
      "Ġdimin": 5940,
      "asi": 5941,
      "Ġloses": 5942,
      "Ġreapp": 5943,
      "vey": 5944,
      "ctions": 5945,
      "Ġ\"'": 5946,
      "Ġexert": 5947,
      "Ġexile": 5948,
      "Ġorbits": 5949,
      "Ġseat": 5950,
      "Ġalter": 5951,
      "Ġhasten": 5952,
      "Ġnobody": 5953,
      "Ġlofty": 5954,
      "Ġknife": 5955,
      "Ġexistents": 5956,
      "ception": 5957,
      "Ġdistrust": 5958,
      "Ġblow": 5959,
      "Ġcool": 5960,
      "Ġflung": 5961,
      "Ġoffspring": 5962,
      "Ġrealizing": 5963,
      "Ġconfig": 5964,
      "Ġnorth": 5965,
      "Ġproport": 5966,
      "Ġclean": 5967,
      "Ġreverence": 5968,
      "Ġsettled": 5969,
      "Ġawfully": 5970,
      "Ġvisual": 5971,
      "Ġvisited": 5972,
      "Ġexpecting": 5973,
      "Ġdisposal": 5974,
      "Ġswear": 5975,
      "Ġapprox": 5976,
      "worthy": 5977,
      "Ġdesignated": 5978,
      "Ġincreasing": 5979,
      "Ġinvolunt": 5980,
      "Ġcryst": 5981,
      "Ġgroups": 5982,
      "Ġnewtonian": 5983,
      "Ġoperation": 5984,
      "Ġrevealing": 5985,
      "Ġabandoned": 5986,
      "Ġacquainted": 5987,
      "Ġteaching": 5988,
      "Ġhaunts": 5989,
      "Ġrapidly": 5990,
      "Ġburning": 5991,
      "Ġrevolt": 5992,
      "Ġdamn": 5993,
      "Ġaudience": 5994,
      "Ġinexp": 5995,
      "Ġconversely": 5996,
      "Ġpotentiality": 5997,
      "Ġavoided": 5998,
      "!--": 5999,
      ".).": 6000,
      ":--": 6001,
      "gl": 6002,
      "lance": 6003,
      "uf": 6004,
      "reen": 6005,
      "Ġpushed": 6006,
      "Ġeg": 6007,
      "urs": 6008,
      "Ġproced": 6009,
      "Ġwhoever": 6010,
      "Ġnoise": 6011,
      "Ġpermit": 6012,
      "Ġdesirable": 6013,
      "Ġteeth": 6014,
      "Ġindist": 6015,
      "Ġoverlook": 6016,
      "Ġflowers": 6017,
      "Ġscorn": 6018,
      "Ġsurv": 6019,
      "Ġconfidence": 6020,
      "Ġpropag": 6021,
      "Ġinvitation": 6022,
      "Ġmonster": 6023,
      "Ġ20": 6024,
      "Ġyounger": 6025,
      "Ġrecognise": 6026,
      "Ġevils": 6027,
      "Ġprovince": 6028,
      "Ġargue": 6029,
      "Ġidealism": 6030,
      "Ġtypical": 6031,
      "Ġcastle": 6032,
      "Ġskill": 6033,
      "Ġoccasions": 6034,
      "Ġdegrees": 6035,
      "Ġbuilt": 6036,
      "Ġplanets": 6037,
      "Ġerrors": 6038,
      "Ġfalsehood": 6039,
      "Ġtechnique": 6040,
      "Ġpursued": 6041,
      "Ġtemptation": 6042,
      "Ġdebt": 6043,
      "Ġbuilding": 6044,
      "Ġsuspected": 6045,
      "greek": 6046,
      "Ġsincerity": 6047,
      "\"-": 6048,
      "18": 6049,
      "df": 6050,
      "dream": 6051,
      "part": 6052,
      "zed": 6053,
      "Ġtail": 6054,
      "inter": 6055,
      "atives": 6056,
      "ister": 6057,
      "isible": 6058,
      "Ġinsight": 6059,
      "Ġinhab": 6060,
      "Ġdangers": 6061,
      "omb": 6062,
      "othed": 6063,
      "Ġlust": 6064,
      "Ġlac": 6065,
      "Ġstol": 6066,
      "Ġorient": 6067,
      "thus": 6068,
      "Ġrising": 6069,
      "Ġsho": 6070,
      "Ġchamp": 6071,
      "Ġunb": 6072,
      "Ġwhatsoever": 6073,
      "allen": 6074,
      "Ġappet": 6075,
      "Ġdisregard": 6076,
      "Ġenlight": 6077,
      "Ġcomprom": 6078,
      "Ġphase": 6079,
      "Ġfeast": 6080,
      "Ġstranger": 6081,
      "Ġbrave": 6082,
      "Ġimman": 6083,
      "uctions": 6084,
      "Ġattribute": 6085,
      "Ġroyal": 6086,
      "Ġoffers": 6087,
      "Ġscattered": 6088,
      "Ġexplains": 6089,
      "Ġsensitive": 6090,
      "Ġconcerns": 6091,
      "Ġbadly": 6092,
      "Ġmisery": 6093,
      "Ġsins": 6094,
      "Ġzero": 6095,
      "iques": 6096,
      "Ġmasters": 6097,
      "Ġcritic": 6098,
      "Ġembar": 6099,
      "Ġcitizen": 6100,
      "ributes": 6101,
      "Ġliterally": 6102,
      "Ġpredicted": 6103,
      "Ġincomple": 6104,
      "sonov": 6105,
      "Ġlux": 6106,
      "Ġdreadful": 6107,
      "Ġsamsonov": 6108,
      "Ġlawyer": 6109,
      "Ġpostulate": 6110,
      "Ġrhythm": 6111,
      "Ġplenitude": 6112,
      "Ġlucca": 6113,
      "Ġhenceforth": 6114,
      "?--": 6115,
      "chen": 6116,
      "course": 6117,
      "eous": 6118,
      "non": 6119,
      "Ġtight": 6120,
      "Ġcartes": 6121,
      "Ġmood": 6122,
      "Ġfro": 6123,
      "Ġpis": 6124,
      "Ġpdf": 6125,
      "orality": 6126,
      "Ġecon": 6127,
      "Ġstick": 6128,
      "Ġsteal": 6129,
      "Ġray": 6130,
      "Ġcha": 6131,
      "Ġcomical": 6132,
      "Ġvul": 6133,
      "Ġunto": 6134,
      "Ġtimid": 6135,
      "Ġposits": 6136,
      "Ġinduced": 6137,
      "Ġshoulders": 6138,
      "Ġmadness": 6139,
      "Ġparticip": 6140,
      "Ġassimil": 6141,
      "Ġwrites": 6142,
      "Ġconcent": 6143,
      "Ġexpressions": 6144,
      "Ġtermed": 6145,
      "Ġdetermining": 6146,
      "Ġdecay": 6147,
      "parable": 6148,
      "Ġ22": 6149,
      "Ġstudied": 6150,
      "Ġoccurrence": 6151,
      "Ġruns": 6152,
      "Ġpractically": 6153,
      "Ġmanifold": 6154,
      "Ġunconsciously": 6155,
      "Ġscientist": 6156,
      "Ġmanifested": 6157,
      "Ġproceeds": 6158,
      "Ġdisappeared": 6159,
      "Ġintelligent": 6160,
      "withstanding": 6161,
      "Ġprofoundly": 6162,
      "Ġmiles": 6163,
      "Ġrejected": 6164,
      "Ġnuclear": 6165,
      "Ġquietly": 6166,
      "Ġcalculation": 6167,
      "Ġreported": 6168,
      "Ġconfronted": 6169,
      "Ġphysiological": 6170,
      "Ġsplendid": 6171,
      "Ġdinner": 6172,
      "Ġpetersburg": 6173,
      "Ġunwilling": 6174,
      "zvon": 6175,
      "Ġembarrass": 6176,
      "aft": 6177,
      "car": 6178,
      "house": 6179,
      "would": 6180,
      "Ġvers": 6181,
      "rep": 6182,
      "Ġcard": 6183,
      "Ġmart": 6184,
      "Ġfried": 6185,
      "Ġhosp": 6186,
      "Ġpit": 6187,
      "Ġpest": 6188,
      "iture": 6189,
      "anced": 6190,
      "Ġnay": 6191,
      "Ġasse": 6192,
      "Ġconject": 6193,
      "Ġstead": 6194,
      "Ġmelt": 6195,
      "Ġalg": 6196,
      "Ġvivid": 6197,
      "Ġunite": 6198,
      "Ġtrained": 6199,
      "Ġsomatic": 6200,
      "Ġrelief": 6201,
      "Ġcompos": 6202,
      "Ġprem": 6203,
      "Ġpover": 6204,
      "Ġreferring": 6205,
      "Ġremove": 6206,
      "Ġobjections": 6207,
      "Ġaccident": 6208,
      "Ġinstances": 6209,
      "odynam": 6210,
      "Ġboast": 6211,
      "Ġentering": 6212,
      "Ġrealization": 6213,
      "Ġappearing": 6214,
      "Ġelev": 6215,
      "Ġuncle": 6216,
      "Ġstandard": 6217,
      "oubtedly": 6218,
      "Ġanalys": 6219,
      "liest": 6220,
      "Ġcentre": 6221,
      "Ġheads": 6222,
      "Ġconcluded": 6223,
      "Ġsilver": 6224,
      "Ġreceives": 6225,
      "Ġinfluences": 6226,
      "Ġdisposed": 6227,
      "Ġdisposition": 6228,
      "000": 6229,
      "Ġbuff": 6230,
      "Ġincreased": 6231,
      "Ġcombination": 6232,
      "Ġrenders": 6233,
      "Ġmiracle": 6234,
      "Ġcontemporaries": 6235,
      "Ġreplace": 6236,
      "Ġastonishment": 6237,
      "Ġachieved": 6238,
      "Ġcompanions": 6239,
      "Ġborrowed": 6240,
      "Ġinevitable": 6241,
      "Ġwidow": 6242,
      "Ġabsorbed": 6243,
      "Ġdecisive": 6244,
      "Ġinvalid": 6245,
      "Ġsuperficial": 6246,
      "Ġcartesian": 6247,
      "born": 6248,
      "fast": 6249,
      "ik": 6250,
      "Ġtip": 6251,
      "Ġamp": 6252,
      "Ġol": 6253,
      "Ġske": 6254,
      "athered": 6255,
      "Ġmale": 6256,
      "Ġmaid": 6257,
      "Ġfant": 6258,
      "itating": 6259,
      "Ġinse": 6260,
      "Ġdate": 6261,
      "Ġbehave": 6262,
      "Ġheisen": 6263,
      "Ġreass": 6264,
      "Ġgathered": 6265,
      "Ġnotwithstanding": 6266,
      "Ġconform": 6267,
      "Ġwear": 6268,
      "Ġwearing": 6269,
      "amb": 6270,
      "cho": 6271,
      "Ġrain": 6272,
      "Ġvac": 6273,
      "Ġtroubles": 6274,
      "Ġmanager": 6275,
      "Ġlect": 6276,
      "Ġleap": 6277,
      "Ġliked": 6278,
      "Ġpositing": 6279,
      "izable": 6280,
      "Ġimpl": 6281,
      "Ġimplied": 6282,
      "Ġundoubtedly": 6283,
      "idel": 6284,
      "these": 6285,
      "Ġcloser": 6286,
      "Ġsubm": 6287,
      "ucid": 6288,
      "Ġrecovered": 6289,
      "ountered": 6290,
      "Ġconfined": 6291,
      "Ġcorruption": 6292,
      "Ġclearer": 6293,
      "Ġcompleted": 6294,
      "Ġelucid": 6295,
      "Ġinsol": 6296,
      "Ġfruit": 6297,
      "ergy": 6298,
      "Ġvirtual": 6299,
      "Ġsituations": 6300,
      "Ġtale": 6301,
      "Ġplatonic": 6302,
      "Ġsupreme": 6303,
      "Ġshortly": 6304,
      "Ġgrounds": 6305,
      "Ġimpressed": 6306,
      "Ġcountries": 6307,
      "Ġuntr": 6308,
      "Ġvii": 6309,
      "Ġeducated": 6310,
      "Ġdespise": 6311,
      "Ġexplanations": 6312,
      "Ġarrival": 6313,
      "Ġencountered": 6314,
      "Ġtorture": 6315,
      "Ġgermans": 6316,
      "Ġformerly": 6317,
      "Ġsuggestion": 6318,
      "Ġunfold": 6319,
      "Ġheavenly": 6320,
      "bler": 6321,
      "Ġhiding": 6322,
      "Ġhonours": 6323,
      "Ġoccupation": 6324,
      "Ġmaury": 6325,
      "Ġindependence": 6326,
      "Ġvictor": 6327,
      "Ġirreg": 6328,
      "Ġnarr": 6329,
      "Ġisolation": 6330,
      "Ġaccuracy": 6331,
      "Ġrefusal": 6332,
      "Ġcoincidence": 6333,
      "Ġcolleague": 6334,
      "Ġweeping": 6335,
      "Ġinkwell": 6336,
      "Ġperspective": 6337,
      "Ġriches": 6338,
      "Ġmolecule": 6339,
      "Ġjohn": 6340,
      "Ġpythagore": 6341,
      "Ġpoverty": 6342,
      "aff": 6343,
      "eff": 6344,
      "give": 6345,
      "tw": 6346,
      "Â°": 6347,
      "Ġtong": 6348,
      "Ġwretched": 6349,
      "inine": 6350,
      "inating": 6351,
      "inisc": 6352,
      "Ġber": 6353,
      "only": 6354,
      "Ġfence": 6355,
      "Ġdull": 6356,
      "Ġital": 6357,
      "road": 6358,
      "Ġseize": 6359,
      "Ġrand": 6360,
      "olo": 6361,
      "Ġspo": 6362,
      "Ġknocked": 6363,
      "Ġquasi": 6364,
      "Ġdisfig": 6365,
      "Ġgrows": 6366,
      "Ġindirect": 6367,
      "Ġworldly": 6368,
      "Ġintercourse": 6369,
      "Ġscri": 6370,
      "Ġdefect": 6371,
      "Ġcommit": 6372,
      "Ġinvented": 6373,
      "Ġdescribes": 6374,
      "ĠĠĠĠĠĠĠĠĠĠĠĠ": 6375,
      "Ġ27": 6376,
      "Ġcolour": 6377,
      "Ġtriv": 6378,
      "Ġrequest": 6379,
      "Ġestablishing": 6380,
      "Ġcurrent": 6381,
      "Ġdenies": 6382,
      "Ġcele": 6383,
      "Ġfundament": 6384,
      "Ġindication": 6385,
      "Ġpleasant": 6386,
      "Ġcontradictory": 6387,
      "Ġpredictions": 6388,
      "Ġgrowth": 6389,
      "necess": 6390,
      "Ġsurrounded": 6391,
      "Ġfighting": 6392,
      "Ġanalogous": 6393,
      "Ġtempted": 6394,
      "Ġpolem": 6395,
      "Ġrefuses": 6396,
      "Ġspontaneity": 6397,
      "Ġinsulted": 6398,
      "Ġimprove": 6399,
      "Ġachieve": 6400,
      "Ġobstacle": 6401,
      "Ġtrifon": 6402,
      "Ġcomputer": 6403,
      "Ġjuan": 6404,
      "Ġdisagreeable": 6405,
      "Ġenterprise": 6406,
      "Ġreciprocal": 6407,
      "Ġintentions": 6408,
      "transcend": 6409,
      "Ġninete": 6410,
      "Ġirreducible": 6411,
      "Ġcoarse": 6412,
      "Ġthermodynam": 6413,
      "Ġprocedure": 6414,
      "Ġirregular": 6415,
      "Ġrandom": 6416,
      "';": 6417,
      "12": 6418,
      "hot": 6419,
      "list": 6420,
      "rid": 6421,
      "Ġtiny": 6422,
      "rey": 6423,
      "rend": 6424,
      "Ġsar": 6425,
      "Ġbowed": 6426,
      "Ġcere": 6427,
      "Ġcries": 6428,
      "Ġmary": 6429,
      "Ġhuge": 6430,
      "Ġpush": 6431,
      "itor": 6432,
      "itchen": 6433,
      "arant": 6434,
      "Ġrevers": 6435,
      "Ġgh": 6436,
      "Ġexal": 6437,
      "Ġsel": 6438,
      "ppolit": 6439,
      "Ġchast": 6440,
      "Ġhadn": 6441,
      "Ġperplex": 6442,
      "Ġupset": 6443,
      "keep": 6444,
      "Ġplur": 6445,
      "Ġactor": 6446,
      "Ġrefr": 6447,
      "Ġremn": 6448,
      "Ġremov": 6449,
      "Ġjustification": 6450,
      "Ġresignation": 6451,
      "Ġclocks": 6452,
      "Ġgoods": 6453,
      "Ġrecourse": 6454,
      "Ġinterior": 6455,
      "Ġended": 6456,
      "Ġinferiority": 6457,
      "Ġsmiling": 6458,
      "Ġflower": 6459,
      "Ġfoundations": 6460,
      "Ġdefines": 6461,
      "ifications": 6462,
      "Ġnegat": 6463,
      "Ġvalidity": 6464,
      "Ġcafe": 6465,
      "Ġhistories": 6466,
      "Ġpursue": 6467,
      "Ġsignify": 6468,
      "Ġtranscends": 6469,
      "Ġtranscended": 6470,
      "Ġ23": 6471,
      "Ġcausing": 6472,
      "Ġrepresenting": 6473,
      "Ġhelped": 6474,
      "Ġcreatures": 6475,
      "Ġadmire": 6476,
      "Ġengagement": 6477,
      "Ġwondered": 6478,
      "Ġexplaining": 6479,
      "Ġmedical": 6480,
      "Ġfails": 6481,
      "Ġfunctions": 6482,
      "Ġplanck": 6483,
      "Ġbirds": 6484,
      "Ġdeeper": 6485,
      "Ġquarks": 6486,
      "Ġsupported": 6487,
      "Ġlabour": 6488,
      "Ġtechniques": 6489,
      "Ġhealthy": 6490,
      "Ġregularly": 6491,
      "Ġbiological": 6492,
      "Ġdemonstrated": 6493,
      "Ġpersuade": 6494,
      "Ġmeasures": 6495,
      "Ġsoftly": 6496,
      "Ġfaculties": 6497,
      "aeus": 6498,
      "Ġgifts": 6499,
      "Ġcommunication": 6500,
      "Ġintermediate": 6501,
      "natural": 6502,
      "Ġspatial": 6503,
      "Ġperezvon": 6504,
      "Ġvillage": 6505,
      "Ġinformed": 6506,
      "Ġheisenberg": 6507,
      "Ġcelebr": 6508,
      "_-": 6509,
      "col": 6510,
      "cons": 6511,
      "mend": 6512,
      "night": 6513,
      "niz": 6514,
      "tically": 6515,
      "zy": 6516,
      "Ġtive": 6517,
      "Ġtcher": 6518,
      "Ġtwel": 6519,
      "Ġippolit": 6520,
      "Ġopt": 6521,
      "Ġwives": 6522,
      "ini": 6523,
      "inous": 6524,
      "Ġble": 6525,
      "Ġbore": 6526,
      "enic": 6527,
      "Ġhunt": 6528,
      "Ġthro": 6529,
      "Ġpal": 6530,
      "Ġdust": 6531,
      "ashing": 6532,
      "Ġease": 6533,
      "ott": 6534,
      "Ġhears": 6535,
      "Ġgather": 6536,
      "Ġasp": 6537,
      "Ġkaf": 6538,
      "Ġkitchen": 6539,
      "Ġshr": 6540,
      "Ġunion": 6541,
      "Ġabol": 6542,
      "Ġsport": 6543,
      "Ġleib": 6544,
      "Ġlegend": 6545,
      "ardon": 6546,
      "sip": 6547,
      "Ġtele": 6548,
      "Ġindignation": 6549,
      "aved": 6550,
      "Ġacted": 6551,
      "Ġadap": 6552,
      "ensable": 6553,
      "Ġreminisc": 6554,
      "Ġdistribution": 6555,
      "ignant": 6556,
      "ignific": 6557,
      "Ġdiscont": 6558,
      "Ġscreen": 6559,
      "because": 6560,
      "Ġproposed": 6561,
      "Ġproposal": 6562,
      "rafen": 6563,
      "Ġretain": 6564,
      "Ġprojection": 6565,
      "Ġfrank": 6566,
      "Ġsignal": 6567,
      "Ġclearness": 6568,
      "Ġdoubts": 6569,
      "Ġeasier": 6570,
      "ibility": 6571,
      "Ġstrongest": 6572,
      "iah": 6573,
      "Ġbreaking": 6574,
      "Ġoccurring": 6575,
      "Ġreceiving": 6576,
      "Ġlearns": 6577,
      "Ġconstituting": 6578,
      "Ġobjectively": 6579,
      "Ġraising": 6580,
      "Ġverb": 6581,
      "Ġinvolve": 6582,
      "ĠĠĠĠĠĠĠĠĠĠĠĠĠĠĠĠĠĠĠĠ": 6583,
      "Ġquarter": 6584,
      "Ġliterary": 6585,
      "Ġprayer": 6586,
      "Ġarranged": 6587,
      "Ġoperations": 6588,
      "Ġassumptions": 6589,
      "Ġwonderful": 6590,
      "Ġpressure": 6591,
      "Ġfeminine": 6592,
      "Ġinnocence": 6593,
      "Ġastonished": 6594,
      "Ġplainly": 6595,
      "Ġpreparation": 6596,
      "Ġaxi": 6597,
      "Ġmelanch": 6598,
      "Ġpronounced": 6599,
      "Ġbeneath": 6600,
      "kerchief": 6601,
      "Ġstolen": 6602,
      "Ġvulgar": 6603,
      "Ġplurality": 6604,
      "Ġtwelve": 6605,
      "Ġkafka": 6606,
      "Ġleibniz": 6607,
      "48": 6608,
      "bre": 6609,
      "mind": 6610,
      "matic": 6611,
      "ĠÎ": 6612,
      "reality": 6613,
      "Ġhung": 6614,
      "Ġpack": 6615,
      "Ġtoler": 6616,
      "ication": 6617,
      "arian": 6618,
      "Ġles": 6619,
      "Ġrewards": 6620,
      "Ġstories": 6621,
      "Ġexchange": 6622,
      "Ġwaste": 6623,
      "illovitch": 6624,
      "throp": 6625,
      "Ġship": 6626,
      "Ġchallen": 6627,
      "Ġprocl": 6628,
      "Ġmanners": 6629,
      "Ġconsult": 6630,
      "Ġprice": 6631,
      "Ġstrain": 6632,
      "Ġresort": 6633,
      "Ġafhr": 6634,
      "Ġrecovery": 6635,
      "Ġhandkerchief": 6636,
      "Ġcharm": 6637,
      "Ġsuppress": 6638,
      "ipe": 6639,
      "Ġguarant": 6640,
      "Ġ25": 6641,
      "gram": 6642,
      "Ġregarding": 6643,
      "Ġrespected": 6644,
      "Ġlatent": 6645,
      "Ġaffects": 6646,
      "Ġdespised": 6647,
      "Ġverse": 6648,
      "Ġsne": 6649,
      "Ġincreases": 6650,
      "Ġfrequent": 6651,
      "Ġinquis": 6652,
      "Ġvisitor": 6653,
      "Ġmultitude": 6654,
      "Ġenvy": 6655,
      "Ġrendered": 6656,
      "Ġblessing": 6657,
      "Ġbetrothed": 6658,
      "Ġattracted": 6659,
      "Ġadopted": 6660,
      "Ġteachers": 6661,
      "Ġcoincide": 6662,
      "Ġdisturbance": 6663,
      "Ġnurse": 6664,
      "ĠÃ¦st": 6665,
      "Ġkirillovitch": 6666,
      "Ġindispensable": 6667,
      "Ġdischarge": 6668,
      "Ġindefinite": 6669,
      "Ġundifferentiated": 6670,
      "Ġpestle": 6671,
      "idelity": 6672,
      "Ġfundamentally": 6673,
      "rafena": 6674,
      "11": 6675,
      "cst": 6676,
      "five": 6677,
      "gories": 6678,
      "hist": 6679,
      "last": 6680,
      "name": 6681,
      "real": 6682,
      "att": 6683,
      "Ġcart": 6684,
      "Ġcode": 6685,
      "Ġfier": 6686,
      "Ġthread": 6687,
      "Ġpages": 6688,
      "Ġinject": 6689,
      "eding": 6690,
      "inging": 6691,
      "Ġdry": 6692,
      "ales": 6693,
      "Ġgas": 6694,
      "ulous": 6695,
      "think": 6696,
      "Ġshri": 6697,
      "Ġprohib": 6698,
      "Ġvir": 6699,
      "Ġvices": 6700,
      "antial": 6701,
      "Ġpercip": 6702,
      "Ġgoethe": 6703,
      "Ġard": 6704,
      "Ġprud": 6705,
      "Ġcomposition": 6706,
      "Ġeveryone": 6707,
      "Ġactivities": 6708,
      "abs": 6709,
      "aching": 6710,
      "arest": 6711,
      "iousness": 6712,
      "ordial": 6713,
      "Ġpointing": 6714,
      "Ġpassages": 6715,
      "Ġassure": 6716,
      "Ġseeming": 6717,
      "Ġcharged": 6718,
      "Ġentrance": 6719,
      "Ġcrimes": 6720,
      "Ġgenerous": 6721,
      "Ġsuffice": 6722,
      "Ġobserving": 6723,
      "Ġinsignific": 6724,
      "Ġadds": 6725,
      "Ġaddressed": 6726,
      "Ġsettle": 6727,
      "Ġcontinues": 6728,
      "Ġsmallest": 6729,
      "Ġearthly": 6730,
      "Ġprofit": 6731,
      "Ġcentral": 6732,
      "Ġsooner": 6733,
      "Ġwavel": 6734,
      "Ġincluded": 6735,
      "Ġdraws": 6736,
      "Ġprompt": 6737,
      "Ġmutation": 6738,
      "Ġdetailed": 6739,
      "Ġfurnishes": 6740,
      "Ġseriousness": 6741,
      "Ġtranslated": 6742,
      "Ġbreaks": 6743,
      "Ġdefinitely": 6744,
      "Ġrequirements": 6745,
      "Ġbottle": 6746,
      "Ġawakened": 6747,
      "Ġaccurate": 6748,
      "Ġspontaneous": 6749,
      "Ġavailable": 6750,
      "Ġforbidden": 6751,
      "Ġconfirmation": 6752,
      "Ġassuredly": 6753,
      "Ġgloomy": 6754,
      "Ġaccidental": 6755,
      "Ġcrazy": 6756,
      "Ġtongue": 6757,
      "Ġmelancholy": 6758,
      "cest": 6759,
      "free": 6760,
      "mash": 6761,
      "nya": 6762,
      "oe": 6763,
      "sa": 6764,
      "somet": 6765,
      "yet": 6766,
      "Ġtum": 6767,
      "Ġpag": 6768,
      "itance": 6769,
      "Ġecst": 6770,
      "omach": 6771,
      "Ġlou": 6772,
      "Ġreaches": 6773,
      "aming": 6774,
      "Ġstomach": 6775,
      "Ġexe": 6776,
      "rium": 6777,
      "estr": 6778,
      "estion": 6779,
      "Ġlend": 6780,
      "Ġevolution": 6781,
      "Ġquot": 6782,
      "Ġarith": 6783,
      "Ġarter": 6784,
      "Ġplot": 6785,
      "Ġanywhere": 6786,
      "Ġanybody": 6787,
      "ptions": 6788,
      "Ġrelates": 6789,
      "Ġtea": 6790,
      "tell": 6791,
      "about": 6792,
      "Ġrefuge": 6793,
      "erman": 6794,
      "eless": 6795,
      "Ġsmell": 6796,
      "Ġbegged": 6797,
      "ocles": 6798,
      "Ġdifferences": 6799,
      "Ġscher": 6800,
      "Ġscand": 6801,
      "Ġcrushed": 6802,
      "licable": 6803,
      "Ġconfers": 6804,
      "Ġarticle": 6805,
      "Ġequil": 6806,
      "Ġchristians": 6807,
      "Ġconceivable": 6808,
      "Ġpossessing": 6809,
      "Ġaccordingly": 6810,
      "Ġproduct": 6811,
      "issovitch": 6812,
      "Ġemerg": 6813,
      "Ġidi": 6814,
      "Ġdelir": 6815,
      "Ġexciting": 6816,
      "Ġconstitutive": 6817,
      "Ġdespite": 6818,
      "Ġantagon": 6819,
      "Ġmanifestations": 6820,
      "Ġmerchant": 6821,
      "Ġtorn": 6822,
      "Ġsuggests": 6823,
      "Ġtestament": 6824,
      "Ġcollaps": 6825,
      "Ġduality": 6826,
      "coming": 6827,
      "Ġyellow": 6828,
      "Ġfifty": 6829,
      "Ġbetray": 6830,
      "Ġattractive": 6831,
      "reflecting": 6832,
      "Ġutilize": 6833,
      "Ġmagic": 6834,
      "Ġhaunted": 6835,
      "Ġcategories": 6836,
      "Ġsavage": 6837,
      "Ġlawyers": 6838,
      "Ġalexandrovitch": 6839,
      "Ġalexandrovna": 6840,
      "Ġprivileged": 6841,
      "Ġnobility": 6842,
      "Ġensl": 6843,
      "Ġunfortunate": 6844,
      "Ġexclusively": 6845,
      "Ġborissovitch": 6846,
      "Ġadvanced": 6847,
      "Ġinapprehensible": 6848,
      "Ġexalted": 6849,
      "Ġtchermash": 6850,
      "Ġtchermashnya": 6851,
      "!...": 6852,
      ".),": 6853,
      "ait": 6854,
      "iance": 6855,
      "mod": 6856,
      "ny": 6857,
      "oqu": 6858,
      "past": 6859,
      "since": 6860,
      "hent": 6861,
      "ino": 6862,
      "Ġcub": 6863,
      "Ġmit": 6864,
      "Ġming": 6865,
      "Ġhill": 6866,
      "orter": 6867,
      "Ġnast": 6868,
      "icks": 6869,
      "Ġbew": 6870,
      "aling": 6871,
      "Ġhen": 6872,
      "Ġonto": 6873,
      "ldom": 6874,
      "Ġstairs": 6875,
      "Ġseldom": 6876,
      "cied": 6877,
      "three": 6878,
      "Ġroughly": 6879,
      "Ġshan": 6880,
      "Ġtraced": 6881,
      "Ġmanaged": 6882,
      "Ġlik": 6883,
      "Ġenables": 6884,
      "Ġagrafena": 6885,
      "Ġimplic": 6886,
      "Ġrepent": 6887,
      "Ġstrings": 6888,
      "abled": 6889,
      "Ġforming": 6890,
      "interest": 6891,
      "Ġthrows": 6892,
      "Ġthrowing": 6893,
      "owned": 6894,
      "Ġletting": 6895,
      "Ġoffering": 6896,
      "Ġearliest": 6897,
      "Ġfaire": 6898,
      "Ġsecurity": 6899,
      "Ġcriter": 6900,
      "Ġsubjected": 6901,
      "Ġinvar": 6902,
      "Ġinsuff": 6903,
      "Ġguide": 6904,
      "Ġoppressed": 6905,
      "Ġfriendly": 6906,
      "Ġsituated": 6907,
      "Ġpoles": 6908,
      "archus": 6909,
      "Ġsilly": 6910,
      "Ġdevotion": 6911,
      "Ġimpossibility": 6912,
      "Ġreturning": 6913,
      "Ġdenying": 6914,
      "Ġbrilli": 6915,
      "Ġceases": 6916,
      "Ġruled": 6917,
      "Ġstatesman": 6918,
      "asphem": 6919,
      "Ġ50": 6920,
      "Ġgrie": 6921,
      "Ġscientists": 6922,
      "Ġsymbolism": 6923,
      "Ġproceeding": 6924,
      "Ġelectric": 6925,
      "Ġstreng": 6926,
      "Ġmistress": 6927,
      "Ġfancied": 6928,
      "Ġemotional": 6929,
      "Ġinvestigating": 6930,
      "Ġemptiness": 6931,
      "Ġdiseases": 6932,
      "Ġbetrayed": 6933,
      "Ġmesser": 6934,
      "Ġtransferred": 6935,
      "Ġfragments": 6936,
      "Ġinspired": 6937,
      "Ġwhispered": 6938,
      "Ġoligarchy": 6939,
      "Ġdeliberately": 6940,
      "Ġdeserve": 6941,
      "Ġvariations": 6942,
      "Ġpillow": 6943,
      "Ġacknowledged": 6944,
      "Ġhereditary": 6945,
      "Ġnaive": 6946,
      "Ġliquid": 6947,
      "Ġinconce": 6948,
      "Ġsatisfactory": 6949,
      "Ġsiberia": 6950,
      "Ġordinarily": 6951,
      "Ġconfiguration": 6952,
      "Ġimmanence": 6953,
      "Ġincomplete": 6954,
      "Ġpisa": 6955,
      "Ġassemb": 6956,
      "Ġbuffoon": 6957,
      "Ġtrivial": 6958,
      "Ġnineteenth": 6959,
      "Ġwavelength": 6960,
      "Ġcriterion": 6961,
      "book": 6962,
      "lar": 6963,
      "pass": 6964,
      "held": 6965,
      "Ġbag": 6966,
      "Ġfaster": 6967,
      "Ġpul": 6968,
      "Ġpup": 6969,
      "Ġinhib": 6970,
      "anity": 6971,
      "Ġecho": 6972,
      "Ġgro": 6973,
      "Ġwet": 6974,
      "Ġweeks": 6975,
      "rol": 6976,
      "iles": 6977,
      "uses": 6978,
      "Ġrises": 6979,
      "Ġshaking": 6980,
      "Ġproc": 6981,
      "Ġdost": 6982,
      "Ġunit": 6983,
      "Ġtrack": 6984,
      "Ġspare": 6985,
      "Ġupwards": 6986,
      "Ġamuse": 6987,
      "Ġplant": 6988,
      "Ġplun": 6989,
      "pture": 6990,
      "Ġfee": 6991,
      "Ġprecept": 6992,
      "Ġadapt": 6993,
      "Ġreform": 6994,
      "Ġresign": 6995,
      "Ġbrown": 6996,
      "Ġaccum": 6997,
      "Ġinterval": 6998,
      "Ġfreud": 6999,
      "Ġpsyche": 7000,
      "Ġoffend": 7001,
      "forms": 7002,
      "Ġenters": 7003,
      "Ġrighteous": 7004,
      "Ġsenseless": 7005,
      "Ġmeaningful": 7006,
      "Ġsuffers": 7007,
      "Ġreflections": 7008,
      "Ġmotions": 7009,
      "Ġextension": 7010,
      "herence": 7011,
      "Ġtemple": 7012,
      "Ġprojected": 7013,
      "Ġlimiting": 7014,
      "Ġlesser": 7015,
      "Ġ24": 7016,
      "Ġcausal": 7017,
      "Ġrespects": 7018,
      "Ġrepresentations": 7019,
      "Ġsentiments": 7020,
      "Ġrooms": 7021,
      "ibrium": 7022,
      "Ġcurse": 7023,
      "Ġexceptional": 7024,
      "Ġmurm": 7025,
      "Ġinfluenced": 7026,
      "Ġmeasurements": 7027,
      "Ġdesperate": 7028,
      "Ġtends": 7029,
      "Ġskin": 7030,
      "Ġbriefly": 7031,
      "Ġterribly": 7032,
      "Ġperceptions": 7033,
      "Ġhyd": 7034,
      "Ġtrees": 7035,
      "Ġspeeches": 7036,
      "Ġdesignate": 7037,
      "Ġdomain": 7038,
      "Ġfrequency": 7039,
      "Ġattacked": 7040,
      "Ġrecalls": 7041,
      "Ġfulfill": 7042,
      "Ġcombined": 7043,
      "Ġstreets": 7044,
      "Ġcrossed": 7045,
      "Ġshouting": 7046,
      "Ġgeometrical": 7047,
      "Ġexcellence": 7048,
      "Ġdemanded": 7049,
      "Ġrecollect": 7050,
      "Ġbenefit": 7051,
      "rogen": 7052,
      "Ġrelease": 7053,
      "Ġreleased": 7054,
      "Ġundertake": 7055,
      "Ġthorough": 7056,
      "Ġdepths": 7057,
      "Ġdropped": 7058,
      "Ġastronom": 7059,
      "Ġgalileo": 7060,
      "Ġgalileian": 7061,
      "Ġassigned": 7062,
      "Ġincorrect": 7063,
      "Ġincarnation": 7064,
      "Ġsprings": 7065,
      "Ġalternative": 7066,
      "Ġenquiry": 7067,
      "Ġtitle": 7068,
      "Ġpotentialities": 7069,
      "Ġratio": 7070,
      "Ġindistinct": 7071,
      "Ġinhabit": 7072,
      "Ġalgiers": 7073,
      "Ġpolemarchus": 7074,
      "Ġmarya": 7075,
      "Ġscherner": 7076,
      "iat": 7077,
      "lin": 7078,
      "mount": 7079,
      "pent": 7080,
      "rated": 7081,
      "ta": 7082,
      "uation": 7083,
      "whe": 7084,
      "war": 7085,
      "ĠÏ": 7086,
      "Ġtension": 7087,
      "Ġix": 7088,
      "Ġwake": 7089,
      "Ġbath": 7090,
      "Ġmi": 7091,
      "Ġpour": 7092,
      "Ġpair": 7093,
      "itative": 7094,
      "itals": 7095,
      "issible": 7096,
      "Ġandrey": 7097,
      "Ġnational": 7098,
      "Ġecc": 7099,
      "steria": 7100,
      "Ġgosp": 7101,
      "amet": 7102,
      "Ġsuit": 7103,
      "cile": 7104,
      "Ġrage": 7105,
      "Ġshirt": 7106,
      "Ġvary": 7107,
      "Ġunple": 7108,
      "Ġintens": 7109,
      "oph": 7110,
      "Ġdreamt": 7111,
      "apont": 7112,
      "Ġambit": 7113,
      "Ġhermit": 7114,
      "Ġoutset": 7115,
      "Ġimposed": 7116,
      "Ġfeared": 7117,
      "Ġnowhere": 7118,
      "Ġfactors": 7119,
      "Ġpoem": 7120,
      "Ġclergy": 7121,
      "Ġnative": 7122,
      "Ġblasphem": 7123,
      "Ġnewsp": 7124,
      "Ġoffended": 7125,
      "Ġdiscon": 7126,
      "Ġmodified": 7127,
      "Ġmighty": 7128,
      "Ġquestioned": 7129,
      "Ġneglected": 7130,
      "Ġfinitude": 7131,
      "Ġartific": 7132,
      "Ġequality": 7133,
      "Ġ26": 7134,
      "Ġforehead": 7135,
      "Ġdoubtful": 7136,
      "Ġpatience": 7137,
      "Ġapprehending": 7138,
      "Ġ30": 7139,
      "Ġhousehold": 7140,
      "Ġdevoid": 7141,
      "Ġprovidence": 7142,
      "rosc": 7143,
      "Ġsexuality": 7144,
      "Ġstrangely": 7145,
      "going": 7146,
      "Ġsuccessive": 7147,
      "Ġmathematic": 7148,
      "Ġstrike": 7149,
      "Ġmutations": 7150,
      "Ġmutual": 7151,
      "Ġhysteria": 7152,
      "Ġdisappoint": 7153,
      "Ġasserts": 7154,
      "Ġburied": 7155,
      "Ġdogs": 7156,
      "Ġbench": 7157,
      "Ġconfessed": 7158,
      "Ġpressed": 7159,
      "Ġlifet": 7160,
      "Ġreminded": 7161,
      "Ġpenetrate": 7162,
      "Ġgift": 7163,
      "Ġferapont": 7164,
      "Ġdrove": 7165,
      "Ġdigital": 7166,
      "Ġinstitution": 7167,
      "Ġmortal": 7168,
      "Ġjews": 7169,
      "Ġincomprehensible": 7170,
      "Ġdata": 7171,
      "Ġdismiss": 7172,
      "Ġugly": 7173,
      "Ġdiscipline": 7174,
      "Ġequilibrium": 7175,
      "Ġlikeness": 7176,
      "Ġbrilliant": 7177,
      "Ġunpleas": 7178,
      "Ġambitious": 7179,
      "Ġnewspap": 7180,
      "oys": 7181,
      "pher": 7182,
      "sm": 7183,
      "Ġ?": 7184,
      "Ġting": 7185,
      "Ġwars": 7186,
      "inable": 7187,
      "Ġbul": 7188,
      "Ġbac": 7189,
      "Ġberg": 7190,
      "erated": 7191,
      "oric": 7192,
      "Ġnine": 7193,
      "Ġyard": 7194,
      "Ġwel": 7195,
      "Ġstorm": 7196,
      "Ġate": 7197,
      "Ġsund": 7198,
      "Ġkings": 7199,
      "Ġchose": 7200,
      "Ġally": 7201,
      "ateful": 7202,
      "Ġdoors": 7203,
      "Ġvite": 7204,
      "Ġunus": 7205,
      "Ġtrade": 7206,
      "Ġloose": 7207,
      "Ġexpand": 7208,
      "Ġenabled": 7209,
      "def": 7210,
      "Ġrepet": 7211,
      "Ġ100": 7212,
      "hens": 7213,
      "Ġovert": 7214,
      "Ġattent": 7215,
      "Ġbohr": 7216,
      "Ġflows": 7217,
      "Ġentit": 7218,
      "Ġsupply": 7219,
      "Ġlighted": 7220,
      "Ġlightly": 7221,
      "Ġquestioning": 7222,
      "Ġproposition": 7223,
      "Ġpropositions": 7224,
      "Ġoriginate": 7225,
      "orship": 7226,
      "Ġartists": 7227,
      "Ġcaut": 7228,
      "Ġkindly": 7229,
      "Ġpurity": 7230,
      "Ġconceptions": 7231,
      "Ġirony": 7232,
      "Ġ28": 7233,
      "Ġforec": 7234,
      "Ġcommonly": 7235,
      "Ġsuperiority": 7236,
      "Ġprevented": 7237,
      "Ġcept": 7238,
      "Ġinclination": 7239,
      "Ġviii": 7240,
      "Ġmoves": 7241,
      "Ġradio": 7242,
      "Ġconvince": 7243,
      "Ġwarri": 7244,
      "Ġsword": 7245,
      "Ġqualified": 7246,
      "Ġproton": 7247,
      "Ġclaimed": 7248,
      "Ġannoy": 7249,
      "Ġsuperst": 7250,
      "Ġconsisted": 7251,
      "Ġassociated": 7252,
      "Ġcarrying": 7253,
      "Ġhonorable": 7254,
      "Ġsacrifices": 7255,
      "Ġmiracles": 7256,
      "Ġhoped": 7257,
      "Ġheroes": 7258,
      "Ġrestrain": 7259,
      "Ġcontemplate": 7260,
      "coat": 7261,
      "Ġlifted": 7262,
      "Ġmetaphysics": 7263,
      "Ġcivilization": 7264,
      "Ġbeaten": 7265,
      "Ġneutron": 7266,
      "Ġpreparing": 7267,
      "Ġintermediary": 7268,
      "Ġbaby": 7269,
      "Ġdisguise": 7270,
      "Ġrejoice": 7271,
      "Ġelaboration": 7272,
      "Ġcaval": 7273,
      "Ġenthusiasm": 7274,
      "Ġchromosome": 7275,
      "Ġlandscap": 7276,
      "Ġcandle": 7277,
      "ravag": 7278,
      "Ġappointed": 7279,
      "Ġantipart": 7280,
      "two": 7281,
      "\")": 7282,
      "bon": 7283,
      "bable": 7284,
      "een": 7285,
      "gers": 7286,
      "Ġ)": 7287,
      "Ġture": 7288,
      "inence": 7289,
      "Ġbill": 7290,
      "Ġcas": 7291,
      "Ġpardon": 7292,
      "Ġtools": 7293,
      "Ġnail": 7294,
      "Ġbeating": 7295,
      "assi": 7296,
      "Ġegg": 7297,
      "Ġissue": 7298,
      "omes": 7299,
      "utable": 7300,
      "Ġgi": 7301,
      "Ġgently": 7302,
      "imony": 7303,
      "Ġanew": 7304,
      "Ġanec": 7305,
      "Ġweigh": 7306,
      "Ġstages": 7307,
      "etch": 7308,
      "ulated": 7309,
      "Ġsob": 7310,
      "thr": 7311,
      "Ġvon": 7312,
      "Ġunse": 7313,
      "Ġunchanged": 7314,
      "Ġunnatural": 7315,
      "Ġwheel": 7316,
      "Ġlikes": 7317,
      "Ġexpense": 7318,
      "Ġcontaining": 7319,
      "Ġarmed": 7320,
      "Ġmaybe": 7321,
      "Ġshed": 7322,
      "Ġsheep": 7323,
      "unning": 7324,
      "Ġrepulsion": 7325,
      "Ġjustly": 7326,
      "Ġresolute": 7327,
      "Ġbrut": 7328,
      "Ġbridge": 7329,
      "Ġmeanness": 7330,
      "angle": 7331,
      "Ġinference": 7332,
      "Ġblows": 7333,
      "Ġthinker": 7334,
      "Ġdiscrete": 7335,
      "Ġlawful": 7336,
      "Ġwrath": 7337,
      "Ġextravag": 7338,
      "Ġeloqu": 7339,
      "Ġseconds": 7340,
      "grim": 7341,
      "Ġsolips": 7342,
      "Ġrecognizes": 7343,
      "Ġcolors": 7344,
      "Ġforest": 7345,
      "Ġedition": 7346,
      "archy": 7347,
      "Ġnihilates": 7348,
      "Ġcontinuity": 7349,
      "Ġcheck": 7350,
      "Ġstrive": 7351,
      "Ġgermany": 7352,
      "Ġdriving": 7353,
      "Ġmillions": 7354,
      "Ġpreference": 7355,
      "Ġdefinitions": 7356,
      "Ġdiscussions": 7357,
      "Ġtemporalization": 7358,
      "Ġvelocities": 7359,
      "Ġoccupy": 7360,
      "Ġburden": 7361,
      "panie": 7362,
      "Ġpraying": 7363,
      "Ġsixth": 7364,
      "Ġsimultaneous": 7365,
      "Ġdawn": 7366,
      "Ġladen": 7367,
      "looking": 7368,
      "Ġextends": 7369,
      "Ġ150": 7370,
      "Ġmystic": 7371,
      "Ġjoined": 7372,
      "Ġbenefact": 7373,
      "reshold": 7374,
      "Ġwarmly": 7375,
      "Ġcatast": 7376,
      "Ġinfantry": 7377,
      "Ġperformance": 7378,
      "Ġtyrannical": 7379,
      "Ġuneas": 7380,
      "Ġrotating": 7381,
      "Ġsharply": 7382,
      "Ġastronomy": 7383,
      "Ġdegraded": 7384,
      "Ġsubstitute": 7385,
      "Ġimpatience": 7386,
      "Ġreserved": 7387,
      "Ġhanging": 7388,
      "Ġinheritance": 7389,
      "Ġcheerful": 7390,
      "Ġinversion": 7391,
      "Ġhospital": 7392,
      "Ġfantastic": 7393,
      "necessary": 7394,
      "Ġadapted": 7395,
      "Ġproclaim": 7396,
      "ĠÃ¦sthetic": 7397,
      "Ġinconceivable": 7398,
      "whether": 7399,
      "Ġanecd": 7400,
      "29": 7401,
      "first": 7402,
      "fold": 7403,
      "gin": 7404,
      "german": 7405,
      "has": 7406,
      "maker": 7407,
      "por": 7408,
      "psy": 7409,
      "Åĵ": 7410,
      "Ġtall": 7411,
      "Ġtired": 7412,
      "Ġaug": 7413,
      "Ġaux": 7414,
      "Ġwren": 7415,
      "Ġsank": 7416,
      "Ġcamp": 7417,
      "oust": 7418,
      "Ġinherent": 7419,
      "orable": 7420,
      "Ġdict": 7421,
      "aned": 7422,
      "anim": 7423,
      "Ġnause": 7424,
      "Ġnamed": 7425,
      "Ġbell": 7426,
      "otaur": 7427,
      "Ġlion": 7428,
      "Ġrein": 7429,
      "Ġreign": 7430,
      "Ġgay": 7431,
      "christ": 7432,
      "Ġsof": 7433,
      "Ġrough": 7434,
      "Ġchron": 7435,
      "ivated": 7436,
      "Ġcomedy": 7437,
      "Ġprover": 7438,
      "urement": 7439,
      "Ġunreflective": 7440,
      "Ġunworthy": 7441,
      "Ġtrick": 7442,
      "umn": 7443,
      "outside": 7444,
      "Ġliz": 7445,
      "Ġliable": 7446,
      "Ġconser": 7447,
      "Ġappl": 7448,
      "Ġamusing": 7449,
      "Ġplate": 7450,
      "okes": 7451,
      "Ġcompet": 7452,
      "Ġrefine": 7453,
      "Ġresent": 7454,
      "Ġclasp": 7455,
      "hail": 7456,
      "Ġsubd": 7457,
      "Ġsubs": 7458,
      "Ġbliss": 7459,
      "Ġroot": 7460,
      "Ġflu": 7461,
      "Ġdiscour": 7462,
      "Ġopens": 7463,
      "Ġdetected": 7464,
      "Ġgenerations": 7465,
      "Ġsupplied": 7466,
      "Ġincred": 7467,
      "Ġsouth": 7468,
      "Ġinvisible": 7469,
      "Ġfrivol": 7470,
      "rences": 7471,
      "Ġnegations": 7472,
      "Ġmonograph": 7473,
      "Ġestim": 7474,
      "Ġsignals": 7475,
      "Ġawk": 7476,
      "Ġrests": 7477,
      "Ġforesee": 7478,
      "Ġproducing": 7479,
      "Ġinstruction": 7480,
      "Ġcreates": 7481,
      "Ġcreating": 7482,
      "Ġcreative": 7483,
      "Ġlatin": 7484,
      "Ġdivinity": 7485,
      "Ġpainter": 7486,
      "Ġmotionless": 7487,
      "Ġadmits": 7488,
      "Ġadmiration": 7489,
      "Ġengage": 7490,
      "Ġreduce": 7491,
      "Ġminotaur": 7492,
      "Ġacquis": 7493,
      "Ġconvict": 7494,
      "Ġmeasurement": 7495,
      "Ġapproaches": 7496,
      "supp": 7497,
      "Ġderives": 7498,
      "Ġprotest": 7499,
      "Ġagreeable": 7500,
      "agne": 7501,
      "Ġrelatively": 7502,
      "Ġreaching": 7503,
      "Ġepic": 7504,
      "Ġepist": 7505,
      "alyosha": 7506,
      "Ġcomplexes": 7507,
      "Ġwondering": 7508,
      "Ġinquired": 7509,
      "Ġauthorities": 7510,
      "Ġsuspense": 7511,
      "Ġprofession": 7512,
      "Ġdisturbed": 7513,
      "Ġsadist": 7514,
      "Ġgolden": 7515,
      "Ġobligation": 7516,
      "Ġadequate": 7517,
      "Ġconquer": 7518,
      "Ġinstincts": 7519,
      "Ġpreferred": 7520,
      "Ġaffirmation": 7521,
      "Ġthreatened": 7522,
      "Ġmessage": 7523,
      "Ġundertaken": 7524,
      "Ġsamsa": 7525,
      "Ġconfronting": 7526,
      "Ġpatterns": 7527,
      "Ġcustoms": 7528,
      "Ġwinter": 7529,
      "Ġwhisper": 7530,
      "Ġappreciate": 7531,
      "matter": 7532,
      "temporal": 7533,
      "Ġexercised": 7534,
      "Ġmisunderstanding": 7535,
      "Ġunfortunately": 7536,
      "Ġomitted": 7537,
      "Ġcredit": 7538,
      "Ġpilgrim": 7539,
      "Ġdynam": 7540,
      "Ġinertia": 7541,
      "Ġphotograph": 7542,
      "Ġtower": 7543,
      "Ġglorious": 7544,
      "Ġcouple": 7545,
      "Ġdisintegration": 7546,
      "Ġslept": 7547,
      "Ġsequence": 7548,
      "Ġinexplicable": 7549,
      "Ġchampagne": 7550,
      "Ġskept": 7551,
      "Ġghost": 7552,
      "minded": 7553,
      "Ġgospel": 7554,
      "Ġhermitage": 7555,
      "Ġcatastrop": 7556,
      "_,\"": 7557,
      "cks": 7558,
      "did": 7559,
      "gence": 7560,
      "iating": 7561,
      "leness": 7562,
      "nature": 7563,
      "off": 7564,
      "oia": 7565,
      "position": 7566,
      "Ġ...\"": 7567,
      "Ġtheat": 7568,
      "Ġsand": 7569,
      "Ġbought": 7570,
      "Ġbank": 7571,
      "Ġcited": 7572,
      "Ġcunning": 7573,
      "Ġmak": 7574,
      "Ġmour": 7575,
      "Ġmild": 7576,
      "Ġfame": 7577,
      "Ġpause": 7578,
      "Ġpick": 7579,
      "ese": 7580,
      "oring": 7581,
      "inger": 7582,
      "Ġdies": 7583,
      "Ġdual": 7584,
      "icated": 7585,
      "Ġbend": 7586,
      "asis": 7587,
      "Ġrebell": 7588,
      "stube": 7589,
      "Ġgle": 7590,
      "Ġgates": 7591,
      "Ġascertain": 7592,
      "herical": 7593,
      "Ġanci": 7594,
      "Ġancest": 7595,
      "Ġstore": 7596,
      "Ġstability": 7597,
      "Ġstuff": 7598,
      "Ġors": 7599,
      "ifiable": 7600,
      "Ġshot": 7601,
      "iven": 7602,
      "Ġcomment": 7603,
      "Ġunnecessary": 7604,
      "Ġworried": 7605,
      "Ġnost": 7606,
      "Ġjose": 7607,
      "Ġherzen": 7608,
      "erson": 7609,
      "Ġgray": 7610,
      "Ġgram": 7611,
      "Ġindust": 7612,
      "Ġrepressed": 7613,
      "enses": 7614,
      "Ġpeep": 7615,
      "Ġfold": 7616,
      "Ġideality": 7617,
      "Ġdistract": 7618,
      "Ġinfer": 7619,
      "Ġcob": 7620,
      "Ġrobert": 7621,
      "Ġpassivity": 7622,
      "Ġdiscourse": 7623,
      "Ġassurance": 7624,
      "ernal": 7625,
      "Ġunderstands": 7626,
      "Ġexpressly": 7627,
      "Ġdescriptions": 7628,
      "Ġmotor": 7629,
      "Ġcares": 7630,
      "Ġinsanity": 7631,
      "Ġaddressing": 7632,
      "Ġuncon": 7633,
      "Ġessay": 7634,
      "Ġfury": 7635,
      "Ġtales": 7636,
      "Ġproduction": 7637,
      "Ġhandsome": 7638,
      "Ġdestined": 7639,
      "Ġemission": 7640,
      "Ġopenly": 7641,
      "Ġreturns": 7642,
      "Ġdivisions": 7643,
      "Ġstarts": 7644,
      "Ġaffective": 7645,
      "Ġ43": 7646,
      "Ġconvinc": 7647,
      "Ġapost": 7648,
      "Ġharmless": 7649,
      "Ġbuy": 7650,
      "Ġgoverned": 7651,
      "Ġprotons": 7652,
      "Ġperceptible": 7653,
      "Ġarrives": 7654,
      "Ġplanet": 7655,
      "Ġlimitations": 7656,
      "Ġdrives": 7657,
      "sclf": 7658,
      "Ġpeculiarities": 7659,
      "Ġasserted": 7660,
      "Ġfortunate": 7661,
      "Ġinstrumentality": 7662,
      "Ġattacks": 7663,
      "Ġpreserves": 7664,
      "Ġlocked": 7665,
      "Ġindependently": 7666,
      "Ġformulated": 7667,
      "Ġcrossing": 7668,
      "Ġdisturbing": 7669,
      "Ġpreceded": 7670,
      "Ġprepare": 7671,
      "Ġapproaching": 7672,
      "Ġinjured": 7673,
      "Ġdemonstrate": 7674,
      "Ġmodels": 7675,
      "Ġtransference": 7676,
      "Ġcorrelation": 7677,
      "Ġwickedness": 7678,
      "Ġgratitude": 7679,
      "Ġuneasy": 7680,
      "Ġdoctrines": 7681,
      "Ġannihilated": 7682,
      "Ġpsychologists": 7683,
      "possib": 7684,
      "Ġcowardly": 7685,
      "Ġexecution": 7686,
      "Ġcorpse": 7687,
      "Ġguessed": 7688,
      "Ġchromosomes": 7689,
      "erers": 7690,
      "Ġwatched": 7691,
      "gentle": 7692,
      "Ġtortured": 7693,
      "Ġambiguous": 7694,
      "Ġunmist": 7695,
      "Ġirresist": 7696,
      "Ġbrandy": 7697,
      "Ġfriedmann": 7698,
      "listen": 7699,
      "Ġrefrain": 7700,
      "Ġcelebrated": 7701,
      "namely": 7702,
      "Ġscandal": 7703,
      "Ġunpleasant": 7704,
      "Ġawkward": 7705,
      "Ġcatastrophe": 7706,
      "Ġancients": 7707,
      "Ġherzenstube": 7708,
      "!)": 7709,
      ".-": 7710,
      "._,": 7711,
      "56": 7712,
      "bor": 7713,
      "dist": 7714,
      "fall": 7715,
      "mation": 7716,
      "rc": 7717,
      "ram": 7718,
      "your": 7719,
      "Ġtick": 7720,
      "Ġakin": 7721,
      "Ġox": 7722,
      "reci": 7723,
      "inates": 7724,
      "Ġbility": 7725,
      "Ġcogn": 7726,
      "Ġfusion": 7727,
      "Ġfaced": 7728,
      "Ġhars": 7729,
      "Ġthreshold": 7730,
      "Ġpicked": 7731,
      "Ġeh": 7732,
      "llig": 7733,
      "urious": 7734,
      "Ġstair": 7735,
      "rious": 7736,
      "Ġseated": 7737,
      "Ġdeemed": 7738,
      "Ġsoil": 7739,
      "Ġneces": 7740,
      "Ġrhet": 7741,
      "Ġshud": 7742,
      "Ġprogram": 7743,
      "esty": 7744,
      "Ġvicious": 7745,
      "Ġworm": 7746,
      "umes": 7747,
      "Ġhasn": 7748,
      "Ġspherical": 7749,
      "Ġapple": 7750,
      "Ġdisd": 7751,
      "Ġarising": 7752,
      "Ġplenty": 7753,
      "Ġoutcome": 7754,
      "Ġshepher": 7755,
      "Ġgrateful": 7756,
      "Ġrepression": 7757,
      "Ġadjust": 7758,
      "ensed": 7759,
      "Ġremedy": 7760,
      "Ġjustify": 7761,
      "Ġclar": 7762,
      "Ġshouldn": 7763,
      "Ġmateri": 7764,
      "inking": 7765,
      "Ġendowed": 7766,
      "Ġrog": 7767,
      "Ġentreat": 7768,
      "ipus": 7769,
      "Ġfinish": 7770,
      "Ġextrem": 7771,
      "Ġartistic": 7772,
      "Ġguests": 7773,
      "Ġkindness": 7774,
      "Ġretained": 7775,
      "icken": 7776,
      "Ġ29": 7777,
      "Ġcolours": 7778,
      "Ġsentences": 7779,
      "Ġprofitable": 7780,
      "Ġfearful": 7781,
      "Ġbelonged": 7782,
      "Ġoccurrences": 7783,
      "Ġtreatise": 7784,
      "Ġnihilate": 7785,
      "Ġsisters": 7786,
      "Ġzeus": 7787,
      "Ġswift": 7788,
      "Ġphysicians": 7789,
      "Ġanti": 7790,
      "Ġ190": 7791,
      "Ġexclusion": 7792,
      "Ġconstantin": 7793,
      "umpell": 7794,
      "Ġdiscovers": 7795,
      "Ġcomparatively": 7796,
      "Ġlegit": 7797,
      "reflection": 7798,
      "Ġsuperfl": 7799,
      "Ġinvestigations": 7800,
      "Ġfellows": 7801,
      "Ġlowest": 7802,
      "Ġcells": 7803,
      "Ġmirror": 7804,
      "Ġstupidity": 7805,
      "Ġcourageous": 7806,
      "Ġtraveling": 7807,
      "Ġpapers": 7808,
      "Ġparadise": 7809,
      "Ġurged": 7810,
      "Ġmountains": 7811,
      "Ġbiology": 7812,
      "Ġconquered": 7813,
      "Ġfavourite": 7814,
      "Ġphantom": 7815,
      "Ġinjury": 7816,
      "Ġrefusing": 7817,
      "Ġsingularities": 7818,
      "Ġautom": 7819,
      "intellig": 7820,
      "uzz": 7821,
      "Ġemphasized": 7822,
      "Ġconversion": 7823,
      "Ġnobles": 7824,
      "Ġexercises": 7825,
      "Ġtraditional": 7826,
      "Ġringing": 7827,
      "Ġathens": 7828,
      "Ġprejudice": 7829,
      "Ġhammer": 7830,
      "Ġtravelling": 7831,
      "Ġjesus": 7832,
      "iciency": 7833,
      "Ġmagnificent": 7834,
      "Ġdarling": 7835,
      "Ġvaluable": 7836,
      "Ġingenious": 7837,
      "Ġdiversity": 7838,
      "Ġpropagation": 7839,
      "Ġcompromise": 7840,
      "Ġinsignificant": 7841,
      "Ġlifetime": 7842,
      "Ġunmistak": 7843,
      "\"?": 7844,
      "10": 7845,
      "13": 7846,
      "_\"": 7847,
      "cus": 7848,
      "dis": 7849,
      "hn": 7850,
      "ipp": 7851,
      "mother": 7852,
      "master": 7853,
      "metic": 7854,
      "nik": 7855,
      "pha": 7856,
      "rous": 7857,
      "sing": 7858,
      "tes": 7859,
      "uits": 7860,
      "Ġwounded": 7861,
      "atible": 7862,
      "Ġcic": 7863,
      "Ġcam": 7864,
      "Ġcess": 7865,
      "Ġmaker": 7866,
      "enance": 7867,
      "enna": 7868,
      "enetr": 7869,
      "Ġhol": 7870,
      "Ġpage": 7871,
      "esis": 7872,
      "itory": 7873,
      "eded": 7874,
      "orse": 7875,
      "Ġdir": 7876,
      "icy": 7877,
      "Ġerect": 7878,
      "Ġlamp": 7879,
      "Ġlament": 7880,
      "Ġreb": 7881,
      "Ġgames": 7882,
      "Ġstamp": 7883,
      "Ġath": 7884,
      "Ġathe": 7885,
      "Ġsuited": 7886,
      "adation": 7887,
      "Ġkond": 7888,
      "quis": 7889,
      "Ġraces": 7890,
      "Ġshakes": 7891,
      "Ġunqu": 7892,
      "Ġunav": 7893,
      "Ġunsu": 7894,
      "Ġspan": 7895,
      "Ġperhot": 7896,
      "Ġjob": 7897,
      "Ġitsclf": 7898,
      "Ġexposed": 7899,
      "Ġgover": 7900,
      "Ġappe": 7901,
      "Ġdisordered": 7902,
      "Ġplants": 7903,
      "Ġenr": 7904,
      "Ġenum": 7905,
      "Ġagrees": 7906,
      "Ġreluct": 7907,
      "Ġgrin": 7908,
      "Ġimpr": 7909,
      "Ġstrumpell": 7910,
      "Ġpoly": 7911,
      "ondition": 7912,
      "Ġbrass": 7913,
      "Ġaccused": 7914,
      "Ġsubmit": 7915,
      "Ġsmoke": 7916,
      "Ġrealm": 7917,
      "retch": 7918,
      "Ġmodify": 7919,
      "Ġsuppression": 7920,
      "cript": 7921,
      "cribe": 7922,
      "undane": 7923,
      "Ġoriginates": 7924,
      "Ġexplos": 7925,
      "Ġcleaning": 7926,
      "Ġvalour": 7927,
      "Ġextingu": 7928,
      "Ġarticul": 7929,
      "Ġcaress": 7930,
      "Ġworker": 7931,
      "Ġdecre": 7932,
      "elling": 7933,
      "Ġspeaker": 7934,
      "Ġeverlast": 7935,
      "Ġreaders": 7936,
      "Ġsolutions": 7937,
      "Ġprize": 7938,
      "Ġsinging": 7939,
      "Ġhonoured": 7940,
      "Ġtrib": 7941,
      "Ġhelpless": 7942,
      "Ġcircuit": 7943,
      "Ġmothers": 7944,
      "Ġattempting": 7945,
      "Ġdevice": 7946,
      "Ġprovision": 7947,
      "Ġutility": 7948,
      "Ġdelusion": 7949,
      "Ġcurv": 7950,
      "Ġdenial": 7951,
      "Ġinflict": 7952,
      "noble": 7953,
      "Ġradius": 7954,
      "Ġidentify": 7955,
      "Ġswall": 7956,
      "Ġrush": 7957,
      "Ġski": 7958,
      "Ġantit": 7959,
      "Ġtouches": 7960,
      "Ġpenal": 7961,
      "Ġlaying": 7962,
      "Ġaccepting": 7963,
      "Ġdeclaring": 7964,
      "Ġignatyevna": 7965,
      "iii": 7966,
      "Ġmaintaining": 7967,
      "Ġbehaved": 7968,
      "Ġdestroys": 7969,
      "Ġcomparable": 7970,
      "without": 7971,
      "Ġformulation": 7972,
      "Ġsacrificed": 7973,
      "Ġpursuits": 7974,
      "Ġsending": 7975,
      "Ġdialogue": 7976,
      "Ġpermits": 7977,
      "Ġpermission": 7978,
      "Ġdeterminations": 7979,
      "Ġillustration": 7980,
      "Ġhonesty": 7981,
      "belie": 7982,
      "Ġentertained": 7983,
      "Ġbalance": 7984,
      "Ġdegradation": 7985,
      "Ġgazed": 7986,
      "Ġillustrate": 7987,
      "accur": 7988,
      "Ġdisplay": 7989,
      "Ġsevent": 7990,
      "board": 7991,
      "Ġmercen": 7992,
      "Ġmarvelous": 7993,
      "Ġweapon": 7994,
      "Ġkuzma": 7995,
      "Ġluxury": 7996,
      "Ġeconom": 7997,
      "Ġconjecture": 7998,
      "Ġchallenge": 7999,
      "Ġpercipi": 8000,
      "Ġmihail": 8001,
      "Ġrepetition": 8002,
      "Ġcavalry": 8003,
      "Ġunseem": 8004,
      "Ġorsini": 8005,
      "gentlemen": 8006,
      "Ġkondr": 8007,
      "Ġperhotin": 8008,
      "bly": 8009,
      "dict": 8010,
      "mid": 8011,
      "year": 8012,
      "Î¿": 8013,
      "Ġowe": 8014,
      "Ġwed": 8015,
      "atched": 8016,
      "Ġmud": 8017,
      "Ġmob": 8018,
      "Ġfare": 8019,
      "Ġfidelity": 8020,
      "Ġpas": 8021,
      "Ġpipe": 8022,
      "ede": 8023,
      "edipus": 8024,
      "anches": 8025,
      "Ġnour": 8026,
      "Ġnomen": 8027,
      "icus": 8028,
      "ione": 8029,
      "Ġether": 8030,
      "Ġeast": 8031,
      "lyev": 8032,
      "Ġlic": 8033,
      "Ġreun": 8034,
      "Ġthises": 8035,
      "ilies": 8036,
      "usc": 8037,
      "Ġrag": 8038,
      "Ġalarmed": 8039,
      "Ġtherein": 8040,
      "ivered": 8041,
      "Ġvassi": 8042,
      "Ġunits": 8043,
      "Ġwillingly": 8044,
      "Ġintently": 8045,
      "Ġnobl": 8046,
      "Ġleapt": 8047,
      "Ġquoted": 8048,
      "Ġknower": 8049,
      "Ġdisli": 8050,
      "Ġdiseng": 8051,
      "Ġarc": 8052,
      "Ġsail": 8053,
      "agues": 8054,
      "Ġindeterm": 8055,
      "Ġthanks": 8056,
      "Ġreplies": 8057,
      "oneur": 8058,
      "Ġbranches": 8059,
      "inted": 8060,
      "anging": 8061,
      "Ġfores": 8062,
      "Ġlonged": 8063,
      "Ġgene": 8064,
      "Ġboots": 8065,
      "Ġpsychoneur": 8066,
      "force": 8067,
      "Ġfounds": 8068,
      "Ġrealities": 8069,
      "Ġcrack": 8070,
      "Ġcommission": 8071,
      "Ġsurrend": 8072,
      "Ġinco": 8073,
      "Ġdrank": 8074,
      "Ġhollow": 8075,
      "Ġprophe": 8076,
      "Ġinvite": 8077,
      "Ġobservers": 8078,
      "Ġlasting": 8079,
      "Ġartis": 8080,
      "Ġtemples": 8081,
      "Ġdecides": 8082,
      "Ġeleven": 8083,
      "Ġquantities": 8084,
      "Ġrestored": 8085,
      "Ġsolve": 8086,
      "Ġsolved": 8087,
      "Ġrecognizing": 8088,
      "Ġforeseen": 8089,
      "Ġpatri": 8090,
      "Ġleaders": 8091,
      "Ġestablishes": 8092,
      "Ġrelatives": 8093,
      "Ġexcitation": 8094,
      "Ġ46": 8095,
      "noon": 8096,
      "Ġjudging": 8097,
      "Ġeffic": 8098,
      "Ġhorrible": 8099,
      "Ġraises": 8100,
      "Ġrepeating": 8101,
      "Ġimmoral": 8102,
      "Ġdesigns": 8103,
      "Ġdesigned": 8104,
      "Ġfancies": 8105,
      "Ġtested": 8106,
      "Ġepis": 8107,
      "Ġmythology": 8108,
      "Ġfleet": 8109,
      "Ġinquire": 8110,
      "Ġconsisting": 8111,
      "Ġ189": 8112,
      "Ġfacing": 8113,
      "Ġgladly": 8114,
      "Ġpulling": 8115,
      "Ġhistoric": 8116,
      "Ġcontemporaneous": 8117,
      "Ġcalculate": 8118,
      "Ġspectacle": 8119,
      "Ġsurrounding": 8120,
      "Ġstatue": 8121,
      "Ġdemocratic": 8122,
      "Ġhellenic": 8123,
      "Ġprincipality": 8124,
      "Ġaccurately": 8125,
      "Ġlift": 8126,
      "Ġencounters": 8127,
      "Ġcorrelate": 8128,
      "Ġspontaneously": 8129,
      "Ġrenounce": 8130,
      "umbling": 8131,
      "Ġbitterly": 8132,
      "Ġrobber": 8133,
      "Ġgestures": 8134,
      "Ġstationary": 8135,
      "Ġliberal": 8136,
      "Ġannihilation": 8137,
      "Ġdisappearance": 8138,
      "Ġcomplaint": 8139,
      "Ġmissing": 8140,
      "Ġspinoz": 8141,
      "Ġpsychologist": 8142,
      "Ġcyn": 8143,
      "Ġphrases": 8144,
      "Ġpistols": 8145,
      "Ġconspic": 8146,
      "Ġcompanion": 8147,
      "Ġamaze": 8148,
      "Ġwithdrawal": 8149,
      "Ġmasoch": 8150,
      "Ġsimplest": 8151,
      "Ġpilot": 8152,
      "Ġresembles": 8153,
      "everything": 8154,
      "Ġwooden": 8155,
      "Ġhurriedly": 8156,
      "Ġexaggerated": 8157,
      "Ġimplicitly": 8158,
      "Ġdragged": 8159,
      "Ġantiquity": 8160,
      "Ġinvoluntary": 8161,
      "Ġmartyr": 8162,
      "Ġitalian": 8163,
      "transcended": 8164,
      "Ġselves": 8165,
      "Ġinjection": 8166,
      "Ġarithmetic": 8167,
      "Ġfeeble": 8168,
      "Ġhydrogen": 8169,
      "Ġaugust": 8170,
      "Ġacquisition": 8171,
      "Ġjoseph": 8172,
      "Ġharsh": 8173,
      "Ġkondratyevna": 8174,
      "lyevitch": 8175,
      "Ġvassilyevitch": 8176,
      "40": 8177,
      "_;": 8178,
      "ded": 8179,
      "lov": 8180,
      "pre": 8181,
      "pret": 8182,
      "rot": 8183,
      "ugn": 8184,
      "win": 8185,
      "wish": 8186,
      "ypt": 8187,
      "zo": 8188,
      "Ġtrop": 8189,
      "Ġward": 8190,
      "Ġsly": 8191,
      "Ġcres": 8192,
      "Ġcep": 8193,
      "Ġmast": 8194,
      "Ġmask": 8195,
      "Ġfist": 8196,
      "Ġfals": 8197,
      "Ġped": 8198,
      "Ġpond": 8199,
      "Ġpuzz": 8200,
      "itute": 8201,
      "Ġtool": 8202,
      "Ġinaccur": 8203,
      "orily": 8204,
      "anc": 8205,
      "icate": 8206,
      "otes": 8207,
      "otto": 8208,
      "Ġlap": 8209,
      "Ġreactions": 8210,
      "Ġanthrop": 8211,
      "Ġstared": 8212,
      "Ġmeal": 8213,
      "aine": 8214,
      "rily": 8215,
      "Ġsem": 8216,
      "usive": 8217,
      "things": 8218,
      "Ġshining": 8219,
      "Ġdoc": 8220,
      "Ġves": 8221,
      "Ġunites": 8222,
      "anting": 8223,
      "Ġworn": 8224,
      "Ġintim": 8225,
      "Ġknight": 8226,
      "Ġjest": 8227,
      "inde": 8228,
      "Ġeval": 8229,
      "Ġconsum": 8230,
      "Ġapplies": 8231,
      "Ġtimaeus": 8232,
      "key": 8233,
      "Ġarisen": 8234,
      "ounds": 8235,
      "Ġplates": 8236,
      "Ġplaus": 8237,
      "Ġrelax": 8238,
      "Ġsheet": 8239,
      "Ġcompulsion": 8240,
      "Ġindignant": 8241,
      "unction": 8242,
      "Ġimpure": 8243,
      "ogene": 8244,
      "Ġfeed": 8245,
      "Ġrepud": 8246,
      "Ġadult": 8247,
      "abilities": 8248,
      "Ġjustifies": 8249,
      "Ġresour": 8250,
      "Ġunderlying": 8251,
      "Ġcloth": 8252,
      "eling": 8253,
      "asein": 8254,
      "ucted": 8255,
      "Ġendured": 8256,
      "Ġorderly": 8257,
      "Ġcook": 8258,
      "Ġroots": 8259,
      "athol": 8260,
      "Ġentrust": 8261,
      "Ġdefence": 8262,
      "ipse": 8263,
      "Ġbackward": 8264,
      "Ġinvites": 8265,
      "Ġpersonally": 8266,
      "Ġmorbid": 8267,
      "Ġinspect": 8268,
      "Ġadding": 8269,
      "Ġillusions": 8270,
      "Ġinterpretations": 8271,
      "Ġcontinual": 8272,
      "ancesco": 8273,
      "Ġrespecting": 8274,
      "Ġdoubted": 8275,
      "Ġlacked": 8276,
      "ormal": 8277,
      "Ġforgiveness": 8278,
      "Ġaccounts": 8279,
      "Ġadmin": 8280,
      "Ġseparately": 8281,
      "Ġredisc": 8282,
      "Ġvoices": 8283,
      "Ġriddle": 8284,
      "Ġdispute": 8285,
      "Ġapproached": 8286,
      "Ġdegen": 8287,
      "Ġyouthful": 8288,
      "Ġsubstances": 8289,
      "Ġ193": 8290,
      "Ġmaintains": 8291,
      "Ġbird": 8292,
      "Ġconstraint": 8293,
      "Ġtastes": 8294,
      "ĠĠĠĠĠĠĠĠĠĠĠĠĠĠĠĠĠĠĠĠĠĠĠĠĠĠĠĠĠĠĠĠ": 8295,
      "Ġintentional": 8296,
      "Ġtranslator": 8297,
      "Ġenvis": 8298,
      "Ġawareness": 8299,
      "Ġadditional": 8300,
      "Ġsuspended": 8301,
      "Ġcopy": 8302,
      "Ġmaxwell": 8303,
      "Ġtheorem": 8304,
      "Ġinsisted": 8305,
      "Ġthyself": 8306,
      "Ġportions": 8307,
      "Ġdisciples": 8308,
      "Ġexcessive": 8309,
      "oleon": 8310,
      "Ġmelody": 8311,
      "Ġinstitutions": 8312,
      "Ġintensely": 8313,
      "Ġprincipalities": 8314,
      "Ġwidely": 8315,
      "Ġintervals": 8316,
      "Ġincorpor": 8317,
      "Ġinevitably": 8318,
      "Ġqueen": 8319,
      "ulsive": 8320,
      "Ġaccessible": 8321,
      "Ġprecision": 8322,
      "Ġabundant": 8323,
      "Ġclouds": 8324,
      "Ġreckoned": 8325,
      "Ġunrealizable": 8326,
      "Ġamerica": 8327,
      "Ġproportional": 8328,
      "Ġegypt": 8329,
      "efficient": 8330,
      "Ġremnants": 8331,
      "something": 8332,
      "Ġeccles": 8333,
      "Ġbergson": 8334,
      "Ġunusual": 8335,
      "Ġentitled": 8336,
      "Ġnausea": 8337,
      "Ġsuperfluous": 8338,
      "Ġcicero": 8339,
      "Ġcurvature": 8340,
      "Ġspinoza": 8341,
      "17": 8342,
      "27": 8343,
      "54": 8344,
      "cern": 8345,
      "gest": 8346,
      "gone": 8347,
      "hut": 8348,
      "hole": 8349,
      "ien": 8350,
      "iably": 8351,
      "ois": 8352,
      "rad": 8353,
      "spe": 8354,
      "uble": 8355,
      "vi": 8356,
      "za": 8357,
      "Ġtween": 8358,
      "Ġtables": 8359,
      "Ġaunt": 8360,
      "Ġik": 8361,
      "Ġwand": 8362,
      "Ġwings": 8363,
      "Ġsway": 8364,
      "athetic": 8365,
      "erating": 8366,
      "Ġcro": 8367,
      "Ġcards": 8368,
      "Ġmc": 8369,
      "Ġfol": 8370,
      "Ġfish": 8371,
      "Ġfears": 8372,
      "Ġpend": 8373,
      "Ġdim": 8374,
      "icular": 8375,
      "asion": 8376,
      "Ġere": 8377,
      "otal": 8378,
      "Ġlum": 8379,
      "sts": 8380,
      "stood": 8381,
      "stairs": 8382,
      "uting": 8383,
      "Ġascribed": 8384,
      "Ġstor": 8385,
      "Ġstress": 8386,
      "Ġstretched": 8387,
      "ilov": 8388,
      "Ġnearest": 8389,
      "Ġshake": 8390,
      "Ġshook": 8391,
      "Ġthereupon": 8392,
      "Ġunintellig": 8393,
      "Ġtraces": 8394,
      "ache": 8395,
      "Ġintr": 8396,
      "Ġspaces": 8397,
      "redict": 8398,
      "openh": 8399,
      "Ġknock": 8400,
      "Ġjul": 8401,
      "astics": 8402,
      "Ġtimocr": 8403,
      "Ġyourselves": 8404,
      "Ġoverfl": 8405,
      "Ġblo": 8406,
      "Ġblamed": 8407,
      "Ġrods": 8408,
      "Ġflau": 8409,
      "Ġcharms": 8410,
      "Ġcourts": 8411,
      "beyond": 8412,
      "Ġdefe": 8413,
      "Ġregression": 8414,
      "Ġsupple": 8415,
      "Ġcorrupted": 8416,
      "Ġpropose": 8417,
      "Ġinvited": 8418,
      "Ġguid": 8419,
      "Ġcarpent": 8420,
      "Ġdepreci": 8421,
      "Ġprojecting": 8422,
      "Ġfrancesco": 8423,
      "Ġuncondition": 8424,
      "Ġsolitary": 8425,
      "Ġtrip": 8426,
      "Ġexpectations": 8427,
      "Ġstudents": 8428,
      "Ġescaping": 8429,
      "Ġprovides": 8430,
      "Ġridic": 8431,
      "Ġdispers": 8432,
      "Ġreview": 8433,
      "Ġstriving": 8434,
      "Ġexclude": 8435,
      "Ġprominent": 8436,
      "Ġprotection": 8437,
      "myself": 8438,
      "Ġhymn": 8439,
      "Ġtravers": 8440,
      "Ġembod": 8441,
      "Ġdestroying": 8442,
      "Ġannounced": 8443,
      "Ġperiods": 8444,
      "Ġquarre": 8445,
      "doing": 8446,
      "Ġintentionally": 8447,
      "Ġsadism": 8448,
      "Ġrepeatedly": 8449,
      "Ġsimultaneity": 8450,
      "guard": 8451,
      "Ġfifth": 8452,
      "Ġlandl": 8453,
      "Ġconquest": 8454,
      "Ġekstasis": 8455,
      "Ġemphatically": 8456,
      "Ġalienated": 8457,
      "Ġthreatening": 8458,
      "Ġblindness": 8459,
      "Ġvenet": 8460,
      "Ġauton": 8461,
      "Ġunpredict": 8462,
      "Ġgratification": 8463,
      "Ġfragment": 8464,
      "Ġneurosis": 8465,
      "Ġcolleagues": 8466,
      "Ġrotation": 8467,
      "Ġhesitate": 8468,
      "Ġsubsequent": 8469,
      "Ġimpatient": 8470,
      "Ġsymptom": 8471,
      "Ġreconc": 8472,
      "Ġpresupposes": 8473,
      "Ġlucidity": 8474,
      "Ġkirilov": 8475,
      "Ġsustained": 8476,
      "Ġdrama": 8477,
      "Ġdramatic": 8478,
      "Ġcosmic": 8479,
      "Ġpunishments": 8480,
      "Ġnapoleon": 8481,
      "halus": 8482,
      "Ġinconsistent": 8483,
      "Ġpythagorean": 8484,
      "keeper": 8485,
      "Ġguarantee": 8486,
      "Ġwelcome": 8487,
      "Ġanecdote": 8488,
      "Ġproverb": 8489,
      "Ġepistem": 8490,
      "Ġconvincing": 8491,
      "Ġeverlasting": 8492,
      "Ġepisode": 8493,
      "Ġcephalus": 8494,
      "Ġecclesi": 8495,
      "'?": 8496,
      "24": 8497,
      "bted": 8498,
      "eur": 8499,
      "equ": 8500,
      "ext": 8501,
      "eenth": 8502,
      "may": 8503,
      "olf": 8504,
      "rict": 8505,
      "sim": 8506,
      "ties": 8507,
      "uated": 8508,
      "vice": 8509,
      "Ġice": 8510,
      "requ": 8511,
      "Ġsigh": 8512,
      "inus": 8513,
      "Ġburd": 8514,
      "Ġcured": 8515,
      "Ġmun": 8516,
      "Ġfitted": 8517,
      "Ġphe": 8518,
      "Ġpaces": 8519,
      "Ġinade": 8520,
      "oration": 8521,
      "Ġdip": 8522,
      "Ġdaring": 8523,
      "icable": 8524,
      "ara": 8525,
      "asa": 8526,
      "Ġgor": 8527,
      "Ġgaus": 8528,
      "Ġconj": 8529,
      "Ġstatic": 8530,
      "Ġselected": 8531,
      "thou": 8532,
      "thises": 8533,
      "Ġride": 8534,
      "Ġchains": 8535,
      "Ġprose": 8536,
      "Ġunseen": 8537,
      "Ġmanuf": 8538,
      "Ġaberr": 8539,
      "igal": 8540,
      "andt": 8541,
      "Ġobe": 8542,
      "Ġevanes": 8543,
      "Ġcontest": 8544,
      "Ġcontribute": 8545,
      "Ġsaving": 8546,
      "ccess": 8547,
      "Ġenig": 8548,
      "Ġaged": 8549,
      "Ġrelate": 8550,
      "unci": 8551,
      "avy": 8552,
      "avour": 8553,
      "Ġrepay": 8554,
      "Ġstrang": 8555,
      "Ġsomebody": 8556,
      "Ġclum": 8557,
      "Ġbranch": 8558,
      "--\"": 8559,
      "Ġowners": 8560,
      "Ġformations": 8561,
      "Ġaccus": 8562,
      "elian": 8563,
      "Ġrecom": 8564,
      "Ġrecur": 8565,
      "Ġinteraction": 8566,
      "Ġdistress": 8567,
      "Ġdistrict": 8568,
      "Ġsyll": 8569,
      "Ġgenital": 8570,
      "Ġgenitals": 8571,
      "Ġattaining": 8572,
      "Ġpresentiment": 8573,
      "Ġcoordinates": 8574,
      "Ġnewly": 8575,
      "Ġfluct": 8576,
      "Ġthinkers": 8577,
      "Ġscenes": 8578,
      "ologists": 8579,
      "Ġfollowers": 8580,
      "Ġserving": 8581,
      "Ġmarble": 8582,
      "Ġinsert": 8583,
      "Ġinsists": 8584,
      "Ġindebted": 8585,
      "Ġresulting": 8586,
      "Ġlessons": 8587,
      "Ġeffective": 8588,
      "Ġfamilies": 8589,
      "Ġrespectable": 8590,
      "Ġphenomenological": 8591,
      "Ġ33": 8592,
      "Ġ36": 8593,
      "Ġdevote": 8594,
      "Ġcontext": 8595,
      "Ġargued": 8596,
      "Ġindications": 8597,
      "Ġsinner": 8598,
      "Ġinstantaneous": 8599,
      "Ġpractise": 8600,
      "Ġidentified": 8601,
      "Ġlargely": 8602,
      "Ġmedium": 8603,
      "Ġseverity": 8604,
      "Ġfuneral": 8605,
      "onym": 8606,
      "Ġ196": 8607,
      "Ġstrikes": 8608,
      "Ġprimordial": 8609,
      "Ġverdict": 8610,
      "Ġdecline": 8611,
      "Ġappropriative": 8612,
      "Ġlegal": 8613,
      "Ġepile": 8614,
      "Ġepoch": 8615,
      "Ġfurniture": 8616,
      "Ġvex": 8617,
      "Ġfools": 8618,
      "Ġservices": 8619,
      "Ġcombinations": 8620,
      "Ġprayed": 8621,
      "Ġfrenzy": 8622,
      "Ġadvantages": 8623,
      "Ġapartment": 8624,
      "Ġdissolved": 8625,
      "Ġdissatisf": 8626,
      "Ġstayed": 8627,
      "Ġmainly": 8628,
      "Ġcivilized": 8629,
      "Ġelectronic": 8630,
      "Ġdeduced": 8631,
      "Ġunequ": 8632,
      "Ġseduc": 8633,
      "Ġneuroses": 8634,
      "control": 8635,
      "Ġneutral": 8636,
      "Ġfleeing": 8637,
      "Ġoligarchical": 8638,
      "Ġunexpectedly": 8639,
      "Ġdeliberation": 8640,
      "Ġharmonies": 8641,
      "Ġmicrosc": 8642,
      "etermined": 8643,
      "Ġendeavour": 8644,
      "Ġtormented": 8645,
      "Ġexclusive": 8646,
      "Ġresemblance": 8647,
      "Ġcosmological": 8648,
      "Ġinherited": 8649,
      "Ġarrested": 8650,
      "Ġadventure": 8651,
      "Ġweapons": 8652,
      "Ġabruptly": 8653,
      "Ġesteemed": 8654,
      "Ġdisfigurement": 8655,
      "Ġdiscontin": 8656,
      "Ġpagolo": 8657,
      "Ġimplications": 8658,
      "Ġprecepts": 8659,
      "Ġdisdain": 8660,
      "Ġunseemly": 8661,
      "Ġamazement": 8662,
      "openhau": 8663,
      "Ġvenetians": 8664,
      "\":": 8665,
      ";'": 8666,
      "_.\"": 8667,
      "aed": 8668,
      "bles": 8669,
      "cd": 8670,
      "cence": 8671,
      "cked": 8672,
      "dr": 8673,
      "destr": 8674,
      "four": 8675,
      "great": 8676,
      "la": 8677,
      "mosp": 8678,
      "rate": 8679,
      "uate": 8680,
      "vsky": 8681,
      "yg": 8682,
      "zes": 8683,
      "hetical": 8684,
      "Ġahead": 8685,
      "Ġig": 8686,
      "Ġthetic": 8687,
      "atical": 8688,
      "Ġbos": 8689,
      "Ġband": 8690,
      "Ġbern": 8691,
      "Ġcathol": 8692,
      "Ġments": 8693,
      "Ġfert": 8694,
      "Ġfost": 8695,
      "Ġfought": 8696,
      "Ġfitting": 8697,
      "Ġhier": 8698,
      "itious": 8699,
      "Ġdoub": 8700,
      "ancing": 8701,
      "Ġbeheld": 8702,
      "oman": 8703,
      "Ġlud": 8704,
      "stay": 8705,
      "imental": 8706,
      "Ġnoticing": 8707,
      "ghter": 8708,
      "chka": 8709,
      "irms": 8710,
      "Ġatmosp": 8711,
      "Ġoracle": 8712,
      "Ġmeat": 8713,
      "ripp": 8714,
      "Ġseren": 8715,
      "Ġarea": 8716,
      "Ġshoot": 8717,
      "Ġshorter": 8718,
      "olves": 8719,
      "Ġvoc": 8720,
      "Ġtrains": 8721,
      "ighed": 8722,
      "Ġpersec": 8723,
      "Ġloat": 8724,
      "aped": 8725,
      "aste": 8726,
      "Ġarouse": 8727,
      "Ġenchant": 8728,
      "Ġpartition": 8729,
      "oven": 8730,
      "Ġthence": 8731,
      "Ġcomponent": 8732,
      "Ġpresumpt": 8733,
      "ogues": 8734,
      "Ġprecip": 8735,
      "itselfs": 8736,
      "Ġundergone": 8737,
      "Ġspecially": 8738,
      "endom": 8739,
      "Ġsimon": 8740,
      "Ġreconstr": 8741,
      "Ġinterven": 8742,
      "Ġinterrupt": 8743,
      "Ġinteriority": 8744,
      "Ġideals": 8745,
      "Ġsyn": 8746,
      "Ġpresently": 8747,
      "Ġcoefficient": 8748,
      "ocol": 8749,
      "Ġrigor": 8750,
      "Ġflour": 8751,
      "Ġsurvey": 8752,
      "Ġconfine": 8753,
      "Ġlightning": 8754,
      "Ġoriginated": 8755,
      "Ġexpressing": 8756,
      "Ġcomplementary": 8757,
      "Ġnega": 8758,
      "Ġmotiv": 8759,
      "Ġmotivation": 8760,
      "Ġmarks": 8761,
      "Ġopponents": 8762,
      "Ġestimate": 8763,
      "Ġparaly": 8764,
      "Ġlesson": 8765,
      "gged": 8766,
      "Ġpriority": 8767,
      "Ġangrily": 8768,
      "Ġgreet": 8769,
      "Ġpolite": 8770,
      "Ġleader": 8771,
      "Ġestablishment": 8772,
      "Ġdelay": 8773,
      "Ġcurved": 8774,
      "Ġengine": 8775,
      "Ġcountenance": 8776,
      "Ġtreats": 8777,
      "Ġavar": 8778,
      "Ġmiser": 8779,
      "Ġdistinctions": 8780,
      "Ġvoid": 8781,
      "Ġschopenhau": 8782,
      "Ġconvention": 8783,
      "Ġtendencies": 8784,
      "Ġsubstantial": 8785,
      "Ġ197": 8786,
      "Ġpromises": 8787,
      "Ġprimarily": 8788,
      "Ġmerry": 8789,
      "Ġdistinguishes": 8790,
      "Ġborne": 8791,
      "Ġtremend": 8792,
      "rified": 8793,
      "Ġtestimony": 8794,
      "Ġspiteful": 8795,
      "Ġlevels": 8796,
      "Ġflees": 8797,
      "Ġlocation": 8798,
      "Ġfulfil": 8799,
      "Ġrichard": 8800,
      "Ġirritated": 8801,
      "Ġsuspicious": 8802,
      "Ġkilling": 8803,
      "Ġresemble": 8804,
      "Ġpayment": 8805,
      "Ġnuclei": 8806,
      "ricide": 8807,
      "Ġexterior": 8808,
      "Ġowes": 8809,
      "Ġhoping": 8810,
      "Ġnerve": 8811,
      "Ġdissolution": 8812,
      "Ġstruggling": 8813,
      "Ġcalculated": 8814,
      "Ġadvantageous": 8815,
      "Ġbreathing": 8816,
      "Ġcommanded": 8817,
      "Ġunifying": 8818,
      "uitous": 8819,
      "Ġmagical": 8820,
      "Ġuniformly": 8821,
      "Ġneutrons": 8822,
      "Ġobstacles": 8823,
      "Ġsaints": 8824,
      "Ġvoluntarily": 8825,
[...]
