{
  "version": "1.0",
  "truncation": null,
  "padding": null,
  "added_tokens": [
    {
      "id": 0,
      "content": "<pad>",
      "single_word": false,
      "lstrip": false,
      "rstrip": false,
      "normalized": false,
      "special": true
    },
    {
      "id": 1,
      "content": "<unk>",
      "single_word": false,
      "lstrip": false,
      "rstrip": false,
      "normalized": false,
      "special": true
    },
    {
      "id": 2,
      "content": "<bos>",
      "single_word": false,
      "lstrip": false,
      "rstrip": false,
      "normalized": false,
      "special": true
    },
    {
      "id": 3,
      "content": "<eos>",
      "single_word": false,
      "lstrip": false,
      "rstrip": false,
      "normalized": false,
      "special": true
    }
  ],
  "normalizer": {
    "type": "Sequence",
    "normalizers": [
      {
        "type": "Replace",
        "pattern": {
          "String": "“"
        },
        "content": "\""
      },
      {
        "type": "Replace",
        "pattern": {
          "String": "”"
        },
        "content": "\""
      },
      {
        "type": "Replace",
        "pattern": {
          "String": "‘"
        },
        "content": "'"
      },
      {
        "type": "Replace",
        "pattern": {
          "String": "’"
        },
        "content": "'"
      },
      {
        "type": "Replace",
        "pattern": {
          "String": "—"
        },
        "content": "-"
      },
      {
        "type": "Replace",
        "pattern": {
          "String": "–"
        },
        "content": "-"
      },
      {
        "type": "Replace",
        "pattern": {
          "String": "…"
        },
        "content": "..."
      },
      {
        "type": "NFD"
      },
      {
        "type": "Lowercase"
      },
      {
        "type": "StripAccents"
      }
    ]
  },
  "pre_tokenizer": {
    "type": "ByteLevel",
    "add_prefix_space": true,
    "trim_offsets": true,
    "use_regex": true
  },
  "post_processor": {
    "type": "TemplateProcessing",
    "single": [
      {
        "SpecialToken": {
          "id": "<bos>",
          "type_id": 0
        }
      },
      {
        "Sequence": {
          "id": "A",
          "type_id": 0
        }
      },
      {
        "SpecialToken": {
          "id": "<eos>",
          "type_id": 0
        }
      }
    ],
    "pair": [
      {
        "SpecialToken": {
          "id": "<bos>",
          "type_id": 0
        }
      },
      {
        "Sequence": {
          "id": "A",
          "type_id": 0
        }
      },
      {
        "SpecialToken": {
          "id": "<eos>",
          "type_id": 0
        }
      },
      {
        "SpecialToken": {
          "id": "<bos>",
          "type_id": 0
        }
      },
      {
        "Sequence": {
          "id": "B",
          "type_id": 1
        }
      },
      {
        "SpecialToken": {
          "id": "<eos>",
          "type_id": 1
        }
      }
    ],
    "special_tokens": {
      "<bos>": {
        "id": "<bos>",
        "ids": [
          2
        ],
        "tokens": [
          "<bos>"
        ]
      },
      "<eos>": {
        "id": "<eos>",
        "ids": [
          3
        ],
        "tokens": [
          "<eos>"
        ]
      }
    }
  },
  "decoder": {
    "type": "ByteLevel",
    "add_prefix_space": true,
    "trim_offsets": true,
    "use_regex": true
  },
  "model": {
    "type": "BPE",
    "dropout": null,
    "unk_token": "<unk>",
    "continuing_subword_prefix": null,
    "end_of_word_suffix": null,
    "fuse_unk": false,
    "byte_fallback": false,
    "ignore_merges": false,
    "vocab": {
      "<pad>": 0,
      "<unk>": 1,
      "<bos>": 2,
      "<eos>": 3,
      "!": 4,
      "\"": 5,
      "#": 6,
      "$": 7,
      "%": 8,
      "&": 9,
      "'": 10,
      "(": 11,
      ")": 12,
      "*": 13,
      "+": 14,
      ",": 15,
      "-": 16,
      ".": 17,
      "/": 18,
      "0": 19,
      "1": 20,
      "2": 21,
      "3": 22,
      "4": 23,
      "5": 24,
      "6": 25,
      "7": 26,
      "8": 27,
      "9": 28,
      ":": 29,
      ";": 30,
      "=": 31,
      ">": 32,
      "?": 33,
      "[": 34,
      "]": 35,
      "_": 36,
      "`": 37,
      "a": 38,
      "b": 39,
      "c": 40,
      "d": 41,
      "e": 42,
      "f": 43,
      "g": 44,
      "h": 45,
      "i": 46,
      "j": 47,
      "k": 48,
      "l": 49,
      "m": 50,
      "n": 51,
      "o": 52,
      "p": 53,
      "q": 54,
      "r": 55,
      "s": 56,
      "t": 57,
      "u": 58,
      "v": 59,
      "w": 60,
      "x": 61,
      "y": 62,
      "z": 63,
      "|": 64,
      "}": 65,
      "~": 66,
      "¥": 67,
      "¦": 68,
      "¬": 69,
      "°": 70,
      "±": 71,
      "²": 72,
      "³": 73,
      "´": 74,
      "µ": 75,
      "·": 76,
      "¸": 77,
      "¹": 78,
      "º": 79,
      "»": 80,
      "¼": 81,
      "½": 82,
      "¾": 83,
      "¿": 84,
      "Â": 85,
      "Ã": 86,
      "Å": 87,
      "Î": 88,
      "Ï": 89,
      "á": 90,
      "â": 91,
      "Ċ": 92,
      "č": 93,
      "Ġ": 94,
      "Ģ": 95,
      "ģ": 96,
      "Ĥ": 97,
      "ĥ": 98,
      "Ħ": 99,
      "ħ": 100,
      "Ĩ": 101,
      "ĩ": 102,
      "Ī": 103,
      "ī": 104,
      "ĵ": 105,
      "Ġt": 106,
      "he": 107,
      "Ġa": 108,
      "čĊ": 109,
      "Ġthe": 110,
      "in": 111,
      "Ġo": 112,
      "re": 113,
      "Ġw": 114,
      "Ġs": 115,
      "is": 116,
      "at": 117,
      "er": 118,
      "on": 119,
      "Ġof": 120,
      "nd": 121,
      "Ġb": 122,
      "it": 123,
      "Ġm": 124,
      "Ġc": 125,
      "en": 126,
      "Ġh": 127,
      "es": 128,
      "Ġf": 129,
      "Ġin": 130,
      "Ġp": 131,
      "Ġth": 132,
      "Ġto": 133,
      "Ġand": 134,
      "Ġd": 135,
      "ou": 136,
      "ed": 137,
      "or": 138,
      "an": 139,
      "ing": 140,
      "ic": 141,
      "Ġn": 142,
      "ll": 143,
      "ĠčĊ": 144,
      "ar": 145,
      "ion": 146,
      "Ġbe": 147,
      "Ġwh": 148,
      "as": 149,
      "Ġl": 150,
      "Ġe": 151,
      "Ġis": 152,
      "om": 153,
      "Ġi": 154,
      "ot": 155,
      "Ġhe": 156,
      "Ġre": 157,
      "le": 158,
      "st": 159,
      "al": 160,
      "Ġthat": 161,
      "se": 162,
      "Ġg": 163,
      "ve": 164,
      "ly": 165,
      "ent": 166,
      "ut": 167,
      "Ġon": 168,
      "ce": 169,
      "Ġit": 170,
      "ct": 171,
      "Ġha": 172,
      "am": 173,
      "ow": 174,
      "Ġu": 175,
      "Ġas": 176,
      "im": 177,
      "Ġfor": 178,
      "her": 179,
      "ich": 180,
      "Ġnot": 181,
      "Ġwhich": 182,
      "Ġan": 183,
      "Ġcon": 184,
      "ver": 185,
      "ur": 186,
      "ld": 187,
      "ay": 188,
      "gh": 189,
      "ir": 190,
      "Ġwe": 191,
      "ith": 192,
      "id": 193,
      "Ġor": 194,
      "ation": 195,
      "Ġst": 196,
      "et": 197,
      "Ġwith": 198,
      "ch": 199,
      "ain": 200,
      "Ġhis": 201,
      "Ġy": 202,
      "ess": 203,
      "Ġsu": 204,
      "ro": 205,
      "Ġare": 206,
      "Ġex": 207,
      "Ġthis": 208,
      "ĠĠ": 209,
      "ght": 210,
      "if": 211,
      "Ġby": 212,
      "Ġdre": 213,
      "Ġbut": 214,
      "ul": 215,
      "Ġdream": 216,
      "ill": 217,
      "od": 218,
      "Ġhave": 219,
      "Ġfr": 220,
      "il": 221,
      "Ġat": 222,
      "ad": 223,
      "ter": 224,
      "Ġr": 225,
      "Ġone": 226,
      "us": 227,
      "Ġse": 228,
      "all": 229,
      "ak": 230,
      "Ġwho": 231,
      "ore": 232,
      "Ġde": 233,
      "res": 234,
      "Ġthey": 235,
      "ble": 236,
      "pe": 237,
      "ity": 238,
      "os": 239,
      "ust": 240,
      "th": 241,
      "Ġall": 242,
      "Ġman": 243,
      "qu": 244,
      "ould": 245,
      "Ġhim": 246,
      "ist": 247,
      "Ġme": 248,
      "est": 249,
      "Ġyou": 250,
      "iv": 251,
      "ous": 252,
      "ate": 253,
      "Ġfrom": 254,
      "ther": 255,
      "Ġal": 256,
      "Ġtr": 257,
      "Ġk": 258,
      "Ġso": 259,
      "Ġsh": 260,
      "Ġwhe": 261,
      "Ġwas": 262,
      "Ġthem": 263,
      "Ġv": 264,
      "Ġhas": 265,
      "Ġch": 266,
      "Ġne": 267,
      "Ġcom": 268,
      "Ġwill": 269,
      "Ġthere": 270,
      "ge": 271,
      "ci": 272,
      "Ġ\"": 273,
      "Ġpro": 274,
      "mp": 275,
      "ig": 276,
      "sel": 277,
      "pp": 278,
      "ect": 279,
      "Ġun": 280,
      "Ġdo": 281,
      "ure": 282,
      "Ġab": 283,
      "Ġint": 284,
      "ers": 285,
      "Ġtheir": 286,
      "ight": 287,
      "ment": 288,
      "ant": 289,
      "Ġwor": 290,
      "ol": 291,
      "ra": 292,
      "Ġmy": 293,
      "Ġno": 294,
      "Ġother": 295,
      "ive": 296,
      "Ġif": 297,
      "very": 298,
      "ind": 299,
      "Ġj": 300,
      "red": 301,
      "ie": 302,
      "ac": 303,
      "ies": 304,
      "ard": 305,
      "um": 306,
      "Ġgo": 307,
      "Ġhad": 308,
      "Ġwhat": 309,
      "and": 310,
      "op": 311,
      "Ġar": 312,
      "ome": 313,
      "Ġcan": 314,
      "ren": 315,
      "Ġmore": 316,
      "self": 317,
      "Ġwhen": 318,
      "ke": 319,
      "ong": 320,
      "--": 321,
      "de": 322,
      "cc": 323,
      "reat": 324,
      "ence": 325,
      "art": 326,
      "ame": 327,
      "Ġonly": 328,
      "out": 329,
      "Ġdis": 330,
      "ast": 331,
      "Ġmay": 332,
      "ose": 333,
      "ions": 334,
      "Ġpl": 335,
      "Ġcont": 336,
      "ue": 337,
      "Ġsa": 338,
      "ost": 339,
      "Ġbeen": 340,
      "now": 341,
      "our": 342,
      "pl": 343,
      "ally": 344,
      "ĠĠĠĠ": 345,
      "Ġthou": 346,
      "Ġwould": 347,
      "ort": 348,
      "Ġbec": 349,
      "Ġev": 350,
      "Ġour": 351,
      "ert": 352,
      "Ġany": 353,
      "Ġpr": 354,
      "able": 355,
      "Ġup": 356,
      "Ġle": 357,
      "au": 358,
      "em": 359,
      "ance": 360,
      "Ġfa": 361,
      "Ġli": 362,
      "Ġus": 363,
      "Ġper": 364,
      "Ġ(": 365,
      "ife": 366,
      "Ġknow": 367,
      "un": 368,
      "ans": 369,
      "Ġfe": 370,
      "ap": 371,
      "ish": 372,
      "Ġag": 373,
      "ff": 374,
      "Ġthen": 375,
      "Ġen": 376,
      "ag": 377,
      "'s": 378,
      "Ġwere": 379,
      "ake": 380,
      "Ġthan": 381,
      "Ġlo": 382,
      "Ġsaid": 383,
      "Ġqu": 384,
      "ri": 385,
      "Ġtim": 386,
      "Ġits": 387,
      "Ġam": 388,
      "Ġinto": 389,
      "Ġcons": 390,
      "so": 391,
      "Ġher": 392,
      "Ġlife": 393,
      "ound": 394,
      "Ġgreat": 395,
      "ice": 396,
      "Ġsuch": 397,
      "Ġsay": 398,
      "Ġph": 399,
      "Ġimp": 400,
      "ness": 401,
      "ens": 402,
      "ress": 403,
      "pt": 404,
      "Ġlike": 405,
      "ings": 406,
      "Ġjust": 407,
      "Ġad": 408,
      "other": 409,
      "Ġmust": 410,
      "Ġdes": 411,
      "Ġsp": 412,
      "Ġthese": 413,
      "ough": 414,
      "ise": 415,
      "Ġob": 416,
      "Ġhow": 417,
      "Ġthought": 418,
      "Ġund": 419,
      "hing": 420,
      "ical": 421,
      "fe": 422,
      "ire": 423,
      "eri": 424,
      "Ġevery": 425,
      "con": 426,
      "ite": 427,
      "ary": 428,
      "Ġgood": 429,
      "ces": 430,
      "ree": 431,
      "Ġpart": 432,
      "Ġsome": 433,
      "ass": 434,
      "ations": 435,
      "fore": 436,
      "Ġrem": 437,
      "Ġnow": 438,
      "Ġpre": 439,
      "Ġmen": 440,
      "wn": 441,
      "ult": 442,
      "Ġalso": 443,
      "og": 444,
      "Ġpo": 445,
      "Ġstate": 446,
      "Ġout": 447,
      "the": 448,
      "Ġexp": 449,
      "ves": 450,
      "Ġrep": 451,
      "ory": 452,
      "ated": 453,
      "irst": 454,
      "Ġmost": 455,
      "Ġnat": 456,
      "Ġshould": 457,
      "Ġthose": 458,
      "Ġsame": 459,
      "Ġcomp": 460,
      "Ġtime": 461,
      "Ġagain": 462,
      "ject": 463,
      "Ġabout": 464,
      "Ġatt": 465,
      "ied": 466,
      "ine": 467,
      "ause": 468,
      "Ġact": 469,
      "ud": 470,
      "Ġim": 471,
      "Ġacc": 472,
      "Ġte": 473,
      "ertain": 474,
      "one": 475,
      "ab": 476,
      "ace": 477,
      "Ġunder": 478,
      "Ġ_": 479,
      "Ġdif": 480,
      "oll": 481,
      "Ġfirst": 482,
      "Ġeven": 483,
      "ok": 484,
      "ep": 485,
      "ual": 486,
      "Ġown": 487,
      "oss": 488,
      "Ġvery": 489,
      "way": 490,
      "uc": 491,
      "resent": 492,
      "Ġres": 493,
      "ach": 494,
      "ars": 495,
      "uth": 496,
      "are": 497,
      "Ġhimself": 498,
      "hed": 499,
      "Ġspe": 500,
      "iz": 501,
      "ition": 502,
      "ful": 503,
      "itt": 504,
      "oun": 505,
      "Ġform": 506,
      "Ġshe": 507,
      "Ġrel": 508,
      "Ġbr": 509,
      "Ġbeing": 510,
      "Ġcl": 511,
      "ink": 512,
      "ious": 513,
      "Ġbet": 514,
      "feren": 515,
      "Ġaf": 516,
      "Ġpers": 517,
      "Ġtw": 518,
      "ither": 519,
      "ible": 520,
      "Ġanother": 521,
      "ates": 522,
      "Ġstr": 523,
      "ild": 524,
      "Ġind": 525,
      "Ġdoes": 526,
      "Ġgod": 527,
      ".\"": 528,
      "act": 529,
      "cess": 530,
      "el": 531,
      "Ġcertain": 532,
      "cl": 533,
      "Ġmat": 534,
      "ict": 535,
      "age": 536,
      "sy": 537,
      "Ġway": 538,
      "Ġphil": 539,
      "not": 540,
      "Ġtrue": 541,
      "led": 542,
      "Ġbel": 543,
      "we": 544,
      "der": 545,
      "Ġthr": 546,
      "osop": 547,
      "ason": 548,
      "urn": 549,
      "ign": 550,
      "ather": 551,
      "ile": 552,
      "Ġ'": 553,
      "ase": 554,
      "Ġrec": 555,
      "Ġafter": 556,
      "ian": 557,
      "Ġphilosop": 558,
      "Ġide": 559,
      "Ġmany": 560,
      "Ġupon": 561,
      "ide": 562,
      "Ġbecause": 563,
      "Ġsub": 564,
      "Ġsee": 565,
      "ade": 566,
      "Ġpe": 567,
      "Ġworld": 568,
      "Ġsou": 569,
      "ang": 570,
      "Ġap": 571,
      "Ġreason": 572,
      "sych": 573,
      "Ġperson": 574,
      "uch": 575,
      "Ġtwo": 576,
      "ry": 577,
      "Ġinf": 578,
      "Ġgr": 579,
      "Ġpsych": 580,
      "Ġass": 581,
      "Ġcomm": 582,
      "ys": 583,
      "Ġapp": 584,
      "Ġinter": 585,
      "Ġprin": 586,
      "aking": 587,
      "Ġwell": 588,
      "ord": 589,
      "ath": 590,
      "cept": 591,
      "ving": 592,
      "Ġposs": 593,
      "ily": 594,
      "Ġwithout": 595,
      "Ġ1": 596,
      "erm": 597,
      "Ġmind": 598,
      "Ġinte": 599,
      "Ġover": 600,
      "cious": 601,
      "Ġgen": 602,
      ",\"": 603,
      "Ġchild": 604,
      "Ġnever": 605,
      "ount": 606,
      "Ġdreams": 607,
      "int": 608,
      "Ġlong": 609,
      "ĠĠĠĠĠĠĠĠ": 610,
      "Ġsoul": 611,
      "ality": 612,
      "omet": 613,
      "Ġshall": 614,
      "Ġabs": 615,
      "ret": 616,
      "Ġdist": 617,
      "ple": 618,
      "hes": 619,
      "Ġthink": 620,
      "Ġop": 621,
      "Ġmake": 622,
      "Ġlet": 623,
      "ber": 624,
      "less": 625,
      "ood": 626,
      "Ġfoll": 627,
      "Ġstill": 628,
      "Ġwhere": 629,
      "Ġfact": 630,
      "bl": 631,
      "ved": 632,
      "Ġthus": 633,
      "Ġmade": 634,
      "Ġnothing": 635,
      "Ġart": 636,
      "Ġnature": 637,
      "Ġhum": 638,
      "ward": 639,
      "ower": 640,
      "selves": 641,
      "ern": 642,
      "Ġappe": 643,
      "Ġwish": 644,
      "Ġend": 645,
      "Ġday": 646,
      "Ġocc": 647,
      "Ġpass": 648,
      "Ġseem": 649,
      "pect": 650,
      "ack": 651,
      "Ġreg": 652,
      "Ġwork": 653,
      "Ġye": 654,
      "Ġfl": 655,
      "Ġsomet": 656,
      "Ġmuch": 657,
      "ors": 658,
      "Ġthings": 659,
      "Ġthrough": 660,
      "Ġfollow": 661,
      "Ġorder": 662,
      "Ġmean": 663,
      "Ġword": 664,
      "ove": 665,
      "Ġsupp": 666,
      "Ġchar": 667,
      "Ġtruth": 668,
      "Ġent": 669,
      "Ġinst": 670,
      "Ġhere": 671,
      "Ġcannot": 672,
      "Ġdisc": 673,
      "oc": 674,
      "Ġwom": 675,
      "Ġcall": 676,
      "Ġsy": 677,
      "ures": 678,
      "ments": 679,
      "Ġyet": 680,
      "own": 681,
      "ction": 682,
      "ways": 683,
      "thing": 684,
      "te": 685,
      "ense": 686,
      "Ġcould": 687,
      "Ġbefore": 688,
      "ives": 689,
      "old": 690,
      "orm": 691,
      "Ġalways": 692,
      "ished": 693,
      "ever": 694,
      "Ġref": 695,
      "iend": 696,
      "Ġfar": 697,
      "ific": 698,
      "Ġdifferen": 699,
      "av": 700,
      "Ġfound": 701,
      "ady": 702,
      "Ġtherefore": 703,
      "ten": 704,
      "Ġfriend": 705,
      "Ġhand": 706,
      "ained": 707,
      "Ġsim": 708,
      "Ġitself": 709,
      "Ġhapp": 710,
      "ner": 711,
      "Ġpresent": 712,
      "Ġtoo": 713,
      "Ġwhom": 714,
      "Ġagainst": 715,
      "Ġhuman": 716,
      "ip": 717,
      "Ġmight": 718,
      "oth": 719,
      "Ġfind": 720,
      "Ġla": 721,
      "fic": 722,
      "Ġmor": 723,
      "vers": 724,
      "ient": 725,
      "Ġnew": 726,
      "rib": 727,
      "ledge": 728,
      "Ġlove": 729,
      "Ġyour": 730,
      "Ġwhether": 731,
      "mpt": 732,
      "ities": 733,
      "Ġthoughts": 734,
      "Ġwr": 735,
      "Ġcr": 736,
      "Ġothers": 737,
      "irt": 738,
      "Ġcond": 739,
      "rist": 740,
      "Ġtake": 741,
      "Ġbl": 742,
      "Ġright": 743,
      "Ġac": 744,
      "ial": 745,
      "aps": 746,
      "Ġprop": 747,
      "Ġgener": 748,
      "Ġro": 749,
      "Ġdid": 750,
      "arn": 751,
      "Ġplace": 752,
      "Ġbelie": 753,
      "Ġinv": 754,
      "Ġbeg": 755,
      "Ġopp": 756,
      "ains": 757,
      "ention": 758,
      "akes": 759,
      "Ġbo": 760,
      "Ġple": 761,
      "aken": 762,
      "Ġsuff": 763,
      "Ġpower": 764,
      "Ġhaving": 765,
      "urd": 766,
      "Ġcor": 767,
      "Ġsc": 768,
      "Ġnor": 769,
      "ived": 770,
      "Ġexist": 771,
      "ia": 772,
      "Ġyes": 773,
      "Ġpsychic": 774,
      "hy": 775,
      "Ġcontr": 776,
      "Ġquest": 777,
      "ib": 778,
      "ru": 779,
      "Ġexpl": 780,
      "Ġthemselves": 781,
      "Ġpeop": 782,
      "Ġsomething": 783,
      "Ġsubject": 784,
      "ĠĠĠ": 785,
      "Ġknowledge": 786,
      "haps": 787,
      "Ġaff": 788,
      "Ġbecome": 789,
      "Ġchrist": 790,
      "Ġconf": 791,
      "ittle": 792,
      "als": 793,
      "ull": 794,
      "ween": 795,
      "Ġser": 796,
      "Ġcase": 797,
      "Ġnecess": 798,
      "Ġlittle": 799,
      "Ġexpress": 800,
      "Ġbod": 801,
      "Ġbetween": 802,
      "ark": 803,
      "Ġexam": 804,
      "Ġwhole": 805,
      "Ġcontent": 806,
      "Ġpeople": 807,
      "Ġcle": 808,
      "ivid": 809,
      "Ġvirt": 810,
      "Ġplat": 811,
      "Ġgl": 812,
      "Ġold": 813,
      "ange": 814,
      "Ġboth": 815,
      "Ġpoint": 816,
      "Ġlat": 817,
      "Ġamong": 818,
      "ced": 819,
      "Ġperhaps": 820,
      "Ġear": 821,
      "stand": 822,
      "Ġprinci": 823,
      "Ġel": 824,
      "ph": 825,
      "Ġinde": 826,
      "cond": 827,
      "Ġinc": 828,
      "ider": 829,
      "Ġfeel": 830,
      "Ġmatter": 831,
      "Ġinterp": 832,
      "Ġnum": 833,
      "Ġwhile": 834,
      "Ġele": 835,
      "Ġcharact": 836,
      "ined": 837,
      "ection": 838,
      "Ġins": 839,
      "Ġgu": 840,
      "Ġabsurd": 841,
      "Ġmod": 842,
      "Ġhowever": 843,
      "ourse": 844,
      "ute": 845,
      "Ġexperi": 846,
      "ract": 847,
      "Ġpleas": 848,
      "cy": 849,
      "ave": 850,
      "Ġtrans": 851,
      "Ġret": 852,
      "Ġsecond": 853,
      "Ġobject": 854,
      "Ġquestion": 855,
      "irit": 856,
      "aint": 857,
      "Ġmeans": 858,
      "Ġthough": 859,
      ").": 860,
      "Ġpur": 861,
      "Ġconst": 862,
      "ility": 863,
      "Ġcome": 864,
      "Ġjustice": 865,
      "rest": 866,
      "Ġconsider": 867,
      "Ġadm": 868,
      "get": 869,
      "ular": 870,
      "to": 871,
      "Ġdem": 872,
      "Ġsl": 873,
      "olog": 874,
      "Ġwoman": 875,
      "Ġplato": 876,
      "iness": 877,
      "Ġsin": 878,
      "ism": 879,
      "Ġkind": 880,
      "ficult": 881,
      "ences": 882,
      "Ġdifficult": 883,
      "ised": 884,
      "Ġoften": 885,
      "Ġdifferent": 886,
      "wh": 887,
      "Ġdr": 888,
      "iven": 889,
      "Ġspirit": 890,
      "Ġrepresent": 891,
      "Ġlaw": 892,
      "Ġeither": 893,
      "Ġsense": 894,
      "ond": 895,
      "Ġshow": 896,
      "Ġuse": 897,
      "Ġeff": 898,
      "igin": 899,
      "Ġinterpret": 900,
      "ick": 901,
      "Ġless": 902,
      "Ġke": 903,
      "just": 904,
      "Ġlast": 905,
      "und": 906,
      "Ġorigin": 907,
      "Ġonce": 908,
      "Ġevil": 909,
      "Ġperf": 910,
      "Ġable": 911,
      "Ġfather": 912,
      "ution": 913,
      "uring": 914,
      "Ġphilosopher": 915,
      "Ġwords": 916,
      "Ġsens": 917,
      "ty": 918,
      "Ġturn": 919,
      "Ġoff": 920,
      "leep": 921,
      "Ġopin": 922,
      "Ġyears": 923,
      "ught": 924,
      "Ġext": 925,
      "Ġaccord": 926,
      "ians": 927,
      "Ġconc": 928,
      "Ġbetter": 929,
      "Ġrather": 930,
      "bt": 931,
      "ating": 932,
      "Ġthing": 933,
      "Ġcharacter": 934,
      "ope": 935,
      "Ġdet": 936,
      "arm": 937,
      "rent": 938,
      "),": 939,
      "Ġrepl": 940,
      "wards": 941,
      "Ġimag": 942,
      "li": 943,
      "ubl": 944,
      "Ġobs": 945,
      "up": 946,
      "Ġgive": 947,
      "Ġed": 948,
      "Ġrest": 949,
      "Ġill": 950,
      "ently": 951,
      "Ġappear": 952,
      "Ġbest": 953,
      "Ġdeath": 954,
      "Ġreal": 955,
      "Ġhon": 956,
      "Ġconn": 957,
      "Ġaw": 958,
      "Ġsign": 959,
      "Ġwhy": 960,
      "Ġsure": 961,
      "Ġfur": 962,
      "Ġask": 963,
      "Ġconscious": 964,
      "cons": 965,
      "Ġmet": 966,
      "iving": 967,
      "Ġlook": 968,
      "Ġpat": 969,
      "ics": 970,
      "Ġunderstand": 971,
      "Ġeas": 972,
      "Ġlearn": 973,
      "Ġindivid": 974,
      "Ġregard": 975,
      "Ġmem": 976,
      "Ġcertainly": 977,
      "Ġidea": 978,
      "ready": 979,
      "Ġwant": 980,
      "Ġlight": 981,
      "Ġphilosophy": 982,
      "Ġbegin": 983,
      "Ġem": 984,
      "Ġever": 985,
      "gu": 986,
      "Ġought": 987,
      "Ġindividual": 988,
      "les": 989,
      "Ġalready": 990,
      "Ġprof": 991,
      "ably": 992,
      "arch": 993,
      "ning": 994,
      "ared": 995,
      "hen": 996,
      "osed": 997,
      "Ġval": 998,
      "ene": 999,
      "Ġpoet": 1000,
      "Ġanal": 1001,
      "Ġcourse": 1002,
      "Ġdou": 1003,
      "ceed": 1004,
      "Ġjud": 1005,
      "Ġsm": 1006,
      "Ġsleep": 1007,
      "Ġput": 1008,
      "Ġeach": 1009,
      "Ġneed": 1010,
      "Ġmanner": 1011,
      "Ġseems": 1012,
      "Ġbody": 1013,
      "Ġclear": 1014,
      "ne": 1015,
      "isf": 1016,
      "Ġty": 1017,
      "ited": 1018,
      "ired": 1019,
      "Ġwis": 1020,
      "itu": 1021,
      "Ġco": 1022,
      "Ġhig": 1023,
      "ety": 1024,
      "Ġeverything": 1025,
      "vel": 1026,
      "Ġey": 1027,
      "Ġindeed": 1028,
      "ception": 1029,
      "arri": 1030,
      "Ġread": 1031,
      "..": 1032,
      "iew": 1033,
      "Ġpossible": 1034,
      "Ġcap": 1035,
      "ogn": 1036,
      "Ġauth": 1037,
      "its": 1038,
      "Ġadv": 1039,
      "Ġspeak": 1040,
      "Ġrul": 1041,
      "Ġcommon": 1042,
      "aut": 1043,
      "ft": 1044,
      "Ġequ": 1045,
      "Ġhel": 1046,
      "ents": 1047,
      "osition": 1048,
      "Ġquite": 1049,
      "Ġinterest": 1050,
      "Ġdel": 1051,
      "ail": 1052,
      "Ġans": 1053,
      "that": 1054,
      "Ġbecom": 1055,
      "Ġduring": 1056,
      "oy": 1057,
      "Ġ2": 1058,
      "Ġreally": 1059,
      "usion": 1060,
      "du": 1061,
      "Ġimm": 1062,
      "Ġfurther": 1063,
      "ative": 1064,
      "Ġgiven": 1065,
      "tern": 1066,
      "Ġaccording": 1067,
      "Ġdef": 1068,
      "ublic": 1069,
      "Ġemp": 1070,
      "Ġru": 1071,
      "ms": 1072,
      "crib": 1073,
      "ually": 1074,
      "ons": 1075,
      "Ġsup": 1076,
      "Ġenough": 1077,
      "Ġnatur": 1078,
      "Ġpres": 1079,
      "Ġdiv": 1080,
      "Ġhist": 1081,
      "Ġsel": 1082,
      "ples": 1083,
      "_,": 1084,
      "Ġsat": 1085,
      "Ġfore": 1086,
      "Ġnumber": 1087,
      "Ġaway": 1088,
      "Ġdown": 1089,
      "lect": 1090,
      "Ġoccur": 1091,
      "ered": 1092,
      "most": 1093,
      "Ġfin": 1094,
      "Ġwhose": 1095,
      "cr": 1096,
      "ances": 1097,
      "Ġir": 1098,
      "Ġview": 1099,
      "Ġsur": 1100,
      "Ġfre": 1101,
      "erial": 1102,
      "Ġfear": 1103,
      "Ġchildren": 1104,
      ".'": 1105,
      "Ġintell": 1106,
      "Ġconcern": 1107,
      "here": 1108,
      "Ġself": 1109,
      "ier": 1110,
      "Ġsci": 1111,
      "igh": 1112,
      "Ġca": 1113,
      "Ġreplied": 1114,
      "Ġfam": 1115,
      "Ġget": 1116,
      "xt": 1117,
      "Ġmere": 1118,
      "Ġopinion": 1119,
      "conscious": 1120,
      "cul": 1121,
      "Ġest": 1122,
      "Ġheart": 1123,
      "ng": 1124,
      "ought": 1125,
      "Ġconce": 1126,
      "Ġrecogn": 1127,
      "air": 1128,
      "Ġtaken": 1129,
      "Ġlead": 1130,
      "Ġdoubt": 1131,
      "Ġhard": 1132,
      "Ġcount": 1133,
      "Ġvirtue": 1134,
      "Ġes": 1135,
      "Ġyoung": 1136,
      "Ġtimes": 1137,
      "Ġobser": 1138,
      "Ġpar": 1139,
      "Ġinterpretation": 1140,
      "Ġrequ": 1141,
      "Ġabove": 1142,
      "Ġname": 1143,
      "Ġneither": 1144,
      "Ġbook": 1145,
      "lu": 1146,
      "Ġseen": 1147,
      "Ġpossess": 1148,
      "ination": 1149,
      "sequ": 1150,
      "Ġmaterial": 1151,
      "inct": 1152,
      "Ġcity": 1153,
      "edi": 1154,
      "Ġunt": 1155,
      "Ġmyself": 1156,
      "Ġchristian": 1157,
      "Ġelse": 1158,
      "arent": 1159,
      "Ġgree": 1160,
      "Ġfall": 1161,
      "Ġstand": 1162,
      "Ġexperience": 1163,
      "Ġsort": 1164,
      "Ġcast": 1165,
      "ists": 1166,
      "Ġgreater": 1167,
      "Ġbelieve": 1168,
      "ks": 1169,
      "iss": 1170,
      "Ġcare": 1171,
      "Ġpol": 1172,
      "Ġeduc": 1173,
      "ured": 1174,
      "Ġimpress": 1175,
      "Ġideas": 1176,
      "Ġcalled": 1177,
      "ted": 1178,
      "Ġmakes": 1179,
      "Ġnecessary": 1180,
      "Ġprev": 1181,
      "pr": 1182,
      "Ġmot": 1183,
      "Ġbeaut": 1184,
      "Ġheav": 1185,
      "Ġfew": 1186,
      "ues": 1187,
      "Ġleast": 1188,
      "iter": 1189,
      "Ġgods": 1190,
      "Ġhelp": 1191,
      "ying": 1192,
      "iar": 1193,
      "Ġpersons": 1194,
      "ged": 1195,
      "Ġrid": 1196,
      "Ġallow": 1197,
      "Ġtreat": 1198,
      "Ġgover": 1199,
      "Ġthree": 1200,
      "Ġstrong": 1201,
      "ym": 1202,
      "Ġtell": 1203,
      "orn": 1204,
      "Ġcomple": 1205,
      "Ġfull": 1206,
      "Ġprocess": 1207,
      "._": 1208,
      "Ġdire": 1209,
      "Ġexc": 1210,
      "Ġvis": 1211,
      "Ġcontin": 1212,
      "Ġactiv": 1213,
      "wise": 1214,
      "Ġpartic": 1215,
      "Ġsince": 1216,
      "Ġansw": 1217,
      "Ġage": 1218,
      "ering": 1219,
      "Ġsocr": 1220,
      "Ġfaith": 1221,
      "Ġgeneral": 1222,
      "Ġess": 1223,
      "err": 1224,
      "Ġrom": 1225,
      "Ġclass": 1226,
      "Ġdra": 1227,
      "Ġrece": 1228,
      "Ġconte": 1229,
      "Ġpain": 1230,
      "Ġadd": 1231,
      "for": 1232,
      "ises": 1233,
      "Ġback": 1234,
      "Ġprob": 1235,
      "ting": 1236,
      "Ġdang": 1237,
      "alth": 1238,
      "Ġanalys": 1239,
      "Ġsing": 1240,
      "Ġset": 1241,
      "Ġanything": 1242,
      "Ġsays": 1243,
      "Ġresult": 1244,
      "ale": 1245,
      "Ġcit": 1246,
      "oura": 1247,
      "par": 1248,
      "Ġharm": 1249,
      "Ġnight": 1250,
      "uss": 1251,
      "Ġalmost": 1252,
      "Ġbad": 1253,
      "Ġstud": 1254,
      "Ġimport": 1255,
      "Ġsatisf": 1256,
      "ines": 1257,
      "itions": 1258,
      "Ġbeh": 1259,
      "Ġsec": 1260,
      "Ġremark": 1261,
      "ized": 1262,
      "Ġplay": 1263,
      "itted": 1264,
      "Ġmeaning": 1265,
      "row": 1266,
      "Ġphys": 1267,
      "Ġgovern": 1268,
      "ix": 1269,
      "Ġsis": 1270,
      "ief": 1271,
      "Ġhold": 1272,
      "imul": 1273,
      "Ġdec": 1274,
      "Ġacqu": 1275,
      "Ġmus": 1276,
      "ened": 1277,
      "ately": 1278,
      "Ġproble": 1279,
      "over": 1280,
      "Ġmom": 1281,
      "Ġsol": 1282,
      "ected": 1283,
      "Ġrelation": 1284,
      "Ġsocrates": 1285,
      "be": 1286,
      "Ġcir": 1287,
      "ires": 1288,
      "of": 1289,
      "Ġwaking": 1290,
      "Ġmas": 1291,
      "Ġdev": 1292,
      "me": 1293,
      "Ġgreatest": 1294,
      "Ġdesire": 1295,
      "atic": 1296,
      "Ġrelig": 1297,
      "Ġentire": 1298,
      "Ġkeep": 1299,
      "Ġhistory": 1300,
      "ouse": 1301,
      "Ġconcl": 1302,
      "Ġconsequ": 1303,
      "Ġinflu": 1304,
      "Ġprince": 1305,
      "Ġreturn": 1306,
      "oot": 1307,
      "Ġdest": 1308,
      "Ġlonger": 1309,
      "Ġbelong": 1310,
      "Ġfriends": 1311,
      "Ġpatient": 1312,
      "Ġcitiz": 1313,
      "ides": 1314,
      "Ġstates": 1315,
      "though": 1316,
      "Ġauthor": 1317,
      "ca": 1318,
      "ius": 1319,
      "Ġsent": 1320,
      "ases": 1321,
      "Ġfort": 1322,
      "Ġstimul": 1323,
      "Ġatte": 1324,
      "man": 1325,
      "ental": 1326,
      "Ġtyr": 1327,
      "Ġuntil": 1328,
      "Ġrespect": 1329,
      "dom": 1330,
      "hip": 1331,
      "Ġactivity": 1332,
      "Ġterm": 1333,
      "Ġtoget": 1334,
      "Ġyouth": 1335,
      "Ġsaying": 1336,
      "Ġbrought": 1337,
      "Ġtogether": 1338,
      "ters": 1339,
      "Ġguard": 1340,
      "Ġbecomes": 1341,
      "ours": 1342,
      ",'": 1343,
      "ortun": 1344,
      "Ġoppos": 1345,
      "Ġalthough": 1346,
      "Ġmemory": 1347,
      "Ġcirc": 1348,
      "gg": 1349,
      "Ġut": 1350,
      "nded": 1351,
      "Ġmis": 1352,
      "stem": 1353,
      "Ġgra": 1354,
      "ilar": 1355,
      "Ġtemp": 1356,
      "ants": 1357,
      "know": 1358,
      "Ġwat": 1359,
      "Ġsex": 1360,
      "Ġeffect": 1361,
      "gn": 1362,
      "Ġassum": 1363,
      "Ġcondition": 1364,
      "Ġprinciple": 1365,
      "Ġlive": 1366,
      "Ġunconscious": 1367,
      "Ġenem": 1368,
      "Ġserv": 1369,
      "itude": 1370,
      "gth": 1371,
      "Ġdone": 1372,
      "ird": 1373,
      "irm": 1374,
      "Ġshort": 1375,
      "ference": 1376,
      "ĠĠĠĠĠĠĠĠĠĠĠĠĠĠĠĠ": 1377,
      "Ġearth": 1378,
      "Ġanalysis": 1379,
      "Ġson": 1380,
      "erious": 1381,
      "Ġexistence": 1382,
      "Ġpleasure": 1383,
      "Ġpurp": 1384,
      "Ġconsciousness": 1385,
      "den": 1386,
      "Ġav": 1387,
      "Ġcreat": 1388,
      "Ġgerm": 1389,
      "Ġexpression": 1390,
      "Ġcaus": 1391,
      "Ġsimilar": 1392,
      "Ġnatural": 1393,
      "Ġaccount": 1394,
      "Ġmoral": 1395,
      "king": 1396,
      "Ġrev": 1397,
      "Ġleft": 1398,
      "Ġperfect": 1399,
      "Ġcomes": 1400,
      "Ġdanger": 1401,
      "Ġmon": 1402,
      "Ġdeg": 1403,
      "Ġdescrib": 1404,
      "ize": 1405,
      "uct": 1406,
      "verse": 1407,
      "adict": 1408,
      "Ġuni": 1409,
      "aught": 1410,
      "Ġremain": 1411,
      "olute": 1412,
      "Ġarr": 1413,
      "Ġeducation": 1414,
      "Ġmoment": 1415,
      "inary": 1416,
      "ows": 1417,
      "Ġexample": 1418,
      "Ġpract": 1419,
      "Ġjudg": 1420,
      "Ġpict": 1421,
      "Ġlater": 1422,
      "Ġwar": 1423,
      "Ġhouse": 1424,
      "Ġfree": 1425,
      "Ġant": 1426,
      "Ġsoci": 1427,
      "Ġdisp": 1428,
      "Ġoccas": 1429,
      "Ġhigher": 1430,
      "Ġparticular": 1431,
      "cise": 1432,
      "hood": 1433,
      "Ġfollowing": 1434,
      "Ġsmall": 1435,
      "Ġsingle": 1436,
      "Ġwithin": 1437,
      "Ġking": 1438,
      "Ġimit": 1439,
      "Ġsystem": 1440,
      "Ġ[": 1441,
      "str": 1442,
      "Ġconv": 1443,
      "Ġmyth": 1444,
      "Ġcontradict": 1445,
      "Ġproceed": 1446,
      "oses": 1447,
      "Ġprov": 1448,
      "Ġeyes": 1449,
      "Ġanswer": 1450,
      "nce": 1451,
      "ified": 1452,
      "Ġsoon": 1453,
      "uced": 1454,
      "Ġelements": 1455,
      "Ġbas": 1456,
      "Ġmaking": 1457,
      "Ġhope": 1458,
      "Ġpolit": 1459,
      "bit": 1460,
      "ony": 1461,
      "Ġmother": 1462,
      "Ġincl": 1463,
      "Ġanim": 1464,
      "Ġdep": 1465,
      "ature": 1466,
      "Ġcame": 1467,
      "Ġwomen": 1468,
      "Ġsever": 1469,
      "Ġexplan": 1470,
      "aim": 1471,
      "su": 1472,
      "hest": 1473,
      "Ġcent": 1474,
      "Ġhy": 1475,
      "icient": 1476,
      "Ġsucc": 1477,
      "Ġargu": 1478,
      "Ġremem": 1479,
      "Ġattention": 1480,
      "Ġmodern": 1481,
      "rect": 1482,
      "Ġcar": 1483,
      "Ġpun": 1484,
      "Ġreality": 1485,
      "pend": 1486,
      "Ġdiscuss": 1487,
      "Ġopposite": 1488,
      "Ġchange": 1489,
      "Ġdeterm": 1490,
      "Ġprobably": 1491,
      "Ġmusic": 1492,
      "Ġcitizens": 1493,
      "lt": 1494,
      "Ġvar": 1495,
      "ternal": 1496,
      "Ġmerely": 1497,
      "Ġtakes": 1498,
      "ided": 1499,
      "ands": 1500,
      "Ġabsolute": 1501,
      "Ġsuppose": 1502,
      "ger": 1503,
      "Ġma": 1504,
      "Ġhither": 1505,
      "Ġdi": 1506,
      "ising": 1507,
      "Ġden": 1508,
      "Ġlar": 1509,
      "Ġbre": 1510,
      "Ġformer": 1511,
      "Ġwrit": 1512,
      "Ġlatter": 1513,
      "Ġeasily": 1514,
      "Ġdirect": 1515,
      "ham": 1516,
      "Ġexpect": 1517,
      "Ġattempt": 1518,
      "Ġpublic": 1519,
      "ash": 1520,
      "Ġstren": 1521,
      "Ġunjust": 1522,
      "Ġaccom": 1523,
      "Ġcontemp": 1524,
      "Ġhigh": 1525,
      "aces": 1526,
      "Ġfav": 1527,
      "Ġrule": 1528,
      "hod": 1529,
      "ool": 1530,
      "Ġsch": 1531,
      "imes": 1532,
      "Ġworth": 1533,
      "ann": 1534,
      "Ġappro": 1535,
      "what": 1536,
      "Ġmethod": 1537,
      "iety": 1538,
      "Ġhear": 1539,
      "uted": 1540,
      "Ġones": 1541,
      "Ġmanif": 1542,
      "lig": 1543,
      "Ġ3": 1544,
      "Ġcause": 1545,
      "ane": 1546,
      "Ġvi": 1547,
      "Ġwishes": 1548,
      "Ġoccasion": 1549,
      "fil": 1550,
      "mb": 1551,
      "Ġsight": 1552,
      "erty": 1553,
      "Ġcontrary": 1554,
      "inite": 1555,
      "Ġserious": 1556,
      "Ġmarri": 1557,
      "Ġce": 1558,
      "eness": 1559,
      "Ġfour": 1560,
      "erior": 1561,
      "Ġcircum": 1562,
      "Ġsil": 1563,
      "Ġsour": 1564,
      "Ġarm": 1565,
      "Ġknows": 1566,
      "Ġsufficient": 1567,
      "Ġcoll": 1568,
      "ingu": 1569,
      "Ġign": 1570,
      "Ġalone": 1571,
      "abl": 1572,
      "justice": 1573,
      "Ġinfluence": 1574,
      ".[": 1575,
      "Ġorg": 1576,
      "aced": 1577,
      "Ġphilosophers": 1578,
      "Ġessent": 1579,
      "Ġfortun": 1580,
      "Ġwon": 1581,
      "Ġtowards": 1582,
      "Ġfail": 1583,
      "Ġconnection": 1584,
      "Ġsignific": 1585,
      "ss": 1586,
      "Ġlim": 1587,
      "Ġnext": 1588,
      "Ġlaws": 1589,
      "Ġcountry": 1590,
      "Ġsuccess": 1591,
      "Ġcol": 1592,
      "Ġeur": 1593,
      "Ġsum": 1594,
      "Ġcho": 1595,
      "velop": 1596,
      "Ġthird": 1597,
      "any": 1598,
      "Ġhead": 1599,
      "Ġrelations": 1600,
      "angu": 1601,
      "Ġpsycholog": 1602,
      "Ġside": 1603,
      "Ġmed": 1604,
      "Ġfut": 1605,
      "lled": 1606,
      "Ġid": 1607,
      "illed": 1608,
      "Ġchang": 1609,
      "Ġknown": 1610,
      "Ġhands": 1611,
      "Ġlost": 1612,
      "Ġfollows": 1613,
      "ex": 1614,
      "Ġsk": 1615,
      "Ġcre": 1616,
      "Ġinjustice": 1617,
      "alities": 1618,
      "iful": 1619,
      "ator": 1620,
      "aining": 1621,
      "Ġpurpose": 1622,
      "kind": 1623,
      "use": 1624,
      "Ġliving": 1625,
      "Ġeng": 1626,
      "by": 1627,
      "day": 1628,
      "men": 1629,
      "Ġtast": 1630,
      "Ġsac": 1631,
      "Ġmention": 1632,
      "orrow": 1633,
      "Ġideal": 1634,
      "Ġridic": 1635,
      "Ġtheory": 1636,
      "Ġlangu": 1637,
      "ury": 1638,
      "istic": 1639,
      "Ġappears": 1640,
      "Ġconstit": 1641,
      "Ġintellect": 1642,
      "airs": 1643,
      "where": 1644,
      "Ġmo": 1645,
      "Ġfal": 1646,
      "soci": 1647,
      "Ġimposs": 1648,
      "Ġassert": 1649,
      "Ġcomplete": 1650,
      "ead": 1651,
      "ts": 1652,
      "Ġfig": 1653,
      "Ġmankind": 1654,
      "oney": 1655,
      "phus": 1656,
      "Ġtransf": 1657,
      "Ġdifficulty": 1658,
      "Ġexplanation": 1659,
      "iod": 1660,
      "Ġborn": 1661,
      "Ġrepe": 1662,
      "Ġdevelop": 1663,
      "Ġprom": 1664,
      "Ġspeaking": 1665,
      ",-": 1666,
      "tle": 1667,
      "Ġpath": 1668,
      "Ġreve": 1669,
      "Ġdece": 1670,
      "Ġneg": 1671,
      "ached": 1672,
      "Ġbeginning": 1673,
      "Ġvalue": 1674,
      "yphus": 1675,
      "Ġwise": 1676,
      "nds": 1677,
      "Ġarist": 1678,
      "Ġagree": 1679,
      "Ġsuper": 1680,
      "uous": 1681,
      "ison": 1682,
      "Ġcur": 1683,
      "Ġanci": 1684,
      "Ġdreamer": 1685,
      "Ġkne": 1686,
      "Ġjo": 1687,
      "Ġsisyphus": 1688,
      "Ġfalse": 1689,
      "Ġexcept": 1690,
      "ulous": 1691,
      "ressed": 1692,
      "Ġlikewise": 1693,
      "ibility": 1694,
      "Ġhardly": 1695,
      "oid": 1696,
      "vation": 1697,
      "hem": 1698,
      "ency": 1699,
      "Ġourselves": 1700,
      "Ġrepro": 1701,
      "Ġaction": 1702,
      "Ġstrange": 1703,
      "Ġcorrect": 1704,
      "Ġsexual": 1705,
      "Ġcircumst": 1706,
      "yond": 1707,
      "ically": 1708,
      "cially": 1709,
      "Ġnoble": 1710,
      "Ġpriv": 1711,
      "Ġremains": 1712,
      "idered": 1713,
      "Ġemot": 1714,
      "Ġscience": 1715,
      "Ġgreek": 1716,
      "ourage": 1717,
      "Ġmaint": 1718,
      "Ġheard": 1719,
      "Ġassoci": 1720,
      "Ġra": 1721,
      "Ġused": 1722,
      "Ġdesp": 1723,
      "Ġbring": 1724,
      "Ġopen": 1725,
      "overed": 1726,
      "Ġeurope": 1727,
      "Ġtest": 1728,
      "Ġful": 1729,
      "Ġlab": 1730,
      "Ġlives": 1731,
      "Ġforget": 1732,
      "ishment": 1733,
      "itive": 1734,
      "Ġliter": 1735,
      "Ġgives": 1736,
      "Ġforce": 1737,
      "ucci": 1738,
      "Ġbrother": 1739,
      "Ġestabl": 1740,
      "Ġdraw": 1741,
      "ins": 1742,
      "Ġhom": 1743,
      "ustom": 1744,
      "Ġprodu": 1745,
      "ortion": 1746,
      "note": 1747,
      "Ġdifference": 1748,
      "Ġhappiness": 1749,
      "Ġcastr": 1750,
      "ashion": 1751,
      "Ġstrength": 1752,
      "Ġfuture": 1753,
      "Ġbeyond": 1754,
      "Ġconception": 1755,
      "iously": 1756,
      "Ġthinking": 1757,
      "Ġwrong": 1758,
      "Ġentirely": 1759,
      "foot": 1760,
      "go": 1761,
      "pond": 1762,
      "Ġcases": 1763,
      "Ġhence": 1764,
      "Ġunc": 1765,
      "Ġindif": 1766,
      "Ġfreed": 1767,
      "Ġmaster": 1768,
      "bers": 1769,
      "Ġsw": 1770,
      "Ġbus": 1771,
      "Ġmoney": 1772,
      "Ġevid": 1773,
      "ages": 1774,
      "Ġconsidered": 1775,
      "Ġprofess": 1776,
      "Ġheaven": 1777,
      "Ġargument": 1778,
      "Ġlanguage": 1779,
      "uccio": 1780,
      "Ġbes": 1781,
      "ician": 1782,
      "Ġweak": 1783,
      "Ġtru": 1784,
      "Ġfeeling": 1785,
      "Ġseveral": 1786,
      "Ġcastruccio": 1787,
      "ls": 1788,
      "no": 1789,
      "Ġfashion": 1790,
      "Ġmeas": 1791,
      "Ġoccup": 1792,
      "Ġimportant": 1793,
      "Ġgovernment": 1794,
      "Ġbu": 1795,
      "Ġdu": 1796,
      "pecially": 1797,
      "Ġvol": 1798,
      "Ġdesires": 1799,
      "Ġ18": 1800,
      "rupt": 1801,
      "Ġglau": 1802,
      "Ġdegree": 1803,
      "ration": 1804,
      "ery": 1805,
      "Ġtold": 1806,
      "ories": 1807,
      "Ġdise": 1808,
      "Ġprecise": 1809,
      "Ġspee": 1810,
      "Ġcommun": 1811,
      "ification": 1812,
      "Ġproper": 1813,
      "Ġeasy": 1814,
      "Ġimpossible": 1815,
      "aves": 1816,
      "ank": 1817,
      "Ġlack": 1818,
      "imate": 1819,
      "Ġpassion": 1820,
      "Ġclearly": 1821,
      "Ġfinally": 1822,
      "Ġignor": 1823,
      "footnote": 1824,
      "ling": 1825,
      "ices": 1826,
      "Ġabra": 1827,
      "Ġdivine": 1828,
      "Ġabraham": 1829,
      ".,": 1830,
      "duced": 1831,
      "Ġcens": 1832,
      "Ġunf": 1833,
      "aged": 1834,
      "Ġformation": 1835,
      "Ġgrow": 1836,
      "Ġdistingu": 1837,
      "Ġworks": 1838,
      "Ġespecially": 1839,
      "mbol": 1840,
      "bod": 1841,
      "Ġtal": 1842,
      "het": 1843,
      "Ġhor": 1844,
      "Ġhal": 1845,
      "Ġfurn": 1846,
      "Ġpra": 1847,
      "Ġsus": 1848,
      "Ġexact": 1849,
      "plic": 1850,
      "Ġclaim": 1851,
      "Ġinstance": 1852,
      "Ġsymbol": 1853,
      "Ġhonour": 1854,
      "Ġbeautiful": 1855,
      "Ġproblem": 1856,
      "Ġcal": 1857,
      "Ġfac": 1858,
      "Ġet": 1859,
      "Ġanx": 1860,
      "urb": 1861,
      "Ġdecl": 1862,
      "respond": 1863,
      "Ġsold": 1864,
      "Ġdesign": 1865,
      "Ġdistinct": 1866,
      "like": 1867,
      "Ġintellig": 1868,
      "iers": 1869,
      "Ġerr": 1870,
      "Ġmar": 1871,
      "Ġhealth": 1872,
      "osing": 1873,
      "astic": 1874,
      "Ġperiod": 1875,
      "Ġparts": 1876,
      "Ġflore": 1877,
      "ock": 1878,
      "Ġsimple": 1879,
      "filment": 1880,
      ",[": 1881,
      "ga": 1882,
      "erg": 1883,
      "Ġcourage": 1884,
      "Ġparent": 1885,
      "Ġrend": 1886,
      "Ġsun": 1887,
      "Ġprim": 1888,
      "Ġelement": 1889,
      "Ġchristianity": 1890,
      "Ġglaucon": 1891,
      "ck": 1892,
      "Ġstre": 1893,
      "Ġrun": 1894,
      "Ġmeet": 1895,
      "Ġalt": 1896,
      "Ġsaw": 1897,
      "Ġrepublic": 1898,
      "Ġforms": 1899,
      "Ġdays": 1900,
      "Ġmorality": 1901,
      "Ġcorrespond": 1902,
      "Ġhighest": 1903,
      "Ġeye": 1904,
      "culiar": 1905,
      "Ġstudy": 1906,
      "Ġmanifest": 1907,
      "Ġposition": 1908,
      "Ġlau": 1909,
      "uls": 1910,
      "Ġnear": 1911,
      "ield": 1912,
      "Ġpeculiar": 1913,
      "Ġapparent": 1914,
      "Ġwisdom": 1915,
      "Ġfamily": 1916,
      "Ġimpression": 1917,
      "Ġfan": 1918,
      "Ġforth": 1919,
      "Ġspeci": 1920,
      "Ġsometimes": 1921,
      "Ġprinciples": 1922,
      "Ġappearance": 1923,
      "\"--": 1924,
      "Ġmin": 1925,
      "Ġmer": 1926,
      "aring": 1927,
      "Ġbecame": 1928,
      "theless": 1929,
      "Ġattack": 1930,
      "Ġwhereas": 1931,
      "Ġgenerally": 1932,
      "Ġgerman": 1933,
      "Ġsociety": 1934,
      "itation": 1935,
      "Ġgir": 1936,
      "Ġstep": 1937,
      "ify": 1938,
      "Ġdoing": 1939,
      "Ġenj": 1940,
      "Ġherself": 1941,
      "Ġappl": 1942,
      "Ġsurely": 1943,
      "Ġroman": 1944,
      "Ġwater": 1945,
      "Ġunivers": 1946,
      "Ġremember": 1947,
      "Ġlarge": 1948,
      "Ġ4": 1949,
      "Ġhome": 1950,
      "Ġpure": 1951,
      "Ġpast": 1952,
      "Ġdut": 1953,
      "Ġimagine": 1954,
      "ingly": 1955,
      "arily": 1956,
      "Ġintro": 1957,
      "ression": 1958,
      "Ġclose": 1959,
      "Ġnevertheless": 1960,
      "Ġconditions": 1961,
      "Ġpleasures": 1962,
      "Ġconstant": 1963,
      "Ġridiculous": 1964,
      "hib": 1965,
      "io": 1966,
      "Ġve": 1967,
      "Ġthous": 1968,
      "ote": 1969,
      "aly": 1970,
      "Ġvict": 1971,
      "aches": 1972,
      "Ġaccept": 1973,
      "Ġsubjects": 1974,
      "Ġtaste": 1975,
      "Ġfreedom": 1976,
      "gr": 1977,
      "nding": 1978,
      "Ġmid": 1979,
      "ether": 1980,
      "Ġleg": 1981,
      "ript": 1982,
      "Ġpoor": 1983,
      "Ġinstead": 1984,
      "Ġblood": 1985,
      "Ġdemoc": 1986,
      "Ġawaken": 1987,
      "Ġbeauty": 1988,
      "Ġjudgment": 1989,
      "Ġdom": 1990,
      "Ġlu": 1991,
      "Ġhero": 1992,
      "utes": 1993,
      "Ġexer": 1994,
      "Ġperm": 1995,
      "Ġground": 1996,
      "Ġnecessity": 1997,
      "Ġexamples": 1998,
      "Ġadvant": 1999,
      "Ġancient": 2000,
      "got": 2001,
      "ven": 2002,
      "Ġwife": 2003,
      "erred": 2004,
      "Ġbene": 2005,
      "iting": 2006,
      "itable": 2007,
      "Ġmove": 2008,
      "Ġfun": 2009,
      "Ġtook": 2010,
      "Ġgoing": 2011,
      "Ġchildhood": 2012,
      "Ġturned": 2013,
      "Ġfortune": 2014,
      "Ġsignificance": 2015,
      "Ġknew": 2016,
      "Ġprecisely": 2017,
      "Ġ5": 2018,
      "ask": 2019,
      "Ġrich": 2020,
      "Ġtrou": 2021,
      "Ġcommand": 2022,
      "ully": 2023,
      "Ġimmedi": 2024,
      "ierke": 2025,
      "Ġsecret": 2026,
      "Ġessential": 2027,
      "_.": 2028,
      "but": 2029,
      "dden": 2030,
      "ha": 2031,
      "wor": 2032,
      "Ġ:": 2033,
      "Ġwa": 2034,
      "Ġsepar": 2035,
      "Ġlog": 2036,
      "Ġqualities": 2037,
      "action": 2038,
      "Ġinstru": 2039,
      "Ġcrit": 2040,
      "mn": 2041,
      "Ġtaking": 2042,
      "Ġsene": 2043,
      "Ġdeep": 2044,
      "Ġkierke": 2045,
      "ogether": 2046,
      "Ġrecall": 2047,
      "Ġarts": 2048,
      "Ġexplain": 2049,
      "Ġextra": 2050,
      "Ġorgan": 2051,
      "Ġhalf": 2052,
      "ision": 2053,
      "Ġord": 2054,
      "iliar": 2055,
      "atever": 2056,
      "Ġchief": 2057,
      "Ġminds": 2058,
      "Ġadmit": 2059,
      "Ġdrink": 2060,
      "Ġperform": 2061,
      "Ġasked": 2062,
      "Ġrulers": 2063,
      "Ġfrequ": 2064,
      "Ġreligion": 2065,
      "gaard": 2066,
      "Ġda": 2067,
      "Ġsudden": 2068,
      "Ġcompe": 2069,
      "Ġunless": 2070,
      "Ġprot": 2071,
      "Ġfell": 2072,
      "Ġpeace": 2073,
      "Ġcapable": 2074,
      "Ġequally": 2075,
      "Ġaltogether": 2076,
      "with": 2077,
      "atus": 2078,
      "used": 2079,
      "Ġearly": 2080,
      "Ġeffort": 2081,
      "Ġlearned": 2082,
      "Ġbusiness": 2083,
      "Ġseneca": 2084,
      "Ġkierkegaard": 2085,
      "?\"": 2086,
      "fully": 2087,
      "Ġmil": 2088,
      "Ġcoun": 2089,
      "Ġhus": 2090,
      "Ġep": 2091,
      "Ġgre": 2092,
      "ament": 2093,
      "Ġrome": 2094,
      "Ġ(_": 2095,
      "Ġrecoll": 2096,
      "Ġhappy": 2097,
      "Ġobjects": 2098,
      "Ġenemies": 2099,
      "Ġrevol": 2100,
      "Ġhomer": 2101,
      "ma": 2102,
      "ays": 2103,
      "Ġexce": 2104,
      "Ġdead": 2105,
      "Ġalong": 2106,
      "Ġvirtues": 2107,
      "Ġpreser": 2108,
      "Ġbehind": 2109,
      "Ġow": 2110,
      "Ġsound": 2111,
      "Ġban": 2112,
      "Ġmist": 2113,
      "aled": 2114,
      "Ġrare": 2115,
      "Ġshown": 2116,
      "Ġarms": 2117,
      "Ġsymp": 2118,
      "Ġopportun": 2119,
      "Ġdestro": 2120,
      "Ġpictures": 2121,
      "'t": 2122,
      "come": 2123,
      "Ġaim": 2124,
      "Ġwhatever": 2125,
      "Ġdeal": 2126,
      "Ġchur": 2127,
      "Ġproof": 2128,
      "Ġje": 2129,
      "Ġobv": 2130,
      "Ġtend": 2131,
      "Ġ15": 2132,
      "Ġyear": 2133,
      "Ġbelief": 2134,
      "Ġregarded": 2135,
      "Ġconcerned": 2136,
      "Ġconclusion": 2137,
      "Ġwonder": 2138,
      "Ġsumm": 2139,
      "Ġsacr": 2140,
      "Ġpop": 2141,
      "aries": 2142,
      "utarch": 2143,
      "usions": 2144,
      "unt": 2145,
      "Ġobt": 2146,
      "which": 2147,
      "Ġshows": 2148,
      "Ġconcerning": 2149,
      "Ġhitherto": 2150,
      "Ġcontempor": 2151,
      "Ġhusb": 2152,
      ".]": 2153,
      "ps": 2154,
      "ze": 2155,
      "Ġmag": 2156,
      "Ġready": 2157,
      "Ġforces": 2158,
      "Ġperce": 2159,
      "Ġimage": 2160,
      "Ġafterwards": 2161,
      "Ġpoets": 2162,
      "ymn": 2163,
      "Ġguardians": 2164,
      "Ġtemper": 2165,
      "Ġassume": 2166,
      "Ġspeech": 2167,
      "Ġver": 2168,
      "Ġtre": 2169,
      "ites": 2170,
      "Ġled": 2171,
      "owers": 2172,
      "acher": 2173,
      "Ġactions": 2174,
      "Ġaffairs": 2175,
      "hens": 2176,
      "Ġanxiety": 2177,
      "Ġhusband": 2178,
      "cript": 2179,
      "ges": 2180,
      "Ġbar": 2181,
      "ased": 2182,
      "Ġface": 2183,
      "Ġphant": 2184,
      "Ġappar": 2185,
      "Ġprofound": 2186,
      "Ġreceived": 2187,
      "Ġaccompl": 2188,
      "Ġintellectual": 2189,
      "Ġenjoy": 2190,
      "com": 2191,
      "oke": 2192,
      "oint": 2193,
      "Ġfight": 2194,
      "icism": 2195,
      "Ġnone": 2196,
      "Ġii": 2197,
      "Ġgent": 2198,
      "Ġsuc": 2199,
      "ferent": 2200,
      "Ġinstinct": 2201,
      "Ġmatters": 2202,
      "Ġdemon": 2203,
      "Ġanimals": 2204,
      "af": 2205,
      "dle": 2206,
      "will": 2207,
      "Ġbed": 2208,
      "Ġbound": 2209,
      "Ġinj": 2210,
      "Ġheld": 2211,
      "Ġdefe": 2212,
      "ively": 2213,
      "rence": 2214,
      "Ġplutarch": 2215,
      "Ġinfant": 2216,
      "Ġpoetry": 2217,
      "Ġjudge": 2218,
      "ixed": 2219,
      "Ġident": 2220,
      "Ġsucceed": 2221,
      "ring": 2222,
      "Ġsorrow": 2223,
      "ont": 2224,
      "Ġeth": 2225,
      "Ġreach": 2226,
      "ime": 2227,
      "Ġstart": 2228,
      "Ġleave": 2229,
      "Ġfair": 2230,
      "Ġresist": 2231,
      "Ġsurpr": 2232,
      "Ġstimuli": 2233,
      "Ġtyrann": 2234,
      "Ġcontradiction": 2235,
      "Ġsource": 2236,
      "Ġexcell": 2237,
      "umpt": 2238,
      "Ã¦": 2239,
      "Ġade": 2240,
      "Ġpen": 2241,
      "Ġnar": 2242,
      "stood": 2243,
      "racy": 2244,
      "Ġreasons": 2245,
      "Ġpassed": 2246,
      "Ġfinds": 2247,
      "Ġinvest": 2248,
      "Ġexperiences": 2249,
      "Ġrepresentation": 2250,
      "Ġproblems": 2251,
      "Ġcensor": 2252,
      "ae": 2253,
      "Ġter": 2254,
      "Ġbat": 2255,
      "Ġstory": 2256,
      "Ġsea": 2257,
      "this": 2258,
      "Ġgoes": 2259,
      "Ġlikely": 2260,
      "Ġsouls": 2261,
      "Ġprincip": 2262,
      "ology": 2263,
      "Ġconnected": 2264,
      "Ġdelight": 2265,
      "Ġcircumstances": 2266,
      "Ġindifferent": 2267,
      "Ġlaugh": 2268,
      "Ġadvantage": 2269,
      "ches": 2270,
      "Ġmark": 2271,
      "Ġcarri": 2272,
      "Ġinn": 2273,
      "Ġeternal": 2274,
      "Ġgain": 2275,
      "Ġstri": 2276,
      "Ġworse": 2277,
      "uel": 2278,
      "Ġcompar": 2279,
      "Ġattrib": 2280,
      "Ġways": 2281,
      "Ġempl": 2282,
      "Ġenemy": 2283,
      "body": 2284,
      "Ġfacult": 2285,
      "Ġopportunity": 2286,
      "Ġchurch": 2287,
      "Ġsitu": 2288,
      "Ġing": 2289,
      "Ġlist": 2290,
      "lection": 2291,
      "rop": 2292,
      "Ġdoct": 2293,
      "Ġabst": 2294,
      "Ġdisturb": 2295,
      "Ġsuffer": 2296,
      "Ġcontinu": 2297,
      "Ġtyrant": 2298,
      "Ġdiscussion": 2299,
      "rer": 2300,
      "Ġmental": 2301,
      "Ġfem": 2302,
      "Ġhabit": 2303,
      "Ġneur": 2304,
      "Ġthereby": 2305,
      "Ġpref": 2306,
      "Ġoriginal": 2307,
      "Ġimpressions": 2308,
      "Ġtruly": 2309,
      "Ġapparatus": 2310,
      ":-": 2311,
      "ugg": 2312,
      "Ġtask": 2313,
      "ishes": 2314,
      "Ġmad": 2315,
      "ster": 2316,
      "ames": 2317,
      "Ġforgot": 2318,
      "Ġconqu": 2319,
      "Ġsty": 2320,
      "Ġsees": 2321,
      "Ġconsci": 2322,
      "Ġprep": 2323,
      "Ġnatures": 2324,
      "bles": 2325,
      "Ġdiscover": 2326,
      "Ġallowed": 2327,
      "Ġexcite": 2328,
      "Ġphysician": 2329,
      "Ġcauses": 2330,
      "Ġthousand": 2331,
      "iest": 2332,
      "Ġmult": 2333,
      "Ġpay": 2334,
      "Ġder": 2335,
      "lling": 2336,
      "Ġexcl": 2337,
      "que": 2338,
      "Ġshad": 2339,
      "Ġfelt": 2340,
      "iction": 2341,
      "Ġaware": 2342,
      "Ġunderstanding": 2343,
      "Ġterms": 2344,
      "Ġdangerous": 2345,
      "Ġbesides": 2346,
      "Ġinvestig": 2347,
      "Ġfire": 2348,
      "Ġtor": 2349,
      "oured": 2350,
      "Ġur": 2351,
      "Ġtry": 2352,
      "Ġdispl": 2353,
      "Ġlib": 2354,
      "Ġcompany": 2355,
      "Ġsupposed": 2356,
      "Ġpursu": 2357,
      "Ġharmony": 2358,
      "Ġmarriage": 2359,
      "Ġtransform": 2360,
      "Ġmeasure": 2361,
      "Ġparents": 2362,
      "ev": 2363,
      "gress": 2364,
      "icate": 2365,
      "Ġgymn": 2366,
      "Ġconvers": 2367,
      "Ġdeed": 2368,
      "Ġgold": 2369,
      "Ġconsist": 2370,
      "Ġphilosoph": 2371,
      "Ġacknow": 2372,
      "Ġcorrupt": 2373,
      "Ġaffect": 2374,
      "Ġrequire": 2375,
      "Ġstronger": 2376,
      "Ġconsequences": 2377,
      "ining": 2378,
      "Ġswe": 2379,
      "enced": 2380,
      "Ġdie": 2381,
      "irth": 2382,
      "Ġrace": 2383,
      "ishing": 2384,
      "Ġamb": 2385,
      "achus": 2386,
      "Ġsubst": 2387,
      "Ġproperty": 2388,
      "Ġsuffering": 2389,
      "Ġrepresented": 2390,
      "Ġauthors": 2391,
      "Ġbecoming": 2392,
      "known": 2393,
      "Ġprivate": 2394,
      "Ġemotion": 2395,
      "ched": 2396,
      "ub": 2397,
      "Ġbro": 2398,
      "lly": 2399,
      "Ġhell": 2400,
      "Ġgave": 2401,
      "Ġhall": 2402,
      "ational": 2403,
      "Ġste": 2404,
      "Ġsole": 2405,
      "rible": 2406,
      "Ġcompre": 2407,
      "Ġactual": 2408,
      "icked": 2409,
      "Ġopinions": 2410,
      "Ġmedic": 2411,
      "Ġgirl": 2412,
      "Ġemploy": 2413,
      "ook": 2414,
      "Ġx": 2415,
      "Ġsake": 2416,
      "Ġfate": 2417,
      "Ġlie": 2418,
      "Ġdepend": 2419,
      "Ġprove": 2420,
      "itting": 2421,
      "Ġhappens": 2422,
      "Ġcontrast": 2423,
      "Ġkept": 2424,
      "Ġillust": 2425,
      "...": 2426,
      "Ġnaturally": 2427,
      "Ġreligious": 2428,
      "Ġauthority": 2429,
      "Ġdescribed": 2430,
      "Ġspecial": 2431,
      "br": 2432,
      "bar": 2433,
      "na": 2434,
      "Ġast": 2435,
      "Ġoffe": 2436,
      "Ġdark": 2437,
      "asym": 2438,
      "sem": 2439,
      "iment": 2440,
      "Ġnotion": 2441,
      "ival": 2442,
      "Ġusually": 2443,
      "Ġenc": 2444,
      "Ġevening": 2445,
      "Ġreflect": 2446,
      "Ġconduct": 2447,
      "Ġtransl": 2448,
      "Ġequal": 2449,
      "Ġleads": 2450,
      "aneous": 2451,
      "Ġduke": 2452,
      "asymachus": 2453,
      "ply": 2454,
      "pir": 2455,
      "reme": 2456,
      "ators": 2457,
      "Ġmount": 2458,
      "Ġtoward": 2459,
      "seless": 2460,
      "Ġimpl": 2461,
      "Ġgenius": 2462,
      "Ġdiscovered": 2463,
      "Ġinvol": 2464,
      "Ġfeelings": 2465,
      "Ġpossession": 2466,
      "ggest": 2467,
      "Ġpolitical": 2468,
      "ox": 2469,
      "ude": 2470,
      "erable": 2471,
      "ital": 2472,
      "Ġdon": 2473,
      "imin": 2474,
      "idity": 2475,
      "Ġperception": 2476,
      "Ġthrasymachus": 2477,
      "Ġexplained": 2478,
      "Ġdemand": 2479,
      "Ġextent": 2480,
      "cape": 2481,
      "aughter": 2482,
      "Ġfavour": 2483,
      "Ġstreet": 2484,
      "Ġimmediately": 2485,
      "Ġforgotten": 2486,
      "reg": 2487,
      "Ġwind": 2488,
      "Ġbra": 2489,
      "Ġbirth": 2490,
      "Ġmach": 2491,
      "oms": 2492,
      "let": 2493,
      "Ġnote": 2494,
      "Ġsuggest": 2495,
      "Ġrise": 2496,
      "Ġotherwise": 2497,
      "Ġquick": 2498,
      "cont": 2499,
      "Ġassist": 2500,
      "athy": 2501,
      "Ġwants": 2502,
      "Ġfamiliar": 2503,
      "Ġutter": 2504,
      "Ġconvin": 2505,
      "ium": 2506,
      "Ġ6": 2507,
      "Ġer": 2508,
      "Ġcult": 2509,
      "Ġfund": 2510,
      "Ġlived": 2511,
      "Ġhes": 2512,
      "ifies": 2513,
      "quet": 2514,
      "Ġvice": 2515,
      "Ġunable": 2516,
      "they": 2517,
      "Ġunderstood": 2518,
      "Ġstrugg": 2519,
      "Ġinfinite": 2520,
      "Ġthinks": 2521,
      "Ġconsideration": 2522,
      "Ġdifficulties": 2523,
      "Ġwritings": 2524,
      "Ġsoldiers": 2525,
      "Ġdemonstr": 2526,
      "Ġstyle": 2527,
      "!\"": 2528,
      "iet": 2529,
      "nt": 2530,
      "oved": 2531,
      "isc": 2532,
      "ones": 2533,
      "Ġciv": 2534,
      "Ġhat": 2535,
      "Ġpie": 2536,
      "oud": 2537,
      "ication": 2538,
      "Ġlady": 2539,
      "Ġcomb": 2540,
      "Ġhappen": 2541,
      "Ġimportance": 2542,
      "Ġservice": 2543,
      "Ġdisease": 2544,
      "Ġdestroy": 2545,
      "Ġgentle": 2546,
      "cing": 2547,
      "Ġmain": 2548,
      "Ġmess": 2549,
      "lli": 2550,
      "Ġbear": 2551,
      "Ġland": 2552,
      "Ġlower": 2553,
      "Ġdog": 2554,
      "Ġaround": 2555,
      "Ġmoreover": 2556,
      "Ġcontro": 2557,
      "Ġlover": 2558,
      "Ġimper": 2559,
      "Ġsphere": 2560,
      "uck": 2561,
      "Ġhappened": 2562,
      "undred": 2563,
      "Ġparad": 2564,
      "Ġrequired": 2565,
      "Ġremarkable": 2566,
      "Ġexactly": 2567,
      "pons": 2568,
      "rem": 2569,
      "itary": 2570,
      "Ġche": 2571,
      "Ġhundred": 2572,
      "Ġfool": 2573,
      "asm": 2574,
      "Ġwealth": 2575,
      "Ġexternal": 2576,
      "Ġchap": 2577,
      "Ġdisci": 2578,
      "Ġactually": 2579,
      "ability": 2580,
      "Ġseeing": 2581,
      "ormal": 2582,
      "Ġyourself": 2583,
      "Ġobserved": 2584,
      "Ġtreatment": 2585,
      "Ġresults": 2586,
      "Ġsatisfied": 2587,
      "Ġbelongs": 2588,
      "Ġavoid": 2589,
      "Ġfigure": 2590,
      "Ġliterature": 2591,
      "Ġowing": 2592,
      "Ġwicked": 2593,
      "cend": 2594,
      "idden": 2595,
      "ored": 2596,
      "Ġven": 2597,
      "aph": 2598,
      "Ġremained": 2599,
      "oken": 2600,
      "Ġoper": 2601,
      "Ġscene": 2602,
      "Ġpoints": 2603,
      "Ġearli": 2604,
      "Ġincre": 2605,
      "ission": 2606,
      "Ġreceive": 2607,
      "Ġhyp": 2608,
      "Ġphantas": 2609,
      "ries": 2610,
      "Ġolig": 2611,
      "Ġitaly": 2612,
      "amp": 2613,
      "Ġdear": 2614,
      "Ġenerg": 2615,
      "Ġreport": 2616,
      "Ġenter": 2617,
      "Ġadmitted": 2618,
      "Ġspiritual": 2619,
      "Ġindividuals": 2620,
      "Ġimmort": 2621,
      "Ġprocesses": 2622,
      "Ġpicture": 2623,
      "Ġcarry": 2624,
      "Ġchanges": 2625,
      "Ġextraord": 2626,
      "Ġcompelled": 2627,
      "Ġrecollection": 2628,
      "Ġoligarch": 2629,
      "aw": 2630,
      "Ġdied": 2631,
      "asp": 2632,
      "Ġlay": 2633,
      "Ġreject": 2634,
      "Ġgot": 2635,
      "Ġexe": 2636,
      "Ġwholly": 2637,
      "Ġwilling": 2638,
      "cies": 2639,
      "Ġcalls": 2640,
      "Ġlaid": 2641,
      "Ġgeneration": 2642,
      "Ġseries": 2643,
      "ological": 2644,
      "Ġsciences": 2645,
      "Ġdevot": 2646,
      "Ġflorent": 2647,
      "Ġcivil": 2648,
      "ially": 2649,
      "Ġwit": 2650,
      "Ġwal": 2651,
      "ident": 2652,
      "Ġvo": 2653,
      "ander": 2654,
      "Ġdisg": 2655,
      "Ġcontrib": 2656,
      "ung": 2657,
      "Ġartist": 2658,
      "Ġsimply": 2659,
      "Ġuseful": 2660,
      "Ġdetail": 2661,
      "Ġconnect": 2662,
      "Ġbegins": 2663,
      "Ġprevent": 2664,
      "Ġcontinue": 2665,
      "Ġacquaint": 2666,
      "Ġstimulus": 2667,
      "Ġviol": 2668,
      "Ġengl": 2669,
      "Ġdevelopment": 2670,
      "Ġestablished": 2671,
      "Ġfrequently": 2672,
      "Ġsuddenly": 2673,
      "Ġsituation": 2674,
      "lict": 2675,
      "Ġwent": 2676,
      "Ġsal": 2677,
      "Ġsqu": 2678,
      "omen": 2679,
      "utions": 2680,
      "Ġdiss": 2681,
      "Ġspoken": 2682,
      "Ġoblig": 2683,
      "uded": 2684,
      "Ġappeared": 2685,
      "Ġcruel": 2686,
      "ruct": 2687,
      "Ġexpressed": 2688,
      "Ġabsurdity": 2689,
      "Ġslight": 2690,
      "Ġkinds": 2691,
      "under": 2692,
      "Ġobserve": 2693,
      "Ġsolution": 2694,
      "Ġpunishment": 2695,
      "Ġapparently": 2696,
      "Ġintrodu": 2697,
      "Ġcarried": 2698,
      "Ġconscience": 2699,
      "Ġexcitement": 2700,
      "00": 2701,
      "ats": 2702,
      "otic": 2703,
      "Ġreached": 2704,
      "Ġknowing": 2705,
      "Ġquar": 2706,
      "Ġdistance": 2707,
      "Ġmorning": 2708,
      "Ġsuperior": 2709,
      "Ġmotion": 2710,
      "Ġschool": 2711,
      "Ġmentioned": 2712,
      "how": 2713,
      "ience": 2714,
      "ron": 2715,
      "Ġten": 2716,
      "Ġwall": 2717,
      "Ġsed": 2718,
      "Ġbit": 2719,
      "Ġfive": 2720,
      "Ġlose": 2721,
      "Ġgif": 2722,
      "Ġaspect": 2723,
      "uries": 2724,
      "Ġexte": 2725,
      "Ġmyst": 2726,
      "Ġplaces": 2727,
      "Ġundert": 2728,
      "Ġattain": 2729,
      "Ġtempt": 2730,
      "Ġrespons": 2731,
      "itten": 2732,
      "Ġrecent": 2733,
      "Ġinform": 2734,
      "Ġboy": 2735,
      "Ġcapt": 2736,
      "Ġbreak": 2737,
      "Ġduty": 2738,
      "iable": 2739,
      "Ġfood": 2740,
      "Ġpowers": 2741,
      "Ġlen": 2742,
      "Ġreference": 2743,
      "idence": 2744,
      "Ġrank": 2745,
      "Ġkn": 2746,
      "Ġcompl": 2747,
      "Ġquality": 2748,
      "ogra": 2749,
      "Ġattitude": 2750,
      "fulfilment": 2751,
      "Ġseek": 2752,
      "Ġseemed": 2753,
      "Ġsympt": 2754,
      "ibly": 2755,
      "Ġbodily": 2756,
      "Ġincom": 2757,
      "Ġsensation": 2758,
      "Ġvision": 2759,
      "Ġarmy": 2760,
      "Ġsympathy": 2761,
      "Ġterrible": 2762,
      "ax": 2763,
      "ob": 2764,
      "oly": 2765,
      "Ġfirm": 2766,
      "Ġgiving": 2767,
      "Ġdress": 2768,
      "iled": 2769,
      "usted": 2770,
      "Ġintens": 2771,
      "antus": 2772,
      "Ġgrad": 2773,
      "Ġpossibility": 2774,
      "Ġfollowed": 2775,
      "Ġsatisfaction": 2776,
      "Ġbased": 2777,
      "Ġaristot": 2778,
      "Ġuniversal": 2779,
      "cription": 2780,
      "ov": 2781,
      "Ġsick": 2782,
      "Ġpains": 2783,
      "Ġlow": 2784,
      "imantus": 2785,
      "Ġexcess": 2786,
      "Ġchance": 2787,
      "dered": 2788,
      "Ġplain": 2789,
      "Ġliber": 2790,
      "Ġlovers": 2791,
      "Ġbrings": 2792,
      "Ġ14": 2793,
      "Ġregular": 2794,
      "Ġrob": 2795,
      "Ġroom": 2796,
      "ruction": 2797,
      "Ġserve": 2798,
      "Ġimages": 2799,
      "Ġescape": 2800,
      "Ġprevious": 2801,
      "Ġfully": 2802,
      "Ġperfectly": 2803,
      "Ġpractice": 2804,
      "Ġmaintain": 2805,
      "Ġlabor": 2806,
      "Ġfancy": 2807,
      "Ġadeimantus": 2808,
      "Ġaston": 2809,
      "Ġhost": 2810,
      "Ġge": 2811,
      "Ġforced": 2812,
      "Ġunity": 2813,
      "Ġintention": 2814,
      "acy": 2815,
      "well": 2816,
      "Ġsupport": 2817,
      "Ġsensory": 2818,
      "Ġdefinite": 2819,
      "Ġpainful": 2820,
      "Ġignorance": 2821,
      "Ġhorse": 2822,
      "Ġpopular": 2823,
      "umption": 2824,
      "Ġinnoc": 2825,
      ".--": 2826,
      "per": 2827,
      "pic": 2828,
      "inate": 2829,
      "Ġom": 2830,
      "Ġphen": 2831,
      "Ġnur": 2832,
      "ross": 2833,
      "Ġselect": 2834,
      "Ġcoming": 2835,
      "Ġjour": 2836,
      "Ġamount": 2837,
      "Ġimpro": 2838,
      "Ġaccustom": 2839,
      "Ġteach": 2840,
      "Ġsought": 2841,
      "Ġglory": 2842,
      "Ġreader": 2843,
      "Ġpolitics": 2844,
      "Ġpsychological": 2845,
      "Ġerror": 2846,
      "Ġtrouble": 2847,
      "ell": 2848,
      "ior": 2849,
      "you": 2850,
      "Ġterr": 2851,
      "Ġcour": 2852,
      "Ġthor": 2853,
      "anity": 2854,
      "Ġlies": 2855,
      "Ġlord": 2856,
      "utation": 2857,
      "amed": 2858,
      "ayed": 2859,
      "acity": 2860,
      "Ġplaced": 2861,
      "Ġconsists": 2862,
      "Ġcompared": 2863,
      "arer": 2864,
      "Ġwritten": 2865,
      "Ġglad": 2866,
      "Ġobsc": 2867,
      "Ġirma": 2868,
      "Ġheavy": 2869,
      "Ġdetermined": 2870,
      "Ġabsolutely": 2871,
      "Ġbattle": 2872,
      "Ġconversation": 2873,
      "Ġchapter": 2874,
      "Ġenergy": 2875,
      "Ġextraordinary": 2876,
      "side": 2877,
      "Ġsix": 2878,
      "Ġcra": 2879,
      "Ġhur": 2880,
      "Ġinner": 2881,
      "Ġpost": 2882,
      "Ġtouch": 2883,
      "lex": 2884,
      "amental": 2885,
      "owed": 2886,
      "Ġuseless": 2887,
      "Ġann": 2888,
      "Ġri": 2889,
      "Ġprogress": 2890,
      "ounded": 2891,
      "Ġpreced": 2892,
      "Ġentertain": 2893,
      "ficial": 2894,
      "standing": 2895,
      "Ġrepeated": 2896,
      "Ġmiddle": 2897,
      "\";": 2898,
      "ric": 2899,
      "Ġ7": 2900,
      "Ġair": 2901,
      "inations": 2902,
      "eror": 2903,
      "Ġmal": 2904,
      "Ġcustom": 2905,
      "Ġfoot": 2906,
      "Ġstage": 2907,
      "Ġfrag": 2908,
      "Ġworst": 2909,
      "izing": 2910,
      "Ġblind": 2911,
      "Ġbegan": 2912,
      "Ġpowerful": 2913,
      "Ġanalog": 2914,
      "Ġbooks": 2915,
      "Ġharmon": 2916,
      "Ġkingdom": 2917,
      "Ġanimal": 2918,
      "Ġvarious": 2919,
      "hetic": 2920,
      "Ġbenef": 2921,
      "bra": 2922,
      "do": 2923,
      "sh": 2924,
      "rel": 2925,
      "Ġwished": 2926,
      "Ġfren": 2927,
      "Ġfixed": 2928,
      "Ġnormal": 2929,
      "ifice": 2930,
      "esty": 2931,
      "Ġvain": 2932,
      "Ġarise": 2933,
      "Ġages": 2934,
      "Ġenqu": 2935,
      "Ġsomewhat": 2936,
      "Ġattract": 2937,
      "Ġstrang": 2938,
      "Ġinferior": 2939,
      "Ġgrou": 2940,
      "Ġappre": 2941,
      "Ġpassions": 2942,
      "Ġquestions": 2943,
      "Ġcharacteristic": 2944,
      "Ġdirection": 2945,
      "Ġbehold": 2946,
      "Ġconsequently": 2947,
      "Ġdepart": 2948,
      "Ġcontempl": 2949,
      "Ġcolle": 2950,
      "Ġordinary": 2951,
      "Ġcomparison": 2952,
      "Ġliberty": 2953,
      "Ġaristotle": 2954,
      ".)": 2955,
      "ners": 2956,
      "Ġ8": 2957,
      "Ġcities": 2958,
      "Ġlest": 2959,
      "Ġconde": 2960,
      "ulg": 2961,
      "Ġrap": 2962,
      "Ġneigh": 2963,
      "Ġ\"_": 2964,
      "Ġteacher": 2965,
      "Ġmathem": 2966,
      "Ġbelow": 2967,
      "ocr": 2968,
      "Ġroad": 2969,
      "Ġnumbers": 2970,
      "Ġmode": 2971,
      "Ġromans": 2972,
      "Ġclasses": 2973,
      "Ġuniverse": 2974,
      "Ġsufficiently": 2975,
      "Ġdistinguished": 2976,
      "Ġawakening": 2977,
      "Ġfundamental": 2978,
      "Ġlength": 2979,
      "Ġphenomen": 2980,
      "Ġthorough": 2981,
      "Ġthee": 2982,
      "Ġsom": 2983,
      "Ġhop": 2984,
      "Ġoran": 2985,
      "Ġdreaming": 2986,
      "Ġrational": 2987,
      "Ġtrain": 2988,
      "Ġju": 2989,
      "acle": 2990,
      "Ġevents": 2991,
      "Ġenv": 2992,
      "Ġprinces": 2993,
      "Ġintended": 2994,
      "Ġfacts": 2995,
      "Ġslave": 2996,
      "Ġempire": 2997,
      "Ġconceive": 2998,
      "ourable": 2999,
      "Ġacquired": 3000,
      "Ġconsequence": 3001,
      "Ġsources": 3002,
      "Ġcreation": 3003,
      "Ġintelligence": 3004,
      "Ġprimitive": 3005,
      "Ġfellow": 3006,
      "Ġdoctr": 3007,
      "Ġaccustomed": 3008,
      "rom": 3009,
      "ship": 3010,
      "zz": 3011,
      "Ġsons": 3012,
      "erate": 3013,
      "Ġbur": 3014,
      "Ġfat": 3015,
      "Ġfle": 3016,
      "Ġpred": 3017,
      "iced": 3018,
      "Ġnames": 3019,
      "Ġearn": 3020,
      "enty": 3021,
      "iding": 3022,
      "Ġexception": 3023,
      "osis": 3024,
      "osen": 3025,
      "appe": 3026,
      "Ġresol": 3027,
      "wered": 3028,
      "Ġgrat": 3029,
      "Ġassured": 3030,
      "Ġpassing": 3031,
      "Ġconfirm": 3032,
      "Ġnumer": 3033,
      "Ġtype": 3034,
      "Ġrules": 3035,
      "Ġhistor": 3036,
      "Ġgreeks": 3037,
      "Ġbasis": 3038,
      "Ġinclined": 3039,
      "Ġcompletely": 3040,
      "Ġproduce": 3041,
      "Ġpraise": 3042,
      "Ġmagn": 3043,
      "Ġfemale": 3044,
      "Ġcondemn": 3045,
      "?'": 3046,
      "ken": 3047,
      "Ġtaught": 3048,
      "Ġcat": 3049,
      "ulse": 3050,
      "Ġdreamed": 3051,
      "aded": 3052,
      "aker": 3053,
      "Ġunknown": 3054,
      "Ġwhenever": 3055,
      "Ġflat": 3056,
      "ialect": 3057,
      "Ġmetaph": 3058,
      "Ġreadily": 3059,
      "Ġforeign": 3060,
      "Ġforeconscious": 3061,
      "Ġrecognised": 3062,
      "Ġprevail": 3063,
      "Ġsocial": 3064,
      "Ġdeny": 3065,
      "Ġaccomp": 3066,
      "Ġmarried": 3067,
      "Ġchoose": 3068,
      "Ġdemocracy": 3069,
      "Ġobvious": 3070,
      "Ġlisten": 3071,
      "Ġsubstit": 3072,
      "Ġparadox": 3073,
      "Ġenglish": 3074,
      "has": 3075,
      "Ġwhil": 3076,
      "velli": 3077,
      "lying": 3078,
      "iring": 3079,
      "Ġfrance": 3080,
      "Ġround": 3081,
      "Ġuns": 3082,
      "ague": 3083,
      "Ġloc": 3084,
      "Ġformed": 3085,
      "Ġgrant": 3086,
      "Ġpassage": 3087,
      "tered": 3088,
      "Ġreflection": 3089,
      "Ġcrow": 3090,
      "Ġcondens": 3091,
      "iavelli": 3092,
      "Ġrestr": 3093,
      "Ġanswered": 3094,
      "Ġoccurs": 3095,
      "Ġgreece": 3096,
      "Ġdeceived": 3097,
      "Ġneglect": 3098,
      "Ġignorant": 3099,
      "Ġsuspect": 3100,
      "Ġexerc": 3101,
      "Ġbanquet": 3102,
      "Ġabstract": 3103,
      "Ġmedicine": 3104,
      "Ġneighb": 3105,
      "app": 3106,
      "pro": 3107,
      "Ġpa": 3108,
      "Ġdue": 3109,
      "Ġdialect": 3110,
      "Ġisa": 3111,
      "Ġstars": 3112,
      "etr": 3113,
      "Ġtrave": 3114,
      "Ġtraged": 3115,
      "Ġvent": 3116,
      "Ġchosen": 3117,
      "Ġjoy": 3118,
      "Ġenl": 3119,
      "Ġdescription": 3120,
      "Ġremind": 3121,
      "Ġdiff": 3122,
      "izes": 3123,
      "Ġ19": 3124,
      "Ġende": 3125,
      "Ġregul": 3126,
      "Ġcharm": 3127,
      "Ġexamination": 3128,
      "Ġdemands": 3129,
      "Ġslaves": 3130,
      "Ġlooked": 3131,
      "Ġstands": 3132,
      "Ġtreated": 3133,
      "Ġsecure": 3134,
      "Ġdecided": 3135,
      "Ġimitation": 3136,
      "Ġexpected": 3137,
      "Ġchanged": 3138,
      "Ġhatred": 3139,
      "Ġphantasy": 3140,
      "ograph": 3141,
      "Ġwhilst": 3142,
      "_)": 3143,
      "when": 3144,
      "Ġau": 3145,
      "inction": 3146,
      "read": 3147,
      "Ġwild": 3148,
      "Ġpos": 3149,
      "Ġport": 3150,
      "Ġdivid": 3151,
      "edy": 3152,
      "Ġresem": 3153,
      "iments": 3154,
      "Ġstood": 3155,
      "ths": 3156,
      "Ġmeant": 3157,
      "Ġevent": 3158,
      "Ġloved": 3159,
      "conc": 3160,
      "then": 3161,
      "Ġreputation": 3162,
      "Ġcompass": 3163,
      "Ġbetr": 3164,
      "Ġpersu": 3165,
      "version": 3166,
      "Ġbelieved": 3167,
      "Ġexisting": 3168,
      "Ġindepend": 3169,
      "Ġfeels": 3170,
      "Ġoffer": 3171,
      "Ġdrawn": 3172,
      "Ġcaused": 3173,
      "Ġhighly": 3174,
      "Ġconstitution": 3175,
      "Ġfunction": 3176,
      "Ġjew": 3177,
      "Ġgymnastic": 3178,
      "Ġmachiavelli": 3179,
      "Ġflorentines": 3180,
      "mat": 3181,
      "yl": 3182,
      "Ġach": 3183,
      "Ġalex": 3184,
      "Ġbless": 3185,
      "itate": 3186,
      "Ġcav": 3187,
      "Ġhour": 3188,
      "Ġinex": 3189,
      "Ġthy": 3190,
      "oral": 3191,
      "Ġlot": 3192,
      "Ġred": 3193,
      "set": 3194,
      "vere": 3195,
      "ctions": 3196,
      "Ġshare": 3197,
      "pped": 3198,
      "Ġdesired": 3199,
      "Ġspite": 3200,
      "Ġspace": 3201,
      "Ġprepar": 3202,
      "there": 3203,
      "udes": 3204,
      "fulness": 3205,
      "Ġseeking": 3206,
      "Ġsensations": 3207,
      "Ġextreme": 3208,
      "Ġimagination": 3209,
      "Ġinteresting": 3210,
      "Ġoccurred": 3211,
      "Ġstanding": 3212,
      "Ġpatients": 3213,
      "Ġparticularly": 3214,
      "Ġpsychology": 3215,
      "Ġbuild": 3216,
      "Ġsummer": 3217,
      "Ġfaculty": 3218,
      "Ġfrench": 3219,
      "Ġcrowd": 3220,
      "Ġisaac": 3221,
      "Ġendeav": 3222,
      "co": 3223,
      "ey": 3224,
      "Ġcut": 3225,
      "Ġdaughter": 3226,
      "icated": 3227,
      "Ġner": 3228,
      "Ġnons": 3229,
      "Ġlad": 3230,
      "othes": 3231,
      "iry": 3232,
      "resh": 3233,
      "Ġarises": 3234,
      "Ġfault": 3235,
      "Ġcertainty": 3236,
      "anged": 3237,
      "Ġinterm": 3238,
      "bling": 3239,
      "Ġtruths": 3240,
      "Ġmorals": 3241,
      "Ġnecessarily": 3242,
      "Ġinsist": 3243,
      "Ġsleeping": 3244,
      "Ġmotive": 3245,
      "Ġassociations": 3246,
      "Ġexercise": 3247,
      "Ġtemperance": 3248,
      "Ġinfantile": 3249,
      "Ġphilosophical": 3250,
      "Ġvoice": 3251,
      "ah": 3252,
      "cap": 3253,
      "iant": 3254,
      "ole": 3255,
      "Ġot": 3256,
      "Ġsan": 3257,
      "Ġmisf": 3258,
      "Ġportion": 3259,
      "Ġthirst": 3260,
      "Ġlate": 3261,
      "Ġluc": 3262,
      "Ġlying": 3263,
      "enth": 3264,
      "entific": 3265,
      "Ġnotice": 3266,
      "ilt": 3267,
      "Ġdeem": 3268,
      "Ġmel": 3269,
      "abor": 3270,
      "Ġresign": 3271,
      "Ġdistinction": 3272,
      "Ġpresentation": 3273,
      "Ġopposition": 3274,
      "Ġexists": 3275,
      "Ġobjection": 3276,
      "Ġsenses": 3277,
      "Ġinterests": 3278,
      "Ġconceived": 3279,
      "Ġphysical": 3280,
      "Ġservant": 3281,
      "Ġhyster": 3282,
      "Ġworthy": 3283,
      "Ġchoice": 3284,
      "Ġevident": 3285,
      "Ġcommunity": 3286,
      "plicity": 3287,
      "Ġlucc": 3288,
      "Ġmovement": 3289,
      "work": 3290,
      "Ġcontinued": 3291,
      "Ġimperf": 3292,
      "reed": 3293,
      "isl": 3294,
      "onic": 3295,
      "Ġhun": 3296,
      "Ġfif": 3297,
      "Ġpy": 3298,
      "icide": 3299,
      "Ġstup": 3300,
      "Ġrhy": 3301,
      "ards": 3302,
      "ume": 3303,
      "Ġcontained": 3304,
      "Ġpartly": 3305,
      "Ġ11": 3306,
      "Ġbodies": 3307,
      "Ġincap": 3308,
      "Ġruler": 3309,
      "Ġrecognize": 3310,
      "Ġpossessed": 3311,
      "Ġfalling": 3312,
      "Ġsister": 3313,
      "Ġgrand": 3314,
      "Ġsystems": 3315,
      "Ġcenturies": 3316,
      "Ġreproach": 3317,
      "Ġfulfilment": 3318,
      "Ġevidence": 3319,
      "Ġlogical": 3320,
      "Ġdefend": 3321,
      "Ġcomprehe": 3322,
      "Ġstruggle": 3323,
      "ares": 3324,
      "bed": 3325,
      "dre": 3326,
      "iation": 3327,
      "val": 3328,
      "irable": 3329,
      "Ġsto": 3330,
      "Ġric": 3331,
      "ouses": 3332,
      "Ġali": 3333,
      "Ġsoph": 3334,
      "Ġabund": 3335,
      "raid": 3336,
      "Ġago": 3337,
      "Ġgreatness": 3338,
      "Ġspoke": 3339,
      "Ġstruct": 3340,
      "Ġaffection": 3341,
      "Ġcharacters": 3342,
      "Ġspirits": 3343,
      "upon": 3344,
      "Ġpresence": 3345,
      "Ġconcealed": 3346,
      "Ġrecognized": 3347,
      "Ġtells": 3348,
      "Ġemotions": 3349,
      "Ġcalcul": 3350,
      "Ġclosely": 3351,
      "Ġdaily": 3352,
      "Ġsacrific": 3353,
      "Ġillustr": 3354,
      "Ġearlier": 3355,
      "Ġjourne": 3356,
      "Ġaccompan": 3357,
      "Ġmisfortun": 3358,
      ",--": 3359,
      "dra": 3360,
      "sp": 3361,
      "Ġ&": 3362,
      "atures": 3363,
      "Ġmur": 3364,
      "Ġtown": 3365,
      "anch": 3366,
      "omy": 3367,
      "Ġforward": 3368,
      "ils": 3369,
      "Ġtrag": 3370,
      "olation": 3371,
      "Ġarbit": 3372,
      "Ġdisgu": 3373,
      "Ġlik": 3374,
      "Ġimpulse": 3375,
      "Ġdesert": 3376,
      "Ġspart": 3377,
      "Ġrelative": 3378,
      "Ġafraid": 3379,
      "Ġpersonal": 3380,
      "Ġdisco": 3381,
      "Ġaffirm": 3382,
      "Ġolder": 3383,
      "Ġelabor": 3384,
      "Ġdram": 3385,
      "Ġlearning": 3386,
      "Ġaddition": 3387,
      "Ġdirected": 3388,
      "Ġfulf": 3389,
      "Ġlegisl": 3390,
      "Ġdisplace": 3391,
      "Ġgeomet": 3392,
      "che": 3393,
      "cle": 3394,
      "Ġmass": 3395,
      "Ġfield": 3396,
      "Ġinh": 3397,
      "icians": 3398,
      "Ġeight": 3399,
      "Ġult": 3400,
      "ets": 3401,
      "ethe": 3402,
      "Ġyield": 3403,
      "osal": 3404,
      "Ġtrad": 3405,
      "Ġnovel": 3406,
      "ization": 3407,
      "Ġassumption": 3408,
      "Ġinvent": 3409,
      "Ġobjective": 3410,
      "Ġillusion": 3411,
      "Ġconceal": 3412,
      "Ġguardian": 3413,
      "Ġanti": 3414,
      "Ġsilence": 3415,
      "Ġoccupied": 3416,
      "Ġdemocr": 3417,
      "Ġmilitary": 3418,
      "Ġmistake": 3419,
      "Ġresistance": 3420,
      "Ġtyranny": 3421,
      "Ġexcellent": 3422,
      "Ġotto": 3423,
      "Ġarbitr": 3424,
      "hon": 3425,
      "sis": 3426,
      "eration": 3427,
      "Ġbot": 3428,
      "enes": 3429,
      "Ġhar": 3430,
      "Ġbeast": 3431,
      "Ġlands": 3432,
      "Ġeld": 3433,
      "urity": 3434,
      "ids": 3435,
      "Ġexhib": 3436,
      "ifying": 3437,
      "Ġdepr": 3438,
      "Ġallusion": 3439,
      "Ġshame": 3440,
      "Ġpercept": 3441,
      "Ġoutside": 3442,
      "Ġspect": 3443,
      "Ġsuppressed": 3444,
      "Ġinstit": 3445,
      "Ġpresentations": 3446,
      "Ġawake": 3447,
      "Ġadvance": 3448,
      "Ġmotives": 3449,
      "Ġsky": 3450,
      "Ġraised": 3451,
      "Ġrender": 3452,
      "untary": 3453,
      "Ġperceive": 3454,
      "Ġattributed": 3455,
      "Ġprepared": 3456,
      "Ġquickly": 3457,
      "Ġpiece": 3458,
      "Ġmathemat": 3459,
      "Ġearnest": 3460,
      "Ġnumerous": 3461,
      "Ġmetaphys": 3462,
      "):": 3463,
      ";-": 3464,
      "met": 3465,
      "Ġ9": 3466,
      "Ġze": 3467,
      "ĠÃ¦": 3468,
      "inity": 3469,
      "atives": 3470,
      "Ġmou": 3471,
      "Ġmedi": 3472,
      "Ġfine": 3473,
      "Ġthreat": 3474,
      "Ġnations": 3475,
      "Ġheat": 3476,
      "Ġreverse": 3477,
      "Ġgained": 3478,
      "ural": 3479,
      "oused": 3480,
      "Ġwhence": 3481,
      "Ġdisag": 3482,
      "Ġreply": 3483,
      "Ġthroughout": 3484,
      "Ġplease": 3485,
      "Ġexisted": 3486,
      "Ġlooking": 3487,
      "Ġwanted": 3488,
      "Ġruling": 3489,
      "Ġscientific": 3490,
      "Ġfamous": 3491,
      "Ġleading": 3492,
      "Ġsentence": 3493,
      "Ġmaj": 3494,
      "Ġprofessor": 3495,
      "Ġsacrifice": 3496,
      "Ġdeeds": 3497,
      "Ġexec": 3498,
      "Ġcompassion": 3499,
      "Ġalexander": 3500,
      "gree": 3501,
      "jo": 3502,
      "Ġsad": 3503,
      "oned": 3504,
      "Ġmir": 3505,
      "Ġcop": 3506,
      "Ġhidden": 3507,
      "Ġpil": 3508,
      "Ġpress": 3509,
      "orous": 3510,
      "icious": 3511,
      "icip": 3512,
      "lend": 3513,
      "Ġfront": 3514,
      "ilities": 3515,
      "ateg": 3516,
      "Ġtraining": 3517,
      "Ġproduced": 3518,
      "Ġcontains": 3519,
      "Ġimpuls": 3520,
      "Ġeverybody": 3521,
      "Ġparty": 3522,
      "Ġouter": 3523,
      "Ġchildish": 3524,
      "who": 3525,
      "Ġrepresents": 3526,
      "Ġspeaks": 3527,
      "Ġobservation": 3528,
      "Ġcomplex": 3529,
      "Ġwatch": 3530,
      "Ġcentury": 3531,
      "Ġfourth": 3532,
      "Ġlimit": 3533,
      "Ġflorence": 3534,
      "Ġdomin": 3535,
      "Ġpermitted": 3536,
      "Ġwait": 3537,
      "Ġaccomplished": 3538,
      "Ġethical": 3539,
      "Ġshadows": 3540,
      "Ġoffered": 3541,
      "Ġintensity": 3542,
      "Ġcondensation": 3543,
      "Ġdisagree": 3544,
      ");": 3545,
      "ias": 3546,
      "look": 3547,
      "uit": 3548,
      "Ġego": 3549,
      "owing": 3550,
      "Ġang": 3551,
      "Ġsuicide": 3552,
      "Ġability": 3553,
      "Ġsav": 3554,
      "Ġspot": 3555,
      "Ġactive": 3556,
      "elf": 3557,
      "Ġgrown": 3558,
      "Ġwherever": 3559,
      "Ġends": 3560,
      "Ġproportion": 3561,
      "Ġopposed": 3562,
      "Ġconfess": 3563,
      "Ġconfused": 3564,
      "bted": 3565,
      "Ġruin": 3566,
      "Ġsurr": 3567,
      "Ġfallen": 3568,
      "Ġholds": 3569,
      "Ġmiserable": 3570,
      "Ġassumed": 3571,
      "Ġapproach": 3572,
      "Ġseriously": 3573,
      "Ġessentially": 3574,
      "Ġrepeat": 3575,
      "Ġrevolution": 3576,
      "Ġnarrow": 3577,
      "Ġinvestigation": 3578,
      "Ġsymptoms": 3579,
      "Ġhysterical": 3580,
      "Ġincapable": 3581,
      "!--": 3582,
      ":--": 3583,
      "bered": 3584,
      "sue": 3585,
      "why": 3586,
      "yal": 3587,
      "Ġtable": 3588,
      "Ġaid": 3589,
      "Ġapt": 3590,
      "inc": 3591,
      "rees": 3592,
      "Ġburn": 3593,
      "Ġbold": 3594,
      "Ġhours": 3595,
      "Ġpal": 3596,
      "Ġetern": 3597,
      "Ġforb": 3598,
      "Ġstone": 3599,
      "Ġexert": 3600,
      "Ġdread": 3601,
      "ode": 3602,
      "Ġrate": 3603,
      "Ġplan": 3604,
      "Ġfeature": 3605,
      "Ġfeatures": 3606,
      "agger": 3607,
      "Ġamid": 3608,
      "Ġspr": 3609,
      "Ġrelated": 3610,
      "Ġ10": 3611,
      "Ġrightly": 3612,
      "Ġperfection": 3613,
      "Ġdefin": 3614,
      "Ġdivision": 3615,
      "Ġfalls": 3616,
      "Ġconclusions": 3617,
      "Ġgrave": 3618,
      "Ġorgans": 3619,
      "Ġbrothers": 3620,
      "Ġunfortun": 3621,
      "Ġtalk": 3622,
      "Ġconstantly": 3623,
      "Ġlogic": 3624,
      "Ġchiefly": 3625,
      "Ġacknowled": 3626,
      "Ġconvinced": 3627,
      "Ġnonsense": 3628,
      "greek": 3629,
      "cf": 3630,
      "jud": 3631,
      "nat": 3632,
      "pre": 3633,
      "Ġwin": 3634,
      "atory": 3635,
      "Ġcred": 3636,
      "Ġcateg": 3637,
      "Ġears": 3638,
      "Ġstra": 3639,
      "char": 3640,
      "rog": 3641,
      "ift": 3642,
      "using": 3643,
      "thag": 3644,
      "Ġtheme": 3645,
      "Ġviz": 3646,
      "antly": 3647,
      "raction": 3648,
      "Ġpray": 3649,
      "Ġpride": 3650,
      "Ġjustified": 3651,
      "Ġtext": 3652,
      "els": 3653,
      "Ġapart": 3654,
      "Ġreasoning": 3655,
      "Ġappoint": 3656,
      "Ġsuffered": 3657,
      "Ġafford": 3658,
      "Ġcontents": 3659,
      "Ġslow": 3660,
      "Ġevils": 3661,
      "Ġturns": 3662,
      "Ġlooks": 3663,
      "Ġemperor": 3664,
      "Ġfinal": 3665,
      "Ġviews": 3666,
      "Ġcreated": 3667,
      "Ġdescribing": 3668,
      "Ġsacred": 3669,
      "Ġassertion": 3670,
      "Ġpaths": 3671,
      "Ġsuspic": 3672,
      "aeus": 3673,
      "Ġexclus": 3674,
      "Ġlucca": 3675,
      "Ġtragic": 3676,
      "?--": 3677,
      "end": 3678,
      "fig": 3679,
      "ler": 3680,
      "she": 3681,
      "iny": 3682,
      "isation": 3683,
      "Ġmr": 3684,
      "Ġmort": 3685,
      "Ġcry": 3686,
      "Ġinqu": 3687,
      "anced": 3688,
      "lem": 3689,
      "eth": 3690,
      "Ġexal": 3691,
      "adays": 3692,
      "ush": 3693,
      "Ġsearch": 3694,
      "Ġtried": 3695,
      "Ġtrace": 3696,
      "Ġkill": 3697,
      "Ġcomical": 3698,
      "Ġgreatly": 3699,
      "Ġadap": 3700,
      "Ġpope": 3701,
      "Ġcomposed": 3702,
      "cles": 3703,
      "Ġassign": 3704,
      "Ġ13": 3705,
      "Ġpresented": 3706,
      "Ġblack": 3707,
      "Ġconstruct": 3708,
      "Ġshowed": 3709,
      "Ġturning": 3710,
      "Ġhonor": 3711,
      "Ġvalu": 3712,
      "cribed": 3713,
      "Ġfinished": 3714,
      "Ġrecognise": 3715,
      "Ġvisit": 3716,
      "Ġmisunder": 3717,
      "Ġreprodu": 3718,
      "Ġprivile": 3719,
      "Ġassociation": 3720,
      "Ġdistinguish": 3721,
      "Ġfurnish": 3722,
      "Ġduties": 3723,
      "Ġorganic": 3724,
      "Ġhalluc": 3725,
      "Ġsolely": 3726,
      "asmuch": 3727,
      "Ġsomatic": 3728,
      "Ġtragedy": 3729,
      "Ġdiscovery": 3730,
      "Ġimpulses": 3731,
      "aur": 3732,
      "fort": 3733,
      "hus": 3734,
      "iance": 3735,
      "lim": 3736,
      "land": 3737,
      "uge": 3738,
      "Ġ=": 3739,
      "Ġtit": 3740,
      "Ġtion": 3741,
      "Ġwine": 3742,
      "Ġmale": 3743,
      "Ġcy": 3744,
      "Ġfit": 3745,
      "Ġfast": 3746,
      "Ġfilled": 3747,
      "Ġincons": 3748,
      "Ġpis": 3749,
      "Ġdial": 3750,
      "Ġna": 3751,
      "Ġbeings": 3752,
      "Ġgar": 3753,
      "Ġnotions": 3754,
      "Ġalg": 3755,
      "Ġours": 3756,
      "Ġleaves": 3757,
      "Ġquant": 3758,
      "uding": 3759,
      "Ġinterc": 3760,
      "Ġ12": 3761,
      "Ġfles": 3762,
      "Ġinvitation": 3763,
      "Ġvirtuous": 3764,
      "Ġglor": 3765,
      "Ġdriven": 3766,
      "Ġsigns": 3767,
      "Ġneeds": 3768,
      "Ġrequires": 3769,
      "Ġanswers": 3770,
      "Ġsatisfy": 3771,
      "Ġgrace": 3772,
      "Ġavail": 3773,
      "Ġimitate": 3774,
      "Ġprovided": 3775,
      "Ġmethods": 3776,
      "Ġoneself": 3777,
      "Ġfigures": 3778,
      "Ġeuropean": 3779,
      "Ġmerc": 3780,
      "Ġcounter": 3781,
      "Ġsounds": 3782,
      "Ġtendency": 3783,
      "Ġbarbar": 3784,
      "Ġsurprised": 3785,
      "Ġcontrol": 3786,
      "Ġcruelty": 3787,
      "Ġdoctrine": 3788,
      "Ġimperfect": 3789,
      "Ġjourney": 3790,
      "ding": 3791,
      "hal": 3792,
      "ios": 3793,
      "mon": 3794,
      "sin": 3795,
      "tr": 3796,
      "xim": 3797,
      "isp": 3798,
      "Ġcost": 3799,
      "Ġfing": 3800,
      "Ġinasmuch": 3801,
      "Ġpubl": 3802,
      "Ġtoday": 3803,
      "ancy": 3804,
      "Ġheight": 3805,
      "Ġgone": 3806,
      "Ġhab": 3807,
      "Ġstop": 3808,
      "Ġwithdra": 3809,
      "Ġexha": 3810,
      "Ġris": 3811,
      "Ġrad": 3812,
      "Ġtrial": 3813,
      "Ġproves": 3814,
      "Ġunre": 3815,
      "Ġunited": 3816,
      "Ġdisappe": 3817,
      "Ġpriest": 3818,
      "ager": 3819,
      "agon": 3820,
      "Ġexper": 3821,
      "Ġacts": 3822,
      "Ġbrief": 3823,
      "Ġstrict": 3824,
      "Ġsubtle": 3825,
      "Ġseeks": 3826,
      "Ġpossibly": 3827,
      "Ġdistr": 3828,
      "Ġfolly": 3829,
      "Ġwishing": 3830,
      "Ġconfusion": 3831,
      "Ġexperienced": 3832,
      "Ġhonours": 3833,
      "Ġasks": 3834,
      "Ġvalues": 3835,
      "Ġdelicate": 3836,
      "Ġelsewhere": 3837,
      "Ġcastle": 3838,
      "Ġdescribe": 3839,
      "Ġdetermine": 3840,
      "Ġmaury": 3841,
      "Ġwriters": 3842,
      "Ġmanifold": 3843,
      "withstanding": 3844,
      "Ġrarely": 3845,
      "Ġcontemporaries": 3846,
      "Ġacknowledge": 3847,
      "Ġbitter": 3848,
      "Ġgradually": 3849,
      "Ġhostile": 3850,
      "Ġdialectic": 3851,
      "Ġdivided": 3852,
      "Ġintermedi": 3853,
      "Ġmisfortune": 3854,
      "Ġdialog": 3855,
      "Ġflesh": 3856,
      "more": 3857,
      "nal": 3858,
      "whe": 3859,
      "Ġastr": 3860,
      "eral": 3861,
      "Ġfill": 3862,
      "Ġnay": 3863,
      "Ġly": 3864,
      "Ġasleep": 3865,
      "urance": 3866,
      "ulation": 3867,
      "uses": 3868,
      "ests": 3869,
      "Ġtrying": 3870,
      "Ġsha": 3871,
      "pper": 3872,
      "Ġdischar": 3873,
      "Ġsafe": 3874,
      "Ġloves": 3875,
      "Ġnowadays": 3876,
      "Ġstatement": 3877,
      "Ġattained": 3878,
      "Ġspecul": 3879,
      "ĠĠĠĠĠĠĠĠĠĠĠĠ": 3880,
      "Ġletters": 3881,
      "Ġrefer": 3882,
      "Ġwriter": 3883,
      "Ġhonest": 3884,
      "Ġneeded": 3885,
      "Ġcapacity": 3886,
      "Ġiron": 3887,
      "Ġirration": 3888,
      "Ġescap": 3889,
      "Ġnamely": 3890,
      "Ġvisible": 3891,
      "Ġbelonging": 3892,
      "Ġpurposes": 3893,
      "Ġcreature": 3894,
      "Ġremembered": 3895,
      "Ġattempts": 3896,
      "Ġsilent": 3897,
      "Ġlimited": 3898,
      "Ġcircumstance": 3899,
      "Ġmaintained": 3900,
      "Ġuncertain": 3901,
      "Ġweakness": 3902,
      "Ġfurnished": 3903,
      "Ġstriking": 3904,
      "Ġdiscipl": 3905,
      "Ġhypothes": 3906,
      "Ġgroup": 3907,
      "ka": 3908,
      "liness": 3909,
      "pired": 3910,
      "tic": 3911,
      "ture": 3912,
      "uff": 3913,
      "herent": 3914,
      "Ġpaint": 3915,
      "Ġded": 3916,
      "Ġline": 3917,
      "Ġiv": 3918,
      "Ġaside": 3919,
      "Ġnotwithstanding": 3920,
      "vert": 3921,
      "alled": 3922,
      "Ġwhoever": 3923,
      "Ġproved": 3924,
      "Ġdisfig": 3925,
      "Ġtwenty": 3926,
      "Ġ16": 3927,
      "Ġpasses": 3928,
      "Ġrefined": 3929,
      "Ġsecondly": 3930,
      "Ġinterpreted": 3931,
      "Ġsensible": 3932,
      "Ġregards": 3933,
      "....": 3934,
      "Ġgetting": 3935,
      "Ġadded": 3936,
      "Ġdirectly": 3937,
      "Ġfavor": 3938,
      "Ġsuccessful": 3939,
      "Ġmoved": 3940,
      "Ġoccupation": 3941,
      "Ġiii": 3942,
      "Ġambition": 3943,
      "regard": 3944,
      "Ġassistance": 3945,
      "Ġimmortal": 3946,
      "Ġwitness": 3947,
      "Ġobliged": 3948,
      "Ġintercourse": 3949,
      "bs": 3950,
      "god": 3951,
      "gue": 3952,
      "my": 3953,
      "pri": 3954,
      "ino": 3955,
      "Ġod": 3956,
      "rew": 3957,
      "Ġcow": 3958,
      "enh": 3959,
      "Ġexagger": 3960,
      "Ġfright": 3961,
      "thy": 3962,
      "Ġunwill": 3963,
      "olo": 3964,
      "Ġadop": 3965,
      "Ġcompan": 3966,
      "Ġaccid": 3967,
      "ables": 3968,
      "Ġreser": 3969,
      "Ġapply": 3970,
      "retched": 3971,
      "Ġentered": 3972,
      "Ġhumanity": 3973,
      "Ġtyp": 3974,
      "Ġemphas": 3975,
      "Ġcitizen": 3976,
      "ĠĠĠĠĠĠĠĠĠĠĠĠĠĠĠĠĠĠĠĠ": 3977,
      "Ġarrived": 3978,
      "Ġarrange": 3979,
      "Ġanticip": 3980,
      "Ġpunish": 3981,
      "Ġlarger": 3982,
      "Ġschol": 3983,
      "Ġcollect": 3984,
      "Ġclaims": 3985,
      "Ġcalm": 3986,
      "Ġobviously": 3987,
      "Ġobtain": 3988,
      "Ġsweet": 3989,
      "Ġculture": 3990,
      "Ġdestroyed": 3991,
      "Ġdevoted": 3992,
      "Ġacquainted": 3993,
      "Ġpreceding": 3994,
      "Ġanalogy": 3995,
      "Ġjuan": 3996,
      "Ġrhyth": 3997,
      "dream": 3998,
      "Ġriches": 3999,
      "Ġstructure": 4000,
      "Ġeternity": 4001,
      "aving": 4002,
      "ii": 4003,
      "iated": 4004,
      "law": 4005,
      "Ġaut": 4006,
      "Ġaud": 4007,
      "ina": 4008,
      "Ġsong": 4009,
      "ister": 4010,
      "Ġbor": 4011,
      "Ġbreat": 4012,
      "Ġmine": 4013,
      "Ġcure": 4014,
      "Ġhouses": 4015,
      "Ġfest": 4016,
      "Ġdwell": 4017,
      "Ġnon": 4018,
      "Ġwhite": 4019,
      "asing": 4020,
      "Ġloss": 4021,
      "Ġeat": 4022,
      "alous": 4023,
      "ential": 4024,
      "urs": 4025,
      "chan": 4026,
      "Ġkilled": 4027,
      "Ġunm": 4028,
      "Ġintimate": 4029,
      "Ġproud": 4030,
      "Ġlevel": 4031,
      "Ġque": 4032,
      "Ġconsolation": 4033,
      "Ġremn": 4034,
      "Ġremoved": 4035,
      "Ġpolem": 4036,
      "Ġformul": 4037,
      "Ġsuppl": 4038,
      "Ġenthus": 4039,
      "Ġbelieves": 4040,
      "Ġoffice": 4041,
      "Ġoccurrence": 4042,
      "Ġcareful": 4043,
      "pring": 4044,
      "Ġcontempt": 4045,
      "Ġremarked": 4046,
      "Ġkeeping": 4047,
      "Ġutil": 4048,
      "Ġdistinctly": 4049,
      "Ġvictor": 4050,
      "ground": 4051,
      "Ġcriticism": 4052,
      "Ġrevolt": 4053,
      "Ġsucceeded": 4054,
      "Ġnarr": 4055,
      "rers": 4056,
      "Ġemployed": 4057,
      "Ġfirmly": 4058,
      "Ġmagnific": 4059,
      "Ġalike": 4060,
      "ĠÃ¦st": 4061,
      "Ġmouth": 4062,
      "Ġdisagreeable": 4063,
      "Ġenthusi": 4064,
      "avery": 4065,
      "bly": 4066,
      "ging": 4067,
      "gia": 4068,
      "ye": 4069,
      "Ġah": 4070,
      "inisc": 4071,
      "rep": 4072,
      "Ġburd": 4073,
      "Ġcross": 4074,
      "Ġdare": 4075,
      "Ġvivid": 4076,
      "Ġcomplic": 4077,
      "Ġworship": 4078,
      "Ġarch": 4079,
      "Ġaroused": 4080,
      "Ġprison": 4081,
      "aud": 4082,
      "Ġdeser": 4083,
      "Ġeverywhere": 4084,
      "Ġbeloved": 4085,
      "Ġsupposing": 4086,
      "Ġblame": 4087,
      "Ġscale": 4088,
      "iah": 4089,
      "Ġaffected": 4090,
      "Ġelev": 4091,
      "Ġconsiderable": 4092,
      "while": 4093,
      "Ġsignifies": 4094,
      "Ġmembers": 4095,
      "Ġsurf": 4096,
      "Ġestim": 4097,
      "Ġheavens": 4098,
      "Ġreturned": 4099,
      "Ġtermed": 4100,
      "Ġcreator": 4101,
      "Ġdisposed": 4102,
      "Ġproceeds": 4103,
      "Ġdepth": 4104,
      "Ġsilver": 4105,
      "Ġlimits": 4106,
      "Ġengaged": 4107,
      "Ġdeceive": 4108,
      "Ġfalsehood": 4109,
      "Ġlabour": 4110,
      "Ġlacking": 4111,
      "Ġpassionate": 4112,
      "Ġrendered": 4113,
      "Ġsteps": 4114,
      "Ġseparate": 4115,
      "Ġinstrument": 4116,
      "Ġpenetr": 4117,
      "Ġprefer": 4118,
      "Ġriver": 4119,
      "Ġdisplacement": 4120,
      "Ġdeprived": 4121,
      "az": 4122,
      "Ġ*": 4123,
      "inent": 4124,
      "Ġwarm": 4125,
      "Ġsen": 4126,
      "Ġbird": 4127,
      "Ġmut": 4128,
      "Ġcovered": 4129,
      "sec": 4130,
      "Ġanger": 4131,
      "idly": 4132,
      "idel": 4133,
      "Ġstation": 4134,
      "rose": 4135,
      "Ġathen": 4136,
      "aked": 4137,
      "Ġship": 4138,
      "Ġgoethe": 4139,
      "Ġarter": 4140,
      "Ġdisor": 4141,
      "place": 4142,
      "Ġsplend": 4143,
      "eria": 4144,
      "Ġpret": 4145,
      "Ġactor": 4146,
      "Ġclim": 4147,
      "Ġsubsequ": 4148,
      "Ġ17": 4149,
      "Ġovercome": 4150,
      "Ġdiscern": 4151,
      "Ġbox": 4152,
      "Ġsecondary": 4153,
      "Ġslavery": 4154,
      "Ġimagined": 4155,
      "Ġcover": 4156,
      "Ġdefect": 4157,
      "Ġeste": 4158,
      "Ġobserv": 4159,
      "Ġfaithful": 4160,
      "Ġessence": 4161,
      "Ġprobable": 4162,
      "Ġdangers": 4163,
      "Ġremarks": 4164,
      "hamed": 4165,
      "Ġoccasionally": 4166,
      "Ġpromise": 4167,
      "Ġraise": 4168,
      "Ġdespair": 4169,
      "Ġprofession": 4170,
      "Ġstream": 4171,
      "Ġnearly": 4172,
      "Ġvictory": 4173,
      "Ġpreserved": 4174,
      "Ġperceived": 4175,
      "Ġingen": 4176,
      "Ġderived": 4177,
      "Ġshadow": 4178,
      "Ġconnections": 4179,
      "Ġsquare": 4180,
      "Ġgifts": 4181,
      "Ġresponsible": 4182,
      "Ġcourt": 4183,
      "Ġassuredly": 4184,
      "Ġhabits": 4185,
      "aff": 4186,
      "bel": 4187,
      "can": 4188,
      "ique": 4189,
      "pher": 4190,
      "ror": 4191,
      "right": 4192,
      "spring": 4193,
      "ump": 4194,
      "upp": 4195,
      "Ġtale": 4196,
      "Ġarose": 4197,
      "inated": 4198,
      "Ġbind": 4199,
      "Ġmiss": 4200,
      "Ġinev": 4201,
      "Ġpot": 4202,
      "Ġnation": 4203,
      "Ġbears": 4204,
      "Ġempt": 4205,
      "alys": 4206,
      "see": 4207,
      "Ġashamed": 4208,
      "imp": 4209,
      "herner": 4210,
      "verted": 4211,
      "Ġexceed": 4212,
      "ilty": 4213,
      "Ġsevere": 4214,
      "ositions": 4215,
      "istics": 4216,
      "Ġmechan": 4217,
      "Ġkaf": 4218,
      "Ġchain": 4219,
      "Ġune": 4220,
      "race": 4221,
      "Ġquot": 4222,
      "Ġquiet": 4223,
      "Ġreminisc": 4224,
      "jection": 4225,
      "Ġteaches": 4226,
      "Ġindign": 4227,
      "erman": 4228,
      "Ġlonging": 4229,
      "Ġcalling": 4230,
      "Ġconflict": 4231,
      "Ġexpresses": 4232,
      "Ġplatonic": 4233,
      "Ġaccordance": 4234,
      "Ġawa": 4235,
      "archus": 4236,
      "Ġcapital": 4237,
      "edience": 4238,
      "Ġarrive": 4239,
      "Ġpractical": 4240,
      "Ġcontradictions": 4241,
      "Ġdivers": 4242,
      "Ġappropri": 4243,
      "Ġforgetting": 4244,
      "Ġestablish": 4245,
      "Ġindifference": 4246,
      "Ġintelligible": 4247,
      "Ġprimary": 4248,
      "Ġcorresponding": 4249,
      "Ġlux": 4250,
      "Ġdeeply": 4251,
      "Ġcounsel": 4252,
      "Ġethics": 4253,
      "Ġprincipal": 4254,
      "Ġwindow": 4255,
      "Ġmesser": 4256,
      "Ġoligarchy": 4257,
      "Ġwalk": 4258,
      "Ġinnocent": 4259,
      "Ġobscure": 4260,
      "Ġthoroughly": 4261,
      "Ġfulfilled": 4262,
      "Ġangry": 4263,
      "Ġinconsist": 4264,
      "Ġkafka": 4265,
      "bility": 4266,
      "iate": 4267,
      "ral": 4268,
      "Ġbase": 4269,
      "Ġcold": 4270,
      "Ġfresh": 4271,
      "Ġpity": 4272,
      "ority": 4273,
      "Ġbeat": 4274,
      "Ġreduced": 4275,
      "Ġupper": 4276,
      "Ġane": 4277,
      "urable": 4278,
      "Ġdebt": 4279,
      "Ġalas": 4280,
      "Ġvanity": 4281,
      "Ġnobl": 4282,
      "ieve": 4283,
      "Ġfeet": 4284,
      "ensive": 4285,
      "Ġobey": 4286,
      "Ġobedience": 4287,
      "Ġstruck": 4288,
      "Ġrecently": 4289,
      "Ġreasonable": 4290,
      "Ġappet": 4291,
      "Ġflight": 4292,
      "ocracy": 4293,
      "teen": 4294,
      "Ġrefuse": 4295,
      "Ġreferred": 4296,
      "Ġcrime": 4297,
      "irty": 4298,
      "Ġscherner": 4299,
      "Ġconsidering": 4300,
      "Ġadvent": 4301,
      "Ġimmense": 4302,
      "Ġaccordingly": 4303,
      "Ġgets": 4304,
      "Ġparall": 4305,
      "erring": 4306,
      "Ġfriendship": 4307,
      "Ġdiscussed": 4308,
      "Ġskill": 4309,
      "Ġconstitutes": 4310,
      "Ġsuperficial": 4311,
      "Ġuncle": 4312,
      "Ġdiseases": 4313,
      "Ġcorresponds": 4314,
      "Ġspecies": 4315,
      "Ġobtained": 4316,
      "Ġcontemporary": 4317,
      "Ġaccomplish": 4318,
      "Ġfaculties": 4319,
      "Ġbroken": 4320,
      "Ġbrave": 4321,
      "Ġimmortality": 4322,
      "Ġdisgust": 4323,
      "Ġregularly": 4324,
      "Ġenquiry": 4325,
      "Ġhistorical": 4326,
      "Ġpreparation": 4327,
      "Ġpythag": 4328,
      "Ġelder": 4329,
      "Ġpisa": 4330,
      "Ġalgiers": 4331,
      "Ġirrational": 4332,
      "Ġunwilling": 4333,
      "Ġpolemarchus": 4334,
      "Ġsurface": 4335,
      "Ġesteem": 4336,
      "?-": 4337,
      "called": 4338,
      "from": 4339,
      "good": 4340,
      "oan": 4341,
      "tled": 4342,
      "vous": 4343,
      "hered": 4344,
      "Ġtheat": 4345,
      "Ġtheories": 4346,
      "Ġwide": 4347,
      "Ġbal": 4348,
      "Ġborrow": 4349,
      "enic": 4350,
      "enge": 4351,
      "Ġinhib": 4352,
      "aster": 4353,
      "Ġlif": 4354,
      "Ġrewards": 4355,
      "Ġgame": 4356,
      "Ġstones": 4357,
      "Ġsev": 4358,
      "Ġseized": 4359,
      "Ġtrust": 4360,
      "Ġshar": 4361,
      "Ġshop": 4362,
      "Ġvig": 4363,
      "Ġvices": 4364,
      "Ġcomfort": 4365,
      "Ġunlike": 4366,
      "Ġaband": 4367,
      "ante": 4368,
      "Ġdisregard": 4369,
      "Ġcontain": 4370,
      "Ġsave": 4371,
      "Ġagreed": 4372,
      "Ġenorm": 4373,
      "ried": 4374,
      "Ġremote": 4375,
      "Ġaccess": 4376,
      "Ġpersonality": 4377,
      "Ġcommitted": 4378,
      "Ġinterrupt": 4379,
      "Ġfoundation": 4380,
      "Ġsimplicity": 4381,
      "Ġfinding": 4382,
      "Ġadmire": 4383,
      "Ġsensual": 4384,
      "Ġcharacteristics": 4385,
      "Ġwanting": 4386,
      "Ġclearness": 4387,
      "Ġreading": 4388,
      "Ġ21": 4389,
      "Ġsorts": 4390,
      "Ġcareer": 4391,
      "Ġplayed": 4392,
      "being": 4393,
      "Ġdestruction": 4394,
      "Ġcircle": 4395,
      "Ġgermans": 4396,
      "Ġpunished": 4397,
      "Ġrelationship": 4398,
      "Ġcreate": 4399,
      "Ġgrowth": 4400,
      "ulsion": 4401,
      "Ġapplied": 4402,
      "worthy": 4403,
      "Ġmistaken": 4404,
      "Ġaims": 4405,
      "Ġmadness": 4406,
      "Ġmulti": 4407,
      "Ġcomprehens": 4408,
      "aneously": 4409,
      "Ġenlight": 4410,
      "acious": 4411,
      "bu": 4412,
      "cent": 4413,
      "hold": 4414,
      "pent": 4415,
      "rus": 4416,
      "uce": 4417,
      "vag": 4418,
      "Ġtro": 4419,
      "Ġwarn": 4420,
      "Ġwarri": 4421,
      "isions": 4422,
      "ening": 4423,
      "Ġfiction": 4424,
      "eds": 4425,
      "Ġlink": 4426,
      "Ġeager": 4427,
      "Ġren": 4428,
      "aling": 4429,
      "isto": 4430,
      "Ġtri": 4431,
      "Ġvite": 4432,
      "Ġchast": 4433,
      "Ġphr": 4434,
      "Ġdescend": 4435,
      "Ġgoods": 4436,
      "Ġcomposition": 4437,
      "Ġattached": 4438,
      "Ġspend": 4439,
      "ferences": 4440,
      "Ġrecord": 4441,
      "Ġpsychoan": 4442,
      "Ġoverlook": 4443,
      "inte": 4444,
      "lessly": 4445,
      "Ġhumble": 4446,
      "Ġrights": 4447,
      "Ġrock": 4448,
      "Ġroyal": 4449,
      "Ġchristians": 4450,
      "Ġserves": 4451,
      "Ġglance": 4452,
      "Ġmemories": 4453,
      "Ġputs": 4454,
      "Ġcoinc": 4455,
      "Ġforec": 4456,
      "Ġdoubtless": 4457,
      "Ġstudies": 4458,
      "Ġplays": 4459,
      "Ġmasters": 4460,
      "Ġstatesman": 4461,
      "Ġsentiment": 4462,
      "Ġremaining": 4463,
      "Ġconviction": 4464,
      "Ġcorrectly": 4465,
      "Ġtestament": 4466,
      "Ġawakened": 4467,
      "Ġrecalled": 4468,
      "Ġdrinking": 4469,
      "Ġjealous": 4470,
      "Ġmultitude": 4471,
      "Ġtransformation": 4472,
      "Ġutterly": 4473,
      "Ġappreci": 4474,
      "Ġcontemplation": 4475,
      "Ġcolleague": 4476,
      "Ġgranted": 4477,
      "Ġneighbour": 4478,
      "Ġpositive": 4479,
      "Ġmajority": 4480,
      "Ġrisk": 4481,
      "his": 4482,
      "Ġwound": 4483,
      "Ġske": 4484,
      "encies": 4485,
      "Ġhated": 4486,
      "Ġpet": 4487,
      "Ġpull": 4488,
      "Ġthirty": 4489,
      "Ġrejo": 4490,
      "Ġital": 4491,
      "Ġexile": 4492,
      "iling": 4493,
      "ades": 4494,
      "Ġring": 4495,
      "Ġselection": 4496,
      "pell": 4497,
      "Ġalle": 4498,
      "ested": 4499,
      "Ġtrained": 4500,
      "Ġtrib": 4501,
      "Ġvir": 4502,
      "cip": 4503,
      "olence": 4504,
      "Ġjes": 4505,
      "Ġleap": 4506,
      "Ġfaire": 4507,
      "ension": 4508,
      "Ġgoodness": 4509,
      "Ġprete": 4510,
      "Ġprejud": 4511,
      "Ġrelates": 4512,
      "iousness": 4513,
      "Ġartists": 4514,
      "Ġsyn": 4515,
      "Ġsimult": 4516,
      "Ġroot": 4517,
      "Ġconstr": 4518,
      "Ġkeen": 4519,
      "Ġfathers": 4520,
      "Ġoffspring": 4521,
      "Ġ22": 4522,
      "Ġstrongly": 4523,
      "Ġkeeps": 4524,
      "Ġdestiny": 4525,
      "Ġservants": 4526,
      "Ġdisposal": 4527,
      "Ġbreast": 4528,
      "Ġhearing": 4529,
      "Ġsignificant": 4530,
      "Ġrevealed": 4531,
      "Ġweaker": 4532,
      "Ġproperly": 4533,
      "Ġmarry": 4534,
      "Ġapplication": 4535,
      "happ": 4536,
      "Ġrecalls": 4537,
      "Ġ151": 4538,
      "Ġenjoyment": 4539,
      "Ġstarting": 4540,
      "Ġexcellence": 4541,
      "Ġinfinitely": 4542,
      "Ġincrease": 4543,
      "Ġreported": 4544,
      "Ġhopes": 4545,
      "Ġladen": 4546,
      "Ġresignation": 4547,
      "Ġhunger": 4548,
      "Ġgeometry": 4549,
      "Ġarbitrary": 4550,
      "Ġacknowledged": 4551,
      "Ġdischarge": 4552,
      "Ġpythagore": 4553,
      "Ġenormous": 4554,
      "certain": 4555,
      "fl": 4556,
      "gy": 4557,
      "german": 4558,
      "hn": 4559,
      "tom": 4560,
      "Ġbi": 4561,
      "itals": 4562,
      "Ġmixed": 4563,
      "Ġtouc": 4564,
      "edient": 4565,
      "Ġlust": 4566,
      "Ġeating": 4567,
      "omme": 4568,
      "otaur": 4569,
      "Ġrele": 4570,
      "steria": 4571,
      "Ġsuitable": 4572,
      "Ġdreamt": 4573,
      "Ġsend": 4574,
      "thr": 4575,
      "quity": 4576,
      "Ġtra": 4577,
      "Ġvill": 4578,
      "Ġvast": 4579,
      "Ġprocl": 4580,
      "Ġdoor": 4581,
      "Ġintim": 4582,
      "olution": 4583,
      "Ġnobility": 4584,
      "Ġprud": 4585,
      "Ġupwards": 4586,
      "Ġperp": 4587,
      "Ġqual": 4588,
      "aching": 4589,
      "Ġclerg": 4590,
      "Ġgrows": 4591,
      "Ġgrasp": 4592,
      "lessness": 4593,
      "Ġfactor": 4594,
      "Ġinstances": 4595,
      "Ġinvention": 4596,
      "Ġaffair": 4597,
      "Ġexamine": 4598,
      "Ġclever": 4599,
      "Ġguilty": 4600,
      "Ġpleasant": 4601,
      "Ġrepresenting": 4602,
      "Ġoriginally": 4603,
      "liver": 4604,
      "Ġsignify": 4605,
      "Ġprofit": 4606,
      "Ġdouble": 4607,
      "Ġphysi": 4608,
      "Ġacquire": 4609,
      "Ġmoments": 4610,
      "Ġmisery": 4611,
      "Ġmonograph": 4612,
      "Ġhysteria": 4613,
      "Ġformerly": 4614,
      "Ġfails": 4615,
      "Ġetc": 4616,
      "Ġdesignated": 4617,
      "Ġrunning": 4618,
      "Ġminotaur": 4619,
      "Ġpurely": 4620,
      "Ġextravag": 4621,
      "Ġwonderful": 4622,
      "Ġinfantry": 4623,
      "Ġquarrel": 4624,
      "Ġwalls": 4625,
      "Ġinnocence": 4626,
      "Ġaccompanied": 4627,
      "Ġelaboration": 4628,
      "Ġstraight": 4629,
      "Ġexalted": 4630,
      "Ġquantity": 4631,
      "Ġdiscipline": 4632,
      "Ġtypical": 4633,
      "ĠÃ¦sthetic": 4634,
      "idelity": 4635,
      ".).": 4636,
      "cest": 4637,
      "oe": 4638,
      "uine": 4639,
      "Ġz": 4640,
      "held": 4641,
      "Ġamp": 4642,
      "inous": 4643,
      "Ġwars": 4644,
      "Ġwretched": 4645,
      "att": 4646,
      "Ġbow": 4647,
      "Ġbore": 4648,
      "Ġhill": 4649,
      "Ġdan": 4650,
      "Ġdig": 4651,
      "asc": 4652,
      "Ġconcept": 4653,
      "ithmet": 4654,
      "Ġorsin": 4655,
      "ushed": 4656,
      "Ġdeb": 4657,
      "Ġalive": 4658,
      "Ġaltern": 4659,
      "Ġtrade": 4660,
      "Ġshr": 4661,
      "Ġhast": 4662,
      "gel": 4663,
      "gend": 4664,
      "urement": 4665,
      "rences": 4666,
      "une": 4667,
      "Ġspent": 4668,
      "Ġspring": 4669,
      "Ġpoem": 4670,
      "Ġtears": 4671,
      "Ġundergo": 4672,
      "ucing": 4673,
      "Ġindul": 4674,
      "ignity": 4675,
      "Ġinternal": 4676,
      "Ġgenuine": 4677,
      "Ġdistant": 4678,
      "Ġcrown": 4679,
      "Ġconform": 4680,
      "Ġlatent": 4681,
      "Ġinsight": 4682,
      "Ġtransference": 4683,
      "Ġretain": 4684,
      "Ġobjections": 4685,
      "Ġreplaced": 4686,
      "Ġillness": 4687,
      "Ġrealized": 4688,
      "Ġlearns": 4689,
      "Ġputting": 4690,
      "Ġoccurring": 4691,
      "Ġuntr": 4692,
      "Ġeducated": 4693,
      "Ġvisual": 4694,
      "Ġactivities": 4695,
      "parable": 4696,
      "Ġdevoid": 4697,
      "Ġantagon": 4698,
      "Ġconven": 4699,
      "Ġexplanations": 4700,
      "Ġdenied": 4701,
      "Ġarmed": 4702,
      "Ġdeveloped": 4703,
      "Ġcurious": 4704,
      "Ġdrawing": 4705,
      "Ġvoluntary": 4706,
      "Ġhealthy": 4707,
      "Ġaccepted": 4708,
      "Ġdeeper": 4709,
      "Ġpreserve": 4710,
      "Ġtender": 4711,
      "Ġfighting": 4712,
      "Ġinstincts": 4713,
      "Ġtyrannical": 4714,
      "Ġsufferings": 4715,
      "Ġcorruption": 4716,
      "Ġfoolish": 4717,
      "asphem": 4718,
      "Ġdetails": 4719,
      "Ġviolence": 4720,
      "Ġmysterious": 4721,
      "Ġresponsibility": 4722,
      "Ġdiffer": 4723,
      "Ġintermediate": 4724,
      "Ġcoward": 4725,
      "Ġparallel": 4726,
      "Ġtriump": 4727,
      "._,": 4728,
      "bing": 4729,
      "father": 4730,
      "flu": 4731,
      "gen": 4732,
      "long": 4733,
      "name": 4734,
      "ses": 4735,
      "ule": 4736,
      "yes": 4737,
      "Î¿": 4738,
      "Ġ...": 4739,
      "ero": 4740,
      "Ġbare": 4741,
      "Ġbond": 4742,
      "Ġming": 4743,
      "Ġmill": 4744,
      "Ġcro": 4745,
      "Ġinversion": 4746,
      "Ġpap": 4747,
      "oubted": 4748,
      "aning": 4749,
      "ications": 4750,
      "Ġnaked": 4751,
      "Ġreconc": 4752,
      "Ġnoticed": 4753,
      "Ġwear": 4754,
      "Ġstat": 4755,
      "change": 4756,
      "iff": 4757,
      "osp": 4758,
      "Ġmanners": 4759,
      "Ġalter": 4760,
      "Ġkings": 4761,
      "Ġproced": 4762,
      "Ġunex": 4763,
      "Ġintense": 4764,
      "umpell": 4765,
      "oph": 4766,
      "Ġarithmet": 4767,
      "Ġdishon": 4768,
      "Ġfeared": 4769,
      "Ġconsult": 4770,
      "Ġimpat": 4771,
      "Ġdesirable": 4772,
      "Ġobst": 4773,
      "Ġclosed": 4774,
      "Ġstrain": 4775,
      "Ġinduced": 4776,
      "Ġabsence": 4777,
      "Ġopened": 4778,
      "Ġregion": 4779,
      "Ġworking": 4780,
      "Ġentr": 4781,
      "Ġreform": 4782,
      "Ġcrimes": 4783,
      "Ġsche": 4784,
      "Ġscar": 4785,
      "Ġsubjected": 4786,
      "Ġincor": 4787,
      "Ġlesser": 4788,
      "Ġoriginate": 4789,
      "Ġrealize": 4790,
      "Ġruled": 4791,
      "Ġpresupp": 4792,
      "Ġoccurrences": 4793,
      "Ġcountries": 4794,
      "Ġyounger": 4795,
      "Ġparticip": 4796,
      "Ġreceives": 4797,
      "Ġharmless": 4798,
      "Ġsolid": 4799,
      "bell": 4800,
      "Ġjudgments": 4801,
      "Ġstreng": 4802,
      "Ġfailed": 4803,
      "Ġcolour": 4804,
      "Ġheads": 4805,
      "Ġtransferred": 4806,
      "Ġancients": 4807,
      "Ġdraws": 4808,
      "Ġproduct": 4809,
      "Ġsymbolism": 4810,
      "Ġsoldier": 4811,
      "Ġpeculiarities": 4812,
      "Ġintroduced": 4813,
      "Ġvictim": 4814,
      "Ġmidst": 4815,
      "Ġheroes": 4816,
      "Ġtroubles": 4817,
      "Ġimmediate": 4818,
      "Ġprotect": 4819,
      "Ġfairly": 4820,
      "Ġdarkness": 4821,
      "Ġtranslation": 4822,
      "Ġfavourite": 4823,
      "Ġpieces": 4824,
      "Ġdisgrace": 4825,
      "Ġintroduction": 4826,
      "Ġnurse": 4827,
      "Ġstranger": 4828,
      "Ġphenomenon": 4829,
      "Ġenvy": 4830,
      "Ġcondemned": 4831,
      "Ġaux": 4832,
      "Ġultimate": 4833,
      "Ġzeus": 4834,
      "Ġdistrust": 4835,
      "alysis": 4836,
      "oubtedly": 4837,
      "bled": 4838,
      "kin": 4839,
      "mod": 4840,
      "point": 4841,
      "such": 4842,
      "za": 4843,
      "Ġaver": 4844,
      "rend": 4845,
      "Ġwives": 4846,
      "erors": 4847,
      "onent": 4848,
      "Ġcic": 4849,
      "Ġhind": 4850,
      "Ġholy": 4851,
      "Ġfil": 4852,
      "Ġfame": 4853,
      "Ġfond": 4854,
      "Ġpag": 4855,
      "Ġreward": 4856,
      "Ġgall": 4857,
      "Ġgard": 4858,
      "verty": 4859,
      "Ġstir": 4860,
      "rol": 4861,
      "Ġrail": 4862,
      "Ġsoft": 4863,
      "Ġcha": 4864,
      "Ġpros": 4865,
      "Ġunite": 4866,
      "Ġunto": 4867,
      "acles": 4868,
      "Ġusual": 4869,
      "Ġenable": 4870,
      "Ġjustly": 4871,
      "Ġundoubtedly": 4872,
      "Ġprecept": 4873,
      "Ġpoverty": 4874,
      "Ġcompet": 4875,
      "Ġcompare": 4876,
      "Ġacting": 4877,
      "Ġspec": 4878,
      "Ġstrive": 4879,
      "Ġstrumpell": 4880,
      "Ġthrown": 4881,
      "Ġinfer": 4882,
      "Ġinterv": 4883,
      "pleas": 4884,
      "blance": 4885,
      "Ġendure": 4886,
      "Ġcharge": 4887,
      "Ġrefr": 4888,
      "Ġwrite": 4889,
      "Ġblasphem": 4890,
      "Ġboys": 4891,
      "Ġserved": 4892,
      "Ġmodes": 4893,
      "Ġtransp": 4894,
      "Ġconstruction": 4895,
      "Ġadmir": 4896,
      "Ġdifferently": 4897,
      "Ġshowing": 4898,
      "Ġhonoured": 4899,
      "Ġemb": 4900,
      "Ġeman": 4901,
      "Ġvalour": 4902,
      "Ġcob": 4903,
      "Ġirre": 4904,
      "Ġcarefully": 4905,
      "Ġessay": 4906,
      "Ġpainter": 4907,
      "Ġsisters": 4908,
      "Ġconclude": 4909,
      "Ġutmost": 4910,
      "Ġshortly": 4911,
      "Ġgermany": 4912,
      "Ġmonths": 4913,
      "Ġmaxim": 4914,
      "Ġcele": 4915,
      "Ġmedical": 4916,
      "Ġsuperst": 4917,
      "Ġliterary": 4918,
      "Ġspeeches": 4919,
      "Ġfurnishes": 4920,
      "Ġseparated": 4921,
      "Ġ150": 4922,
      "Ġmarked": 4923,
      "Ġpursuit": 4924,
      "Ġpursuits": 4925,
      "Ġtransformed": 4926,
      "Ġambig": 4927,
      "Ġdevotion": 4928,
      "Ġaspects": 4929,
      "Ġtemptation": 4930,
      "Ġcaptain": 4931,
      "Ġastonishment": 4932,
      "Ġimprove": 4933,
      "Ġphenomena": 4934,
      "Ġblessed": 4935,
      "Ġcaval": 4936,
      "Ġmelanch": 4937,
      "Ġlikeness": 4938,
      "Ġsurround": 4939,
      "Ġappointed": 4940,
      "Ġmercen": 4941,
      "Ġescaped": 4942,
      "Ġcompanions": 4943,
      "Ġaccidental": 4944,
      "Ġorsini": 4945,
      "bre": 4946,
      "born": 4947,
      "gar": 4948,
      "pire": 4949,
      "sl": 4950,
      "ug": 4951,
      "yr": 4952,
      "Ġthesis": 4953,
      "inal": 4954,
      "Ġsides": 4955,
      "Ġsitting": 4956,
      "isible": 4957,
      "erl": 4958,
      "Ġmood": 4959,
      "Ġmaker": 4960,
      "Ġhate": 4961,
      "Ġfaces": 4962,
      "Ġinference": 4963,
      "Ġdimin": 4964,
      "Ġles": 4965,
      "Ġlion": 4966,
      "Ġlosing": 4967,
      "Ġease": 4968,
      "Ġasce": 4969,
      "imm": 4970,
      "Ġstead": 4971,
      "christ": 4972,
      "Ġfruit": 4973,
      "iles": 4974,
      "Ġathens": 4975,
      "Ġraces": 4976,
      "Ġsem": 4977,
      "quate": 4978,
      "quence": 4979,
      "Ġtrif": 4980,
      "Ġshut": 4981,
      "Ġunhapp": 4982,
      "uman": 4983,
      "Ġard": 4984,
      "Ġfeast": 4985,
      "resses": 4986,
      "Ġdesce": 4987,
      "oneur": 4988,
      "oked": 4989,
      "Ġindulg": 4990,
      "Ġsubm": 4991,
      "Ġpsychoneur": 4992,
      "Ġfactors": 4993,
      "Ġflower": 4994,
      "Ġrefers": 4995,
      "Ġexplains": 4996,
      "rested": 4997,
      "iveness": 4998,
      "Ġpattern": 4999,
      "Ġequival": 5000,
      "Ġ20": 5001,
      "atively": 5002,
      "Ġsupreme": 5003,
      "Ġallows": 5004,
      "Ġexciting": 5005,
      "Ġreceiving": 5006,
      "Ġbadly": 5007,
      "Ġstudent": 5008,
      "Ġbehav": 5009,
      "Ġdecis": 5010,
      "Ġdecide": 5011,
      "Ġassumes": 5012,
      "Ġdisposition": 5013,
      "Ġdetermination": 5014,
      "Ġjoin": 5015,
      "Ġjoke": 5016,
      "Ġhencefor": 5017,
      "Ġtalking": 5018,
      "Ġdeclare": 5019,
      "Ġmarvel": 5020,
      "Ġepic": 5021,
      "Ġrecollect": 5022,
      "coming": 5023,
      "Ġidentification": 5024,
      "Ġsurprising": 5025,
      "Ġprincipality": 5026,
      "Ġconsistent": 5027,
      "Ġemotional": 5028,
      "Ġbroad": 5029,
      "Ġhellenic": 5030,
      "Ġimplies": 5031,
      "Ġsalvation": 5032,
      "Ġinformation": 5033,
      "Ġknife": 5034,
      "perhaps": 5035,
      "Ġfragment": 5036,
      "Ġfatal": 5037,
      "Ġbetray": 5038,
      "Ġjews": 5039,
      "Ġdeemed": 5040,
      "Ġsacrifices": 5041,
      "Ġtradition": 5042,
      "Ġpilot": 5043,
      "Ġdreadful": 5044,
      "Ġdefinition": 5045,
      "natural": 5046,
      "Ġtitle": 5047,
      "Ġastron": 5048,
      "Ġshape": 5049,
      "Ġrhythm": 5050,
      "Ġcomplicated": 5051,
      "Ġobservations": 5052,
      "Ġempty": 5053,
      "Ġskept": 5054,
      "bor": 5055,
      "kes": 5056,
      "lo": 5057,
      "ton": 5058,
      "ĠÎ": 5059,
      "Ġwood": 5060,
      "atisf": 5061,
      "Ġoffic": 5062,
      "Ġbent": 5063,
      "Ġbig": 5064,
      "itus": 5065,
      "itory": 5066,
      "itated": 5067,
      "Ġcard": 5068,
      "Ġcep": 5069,
      "Ġcited": 5070,
      "Ġcub": 5071,
      "Ġhot": 5072,
      "Ġinher": 5073,
      "Ġinjection": 5074,
      "Ġpisto": 5075,
      "icable": 5076,
      "Ġecon": 5077,
      "omb": 5078,
      "otto": 5079,
      "ste": 5080,
      "uting": 5081,
      "imony": 5082,
      "Ġnotes": 5083,
      "ldom": 5084,
      "Ġordered": 5085,
      "Ġstairs": 5086,
      "Ġframe": 5087,
      "Ġran": 5088,
      "Ġrig": 5089,
      "Ġseldom": 5090,
      "istinct": 5091,
      "estion": 5092,
      "Ġtraced": 5093,
      "Ġkir": 5094,
      "Ġnearer": 5095,
      "Ġcomedy": 5096,
      "Ġtherein": 5097,
      "pless": 5098,
      "Ġliable": 5099,
      "aging": 5100,
      "Ġambit": 5101,
      "Ġrepent": 5102,
      "Ġrepression": 5103,
      "Ġcompos": 5104,
      "Ġbright": 5105,
      "Ġpersist": 5106,
      "Ġindisp": 5107,
      "Ġworldly": 5108,
      "Ġthinker": 5109,
      "Ġletter": 5110,
      "Ġpassages": 5111,
      "Ġregret": 5112,
      "orses": 5113,
      "Ġmeanness": 5114,
      "Ġmeanwhile": 5115,
      "Ġscorn": 5116,
      "Ġpleased": 5117,
      "Ġkey": 5118,
      "Ġoriginates": 5119,
      "Ġillusions": 5120,
      "Ġappearing": 5121,
      "Ġappearances": 5122,
      "ancesco": 5123,
      "Ġpreviously": 5124,
      "Ġphysicians": 5125,
      "Ġsentiments": 5126,
      "ourses": 5127,
      "Ġassuming": 5128,
      "ĠĠĠĠĠĠĠĠĠĠĠĠĠĠĠĠĠĠĠĠĠĠĠĠĠĠĠĠĠĠĠĠ": 5129,
      "Ġjudges": 5130,
      "Ġsmaller": 5131,
      "Ġmythology": 5132,
      "Ġprovin": 5133,
      "Ġprovidence": 5134,
      "Ġexpectation": 5135,
      "Ġseriousness": 5136,
      "Ġceased": 5137,
      "Ġsuccession": 5138,
      "Ġreverence": 5139,
      "Ġheavenly": 5140,
      "Ġattacked": 5141,
      "Ġgirls": 5142,
      "Ġconstantin": 5143,
      "Ġfunctions": 5144,
      "Ġwaiting": 5145,
      "Ġinstruct": 5146,
      "Ġperformed": 5147,
      "after": 5148,
      "Ġsurprise": 5149,
      "Ġprincipalities": 5150,
      "Ġdemonstrated": 5151,
      "Ġenterpr": 5152,
      "Ġwalking": 5153,
      "Ġviolent": 5154,
      "Ġsuperiority": 5155,
      "Ġhurt": 5156,
      "Ġexercises": 5157,
      "Ġventure": 5158,
      "Ġdisguise": 5159,
      "Ġdemocratic": 5160,
      "Ġmathematical": 5161,
      "Ġunfortunate": 5162,
      "Ġexclusively": 5163,
      "Ġhypotheses": 5164,
      "Ġprocedure": 5165,
      "Ġcicero": 5166,
      "Ġcelebr": 5167,
      "Ġmelancholy": 5168,
      "Ġambitious": 5169,
      ";'": 5170,
      "fty": 5171,
      "gl": 5172,
      "iour": 5173,
      "och": 5174,
      "wish": 5175,
      "Ġ+": 5176,
      "inine": 5177,
      "Ġsaint": 5178,
      "isition": 5179,
      "attered": 5180,
      "erity": 5181,
      "onents": 5182,
      "itating": 5183,
      "Ġcou": 5184,
      "Ġcaught": 5185,
      "Ġcamp": 5186,
      "Ġfix": 5187,
      "Ġpu": 5188,
      "Ġpit": 5189,
      "Ġdro": 5190,
      "ione": 5191,
      "Ġbearing": 5192,
      "Ġlament": 5193,
      "Ġlaughter": 5194,
      "Ġhears": 5195,
      "Ġreaction": 5196,
      "seen": 5197,
      "Ġancest": 5198,
      "Ġconverse": 5199,
      "Ġwel": 5200,
      "iders": 5201,
      "Ġfrancesco": 5202,
      "ilov": 5203,
      "Ġrising": 5204,
      "Ġseven": 5205,
      "ously": 5206,
      "Ġthereupon": 5207,
      "Ġprod": 5208,
      "Ġunion": 5209,
      "Ġdost": 5210,
      "antic": 5211,
      "acc": 5212,
      "umb": 5213,
      "keep": 5214,
      "arted": 5215,
      "Ġdism": 5216,
      "Ġleaving": 5217,
      "Ġspan": 5218,
      "Ġeveryday": 5219,
      "Ġprelim": 5220,
      "Ġoutl": 5221,
      "ounced": 5222,
      "Ġbrut": 5223,
      "Ġclot": 5224,
      "ignific": 5225,
      "Ġreck": 5226,
      "plex": 5227,
      "Ġflowers": 5228,
      "Ġdiscourse": 5229,
      "Ġsuffe": 5230,
      "ibilities": 5231,
      "Ġconfron": 5232,
      "Ġexamined": 5233,
      "Ġinsult": 5234,
      "Ġinspir": 5235,
      "armed": 5236,
      "Ġpatri": 5237,
      "Ġembra": 5238,
      "necess": 5239,
      "Ġfurthermore": 5240,
      "Ġdefence": 5241,
      "Ġdivinity": 5242,
      "Ġconcerns": 5243,
      "Ġdoubtful": 5244,
      "Ġparis": 5245,
      "Ġmotor": 5246,
      "Ġexcuse": 5247,
      "Ġholding": 5248,
      "Ġsolitude": 5249,
      "Ġinfluences": 5250,
      "Ġattend": 5251,
      "Ġtemple": 5252,
      "Ġunconsciously": 5253,
      "Ġarguments": 5254,
      "Ġcarpent": 5255,
      "Ġvariety": 5256,
      "Ġwriting": 5257,
      "Ġcollection": 5258,
      "Ġcolours": 5259,
      "Ġconstitute": 5260,
      "Ġasserts": 5261,
      "Ġcurrent": 5262,
      "Ġcurios": 5263,
      "Ġjohn": 5264,
      "Ġlegs": 5265,
      "Ġfrequent": 5266,
      "Ġcontemporaneous": 5267,
      "Ġinjury": 5268,
      "Ġneurosis": 5269,
      "Ġdepends": 5270,
      "Ġencoun": 5271,
      "Ġtranslated": 5272,
      "Ġstreets": 5273,
      "Ġgentleman": 5274,
      "Ġvenet": 5275,
      "Ġearliest": 5276,
      "Ġbenefit": 5277,
      "Ġgratification": 5278,
      "Ġindependent": 5279,
      "Ġcomprehend": 5280,
      "Ġantiquity": 5281,
      "Ġmetaphysical": 5282,
      "halus": 5283,
      "Ġfinger": 5284,
      "Ġexhausted": 5285,
      "Ġformula": 5286,
      "Ġdisorder": 5287,
      "Ġsynthe": 5288,
      "namely": 5289,
      "Ġscarce": 5290,
      "Ġhenceforth": 5291,
      "Ġcephalus": 5292,
      "Ġkirilov": 5293,
      "Ġpreliminary": 5294,
      "48": 5295,
      "cher": 5296,
      "cus": 5297,
      "cause": 5298,
      "eous": 5299,
      "every": 5300,
      "fall": 5301,
      "oys": 5302,
      "ooth": 5303,
      "oided": 5304,
      "rical": 5305,
      "ser": 5306,
      "uf": 5307,
      "Ġtree": 5308,
      "Ġtip": 5309,
      "inter": 5310,
      "reci": 5311,
      "Ġsit": 5312,
      "Ġsle": 5313,
      "Ġcand": 5314,
      "Ġchest": 5315,
      "enna": 5316,
      "Ġhorses": 5317,
      "Ġfer": 5318,
      "Ġdying": 5319,
      "Ġdignity": 5320,
      "orical": 5321,
      "Ġissue": 5322,
      "Ġrevel": 5323,
      "Ġascend": 5324,
      "urious": 5325,
      "Ġstorm": 5326,
      "Ġseize": 5327,
      "pelled": 5328,
      "Ġmanage": 5329,
      "quently": 5330,
      "Ġtries": 5331,
      "Ġvan": 5332,
      "Ġunp": 5333,
      "Ġnobles": 5334,
      "Ġjose": 5335,
      "acing": 5336,
      "Ġplant": 5337,
      "Ġanyone": 5338,
      "Ġusing": 5339,
      "rious": 5340,
      "Ġtimaeus": 5341,
      "Ġconsent": 5342,
      "Ġconspir": 5343,
      "Ġsomewhere": 5344,
      "Ġremedy": 5345,
      "these": 5346,
      "Ġnative": 5347,
      "Ġcomprom": 5348,
      "Ġattach": 5349,
      "Ġaccident": 5350,
      "Ġindust": 5351,
      "Ġindistinct": 5352,
      "Ġapost": 5353,
      "Ġgenital": 5354,
      "Ġgenitals": 5355,
      "Ġopens": 5356,
      "Ġartific": 5357,
      "Ġsimpl": 5358,
      "Ġcrimin": 5359,
      "Ġinvites": 5360,
      "Ġsubjective": 5361,
      "Ġexpressions": 5362,
      "Ġconsiderations": 5363,
      "Ġextingu": 5364,
      "Ġmember": 5365,
      "Ġ27": 5366,
      "Ġimmoral": 5367,
      "Ġdivisions": 5368,
      "Ġirony": 5369,
      "Ġleaders": 5370,
      "Ġpossesses": 5371,
      "Ġstandard": 5372,
      "Ġtelling": 5373,
      "Ġcompleted": 5374,
      "Ġexcitation": 5375,
      "Ġcontinues": 5376,
      "Ġsets": 5377,
      "Ġsatisfact": 5378,
      "Ġmask": 5379,
      "Ġrespecting": 5380,
      "Ġavoided": 5381,
      "Ġarranged": 5382,
      "Ġpractise": 5383,
      "Ġhousehold": 5384,
      "Ġoccasions": 5385,
      "Ġcease": 5386,
      "Ġfailure": 5387,
      "Ġaristocr": 5388,
      "Ġdespised": 5389,
      "Ġfulfil": 5390,
      "Ġrenders": 5391,
      "Ġthousands": 5392,
      "Ġmilan": 5393,
      "Ġgrew": 5394,
      "Ġpenal": 5395,
      "Ġdoctor": 5396,
      "Ġfeminine": 5397,
      "Ġtorment": 5398,
      "Ġpursued": 5399,
      "Ġinvolved": 5400,
      "Ġdemanded": 5401,
      "Ġoligarchical": 5402,
      "Ġcivilized": 5403,
      "Ġundertake": 5404,
      "Ġbreaks": 5405,
      "Ġsymptom": 5406,
      "Ġterror": 5407,
      "Ġsixth": 5408,
      "Ġharmonies": 5409,
      "Ġresolution": 5410,
      "Ġsubstitute": 5411,
      "Ġexercised": 5412,
      "matter": 5413,
      "Ġinexplic": 5414,
      "Ġstupid": 5415,
      "Ġinhab": 5416,
      "Ġbottom": 5417,
      "Ġadapted": 5418,
      "Ġglorious": 5419,
      "Ġwithdraw": 5420,
      "Ġremnants": 5421,
      "pherd": 5422,
      "Ġanew": 5423,
      "Ġsharp": 5424,
      "Ġjesus": 5425,
      "Ġproclaim": 5426,
      "Ġtriumph": 5427,
      "Ġpagolo": 5428,
      "Ġdecisive": 5429,
      "Ġcuriosity": 5430,
      "Ġvenetians": 5431,
      ".),": 5432,
      "aed": 5433,
      "fast": 5434,
      "hist": 5435,
      "ih": 5436,
      "ixt": 5437,
      "ky": 5438,
      "Åĵ": 5439,
      "Ġtum": 5440,
      "head": 5441,
      "Ġwings": 5442,
      "athered": 5443,
      "Ġofficial": 5444,
      "Ġinit": 5445,
      "Ġtot": 5446,
      "Ġtow": 5447,
      "Ġdam": 5448,
      "Ġdust": 5449,
      "anim": 5450,
      "Ġlic": 5451,
      "Ġlect": 5452,
      "Ġlines": 5453,
      "omin": 5454,
      "Ġhered": 5455,
      "alia": 5456,
      "semb": 5457,
      "Ġgest": 5458,
      "Ġgathered": 5459,
      "vey": 5460,
      "Ġweight": 5461,
      "Ġoracle": 5462,
      "eterm": 5463,
      "cho": 5464,
      "ching": 5465,
      "aine": 5466,
      "Ġsuited": 5467,
      "tering": 5468,
      "Ġrhet": 5469,
      "Ġseason": 5470,
      "oser": 5471,
      "Ġkiss": 5472,
      "Ġshout": 5473,
      "Ġvulg": 5474,
      "Ġprose": 5475,
      "Ġprover": 5476,
      "mpl": 5477,
      "Ġjul": 5478,
      "Ġargue": 5479,
      "Ġdisapp": 5480,
      "astics": 5481,
      "Ġcontract": 5482,
      "Ġsail": 5483,
      "Ġsaved": 5484,
      "Ġenum": 5485,
      "agn": 5486,
      "Ġconsiders": 5487,
      "Ġspo": 5488,
      "Ġrepressed": 5489,
      "Ġresort": 5490,
      "Ġshepherd": 5491,
      "Ġbrain": 5492,
      "Ġbrill": 5493,
      "Ġinflict": 5494,
      "Ġassurance": 5495,
      "Ġinterval": 5496,
      "Ġdistrib": 5497,
      "Ġregression": 5498,
      "Ġinstant": 5499,
      "Ġrefine": 5500,
      "Ġdifferences": 5501,
      "ipus": 5502,
      "Ġmighty": 5503,
      "Ġwrote": 5504,
      "Ġinvisible": 5505,
      "Ġboast": 5506,
      "Ġclearer": 5507,
      "Ġinspired": 5508,
      "Ġinsignific": 5509,
      "Ġmodel": 5510,
      "Ġretained": 5511,
      "Ġrestored": 5512,
      "Ġasking": 5513,
      "Ġregarding": 5514,
      "Ġembod": 5515,
      "Ġprofitable": 5516,
      "Ġjudged": 5517,
      "Ġadvice": 5518,
      "Ġcommonly": 5519,
      "Ġdelusion": 5520,
      "Ġ23": 5521,
      "Ġruined": 5522,
      "Ġtreatise": 5523,
      "Ġstrongest": 5524,
      "Ġsetting": 5525,
      "Ġsettled": 5526,
      "Ġplaying": 5527,
      "Ġgoverned": 5528,
      "Ġdecision": 5529,
      "Ġinfluenced": 5530,
      "Ġreturning": 5531,
      "Ġrevenge": 5532,
      "Ġproceeding": 5533,
      "Ġdepreci": 5534,
      "Ġfortunate": 5535,
      "Ġmoving": 5536,
      "Ġliterally": 5537,
      "Ġevidently": 5538,
      "Ġtales": 5539,
      "Ġerrors": 5540,
      "Ġmeeting": 5541,
      "Ġfancies": 5542,
      "Ġefforts": 5543,
      "Ġgreen": 5544,
      "Ġverb": 5545,
      "hensible": 5546,
      "Ġdisturbed": 5547,
      "Ġneuroses": 5548,
      "Ġgolden": 5549,
      "Ġsolemn": 5550,
      "Ġreflections": 5551,
      "Ġhesitate": 5552,
      "Ġdogs": 5553,
      "Ġoperation": 5554,
      "Ġprevented": 5555,
      "Ġacquaintance": 5556,
      "Ġknight": 5557,
      "Ġincompre": 5558,
      "Ġrobert": 5559,
      "Ġteaching": 5560,
      "Ġcustoms": 5561,
      "Ġenquire": 5562,
      "Ġflee": 5563,
      "Ġconfirmation": 5564,
      "Ġneglected": 5565,
      "Ġcharming": 5566,
      "Ġstupidity": 5567,
      "Ġdramatic": 5568,
      "Ġlegislator": 5569,
      "Ġperceptions": 5570,
      "Ġperceptible": 5571,
      "Ġmathematics": 5572,
      "Ġpressure": 5573,
      "Ġsprings": 5574,
      "endom": 5575,
      "Ġpublished": 5576,
      "ĠĠĠĠĠĠĠĠĠĠĠĠĠĠĠ": 5577,
      "Ġdisfigurement": 5578,
      "Ġbirds": 5579,
      "Ġingenious": 5580,
      "Ġappropriate": 5581,
      "fluous": 5582,
      "Ġscheme": 5583,
      "Ġadmiration": 5584,
      "Ġcavalry": 5585,
      "Ġscarcely": 5586,
      "Ġinexplicable": 5587,
      "Ġvulgar": 5588,
      "';": 5589,
      "_;": 5590,
      "aic": 5591,
      "even": 5592,
      "hand": 5593,
      "iations": 5594,
      "maker": 5595,
      "pass": 5596,
      "tw": 5597,
      "Ġ.": 5598,
      "inence": 5599,
      "Ġsar": 5600,
      "itor": 5601,
      "Ġmart": 5602,
      "Ġcher": 5603,
      "Ġfaint": 5604,
      "Ġflying": 5605,
      "Ġfidelity": 5606,
      "Ġinward": 5607,
      "Ġpup": 5608,
      "ano": 5609,
      "icles": 5610,
      "lla": 5611,
      "arse": 5612,
      "arian": 5613,
      "Ġbeheld": 5614,
      "asa": 5615,
      "Ġreaches": 5616,
      "Ġgames": 5617,
      "utable": 5618,
      "Ġstay": 5619,
      "chant": 5620,
      "Ġsund": 5621,
      "pel": 5622,
      "ivity": 5623,
      "Ġsoil": 5624,
      "Ġsho": 5625,
      "Ġwillingly": 5626,
      "cial": 5627,
      "Ġproc": 5628,
      "Ġcontest": 5629,
      "Ġanybody": 5630,
      "Ġpron": 5631,
      "Ġprior": 5632,
      "Ġuses": 5633,
      "agues": 5634,
      "Ġthank": 5635,
      "Ġadvers": 5636,
      "Ġparties": 5637,
      "Ġprem": 5638,
      "Ġrepet": 5639,
      "Ġaccum": 5640,
      "Ġteeth": 5641,
      "ounce": 5642,
      "Ġsheep": 5643,
      "Ġindicated": 5644,
      "Ġapoll": 5645,
      "intell": 5646,
      "Ġwhereupon": 5647,
      "Ġartis": 5648,
      "orship": 5649,
      "Ġsupply": 5650,
      "Ġfarther": 5651,
      "Ġbliss": 5652,
      "Ġsuffice": 5653,
      "Ġclean": 5654,
      "Ġlatin": 5655,
      "Ġinsert": 5656,
      "Ġguide": 5657,
      "Ġmodest": 5658,
      "Ġoriginated": 5659,
      "Ġoffering": 5660,
      "Ġextrem": 5661,
      "Ġimaginary": 5662,
      "Ġedition": 5663,
      "Ġrealm": 5664,
      "guish": 5665,
      "Ġanaly": 5666,
      "Ġcool": 5667,
      "Ġadvanced": 5668,
      "cribe": 5669,
      "Ġsurrend": 5670,
      "Ġcares": 5671,
      "Ġdoubts": 5672,
      "Ġrequest": 5673,
      "Ġrespects": 5674,
      "Ġeffects": 5675,
      "Ġavar": 5676,
      "Ġsooner": 5677,
      "Ġcentre": 5678,
      "Ġbreed": 5679,
      "Ġasserted": 5680,
      "uously": 5681,
      "Ġbringing": 5682,
      "Ġopening": 5683,
      "Ġ189": 5684,
      "Ġgrowing": 5685,
      "Ġintelligent": 5686,
      "Ġmanifestations": 5687,
      "Ġuniversity": 5688,
      "Ġinstruction": 5689,
      "iliaries": 5690,
      "Ġneurotic": 5691,
      "Ġprepare": 5692,
      "Ġcultiv": 5693,
      "Ġdisciples": 5694,
      "Ġintroduce": 5695,
      "Ġundertaken": 5696,
      "Ġtempted": 5697,
      "Ġastonished": 5698,
      "Ġomitted": 5699,
      "Ġtouching": 5700,
      "Ġgroups": 5701,
      "Ġteachers": 5702,
      "Ġburst": 5703,
      "Ġresolved": 5704,
      "Ġconfirmed": 5705,
      "Ġportions": 5706,
      "Ġlucidity": 5707,
      "Ġabundant": 5708,
      "Ġcalculation": 5709,
      "Ġexecution": 5710,
      "Ġcategory": 5711,
      "Ġslowly": 5712,
      "Ġsuspicion": 5713,
      "Ġconstructed": 5714,
      "Ġhallucinations": 5715,
      "Ġdialogue": 5716,
      "Ġperpet": 5717,
      "Ġconceptions": 5718,
      "Ġrefrain": 5719,
      "Ġcobbl": 5720,
      "Ġequivalent": 5721,
      "Ġcomposite": 5722,
      "Ġcarpenter": 5723,
      "form": 5724,
      "Ġowe": 5725,
      "Ġsi": 5726,
      "Ġsir": 5727,
      "Ġben": 5728,
      "itudes": 5729,
      "Ġment": 5730,
      "Ġces": 5731,
      "Ġcoc": 5732,
      "Ġcup": 5733,
      "Ġhit": 5734,
      "Ġfals": 5735,
      "Ġinherent": 5736,
      "edipus": 5737,
      "orality": 5738,
      "ordered": 5739,
      "icit": 5740,
      "Ġnap": 5741,
      "llow": 5742,
      "Ġlou": 5743,
      "Ġecho": 5744,
      "Ġhegel": 5745,
      "Ġredu": 5746,
      "Ġgather": 5747,
      "cturn": 5748,
      "idge": 5749,
      "Ġstro": 5750,
      "Ġstories": 5751,
      "room": 5752,
      "road": 5753,
      "Ġdrew": 5754,
      "ilies": 5755,
      "Ġrange": 5756,
      "Ġtrains": 5757,
      "Ġshakes": 5758,
      "Ġwaste": 5759,
      "Ġves": 5760,
      "Ġprohib": 5761,
      "Ġunus": 5762,
      "Ġunsu": 5763,
      "Ġnost": 5764,
      "Ġnocturn": 5765,
      "inded": 5766,
      "ieved": 5767,
      "Ġgoal": 5768,
      "openh": 5769,
      "Ġdiscl": 5770,
      "Ġlips": 5771,
      "Ġperplex": 5772,
      "Ġloose": 5773,
      "Ġloving": 5774,
      "Ġlofty": 5775,
      "ressing": 5776,
      "Ġpreference": 5777,
      "Ġpreacher": 5778,
      "abled": 5779,
      "arsh": 5780,
      "Ġreluct": 5781,
      "Ġtwice": 5782,
      "Ġthrow": 5783,
      "Ġcommit": 5784,
      "Ġflo": 5785,
      "Ġflow": 5786,
      "Ġfollowers": 5787,
      "Ġcharles": 5788,
      "Ġentit": 5789,
      "Ġfoundations": 5790,
      "Ġpresents": 5791,
      "Ġnews": 5792,
      "Ġnewly": 5793,
      "Ġgenerations": 5794,
      "Ġrole": 5795,
      "Ġinvar": 5796,
      "Ġbegun": 5797,
      "Ġconfined": 5798,
      "Ġtransition": 5799,
      "Ġpursue": 5800,
      "Ġadmin": 5801,
      "Ġpatience": 5802,
      "Ġeasier": 5803,
      "Ġlearnt": 5804,
      "Ġirr": 5805,
      "Ġhearts": 5806,
      "Ġrecognition": 5807,
      "Ġdoubted": 5808,
      "._-": 5809,
      "Ġacquisition": 5810,
      "because": 5811,
      "Ġreturns": 5812,
      "Ġdegr": 5813,
      "Ġmothers": 5814,
      "Ġcarries": 5815,
      "Ġwrites": 5816,
      "Ġattempted": 5817,
      "Ġfavourable": 5818,
      "Ġarmies": 5819,
      "Ġpromised": 5820,
      "Ġsuperfluous": 5821,
      "Ġraising": 5822,
      "Ġproduces": 5823,
      "Ġdeclared": 5824,
      "alytic": 5825,
      "Ġpermit": 5826,
      "Ġperformance": 5827,
      "Ġtrees": 5828,
      "Ġstarted": 5829,
      "Ġlaughing": 5830,
      "Ġmarket": 5831,
      "Ġconquered": 5832,
      "Ġgymnastics": 5833,
      "Ġdependent": 5834,
      "Ġillustration": 5835,
      "Ġmountain": 5836,
      "Ġhesiod": 5837,
      "Ġdemonstrate": 5838,
      "Ġgentlemen": 5839,
      "Ġrejected": 5840,
      "Ġseduc": 5841,
      "Ġextended": 5842,
      "Ġentertained": 5843,
      "Ġfragments": 5844,
      "brand": 5845,
      "Ġcolleagues": 5846,
      "Ġpaid": 5847,
      "Ġpaul": 5848,
      "oleon": 5849,
      "Ġillustrate": 5850,
      "Ġmurder": 5851,
      "Ġsparta": 5852,
      "Ġmortal": 5853,
      "Ġsupplied": 5854,
      "Ġenthusiasm": 5855,
      "Ġinevitable": 5856,
      "Ġluxury": 5857,
      "Ġphrase": 5858,
      "Ġitalian": 5859,
      "Ġfairest": 5860,
      "Ġpythagorean": 5861,
      "Ġclergym": 5862,
      "Ġstrengthen": 5863,
      "Ġauxiliaries": 5864,
      "Ġaverage": 5865,
      "Ġmercenaries": 5866,
      "Ġastronomy": 5867,
      "Ġpistoia": 5868,
      "Ġconfronted": 5869,
      "Ġjoseph": 5870,
      "Ġinhabit": 5871,
      "Ġincomprehensible": 5872,
      "openhau": 5873,
      "\"!": 5874,
      "aus": 5875,
      "book": 5876,
      "host": 5877,
      "iat": 5878,
      "iably": 5879,
      "nature": 5880,
      "Ġ%": 5881,
      "Ġtur": 5882,
      "Ġakin": 5883,
      "inus": 5884,
      "Ġoliver": 5885,
      "Ġwave": 5886,
      "Ġsand": 5887,
      "iture": 5888,
      "itably": 5889,
      "ener": 5890,
      "Ġhide": 5891,
      "Ġhuge": 5892,
      "ese": 5893,
      "Ġfitted": 5894,
      "Ġpard": 5895,
      "Ġpour": 5896,
      "Ġdrop": 5897,
      "icing": 5898,
      "icle": 5899,
      "Ġecc": 5900,
      "aming": 5901,
      "Ġugu": 5902,
      "Ġwee": 5903,
      "Ġweep": 5904,
      "ulated": 5905,
      "ading": 5906,
      "Ġrat": 5907,
      "Ġtrack": 5908,
      "Ġtrick": 5909,
      "pping": 5910,
      "Ġunnatural": 5911,
      "umes": 5912,
      "--\"": 5913,
      "ccione": 5914,
      "ortions": 5915,
      "Ġ(\"": 5916,
      "Ġthence": 5917,
      "Ġenact": 5918,
      "Ġensl": 5919,
      "Ġenabled": 5920,
      "Ġspread": 5921,
      "irect": 5922,
      "Ġsomeone": 5923,
      "ults": 5924,
      "Ġformations": 5925,
      "Ġrelax": 5926,
      "Ġclum": 5927,
      "Ġideals": 5928,
      "ĠĠĠĠĠĠĠĠĠĠĠ": 5929,
      "Ġhumil": 5930,
      "Ġendowed": 5931,
      "Ġcharms": 5932,
      "ifications": 5933,
      "Ġfriendly": 5934,
      "Ġblue": 5935,
      "Ġcorner": 5936,
      "Ġconfidence": 5937,
      "Ġelo": 5938,
      "Ġelect": 5939,
      "Ġinsat": 5940,
      "Ġinsanity": 5941,
      "Ġadmits": 5942,
      "Ġdrun": 5943,
      "Ġlasting": 5944,
      "Ġoffers": 5945,
      "Ġimagines": 5946,
      "Ġhonourable": 5947,
      "archy": 5948,
      "Ġsmile": 5949,
      "Ġsmooth": 5950,
      "Ġequality": 5951,
      "Ġfiner": 5952,
      "Ġirres": 5953,
      "issible": 5954,
      "Ġsecurity": 5955,
      "Ġdevil": 5956,
      "atically": 5957,
      "Ġrespected": 5958,
      "Ġutility": 5959,
      "Ġimitator": 5960,
      "Ġcontradictory": 5961,
      "Ġprovide": 5962,
      "Ġinclination": 5963,
      "Ġincluded": 5964,
      "supp": 5965,
      "Ġschopenhau": 5966,
      "anni": 5967,
      "Ġcerem": 5968,
      "Ġridicule": 5969,
      "Ġmob": 5970,
      "Ġagreeable": 5971,
      "Ġswift": 5972,
      "Ġbuilt": 5973,
      "Ġlacks": 5974,
      "Ġhorror": 5975,
      "Ġsymbols": 5976,
      "Ġdecline": 5977,
      "Ġdesigns": 5978,
      "Ġcourageous": 5979,
      "Ġruns": 5980,
      "Ġcritical": 5981,
      "Ġorders": 5982,
      "Ġprofoundly": 5983,
      "Ġstrike": 5984,
      "Ġurged": 5985,
      "Ġconsisted": 5986,
      "Ġaffects": 5987,
      "Ġhellas": 5988,
      "Ġimplied": 5989,
      "Ġsuggests": 5990,
      "content": 5991,
      "Ġconvince": 5992,
      "Ġerotic": 5993,
      "Ġwickedness": 5994,
      "Ġimprob": 5995,
      "Ġcraft": 5996,
      "Ġrapidly": 5997,
      "Ġreminded": 5998,
      "Ġbuilding": 5999,
      "Ġabundance": 6000,
      "Ġforbidden": 6001,
      "Ġassigned": 6002,
      "Ġexperiment": 6003,
      "whether": 6004,
      "Ġbreath": 6005,
      "Ġsimultaneously": 6006,
      "Ġprecepts": 6007,
      "Ġunhappy": 6008,
      "necessary": 6009,
      "Ġtipasa": 6010,
      "Ġcompromise": 6011,
      "ixture": 6012,
      "Ġbrilliant": 6013,
      "Ġnapoleon": 6014,
      "Ġoliverotto": 6015,
      "Ġuguccione": 6016,
      "\":": 6017,
      "_\"": 6018,
      "aze": 6019,
      "een": 6020,
      "eble": 6021,
      "gra": 6022,
      "lm": 6023,
      "last": 6024,
      "present": 6025,
      "tical": 6026,
      "Ġ-": 6027,
      "Ġverse": 6028,
      "requently": 6029,
      "Ġsor": 6030,
      "Ġsway": 6031,
      "Ġsink": 6032,
      "atical": 6033,
      "ena": 6034,
      "Ġhol": 6035,
      "Ġhint": 6036,
      "Ġhosp": 6037,
      "Ġfost": 6038,
      "Ġdies": 6039,
      "oration": 6040,
      "ica": 6041,
      "Ġnour": 6042,
      "Ġbeard": 6043,
      "asion": 6044,
      "Ġlud": 6045,
      "omp": 6046,
      "oman": 6047,
      "Ġrecon": 6048,
      "Ġreign": 6049,
      "lement": 6050,
      "Ġham": 6051,
      "Ġascribed": 6052,
      "Ġascertain": 6053,
      "Ġassemb": 6054,
      "Ġstar": 6055,
      "Ġfrank": 6056,
      "Ġath": 6057,
      "usc": 6058,
      "ushing": 6059,
      "ores": 6060,
      "ivable": 6061,
      "igalia": 6062,
      "Ġunav": 6063,
      "Ġunpleas": 6064,
      "umn": 6065,
      "kelt": 6066,
      "Ġplun": 6067,
      "Ġprice": 6068,
      "Ġenm": 6069,
      "Ġqui": 6070,
      "Ġphaed": 6071,
      "Ġimply": 6072,
      "ensable": 6073,
      "Ġjustification": 6074,
      "Ġdesir": 6075,
      "conce": 6076,
      "Ġnowhere": 6077,
      "Ġpoison": 6078,
      "Ġexposed": 6079,
      "Ġrepud": 6080,
      "Ġcompulsion": 6081,
      "Ġaccur": 6082,
      "Ġrelatives": 6083,
      "actions": 6084,
      "Ġrecover": 6085,
      "Ġideality": 6086,
      "Ġsubord": 6087,
      "Ġpossibilities": 6088,
      "Ġovert": 6089,
      "Ġthinkers": 6090,
      "Ġappeal": 6091,
      "pected": 6092,
      "Ġsyll": 6093,
      "Ġrose": 6094,
      "Ġscenes": 6095,
      "Ġscattered": 6096,
      "Ġexplaining": 6097,
      "Ġglass": 6098,
      "Ġsins": 6099,
      "Ġsinigalia": 6100,
      "Ġdrive": 6101,
      "Ġeffected": 6102,
      "Ġinterpretations": 6103,
      "Ġdeterior": 6104,
      "Ġhonesty": 6105,
      "Ġcoarse": 6106,
      "Ġ25": 6107,
      "Ġdefined": 6108,
      "Ġdrag": 6109,
      "Ġdevote": 6110,
      "Ġservices": 6111,
      "Ġdescribes": 6112,
      "Ġinclude": 6113,
      "Ġincluding": 6114,
      "Ġseverity": 6115,
      "Ġmusician": 6116,
      "Ġmaid": 6117,
      "Ġcolon": 6118,
      "Ġchanging": 6119,
      "Ġreveal": 6120,
      "Ġnegative": 6121,
      "Ġjoined": 6122,
      "Ġsword": 6123,
      "noon": 6124,
      "Ġvolume": 6125,
      "Ġperiods": 6126,
      "Ġvein": 6127,
      "Ġmovements": 6128,
      "Ġcritic": 6129,
      "Ġprotest": 6130,
      "Ġinjured": 6131,
      "Ġidentical": 6132,
      "Ġreaching": 6133,
      "Ġdisturbing": 6134,
      "Ġhellenes": 6135,
      "Ġreflected": 6136,
      "Ġmountains": 6137,
      "Ġinvoluntary": 6138,
      "Ġsuggested": 6139,
      "control": 6140,
      "Ġcarrying": 6141,
      "Ġmystery": 6142,
      "Ġcomplaint": 6143,
      "Ġplainly": 6144,
      "Ġfleet": 6145,
      "Ġflatter": 6146,
      "Ġlocal": 6147,
      "Ġrestrict": 6148,
      "concern": 6149,
      "Ġsophist": 6150,
      "Ġunfortunately": 6151,
      "Ġcredit": 6152,
      "Ġmisunderstanding": 6153,
      "Ġreproduction": 6154,
      "Ġprivileged": 6155,
      "Ġnaples": 6156,
      "Ġbarbarians": 6157,
      "Ġexperiments": 6158,
      "Ġdialogues": 6159,
      "Ġreserved": 6160,
      "Ġarrangement": 6161,
      "Ġpunishments": 6162,
      "Ġscholars": 6163,
      "Ġaudience": 6164,
      "Ġnarrative": 6165,
      "Ġpretty": 6166,
      "Ġsubsequently": 6167,
      "Ġwidely": 6168,
      "Ġborrowed": 6169,
      "Ġseventh": 6170,
      "Ġvigorous": 6171,
      "Î¿Ï": 6172,
      "Ġrecollections": 6173,
      "Ġindispensable": 6174,
      "ihil": 6175,
      "Ġproverb": 6176,
      "Ġcocaine": 6177,
      "Ġnostal": 6178,
      "Ġseducer": 6179,
      ";--": 6180,
      "bert": 6181,
      "car": 6182,
      "din": 6183,
      "fr": 6184,
      "free": 6185,
      "hor": 6186,
      "iency": 6187,
      "lam": 6188,
      "lers": 6189,
      "light": 6190,
      "minded": 6191,
      "nes": 6192,
      "ocles": 6193,
      "phe": 6194,
      "rid": 6195,
      "uation": 6196,
      "uity": 6197,
      "ube": 6198,
      "vable": 6199,
      "zy": 6200,
      "Ġ>": 6201,
      "Ġvers": 6202,
      "Ġtill": 6203,
      "iner": 6204,
      "Ġsn": 6205,
      "isen": 6206,
      "ater": 6207,
      "itations": 6208,
      "itimate": 6209,
      "Ġmild": 6210,
      "Ġmock": 6211,
      "Ġholl": 6212,
      "Ġhung": 6213,
      "Ġharsh": 6214,
      "Ġfain": 6215,
      "Ġfought": 6216,
      "Ġpause": 6217,
      "Ġpiety": 6218,
      "Ġthick": 6219,
      "Ġthread": 6220,
      "Ġthrew": 6221,
      "Ġdance": 6222,
      "Ġdull": 6223,
      "eded": 6224,
      "Ġnamed": 6225,
      "llo": 6226,
      "Ġloses": 6227,
      "Ġegy": 6228,
      "otics": 6229,
      "Ġghost": 6230,
      "Ġhair": 6231,
      "Ġug": 6232,
      "Ġanguish": 6233,
      "Ġweap": 6234,
      "Ġstern": 6235,
      "changed": 6236,
      "Ġsust": 6237,
      "Ġexchange": 6238,
      "Ġdeli": 6239,
      "Ġallusions": 6240,
      "istr": 6241,
      "Ġtrip": 6242,
      "Ġvac": 6243,
      "Ġchose": 6244,
      "Ġunw": 6245,
      "Ġunworthy": 6246,
      "Ġunnecessary": 6247,
      "Ġintr": 6248,
      "indle": 6249,
      "Ġarisen": 6250,
      "orted": 6251,
      "unci": 6252,
      "Ġfeed": 6253,
      "Ġfears": 6254,
      "Ġagrees": 6255,
      "Ġherd": 6256,
      "enses": 6257,
      "Ġpartial": 6258,
      "Ġprecious": 6259,
      "Ġtends": 6260,
      "arest": 6261,
      "Ġcloud": 6262,
      "Ġstriving": 6263,
      "Ġrecur": 6264,
      "iano": 6265,
      "anging": 6266,
      "Ġgrief": 6267,
      "Ġoverwhe": 6268,
      "Ġletting": 6269,
      "Ġsuppression": 6270,
      "Ġentering": 6271,
      "Ġproposal": 6272,
      "Ġinval": 6273,
      "Ġinvite": 6274,
      "Ġsuffers": 6275,
      "Ġcorp": 6276,
      "Ġpointed": 6277,
      "phil": 6278,
      "Ġmodesty": 6279,
      "Ġdrones": 6280,
      "Ġvaliant": 6281,
      "Ġreaders": 6282,
      "Ġequals": 6283,
      "Ġhelpless": 6284,
      "Ġ28": 6285,
      "Ġemperors": 6286,
      "Ġruins": 6287,
      "Ġprescribed": 6288,
      "Ġfamilies": 6289,
      "Ġpolic": 6290,
      "Ġriding": 6291,
      "Ġcontinually": 6292,
      "Ġadds": 6293,
      "Ġdestined": 6294,
      "Ġauthorities": 6295,
      "Ġsentences": 6296,
      "Ġtyrants": 6297,
      "Ġtemples": 6298,
      "Ġearthly": 6299,
      "Ġcreatures": 6300,
      "Ġdegrees": 6301,
      "Ġjudging": 6302,
      "Ġprovision": 6303,
      "Ġcentral": 6304,
      "Ġvariance": 6305,
      "Ġdiam": 6306,
      "Ġchoosing": 6307,
      "Ġcreations": 6308,
      "Ġengage": 6309,
      "Ġtastes": 6310,
      "Ġprompt": 6311,
      "Ġreveals": 6312,
      "Ġnegation": 6313,
      "Ġknees": 6314,
      "Ġtestimony": 6315,
      "Ġproduction": 6316,
      "Ġmeasures": 6317,
      "Ġunfav": 6318,
      "Ġpraised": 6319,
      "Ġpraises": 6320,
      "Ġveins": 6321,
      "Ġgrounds": 6322,
      "Ġadvantages": 6323,
      "Ġgrey": 6324,
      "Ġowes": 6325,
      "Ġtrem": 6326,
      "Ġdisplay": 6327,
      "Ġcorrupted": 6328,
      "Ġrequirements": 6329,
      "Ġsubstance": 6330,
      "Ġmedici": 6331,
      "Ġcheer": 6332,
      "Ġincreased": 6333,
      "Ġincreasing": 6334,
      "Ġphantasies": 6335,
      "Ġflorentine": 6336,
      "Ġextend": 6337,
      "Ġexcessive": 6338,
      "Ġselected": 6339,
      "Ġhoped": 6340,
      "Ġaug": 6341,
      "Ġpersuade": 6342,
      "Ġachieve": 6343,
      "Ġendeavour": 6344,
      "Ġcomprehended": 6345,
      "Ġdrama": 6346,
      "Ġadditional": 6347,
      "Ġsurrounded": 6348,
      "Ġadopted": 6349,
      "ĠĠĠĠĠĠĠĠĠĠĠĠĠĠĠĠĠĠĠĠĠĠ": 6350,
      "laws": 6351,
      "Ġmutual": 6352,
      "Ġmechanism": 6353,
      "Ġunequ": 6354,
      "Ġreminiscence": 6355,
      "Ġnoblest": 6356,
      "Ġesteemed": 6357,
      "Ġalleg": 6358,
      "Ġtouched": 6359,
      "Ġextravagant": 6360,
      "Ġgarden": 6361,
      "Ġintervals": 6362,
      "Ġblasphemy": 6363,
      "ombard": 6364,
      "Ġcelebrated": 6365,
      "Ġchestov": 6366,
      "Ġpenalty": 6367,
      "Ġdisappoint": 6368,
      "Ġinsignificant": 6369,
      "Ġrepetition": 6370,
      "intellig": 6371,
      "Ġshakespe": 6372,
      "brandt": 6373,
      "Ġnostalgia": 6374,
      "Ġegypt": 6375,
      "\"?": 6376,
      "20": 6377,
      "cp": 6378,
      "ebrandt": 6379,
      "oon": 6380,
      "rous": 6381,
      "rass": 6382,
      "uction": 6383,
      "vanni": 6384,
      "would": 6385,
      "Î¹": 6386,
      "herence": 6387,
      "Ġax": 6388,
      "Ġaes": 6389,
      "inst": 6390,
      "inth": 6391,
      "inable": 6392,
      "Ġwed": 6393,
      "Ġmast": 6394,
      "Ġcite": 6395,
      "Ġcarn": 6396,
      "Ġcogn": 6397,
      "Ġcode": 6398,
      "Ġho": 6399,
      "Ġfly": 6400,
      "Ġinferences": 6401,
      "Ġpage": 6402,
      "Ġpale": 6403,
      "Ġpages": 6404,
      "Ġthither": 6405,
      "Ġtoil": 6406,
      "Ġdil": 6407,
      "Ġdict": 6408,
      "icates": 6409,
      "arante": 6410,
      "Ġlung": 6411,
      "Ġerect": 6412,
      "Ġrebell": 6413,
      "Ġgate": 6414,
      "Ġgio": 6415,
      "Ġaspir": 6416,
      "imately": 6417,
      "Ġwet": 6418,
      "Ġorient": 6419,
      "Ġstock": 6420,
      "Ġexpend": 6421,
      "ulate": 6422,
      "Ġram": 6423,
      "Ġride": 6424,
      "Ġsell": 6425,
      "Ġsequence": 6426,
      "Ġkant": 6427,
      "Ġunqu": 6428,
      "Ġintent": 6429,
      "ola": 6430,
      "olved": 6431,
      "reness": 6432,
      "Ġplane": 6433,
      "unning": 6434,
      "Ġfeeble": 6435,
      "Ġaged": 6436,
      "agen": 6437,
      "Ġsport": 6438,
      "Ġoutset": 6439,
      "Ġexpedient": 6440,
      "Ġcling": 6441,
      "Ġclimate": 6442,
      "Ġtwel": 6443,
      "ildebrandt": 6444,
      "system": 6445,
      "asement": 6446,
      "Ġrecourse": 6447,
      "Ġrecomme": 6448,
      "Ġassent": 6449,
      "Ġcommence": 6450,
      "Ġabsor": 6451,
      "rete": 6452,
      "Ġseeming": 6453,
      "Ġworked": 6454,
      "Ġenters": 6455,
      "Ġdiscord": 6456,
      "Ġrefuge": 6457,
      "Ġmoriah": 6458,
      "Ġcriter": 6459,
      "Ġproposition": 6460,
      "Ġbelieving": 6461,
      "Ġexistential": 6462,
      "Ġindebted": 6463,
      "Ġguid": 6464,
      "Ġguarante": 6465,
      "Ġkindly": 6466,
      "Ġlesson": 6467,
      "Ġsensitive": 6468,
      "Ġreplies": 6469,
      "Ġlightly": 6470,
      "Ġembar": 6471,
      "Ġ24": 6472,
      "Ġ26": 6473,
      "Ġforever": 6474,
      "Ġleader": 6475,
      "Ġpolice": 6476,
      "Ġmotility": 6477,
      "Ġstudied": 6478,
      "Ġdecay": 6479,
      "Ġmiser": 6480,
      "Ġsexes": 6481,
      "Ġsimilarly": 6482,
      "Ġmonster": 6483,
      "Ġfreely": 6484,
      "Ġanton": 6485,
      "Ġattempting": 6486,
      "Ġvii": 6487,
      "Ġvienna": 6488,
      "Ġskin": 6489,
      "Ġaristocracy": 6490,
      "Ġforgetfulness": 6491,
      "Ġoccupy": 6492,
      "Ġsymbolic": 6493,
      "Ġdesignate": 6494,
      "Ġmeets": 6495,
      "Ġmercy": 6496,
      "Ġattacks": 6497,
      "grim": 6498,
      "Ġdomination": 6499,
      "Ġpermission": 6500,
      "Ġbeneath": 6501,
      "amentally": 6502,
      "Ġdealing": 6503,
      "untarily": 6504,
      "Ġidentity": 6505,
      "umptions": 6506,
      "Ġadvantageous": 6507,
      "Ġattribute": 6508,
      "Ġabstraction": 6509,
      "Ġpreferred": 6510,
      "Ġconqueror": 6511,
      "Ġencoura": 6512,
      "Ġfundamentally": 6513,
      "Ġcontributed": 6514,
      "Ġgift": 6515,
      "Ġgifted": 6516,
      "Ġextends": 6517,
      "Ġdressed": 6518,
      "Ġlowly": 6519,
      "Ġliberality": 6520,
      "Ġposterity": 6521,
      "Ġrepeatedly": 6522,
      "Ġexceptional": 6523,
      "Ġflatte": 6524,
      "Ġsuspected": 6525,
      "Ġregulations": 6526,
      "Ġindependence": 6527,
      "Ġthyself": 6528,
      "Ġfifth": 6529,
      "Ġsophists": 6530,
      "Ġsacrificed": 6531,
      "Ġspartan": 6532,
      "Ġinstitution": 6533,
      "Ġinstitutions": 6534,
      "Ġcopenh": 6535,
      "Ġpilgrim": 6536,
      "Ġburning": 6537,
      "Ġcategories": 6538,
      "Ġvaluable": 6539,
      "Ġwithdrawn": 6540,
      "Ġdisappeared": 6541,
      "Ġmagnificent": 6542,
      "Ġsplendid": 6543,
      "Ġtheatre": 6544,
      "Ġinhibition": 6545,
      "Ġabandoned": 6546,
      "Ġenlighten": 6547,
      "Ġvitelli": 6548,
      "Ġvillage": 6549,
      "Ġindulge": 6550,
      "Ġimpatient": 6551,
      "Ġsuperstition": 6552,
      "Ġbehaviour": 6553,
      "Ġaristocratic": 6554,
      "Ġtower": 6555,
      "Ġunusual": 6556,
      "Ġnocturnal": 6557,
      "Ġentitled": 6558,
      "Ġeccles": 6559,
      "Ġschopenhauer": 6560,
      "Ġimprobable": 6561,
      "Ġludic": 6562,
      "Ġunavoid": 6563,
      "Ġenmity": 6564,
      "Ġoverwhelm": 6565,
      "Ġshakespeare": 6566,
      "Ġgiovanni": 6567,
      "Ġtwelve": 6568,
      "Ġcriterion": 6569,
      "Ġembarrass": 6570,
      "Ġcopenhagen": 6571,
      "18": 6572,
      "_.\"": 6573,
      "ais": 6574,
      "bus": 6575,
      "col": 6576,
      "dis": 6577,
      "first": 6578,
      "lands": 6579,
      "leness": 6580,
      "mas": 6581,
      "oev": 6582,
      "pers": 6583,
      "rs": 6584,
      "spect": 6585,
      "sky": 6586,
      "tes": 6587,
      "yls": 6588,
      "zer": 6589,
      "ĠÏ": 6590,
      "Ġtail": 6591,
      "hearted": 6592,
      "Ġwid": 6593,
      "Ġwake": 6594,
      "Ġsic": 6595,
      "Ġsfor": 6596,
      "erated": 6597,
      "ithes": 6598,
      "Ġcove": 6599,
      "Ġcaut": 6600,
      "Ġhildebrandt": 6601,
      "Ġfier": 6602,
      "Ġinse": 6603,
      "Ġtop": 6604,
      "Ġdw": 6605,
      "Ġdate": 6606,
      "Ġdry": 6607,
      "Ġdaring": 6608,
      "educ": 6609,
      "oric": 6610,
      "anical": 6611,
      "anches": 6612,
      "Ġnational": 6613,
      "Ġlombard": 6614,
      "Ġegot": 6615,
      "Ġil": 6616,
      "othe": 6617,
      "Ġreappe": 6618,
      "ley": 6619,
      "ales": 6620,
      "entious": 6621,
      "Ġascle": 6622,
      "Ġnoted": 6623,
      "Ġweaken": 6624,
      "Ġstress": 6625,
      "Ġstick": 6626,
      "Ġstages": 6627,
      "Ġrain": 6628,
      "Ġrav": 6629,
      "Ġseat": 6630,
      "Ġdefic": 6631,
      "pended": 6632,
      "Ġally": 6633,
      "Ġvoy": 6634,
      "Ġneck": 6635,
      "Ġjest": 6636,
      "Ġplot": 6637,
      "Ġplants": 6638,
      "Ġlegend": 6639,
      "emon": 6640,
      "Ġenfor": 6641,
      "Ġamusing": 6642,
      "Ġintox": 6643,
      "Ġconsum": 6644,
      "ensed": 6645,
      "Ġjustify": 6646,
      "Ġspain": 6647,
      "Ġspont": 6648,
      "Ġspindle": 6649,
      "Ġresour": 6650,
      "Ġrelief": 6651,
      "Ġbrown": 6652,
      "Ġbranch": 6653,
      "Ġbranches": 6654,
      "Ġcloser": 6655,
      ".\"]": 6656,
      "Ġdistract": 6657,
      "Ġflour": 6658,
      "Ġflows": 6659,
      "ocation": 6660,
      "Ġrefuses": 6661,
      "Ġfounded": 6662,
      "Ġsimon": 6663,
      "Ġblow": 6664,
      "Ġblamed": 6665,
      "Ġrighteous": 6666,
      "Ġprophe": 6667,
      "Ġproportions": 6668,
      "Ġroc": 6669,
      "Ġpeoples": 6670,
      "Ġexpressly": 6671,
      "Ġglo": 6672,
      "Ġlatest": 6673,
      "Ġinterpre": 6674,
      "Ġelevation": 6675,
      "Ġkindred": 6676,
      "Ġconcent": 6677,
      "guard": 6678,
      "Ġsmell": 6679,
      "Ġinterested": 6680,
      "Ġforest": 6681,
      "Ġsurv": 6682,
      "Ġriddle": 6683,
      "Ġexcited": 6684,
      "Ġvisited": 6685,
      "Ġaddressed": 6686,
      "Ġbackground": 6687,
      "Ġsingular": 6688,
      "Ġgovernments": 6689,
      "Ġgrav": 6690,
      "Ġwaters": 6691,
      "Ġcreating": 6692,
      "Ġcreative": 6693,
      "Ġdiscussions": 6694,
      "Ġdirections": 6695,
      "ableness": 6696,
      "Ġwont": 6697,
      "Ġthirdly": 6698,
      "Ġidle": 6699,
      "Ġmoon": 6700,
      "Ġwisely": 6701,
      "Ġagreement": 6702,
      "Ġdespite": 6703,
      "Ġbusy": 6704,
      "Ġvolkelt": 6705,
      "Ġ185": 6706,
      "Ġeti": 6707,
      "Ġminister": 6708,
      "Ġaccepting": 6709,
      "Ġcommanded": 6710,
      "Ġinstruments": 6711,
      "Ġordin": 6712,
      "Ġprotection": 6713,
      "Ġbanished": 6714,
      "Ġsorrows": 6715,
      "Ġcarriage": 6716,
      "Ġattributes": 6717,
      "Ġdisturbance": 6718,
      "Ġderive": 6719,
      "Ġtorture": 6720,
      "Ġcivilization": 6721,
      "Ġhorsemen": 6722,
      "Ġomit": 6723,
      "Ġamounts": 6724,
      "Ġgladly": 6725,
      "Ġobscurity": 6726,
      "Ġpreceded": 6727,
      "Ġharmonious": 6728,
      "Ġattracted": 6729,
      "Ġabstractions": 6730,
      "Ġpersuaded": 6731,
      "Ġnerve": 6732,
      "Ġfifty": 6733,
      "Ġfifteen": 6734,
      "Ġultimately": 6735,
      "Ġbeasts": 6736,
      "Ġfingers": 6737,
      "Ġexhaust": 6738,
      "Ġsafely": 6739,
      "Ġadopt": 6740,
      "Ġfestival": 6741,
      "Ġdiversity": 6742,
      "Ġadventure": 6743,
      "Ġinterrupted": 6744,
      "Ġwarrior": 6745,
      "Ġvirg": 6746,
      "modern": 6747,
      "Ġpsychoneuroses": 6748,
      "Ġdostoev": 6749,
      "Ġbrutal": 6750,
      "Ġverbal": 6751,
      "Ġapollo": 6752,
      "Ġcesare": 6753,
      "Ġlouis": 6754,
      "Ġvessel": 6755,
      "Ġinhabitants": 6756,
      "Ġpardon": 6757,
      "Ġinsatiable": 6758,
      "Ġunpleasant": 6759,
      "Ġdesirous": 6760,
      "Ġecclesi": 6761,
      "Ġsforza": 6762,
      "Ġasclep": 6763,
      "\"),": 6764,
      "]\"": 6765,
      "_-": 6766,
      "_,\"": 6767,
      "bid": 6768,
      "bÅĵ": 6769,
      "dict": 6770,
      "dles": 6771,
      "eff": 6772,
      "ghed": 6773,
      "iver": 6774,
      "ipp": 6775,
      "lime": 6776,
      "non": 6777,
      "ned": 6778,
      "oen": 6779,
      "sm": 6780,
      "some": 6781,
      "ties": 6782,
      "uber": 6783,
      "ugn": 6784,
      "Îµ": 6785,
      "Ġtong": 6786,
      "Ġtick": 6787,
      "Ġtired": 6788,
      "Ġoh": 6789,
      "rection": 6790,
      "Ġwaves": 6791,
      "ata": 6792,
      "Ġbid": 6793,
      "Ġcunning": 6794,
      "Ġfant": 6795,
      "Ġpi": 6796,
      "Ġpas": 6797,
      "Ġpier": 6798,
      "Ġthro": 6799,
      "Ġtom": 6800,
      "Ġdion": 6801,
      "Ġdur": 6802,
      "Ġdorm": 6803,
      "orable": 6804,
      "ancing": 6805,
      "icus": 6806,
      "Ġnic": 6807,
      "Ġbell": 6808,
      "Ġisol": 6809,
      "Ġhealing": 6810,
      "Ġrebu": 6811,
      "imil": 6812,
      "Ġconj": 6813,
      "Ġconject": 6814,
      "Ġstair": 6815,
      "ilful": 6816,
      "Ġrises": 6817,
      "Ġrival": 6818,
      "thought": 6819,
      "estic": 6820,
      "Ġtram": 6821,
      "Ġtraces": 6822,
      "Ġsovere": 6823,
      "cile": 6824,
      "Ġunbe": 6825,
      "Ġdoors": 6826,
      "Ġnoise": 6827,
      "Ġarouse": 6828,
      "ccess": 6829,
      "aste": 6830,
      "Ġanywhere": 6831,
      "emen": 6832,
      "Ġperish": 6833,
      "Ġpersec": 6834,
      "Ġener": 6835,
      "agna": 6836,
      "ria": 6837,
      "Ġamuse": 6838,
      "Ġadjust": 6839,
      "Ġobe": 6840,
      "Ġobl": 6841,
      "Ġremot": 6842,
      "Ġpreach": 6843,
      "ogue": 6844,
      "Ġattraction": 6845,
      "Ġacted": 6846,
      "Ġimpelled": 6847,
      "ucid": 6848,
      "Ġspeed": 6849,
      "Ġsheer": 6850,
      "Ġclo": 6851,
      "Ġclar": 6852,
      "Ġcloth": 6853,
      "ictions": 6854,
      "nothing": 6855,
      "Ġthrust": 6856,
      "Ġthrows": 6857,
      "Ġsublime": 6858,
      "angled": 6859,
      "Ġpersonally": 6860,
      "Ġinferred": 6861,
      "Ġgram": 6862,
      "Ġcommands": 6863,
      "Ġ100": 6864,
      "Ġintemp": 6865,
      "retion": 6866,
      "Ġdistortion": 6867,
      "Ġfactions": 6868,
      "Ġartistic": 6869,
      "Ġendured": 6870,
      "Ġflor": 6871,
      "Ġreferring": 6872,
      "Ġblows": 6873,
      "Ġpropose": 6874,
      "Ġproposed": 6875,
      "Ġinviter": 6876,
      "Ġoppressed": 6877,
      "Ġcorrel": 6878,
      "Ġchristendom": 6879,
      "Ġcontented": 6880,
      "Ġelucid": 6881,
      "Ġincident": 6882,
      "Ġinsists": 6883,
      "Ġguise": 6884,
      "isms": 6885,
      "Ġreplace": 6886,
      "Ġeverlast": 6887,
      "Ġsmoke": 6888,
      "Ġspeaker": 6889,
      "Ġdelph": 6890,
      "ĠdelbÅĵ": 6891,
      "Ġrecognizes": 6892,
      "Ġhardship": 6893,
      "Ġpossessions": 6894,
      "Ġadding": 6895,
      "Ġprobability": 6896,
      "Ġanalyses": 6897,
      "Ġstudents": 6898,
      "Ġmusical": 6899,
      "Ġreligions": 6900,
      "Ġconcluded": 6901,
      "Ġmisch": 6902,
      "Ġcreates": 6903,
      "Ġcausing": 6904,
      "Ġreview": 6905,
      "Ġremainder": 6906,
      "Ġarrives": 6907,
      "Ġpractised": 6908,
      "Ġantithes": 6909,
      "Ġproceeded": 6910,
      "Ġvariations": 6911,
      "Ġbreaking": 6912,
      "Ġviii": 6913,
      "Ġconstituted": 6914,
      "Ġpromises": 6915,
      "Ġprominent": 6916,
      "Ġpathological": 6917,
      "Ġreproduced": 6918,
      "Ġopenly": 6919,
      "Ġtests": 6920,
      "going": 6921,
      "Ġcommunication": 6922,
      "Ġdeclares": 6923,
      "Ġmanifests": 6924,
      "Ġherod": 6925,
      "Ġseparates": 6926,
      "Ġfellows": 6927,
      "Ġcounc": 6928,
      "Ġepit": 6929,
      "Ġpopulation": 6930,
      "Ġhusbandman": 6931,
      "Ġenjoyed": 6932,
      "Ġinjure": 6933,
      "Ġstrikes": 6934,
      "Ġpayment": 6935,
      "Ġoffend": 6936,
      "ietz": 6937,
      "Ġcombination": 6938,
      "Ġmainly": 6939,
      "Ġmessiah": 6940,
      "Ġparadise": 6941,
      "Ġexempl": 6942,
      "Ġdissolution": 6943,
      "Ġdissatisf": 6944,
      "Ġquarre": 6945,
      "Ġinformed": 6946,
      "obser": 6947,
      "Ġlowest": 6948,
      "Ġcourts": 6949,
      "Ġdoctrines": 6950,
      "zzo": 6951,
      "Ġburied": 6952,
      "Ġgratitude": 6953,
      "Ġtravelling": 6954,
      "ylus": 6955,
      "Ġpreparing": 6956,
      "Ġextremely": 6957,
      "Ġnero": 6958,
      "Ġlucid": 6959,
      "Ġtowns": 6960,
      "Ġdisguised": 6961,
      "Ġfulfill": 6962,
      "Ġconcealment": 6963,
      "Ġthreatened": 6964,
      "Ġforbid": 6965,
      "Ġexclusive": 6966,
      "Ġadapt": 6967,
      "Ġspeculations": 6968,
      "Ġexaggerated": 6969,
      "Ġmagnificence": 6970,
      "Ġsubsequent": 6971,
      "Ġindignant": 6972,
      "Ġappetites": 6973,
      "Ġwarriors": 6974,
      "Ġdescendants": 6975,
      "interested": 6976,
      "Ġjealousy": 6977,
      "Ġrejoice": 6978,
      "Ġphysiological": 6979,
      "Ġunexpected": 6980,
      "Ġrailway": 6981,
      "Ġambiguous": 6982,
      "christian": 6983,
      "Ġindulgence": 6984,
      "Ġsubmit": 6985,
      "Ġskepticism": 6986,
      "Ġinherited": 6987,
      "Ġeconom": 6988,
      "Ġranks": 6989,
      "Ġenterprise": 6990,
      "Ġpuzz": 6991,
      "Ġoutline": 6992,
      "Ġencounter": 6993,
      "Ġsynthesis": 6994,
      "Ġcriminal": 6995,
      "Ġjulius": 6996,
      "Ġrefinement": 6997,
      "two": 6998,
      "Ġsarah": 6999,
      "Ġsunday": 7000,
      "Ġsubordinate": 7001,
      "Ġhollow": 7002,
      "philosop": 7003,
      "Ġaugust": 7004,
      "Ġlungs": 7005,
      "Ġlombardy": 7006,
      "Ġasclepius": 7007,
      "Ġsovereign": 7008,
      "ĠdelbÅĵuf": 7009,
      "!\"--": 7010,
      ")--": 7011,
      ".;": 7012,
      "66": 7013,
      "aith": 7014,
      "aved": 7015,
      "bo": 7016,
      "chen": 7017,
      "des": 7018,
      "eur": 7019,
      "either": 7020,
      "eenth": 7021,
      "gle": 7022,
      "iam": 7023,
      "mount": 7024,
      "oh": 7025,
      "sche": 7026,
      "tles": 7027,
      "vest": 7028,
      "yn": 7029,
      "Ġtight": 7030,
      "Ġtone": 7031,
      "Ġtension": 7032,
      "hend": 7033,
      "Ġtheore": 7034,
      "inating": 7035,
      "Ġopt": 7036,
      "Ġoedipus": 7037,
      "Ġwond": 7038,
      "Ġwits": 7039,
      "Ġserm": 7040,
      "isy": 7041,
      "isure": 7042,
      "isters": 7043,
      "erance": 7044,
      "onment": 7045,
      "onder": 7046,
      "Ġbac": 7047,
      "Ġmun": 7048,
      "Ġmud": 7049,
      "Ġcess": 7050,
      "Ġcord": 7051,
      "Ġcave": 7052,
      "Ġcured": 7053,
      "Ġchem": 7054,
      "eng": 7055,
      "Ġhuss": 7056,
      "esar": 7057,
      "Ġfled": 7058,
      "Ġfold": 7059,
      "Ġped": 7060,
      "Ġthin": 7061,
      "Ġtoler": 7062,
      "orter": 7063,
      "anes": 7064,
      "iche": 7065,
      "Ġnietz": 7066,
      "Ġlum": 7067,
      "Ġluck": 7068,
      "omach": 7069,
      "oted": 7070,
      "Ġrely": 7071,
      "Ġrevers": 7072,
      "leus": 7073,
      "stra": 7074,
      "step": 7075,
      "Ġgains": 7076,
      "Ġguel": 7077,
      "uteness": 7078,
      "Ġweigh": 7079,
      "Ġsting": 7080,
      "Ġstated": 7081,
      "Ġstomach": 7082,
      "etch": 7083,
      "chl": 7084,
      "chn": 7085,
      "Ġrough": 7086,
      "Ġrage": 7087,
      "usal": 7088,
      "Ġseated": 7089,
      "akable": 7090,
      "Ġmanaged": 7091,
      "estock": 7092,
      "thern": 7093,
      "Ġalarm": 7094,
      "Ġvit": 7095,
      "Ġchron": 7096,
      "Ġneut": 7097,
      "cible": 7098,
      "Ġunintellig": 7099,
      "Ġtheirs": 7100,
      "Ġnose": 7101,
      "inde": 7102,
      "kel": 7103,
      "Ġplenty": 7104,
      "Ġcontaining": 7105,
      "Ġsaf": 7106,
      "Ġleisure": 7107,
      "Ġfever": 7108,
      "apt": 7109,
      "rium": 7110,
      "Ġtimocracy": 7111,
      "Ġconspic": 7112,
      "Ġphob": 7113,
      "Ġpartially": 7114,
      "Ġoutcome": 7115,
      "Ġaccus": 7116,
      "Ġtechn": 7117,
      "about": 7118,
      "itta": 7119,
      "Ġforming": 7120,
      "Ġbride": 7121,
      ".\"--": 7122,
      "Ġmateri": 7123,
      "wealth": 7124,
      "Ġsubs": 7125,
      "Ġassumptions": 7126,
      "Ġinterfe": 7127,
      "orders": 7128,
      "Ġdiscourses": 7129,
      "ocking": 7130,
      "Ġrefused": 7131,
      "Ġhappier": 7132,
      "Ġyours": 7133,
      "Ġcrushed": 7134,
      "Ġbloss": 7135,
      "Ġacross": 7136,
      "Ġscript": 7137,
      "Ġnorth": 7138,
      "Ġexpressing": 7139,
      "Ġincite": 7140,
      "Ġinspect": 7141,
      "Ġinsolence": 7142,
      "Ġmoderate": 7143,
      "Ġpurity": 7144,
      "Ġadmired": 7145,
      "Ġrepresentations": 7146,
      "Ġeffem": 7147,
      "Ġconcrete": 7148,
      "Ġrealised": 7149,
      "Ġcommonwealth": 7150,
      "Ġdefine": 7151,
      "Ġsuprem": 7152,
      "Ġestimate": 7153,
      "Ġconceals": 7154,
      "Ġhelped": 7155,
      "Ġparticul": 7156,
      "Ġromagna": 7157,
      "Ġdraught": 7158,
      "Ġanalysed": 7159,
      "Ġacquiring": 7160,
      "Ġsolved": 7161,
      "meaning": 7162,
      "Ġfortresses": 7163,
      "Ġutop": 7164,
      "Ġtemporal": 7165,
      "uctive": 7166,
      "Ġsmallest": 7167,
      "Ġdenial": 7168,
      "Ġapprove": 7169,
      "Ġigno": 7170,
      "Ġcolor": 7171,
      "Ġcolors": 7172,
      "Ġimpossibility": 7173,
      "Ġassertions": 7174,
      "Ġaristoph": 7175,
      "Ġjoys": 7176,
      "Ġmaintains": 7177,
      "Ġassociate": 7178,
      "Ġassociated": 7179,
      "Ġraises": 7180,
      "Ġmastery": 7181,
      "Ġbuy": 7182,
      "Ġdiseased": 7183,
      "Ġtalent": 7184,
      "Ġclaimed": 7185,
      "Ġdistinctness": 7186,
      "Ġmanifested": 7187,
      "Ġlaughed": 7188,
      "Ġlegitimate": 7189,
      "Ġpreserves": 7190,
      "Ġpreservation": 7191,
      "Ġtemperate": 7192,
      "comp": 7193,
      "Ġsucceeds": 7194,
      "Ġadequate": 7195,
      "Ġdelightful": 7196,
      "Ġcontinuation": 7197,
      "Ġneurotics": 7198,
      "Ġexclaim": 7199,
      "Ġinvestigations": 7200,
      "Ġaffections": 7201,
      "Ġcontrasts": 7202,
      "Ġencourage": 7203,
      "Ġimplant": 7204,
      "Ġcombat": 7205,
      "Ġcombinations": 7206,
      "Ġcheck": 7207,
      "Ġfools": 7208,
      "Ġdisciple": 7209,
      "Ġvoices": 7210,
      "Ġcontribution": 7211,
      "Ġengland": 7212,
      "Ġschools": 7213,
      "Ġcaptains": 7214,
      "Ġliberal": 7215,
      "Ġanalogous": 7216,
      "Ġbenefits": 7217,
      "Ġapprehens": 7218,
      "Ġdeparture": 7219,
      "Ġlocality": 7220,
      "Ġenlar": 7221,
      "Ġreminds": 7222,
      "Ġresembles": 7223,
      "Ġresemblance": 7224,
      "Ġbetrays": 7225,
      "Ġbetrayed": 7226,
      "Ġblessing": 7227,
      "Ġnervous": 7228,
      "Ġmelod": 7229,
      "Ġstopped": 7230,
      "spirit": 7231,
      "Ġaffirmed": 7232,
      "Ġmasses": 7233,
      "Ġinvented": 7234,
      "Ġspectator": 7235,
      "Ġmediocr": 7236,
      "Ġdominion": 7237,
      "Ġsuspicious": 7238,
      "Ġcycl": 7239,
      "Ġstrictly": 7240,
      "Ġhypothesis": 7241,
      "Ġpainting": 7242,
      "Ġfrightened": 7243,
      "Ġemphasized": 7244,
      "dreams": 7245,
      "Ġautom": 7246,
      "Ġborgia": 7247,
      "Ġunmist": 7248,
      "Ġburden": 7249,
      "Ġarchaic": 7250,
      "Ġdeserve": 7251,
      "Ġestimation": 7252,
      "Ġathenian": 7253,
      "Ġartery": 7254,
      "Ġreminiscences": 7255,
      "Ġindignation": 7256,
      "Ġinconsistent": 7257,
      "Ġcoincide": 7258,
      "Ġappreciate": 7259,
      "Ġprejudices": 7260,
      "Ġconstraint": 7261,
      "Ġprudence": 7262,
      "Ġconvenient": 7263,
      "Ġreconcil": 7264,
      "Ġarithmetic": 7265,
      "Ġincorrect": 7266,
      "Ġchaos": 7267,
      "Ġimprovement": 7268,
      "Ġcubed": 7269,
      "Ġcouple": 7270,
      "Ġapostles": 7271,
      "Ġcobbler": 7272,
      "Ġclergyman": 7273,
      "Ġweeks": 7274,
      "Ġassembled": 7275,
      "Ġdeliber": 7276,
      "Ġunfavourable": 7277,
      "Ġtrembling": 7278,
      "Ġunquestion": 7279,
      "Ġludicrous": 7280,
      "Ġinterpreter": 7281,
      "Ġhusserl": 7282,
      "Ġnietzsche": 7283,
      "Ġguelph": 7284,
      "'-": 7285,
      "bur": 7286,
      "cal": 7287,
      "ee": 7288,
      "great": 7289,
      "greg": 7290,
      "have": 7291,
      "human": 7292,
      "iac": 7293,
      "mar": 7294,
      "may": 7295,
      "nings": 7296,
      "off": 7297,
      "power": 7298,
      "uated": 7299,
      "vent": 7300,
      "wit": 7301,
      "Î±": 7302,
      "Ġted": 7303,
      "Ġtact": 7304,
      "Ġtax": 7305,
      "Ġtables": 7306,
      "Ġtusc": 7307,
      "Ġtheology": 7308,
      "inet": 7309,
      "inates": 7310,
      "inatory": 7311,
      "Ġoly": 7312,
      "reaching": 7313,
      "Ġwoe": 7314,
      "Ġbos": 7315,
      "Ġbath": 7316,
      "itious": 7317,
      "itute": 7318,
      "itative": 7319,
      "Ġmarch": 7320,
      "Ġmuse": 7321,
      "Ġmission": 7322,
      "Ġfol": 7323,
      "Ġpill": 7324,
      "Ġpau": 7325,
      "ede": 7326,
      "oras": 7327,
      "orial": 7328,
      "anth": 7329,
      "ioned": 7330,
      "Ġix": 7331,
      "Ġrein": 7332,
      "still": 7333,
      "Ġgor": 7334,
      "Ġgos": 7335,
      "entive": 7336,
      "imen": 7337,
      "Ġforg": 7338,
      "Ġforty": 7339,
      "Ġange": 7340,
      "Ġante": 7341,
      "irms": 7342,
      "Ġwearing": 7343,
      "etime": 7344,
      "chi": 7345,
      "chance": 7346,
      "iform": 7347,
      "ulace": 7348,
      "ilib": 7349,
      "Ġrush": 7350,
      "ushes": 7351,
      "alle": 7352,
      "akens": 7353,
      "Ġdeity": 7354,
      "Ġdeception": 7355,
      "think": 7356,
      "Ġalo": 7357,
      "Ġtrusted": 7358,
      "Ġshade": 7359,
      "Ġthemes": 7360,
      "Ġviv": 7361,
      "Ġvague": 7362,
      "Ġvicious": 7363,
      "igi": 7364,
      "Ġunimp": 7365,
      "Ġabn": 7366,
      "ols": 7367,
      "Ġnobody": 7368,
      "ops": 7369,
      "artment": 7370,
      "amemn": 7371,
      "pled": 7372,
      "Ġperman": 7373,
      "unction": 7374,
      "Ġagamemn": 7375,
      "agner": 7376,
      "Ġamer": 7377,
      "soever": 7378,
      "Ġimpr": 7379,
      "Ġimpart": 7380,
      "Ġjustifies": 7381,
      "Ġundes": 7382,
      "Ġeveryone": 7383,
      "Ġprec": 7384,
      "Ġprey": 7385,
      "Ġpregn": 7386,
      "Ġoutward": 7387,
      "Ġcomponent": 7388,
      "Ġbrass": 7389,
      "Ġindicate": 7390,
      "Ġindirect": 7391,
      "Ġdoesn": 7392,
      "actor": 7393,
      "class": 7394,
      "Ġsubt": 7395,
      "Ġreasonings": 7396,
      "Ġassure": 7397,
      "Ġovercoming": 7398,
      "ernal": 7399,
      "Ġflies": 7400,
      "Ġdiscretion": 7401,
      "ocre": 7402,
      "Ġrefusing": 7403,
      "Ġmorbid": 7404,
      "Ġyourselves": 7405,
      "Ġcries": 7406,
      "Ġplebe": 7407,
      "Ġafflict": 7408,
      "Ġserving": 7409,
      "Ġincur": 7410,
      "Ġeleg": 7411,
      "Ġguess": 7412,
      "Ġguilt": 7413,
      "Ġadmitting": 7414,
      "Ġadmission": 7415,
      "Ġspirited": 7416,
      "Ġrepresentative": 7417,
      "Ġeffic": 7418,
      "Ġlessons": 7419,
      "undt": 7420,
      "Ġextensive": 7421,
      "Ġbestowed": 7422,
      "Ġawakens": 7423,
      "Ġunderstands": 7424,
      "new": 7425,
      "Ġfinest": 7426,
      "Ġsurpass": 7427,
      "Ġcaesar": 7428,
      "Ġobserving": 7429,
      "Ġparable": 7430,
      "Ġpossessing": 7431,
      "Ġimpressed": 7432,
      "Ġhelping": 7433,
      "Ġallowing": 7434,
      "Ġtreating": 7435,
      "Ġcontinuous": 7436,
      "Ġsocratic": 7437,
      "Ġcontext": 7438,
      "Ġgovernor": 7439,
      "Ġstimulation": 7440,
      "Ġrespectable": 7441,
      "Ġdegener": 7442,
      "Ġdepths": 7443,
      "Ġdetermining": 7444,
      "Ġexpectations": 7445,
      "Ġapproaches": 7446,
      "Ġceases": 7447,
      "Ġcoloured": 7448,
      "Ġcolumn": 7449,
      "Ġchooses": 7450,
      "Ġtasted": 7451,
      "Ġconstitutions": 7452,
      "hemeral": 7453,
      "Ġmaintaining": 7454,
      "Ġeuropeans": 7455,
      "Ġbeside": 7456,
      "Ġmeasured": 7457,
      "Ġ188": 7458,
      "Ġcensorship": 7459,
      "Ġanxious": 7460,
      "Ġveiled": 7461,
      "Ġdomain": 7462,
      "Ġdomestic": 7463,
      "Ġbenefic": 7464,
      "Ġ50": 7465,
      "Ġcritics": 7466,
      "Ġorganization": 7467,
      "Ġephemeral": 7468,
      "Ġdestroying": 7469,
      "Ġpopulace": 7470,
      "Ġverily": 7471,
      "Ġverdict": 7472,
      "Ġdelights": 7473,
      "Ġdisturbances": 7474,
      "Ġcontinuing": 7475,
      "Ġconquest": 7476,
      "Ġdiscoveries": 7477,
      "Ġconversion": 7478,
      "Ġsuggestion": 7479,
      "Ġhesitation": 7480,
      "Ġdemonstration": 7481,
      "Ġimperative": 7482,
      "Ġvenge": 7483,
      "Ġspirituality": 7484,
      "Ġcontributes": 7485,
      "Ġobligation": 7486,
      "Ġseduced": 7487,
      "Ġextending": 7488,
      "Ġattainment": 7489,
      "Ġcomplain": 7490,
      "Ġdefinitely": 7491,
      "Ġterritory": 7492,
      "Ġpostp": 7493,
      "Ġmalady": 7494,
      "Ġstrangers": 7495,
      "Ġrapid": 7496,
      "Ġ190": 7497,
      "Ġeventually": 7498,
      "Ġindependently": 7499,
      "Ġsanct": 7500,
      "Ġmurde": 7501,
      "Ġlikes": 7502,
      "Ġlegislation": 7503,
      "Ġeighth": 7504,
      "Ġlandscape": 7505,
      "Ġspectacle": 7506,
      "Ġmedium": 7507,
      "Ġmediocre": 7508,
      "Ġheathen": 7509,
      "Ġmajesty": 7510,
      "Ġmirror": 7511,
      "Ġnaive": 7512,
      "Ġheights": 7513,
      "Ġspeculation": 7514,
      "Ġuncertainty": 7515,
      "Ġodd": 7516,
      "Ġscholar": 7517,
      "Ġborne": 7518,
      "Ġremnant": 7519,
      "Ġvictorious": 7520,
      "year": 7521,
      "Ġpenetrate": 7522,
      "Ġsenseless": 7523,
      "Ġclimbing": 7524,
      "Ġmissed": 7525,
      "Ġinevitably": 7526,
      "Ġawareness": 7527,
      "Ġbeaten": 7528,
      "Ġappetite": 7529,
      "Ġlifetime": 7530,
      "Ġenlightened": 7531,
      "Ġchastise": 7532,
      "Ġwounds": 7533,
      "Ġrelease": 7534,
      "thrown": 7535,
      "Ġprudent": 7536,
      "Ġalternative": 7537,
      "Ġshrink": 7538,
      "Ġuntrue": 7539,
      "Ġbarely": 7540,
      "Ġstatue": 7541,
      "Ġgallant": 7542,
      "Ġprosper": 7543,
      "Ġmarvelous": 7544,
      "stein": 7545,
      "Ġwelcome": 7546,
      "keeper": 7547,
      "Ġdismiss": 7548,
      "Ġinspiring": 7549,
      "Ġrevelation": 7550,
      "Ġconspiracy": 7551,
      "Ġhereditary": 7552,
      "Ġextremes": 7553,
      "Ġunsuccess": 7554,
      "Ġadminist": 7555,
      "Ġelected": 7556,
      "Ġphaedrus": 7557,
      "Ġmaiden": 7558,
      "unciation": 7559,
      "Ġexpenditure": 7560,
      "Ġintentions": 7561,
      "Ġabsorbed": 7562,
      "Ġflatterers": 7563,
      "Ġunavoidable": 7564,
      "Ġdostoevsky": 7565,
      "Ġfantastic": 7566,
      "Ġdionys": 7567,
      "Ġeverlasting": 7568,
      "Ġcessation": 7569,
      "indeed": 7570,
      "Ġsupremacy": 7571,
      "Ġparticulars": 7572,
      "Ġolymp": 7573,
      "Ġagamemnon": 7574,
      "Ġunsuccessful": 7575,
      "\")": 7576,
      "16": 7577,
      "19": 7578,
      "35": 7579,
      "72": 7580,
      "aemon": 7581,
      "bes": 7582,
      "bad": 7583,
      "back": 7584,
      "cart": 7585,
      "di": 7586,
      "ds": 7587,
      "ec": 7588,
      "gest": 7589,
      "house": 7590,
      "iality": 7591,
      "ked": 7592,
      "life": 7593,
      "master": 7594,
      "morality": 7595,
      "pol": 7596,
      "part": 7597,
      "pret": 7598,
      "rich": 7599,
      "rated": 7600,
      "ux": 7601,
      "uits": 7602,
      "word": 7603,
      "Î½": 7604,
      "heres": 7605,
      "reation": 7606,
      "Ġwol": 7607,
      "Ġsize": 7608,
      "ato": 7609,
      "athetic": 7610,
      "atural": 7611,
      "ndous": 7612,
      "Ġband": 7613,
      "Ġbull": 7614,
      "Ġbolog": 7615,
      "Ġbought": 7616,
      "Ġmould": 7617,
      "Ġcube": 7618,
      "encing": 7619,
      "Ġfitting": 7620,
      "Ġinade": 7621,
      "Ġpan": 7622,
      "Ġpess": 7623,
      "Ġpant": 7624,
      "Ġpious": 7625,
      "Ġpsy": 7626,
      "Ġpush": 7627,
      "Ġdri": 7628,
      "orce": 7629,
      "orus": 7630,
      "Ġnice": 7631,
      "Ġnine": 7632,
      "Ġwhither": 7633,
      "Ġeast": 7634,
      "Ġheir": 7635,
      "Ġhera": 7636,
      "lev": 7637,
      "Ġgal": 7638,
      "Ġgates": 7639,
      "utor": 7640,
      "Ġasia": 7641,
      "Ġorator": 7642,
      "Ġstret": 7643,
      "ession": 7644,
      "Ġexter": 7645,
      "terday": 7646,
      "Ġrash": 7647,
      "akers": 7648,
      "thou": 7649,
      "three": 7650,
      "quis": 7651,
      "ivals": 7652,
      "ateful": 7653,
      "Ġalb": 7654,
      "Ġvoid": 7655,
      "Ġchall": 7656,
      "Ġchains": 7657,
      "Ġcomment": 7658,
      "Ġwills": 7659,
      "Ġthereof": 7660,
      "Ġproject": 7661,
      "Ġproving": 7662,
      "Ġuncon": 7663,
      "Ġunseen": 7664,
      "Ġunchanged": 7665,
      "Ġabode": 7666,
      "Ġworry": 7667,
      "olic": 7668,
      "olent": 7669,
      "indar": 7670,
      "ievous": 7671,
      "ache": 7672,
      "opath": 7673,
      "ophon": 7674,
      "Ġplate": 7675,
      "Ġcontact": 7676,
      "Ġsage": 7677,
      "ortant": 7678,
      "Ġanyway": 7679,
      "Ġlend": 7680,
      "Ġperchance": 7681,
      "Ġaggra": 7682,
      "Ġlovable": 7683,
      "riety": 7684,
      "Ġimperial": 7685,
      "erile": 7686,
      "Ġparting": 7687,
      "Ġremove": 7688,
      "Ġexped": 7689,
      "Ġcompr": 7690,
      "Ġcompartment": 7691,
      "Ġaccused": 7692,
      "Ġunderg": 7693,
      "Ġrelate": 7694,
      "Ġbridge": 7695,
      "Ġperspect": 7696,
      "Ġstrife": 7697,
      "Ġstrives": 7698,
      "Ġinduce": 7699,
      "Ġafternoon": 7700,
      "Ġinfection": 7701,
      "Ġinfrequently": 7702,
      "Ġcommer": 7703,
      "Ġcommission": 7704,
      "Ġinterrog": 7705,
      "athom": 7706,
      "Ġabsent": 7707,
      "Ġlets": 7708,
      "Ġending": 7709,
      "Ġendurance": 7710,
      "Ġseemingly": 7711,
      "Ġflute": 7712,
      "Ġsupplement": 7713,
      "ocks": 7714,
      "Ġgenerous": 7715,
      "Ġrode": 7716,
      "Ġinvited": 7717,
      "Ġopponents": 7718,
      "Ġpowerless": 7719,
      "iae": 7720,
      "Ġyesterday": 7721,
      "condition": 7722,
      "Ġincred": 7723,
      "Ġtransgress": 7724,
      "Ġtranscend": 7725,
      "Ġsinner": 7726,
      "Ġdrone": 7727,
      "Ġdriving": 7728,
      "Ġrepresentatives": 7729,
      "Ġrests": 7730,
      "Ġrestore": 7731,
      "Ġpatro": 7732,
      "Ġpatron": 7733,
      "Ġeminent": 7734,
      "Ġcoach": 7735,
      "Ġreads": 7736,
      "Ġequilib": 7737,
      "Ġdeform": 7738,
      "Ġemph": 7739,
      "Ġmotions": 7740,
      "Ġhelps": 7741,
      "Ġtreats": 7742,
      "Ġgoverning": 7743,
      "Ġanswering": 7744,
      "Ġsolve": 7745,
      "Ġyouthful": 7746,
      "Ġtempo": 7747,
      "Ġtempor": 7748,
      "ĠĠĠĠĠĠĠĠĠĠĠĠĠĠĠĠĠĠĠĠĠĠĠĠ": 7749,
      "Ġwarlike": 7750,
      "Ġimitative": 7751,
      "Ġmyths": 7752,
      "Ġdepict": 7753,
      "Ġdiet": 7754,
      "Ġdiagn": 7755,
      "Ġbread": 7756,
      "Ġsuccessive": 7757,
      "Ġfutile": 7758,
      "Ġcurse": 7759,
      "Ġcuriously": 7760,
      "Ġexceptions": 7761,
      "Ġstrangely": 7762,
      "Ġdespise": 7763,
      "Ġforgets": 7764,
      "Ġtruer": 7765,
      "Ġ1800": 7766,
      "Ġdistinguishes": 7767,
      "Ġdeclaring": 7768,
      "Ġdesigned": 7769,
      "ulsive": 7770,
      "Ġpeculiarity": 7771,
      "Ġforthwith": 7772,
      "Ġminute": 7773,
      "Ġapplies": 7774,
      "Ġuniversally": 7775,
      "Ġtroubled": 7776,
      "haust": 7777,
      "Ġperforms": 7778,
      "Ġprotected": 7779,
      "Ġepoch": 7780,
      "Ġdealings": 7781,
      "until": 7782,
      "Ġtreas": 7783,
      "Ġtreme": 7784,
      "Ġhusbandmen": 7785,
      "Ġbarren": 7786,
      "Ġdefended": 7787,
      "Ġconquer": 7788,
      "Ġtorn": 7789,
      "Ġtort": 7790,
      "regular": 7791,
      "Ġconvincing": 7792,
      "Ġera": 7793,
      "Ġcombined": 7794,
      "Ġcontributions": 7795,
      "Ġdetailed": 7796,
      "Ġquarters": 7797,
      "Ġundertaking": 7798,
      "Ġincomparable": 7799,
      "Ġdressmaker": 7800,
      "Ġ149": 7801,
      "Ġannoy": 7802,
      "Ġannihil": 7803,
      "Ġdeparted": 7804,
      "Ġmathematic": 7805,
      "Ġhistoric": 7806,
      "Ġprevails": 7807,
      "Ġprevailing": 7808,
      "Ġrestrain": 7809,
      "Ġneighbor": 7810,
      "Ġneighbours": 7811,
      "Ġresemble": 7812,
      "Ġendeavor": 7813,
      "Ġsanction": 7814,
      "Ġgrandfather": 7815,
      "Ġstructures": 7816,
      "Ġdeserts": 7817,
      "Ġinhuman": 7818,
      "Ġyielded": 7819,
      "Ġharbor": 7820,
      "Ġexhibit": 7821,
      "Ġexhibition": 7822,
      "Ġmiracle": 7823,
      "Ġcopy": 7824,
      "Ġexerted": 7825,
      "Ġprayers": 7826,
      "Ġaffords": 7827,
      "Ġinquiry": 7828,
      "Ġvaluations": 7829,
      "Ġmisunderstood": 7830,
      "Ġhallucinatory": 7831,
      "Ġradestock": 7832,
      "Ġunreason": 7833,
      "Ġastray": 7834,
      "Ġshaft": 7835,
      "Ġdisfigured": 7836,
      "Ġsongs": 7837,
      "Ġprisoners": 7838,
      "Ġelevated": 7839,
      "azing": 7840,
      "Ġsenate": 7841,
      "Ġarteries": 7842,
      "Ġmechanical": 7843,
      "Ġdisgusting": 7844,
      "Ġcomfortable": 7845,
      "Ġaccessible": 7846,
      "Ġwarning": 7847,
      "Ġpsychoanalysis": 7848,
      "Ġoverlooked": 7849,
      "Ġample": 7850,
      "Ġpoems": 7851,
      "Ġundergoing": 7852,
      "Ġcowardice": 7853,
      "Ġpaper": 7854,
      "Ġentrance": 7855,
      "Ġvictims": 7856,
      "Ġmaxims": 7857,
      "break": 7858,
      "Ġcardinal": 7859,
      "Ġprovince": 7860,
      "Ġinstructive": 7861,
      "Ġspanish": 7862,
      "Ġsufferers": 7863,
      "interpret": 7864,
      "Ġartificial": 7865,
      "Ġsimplest": 7866,
      "Ġextinguished": 7867,
      "Ġpupils": 7868,
      "Ġpriori": 7869,
      "Ġsurrender": 7870,
      "Ġperpetual": 7871,
      "Ġinvariably": 7872,
      "Ġturk": 7873,
      "Ġclumsy": 7874,
      "Ġhospital": 7875,
      "Ġallegory": 7876,
      "Ġguidance": 7877,
      "Ġguarantee": 7878,
      "Ġantonio": 7879,
      "Ġtailor": 7880,
      "educated": 7881,
      "Ġvoyage": 7882,
      "Ġresources": 7883,
      "Ġduration": 7884,
      "Ġwonders": 7885,
      "Ġignoble": 7886,
      "Ġmediocrity": 7887,
      "Ġreconciliation": 7888,
      "Ġtuscany": 7889,
      "Ġabnormal": 7890,
      "Ġplebeian": 7891,
      "Ġvengeance": 7892,
      "Ġpessim": 7893,
      "Ġpsyche": 7894,
      "Ġequilibrium": 7895,
      ".-": 7896,
      "11": 7897,
      "64": 7898,
      "aest": 7899,
      "cod": 7900,
      "cke": 7901,
      "chest": 7902,
      "dog": 7903,
      "equ": 7904,
      "far": 7905,
      "freed": 7906,
      "gs": 7907,
      "holy": 7908,
      "homme": 7909,
      "iare": 7910,
      "ipped": 7911,
      "mate": 7912,
      "oven": 7913,
      "ped": 7914,
      "peri": 7915,
      "prop": 7916,
      "rant": 7917,
      "upt": 7918,
      "woman": 7919,
      "zed": 7920,
      "inigi": 7921,
      "Ġwagner": 7922,
      "Ġsam": 7923,
      "Ġsans": 7924,
      "isons": 7925,
      "atible": 7926,
      "Ġbou": 7927,
      "Ġbids": 7928,
      "Ġberl": 7929,
      "Ġbapt": 7930,
      "itarian": 7931,
      "itchen": 7932,
      "Ġhym": 7933,
      "Ġfasc": 7934,
      "Ġinac": 7935,
      "Ġpert": 7936,
      "Ġpair": 7937,
      "Ġpub": 7938,
      "Ġpomp": 7939,
      "Ġpindar": 7940,
      "Ġdim": 7941,
      "Ġdwe": 7942,
      "Ġdip": 7943,
      "edies": 7944,
      "inged": 7945,
      "Ġnuc": 7946,
      "ara": 7947,
      "ariness": 7948,
      "Ġbefall": 7949,
      "Ġwhor": 7950,
      "asks": 7951,
      "Ġlod": 7952,
      "Ġlac": 7953,
      "Ġlun": 7954,
      "Ġloud": 7955,
      "Ġisland": 7956,
      "ots": 7957,
      "otism": 7958,
      "Ġheed": 7959,
      "Ġrede": 7960,
      "Ġreass": 7961,
      "stone": 7962,
      "ctory": 7963,
      "aments": 7964,
      "Ġfors": 7965,
      "Ġconver": 7966,
      "Ġconverted": 7967,
      "Ġorn": 7968,
      "Ġstore": 7969,
      "Ġsterile": 7970,
      "chylus": 7971,
      "ros": 7972,
      "Ġframed": 7973,
      "Ġfraud": 7974,
      "usive": 7975,
      "Ġallied": 7976,
      "quent": 7977,
      "Ġmeal": 7978,
      "estim": 7979,
      "Ġkins": 7980,
      "Ġsof": 7981,
      "Ġsoot": 7982,
      "Ġshine": 7983,
      "Ġshud": 7984,
      "Ġshared": 7985,
      "Ġvic": 7986,
      "Ġvary": 7987,
      "Ġhasty": 7988,
      "Ġcham": 7989,
      "Ġnephe": 7990,
      "Ġunnot": 7991,
      "Ġuncondition": 7992,
      "Ġabiding": 7993,
      "Ġintu": 7994,
      "Ġworn": 7995,
      "ieves": 7996,
      "acqu": 7997,
      "Ġarising": 7998,
      "Ġdisd": 7999,
      "astical": 8000,
      "Ġplus": 8001,
      "Ġplastic": 8002,
      "Ġplaus": 8003,
      "Ġcontention": 8004,
      "ĠĠĠĠĠĠ": 8005,
      "Ġevolution": 8006,
      "Ġperse": 8007,
      "Ġperil": 8008,
      "ishop": 8009,
      "Ġenchant": 8010,
      "Ġloyal": 8011,
      "Ġconsol": 8012,
      "ounds": 8013,
      "Ġspitta": 8014,
      "feel": 8015,
      "erian": 8016,
      "Ġpreaching": 8017,
      "Ġexpense": 8018,
      "Ġreputed": 8019,
      "Ġattains": 8020,
      "Ġattaining": 8021,
      "Ġactors": 8022,
      "fulf": 8023,
      "Ġbrutes": 8024,
      "Ġstrains": 8025,
      ".\"[": 8026,
      "Ġsouth": 8027,
      "Ġpsychiat": 8028,
      "Ġassail": 8029,
      "ountered": 8030,
      "plete": 8031,
      "Ġorderly": 8032,
      "Ġsuppress": 8033,
      "Ġsupposition": 8034,
      "Ġcharged": 8035,
      "Ġsyra": 8036,
      "Ġhappiest": 8037,
      "Ġpresently": 8038,
      "Ġhumane": 8039,
      "ips": 8040,
      "Ġcruc": 8041,
      "Ġblo": 8042,
      "Ġinviting": 8043,
      "Ġoppose": 8044,
      "Ġindef": 8045,
      "Ġguests": 8046,
      "Ġguinigi": 8047,
      "Ġmodified": 8048,
      "Ġmoderation": 8049,
      "Ġretains": 8050,
      "ainted": 8051,
      "Ġadmon": 8052,
      "Ġadmirable": 8053,
      "too": 8054,
      "Ġslain": 8055,
      "Ġoftener": 8056,
      "Ġlastly": 8057,
      "Ġillum": 8058,
      "Ġwanton": 8059,
      "Ġwiser": 8060,
      "Ġcoat": 8061,
      "Ġhelen": 8062,
      "Ġ29": 8063,
      "Ġrub": 8064,
      "Ġsupern": 8065,
      "Ġforeground": 8066,
      "Ġdownwards": 8067,
      "Ġfearing": 8068,
      "Ġestate": 8069,
      "Ġconceivable": 8070,
      "Ġrecognizing": 8071,
      "Ġsincere": 8072,
      "Ġromant": 8073,
      "Ġaddress": 8074,
      "Ġsettle": 8075,
      "Ġsecured": 8076,
      "Ġgovernors": 8077,
      "Ġmuses": 8078,
      "Ġmascul": 8079,
      "Ġstatesmen": 8080,
      "knowledge": 8081,
      "Ġcausal": 8082,
      "Ġmonth": 8083,
      "Ġpractically": 8084,
      "Ġdispute": 8085,
      "Ġimitations": 8086,
      "Ġconvention": 8087,
      "Ġconvuls": 8088,
      "Ġbaseness": 8089,
      "suff": 8090,
      "Ġremembers": 8091,
      "Ġdiverse": 8092,
      "Ġworthless": 8093,
      "Ġ36": 8094,
      "Ġmarriages": 8095,
      "Ġsuccessfully": 8096,
      "Ġpsychologist": 8097,
      "Ġskilful": 8098,
      "Ġmentioning": 8099,
      "Ġnegates": 8100,
      "Ġdesperate": 8101,
      "Ġuncom": 8102,
      "Ġtruest": 8103,
      "Ġ187": 8104,
      "Ġhorrible": 8105,
      "cked": 8106,
      "Ġmanifestation": 8107,
      "Ġpeculiarly": 8108,
      "Ġmerit": 8109,
      "Ġlargely": 8110,
      "achesis": 8111,
      "grat": 8112,
      "Ġheroic": 8113,
      "Ġfuneral": 8114,
      "Ġcompel": 8115,
      "Ġmiles": 8116,
      "Ġepis": 8117,
      "Ġgregar": 8118,
      "Ġbeds": 8119,
      "Ġinjuries": 8120,
      "Ġidentify": 8121,
      "Ġmarks": 8122,
      "Ġexcitements": 8123,
      "Ġexclude": 8124,
      "Ġurb": 8125,
      "Ġconsisting": 8126,
      "Ġphilosophic": 8127,
      "Ġsteep": 8128,
      "Ġoffended": 8129,
      "Ġencountered": 8130,
      "Ġinvolve": 8131,
      "Ġinvolves": 8132,
      "Ġwindows": 8133,
      "Ġwealthy": 8134,
      "Ġoperations": 8135,
      "Ġrejection": 8136,
      "Ġwalks": 8137,
      "Ġconnecting": 8138,
      "Ġacquaintances": 8139,
      "Ġslightest": 8140,
      "Ġquarter": 8141,
      "Ġseductive": 8142,
      "Ġnurs": 8143,
      "Ġgladi": 8144,
      "Ġhurry": 8145,
      "Ġcustomary": 8146,
      "Ġattractive": 8147,
      "Ġrestraint": 8148,
      "Ġpositions": 8149,
      "Ġachieved": 8150,
      "Ġinexhaust": 8151,
      "Ġlots": 8152,
      "Ġcalculated": 8153,
      "Ġdeserted": 8154,
      "Ġdisplacements": 8155,
      "Ġspectators": 8156,
      "Ġconfession": 8157,
      "Ġboldly": 8158,
      "Ġsprung": 8159,
      "Ġwinter": 8160,
      "Ġreproduce": 8161,
      "Ġprivilege": 8162,
      "Ġprivileges": 8163,
      "Ġavailable": 8164,
      "Ġdisappear": 8165,
      "Ġbriefly": 8166,
      "Ġsubtlety": 8167,
      "Ġrhythms": 8168,
      "Ġdwells": 8169,
      "Ġelevate": 8170,
      "Ġathenians": 8171,
      "Ġdefects": 8172,
      "belief": 8173,
      "Ġbinds": 8174,
      "Ġcounsels": 8175,
      "Ġinconsistency": 8176,
      "Ġvitello": 8177,
      "Ġpsychoanalytic": 8178,
      "Ġprejudice": 8179,
      "Ġtouches": 8180,
      "Ġqualified": 8181,
      "Ġdanish": 8182,
      "Ġmingled": 8183,
      "Ġcrocod": 8184,
      "Ġconsulted": 8185,
      "Ġembro": 8186,
      "Ġemancip": 8187,
      "Ġsteadfast": 8188,
      "Ġsemblance": 8189,
      "Ġtrifling": 8190,
      "Ġdescending": 8191,
      "Ġrigorous": 8192,
      "Ġhurtful": 8193,
      "Ġancestors": 8194,
      "Ġsufferer": 8195,
      "Ġcandle": 8196,
      "Ġmanagement": 8197,
      "Ġsatisfactory": 8198,
      "Ġtotal": 8199,
      "Ġsailors": 8200,
      "Ġembodied": 8201,
      "Ġartisans": 8202,
      "Ġavarice": 8203,
      "Ġfloor": 8204,
      "Ġratio": 8205,
      "Ġenslaved": 8206,
      "Ġdrunk": 8207,
      "Ġceremony": 8208,
      "Ġsorry": 8209,
      "Ġfleeting": 8210,
      "Ġverses": 8211,
      "Ġclouds": 8212,
      "Ġpolicy": 8213,
      "Ġaeschylus": 8214,
      "Ġdilig": 8215,
      "Ġcommencement": 8216,
      "Ġmiserly": 8217,
      "Ġencouraged": 8218,
      "Ġenlightenment": 8219,
      "Ġcovet": 8220,
      "Ġinseparable": 8221,
      "Ġsimonides": 8222,
      "Ġprophets": 8223,
      "effect": 8224,
      "Ġtongue": 8225,
      "Ġdormant": 8226,
      "Ġconjecture": 8227,
      "Ġintemperance": 8228,
      "Ġantithesis": 8229,
      "steps": 8230,
      "Ġunintelligible": 8231,
      "Ġtechnique": 8232,
      "Ġaristophanes": 8233,
      "Ġunmistakable": 8234,
      "Ġgospel": 8235,
      "cartes": 8236,
      "Ġbologna": 8237,
      "Ġinadequate": 8238,
      "Ġberlin": 8239,
      "Ġnephew": 8240,
      "Ġunnoticed": 8241,
      "Ġgregarious": 8242,
      "Ġinexhaustible": 8243,
      "12": 8244,
      "54": 8245,
      ";[": 8246,
      "_:": 8247,
      "aign": 8248,
      "bet": 8249,
      "cd": 8250,
      "ciful": 8251,
      "dr": 8252,
      "don": 8253,
      "dest": 8254,
      "ecess": 8255,
      "ext": 8256,
      "five": 8257,
      "fold": 8258,
      "gression": 8259,
      "gio": 8260,
      "iber": 8261,
      "kward": 8262,
      "lest": 8263,
      "love": 8264,
      "mer": 8265,
      "might": 8266,
      "mars": 8267,
      "mber": 8268,
      "oil": 8269,
      "pires": 8270,
      "ront": 8271,
      "sided": 8272,
      "try": 8273,
      "ua": 8274,
      "uces": 8275,
      "xed": 8276,
      "zard": 8277,
      "Ġtent": 8278,
      "Ġtant": 8279,
      "Ġtie": 8280,
      "Ġtions": 8281,
      "Ġtang": 8282,
      "Ġtiss": 8283,
      "Ġaus": 8284,
      "Ġara": 8285,
      "Ġaye": 8286,
      "Ġwundt": 8287,
      "iser": 8288,
      "isse": 8289,
      "ati": 8290,
      "aten": 8291,
      "onym": 8292,
      "Ġbill": 8293,
      "Ġbast": 8294,
      "Ġbite": 8295,
      "itic": 8296,
      "Ġmour": 8297,
      "Ġmixture": 8298,
      "Ġcam": 8299,
      "enance": 8300,
      "enger": 8301,
      "Ġhymn": 8302,
      "esis": 8303,
      "esius": 8304,
      "Ġferm": 8305,
      "Ġfount": 8306,
      "Ġpertain": 8307,
      "Ġpoured": 8308,
      "Ġtol": 8309,
      "Ġdin": 8310,
      "Ġdans": 8311,
      "orily": 8312,
      "Ġnav": 8313,
      "Ġling": 8314,
      "Ġlions": 8315,
      "Ġlaced": 8316,
      "otus": 8317,
      "Ġreci": 8318,
      "Ġrenow": 8319,
      "struct": 8320,
      "Ġgro": 8321,
      "cends": 8322,
      "amount": 8323,
      "amination": 8324,
      "Ġascrib": 8325,
      "imet": 8326,
      "Ġconcess": 8327,
      "Ġweary": 8328,
      "Ġstamp": 8329,
      "etration": 8330,
      "chants": 8331,
      "Ġsuit": 8332,
      "ille": 8333,
      "illes": 8334,
      "ilian": 8335,
      "ads": 8336,
      "Ġsending": 8337,
      "Ġseizing": 8338,
      "Ġseizes": 8339,
      "Ġdeaf": 8340,
      "osit": 8341,
      "osure": 8342,
      "throw": 8343,
      "Ġmeat": 8344,
      "Ġmead": 8345,
      "Ġtrian": 8346,
      "Ġkitchen": 8347,
      "Ġshorter": 8348,
      "Ġwheel": 8349,
      "Ġhasten": 8350,
      "Ġprolong": 8351,
      "Ġunb": 8352,
      "Ġunin": 8353,
      "Ġuniform": 8354,
      "urer": 8355,
      "mentioned": 8356,
      "Ġjok": 8357,
      "ums": 8358,
      "umber": 8359,
      "operation": 8360,
      "Ġdish": 8361,
      "Ġdiscontent": 8362,
      "uecke": 8363,
      "Ġupset": 8364,
      "Ġupright": 8365,
      "eman": 8366,
      "Ġfare": 8367,
      "Ġfabr": 8368,
      "Ġperv": 8369,
      "unity": 8370,
      "ishness": 8371,
      "Ġloat": 8372,
      "Ġconspired": 8373,
      "Ġimpot": 8374,
      "Ġimpose": 8375,
      "Ġimposed": 8376,
      "Ġimpeded": 8377,
      "Ġdescript": 8378,
      "Ġdescartes": 8379,
      "Ġpartners": 8380,
      "Ġpoly": 8381,
      "Ġrepose": 8382,
      "Ġrepugn": 8383,
      "Ġcompens": 8384,
      "Ġcomponents": 8385,
      "Ġfirstly": 8386,
      "Ġspell": 8387,
      "Ġspending": 8388,
      "Ġclothes": 8389,
      ".\"_": 8390,
      "Ġthrowing": 8391,
      "Ġpeas": 8392,
      "Ġworlds": 8393,
      "Ġinterl": 8394,
      "ceptive": 8395,
      "Ġintegr": 8396,
      "Ġlongest": 8397,
      "Ġdistress": 8398,
      "Ġwherein": 8399,
      "Ġhereafter": 8400,
      "tenance": 8401,
      "Ġnewsp": 8402,
      "Ġwrath": 8403,
      "Ġproposes": 8404,
      "Ġprophetic": 8405,
      "Ġscre": 8406,
      "Ġscand": 8407,
      "ibal": 8408,
      "ibus": 8409,
      "Ġexplo": 8410,
      "Ġsubjection": 8411,
      "Ġelimin": 8412,
      "Ġincarn": 8413,
      "Ġinsane": 8414,
      "Ġinsuff": 8415,
      "Ġguided": 8416,
      "Ġretire": 8417,
      "Ġquestioning": 8418,
      "ologists": 8419,
      "Ġdrank": 8420,
      "undity": 8421,
      "Ġextract": 8422,
      "Ġdetect": 8423,
      "Ġdetected": 8424,
      "Ġbestow": 8425,
      "Ġrealisation": 8426,
      "Ġhonors": 8427,
      "Ġawkward": 8428,
      "Ġsignal": 8429,
      "Ġlights": 8430,
      "Ġsleeper": 8431,
      "Ġwisest": 8432,
      "Ġcook": 8433,
      "Ġadvoc": 8434,
      "Ġdivide": 8435,
      "Ġdivorce": 8436,
      "Ġfreemen": 8437,
      "Ġcaution": 8438,
      "Ġrequiring": 8439,
      "issions": 8440,
      "._\"": 8441,
      "Ġromantic": 8442,
      "Ġresulting": 8443,
      "Ġdeviation": 8444,
      "many": 8445,
      "Ġyouths": 8446,
      "Ġuttered": 8447,
      "Ġcausality": 8448,
      "Ġsimilarity": 8449,
      "aughters": 8450,
      "Ġdisprop": 8451,
      "Ġimitated": 8452,
      "strous": 8453,
      "Ġinclinations": 8454,
      "Ġlargest": 8455,
      "Ġapproached": 8456,
      "Ġapproval": 8457,
      "Ġ33": 8458,
      "Ġcell": 8459,
      "Ġfortunes": 8460,
      "Ġidi": 8461,
      "Ġmoves": 8462,
      "Ġtransfig": 8463,
      "Ġrepeats": 8464,
      "Ġdeceiving": 8465,
      "Ġreproaches": 8466,
      "Ġswit": 8467,
      "Ġprofessed": 8468,
      "Ġvoluntarily": 8469,
      "Ġcommunicate": 8470,
      "Ġcalam": 8471,
      "Ġdistinctions": 8472,
      "Ġsimpleton": 8473,
      "Ġprime": 8474,
      "Ġministers": 8475,
      "Ġenjoys": 8476,
      "Ġpurer": 8477,
      "Ġveget": 8478,
      "Ġluke": 8479,
      "Ġpermits": 8480,
      "Ġpermissible": 8481,
      "Ġcommander": 8482,
      "Ġcommanding": 8483,
      "world": 8484,
      "Ġdawn": 8485,
      "Ġdazz": 8486,
      "Ġcompels": 8487,
      "Ġhomeric": 8488,
      "Ġsympath": 8489,
      "Ġsympathetic": 8490,
      "Ġsummed": 8491,
      "Ġdemonstra": 8492,
      "Ġbounds": 8493,
      "Ġdefeat": 8494,
      "Ġadequ": 8495,
      "Ġdelighted": 8496,
      "Ġlaughs": 8497,
      "Ġsituations": 8498,
      "Ġprefers": 8499,
      "Ġmadman": 8500,
      "Ġpaying": 8501,
      "Ġaffective": 8502,
      "Ġstekel": 8503,
      "Ġillustrious": 8504,
      "letes": 8505,
      "Ġassisted": 8506,
      "Ġcultured": 8507,
      "Ġhesitating": 8508,
      "Ġmaintenance": 8509,
      "Ġoperates": 8510,
      "Ġlaying": 8511,
      "Ġcontribute": 8512,
      "Ġobligations": 8513,
      "Ġintroductory": 8514,
      "Ġincomplete": 8515,
      "Ġintensities": 8516,
      "Ġsickness": 8517,
      "Ġrobbers": 8518,
      "Ġintentionally": 8519,
      "Ġjournal": 8520,
      "Ġlords": 8521,
      "Ġrivers": 8522,
      "Ġentertainment": 8523,
      "Ġ72": 8524,
      "Ġfootsteps": 8525,
      "Ġblindness": 8526,
      "should": 8527,
      "Ġvainly": 8528,
      "Ġapprehe": 8529,
      "Ġfatig": 8530,
      "Ġpredecess": 8531,
      "Ġcatch": 8532,
      "Ġlistening": 8533,
      "Ġparadoxes": 8534,
      "Ġventured": 8535,
      "Ġcaviare": 8536,
      "Ġimperfection": 8537,
      "Ġstoics": 8538,
      "Ġalien": 8539,
      "Ġaccompanying": 8540,
      "spesius": 8541,
      "Ġspartans": 8542,
      "Ġelaborated": 8543,
      "Ġgeometrical": 8544,
      "Ġdemocratical": 8545,
      "Ġharb": 8546,
      "Ġeldest": 8547,
      "Ġwatching": 8548,
      "Ġsavage": 8549,
      "Ġpaltry": 8550,
      "Ġkilling": 8551,
      "truth": 8552,
      "Ġdisappears": 8553,
      "Ġexaggeration": 8554,
      "Ġcompanion": 8555,
      "Ġcollective": 8556,
      "Ġburdach": 8557,
      "Ġvividly": 8558,
      "Ġbinding": 8559,
      "Ġawait": 8560,
      "Ġdebts": 8561,
      "Ġsevent": 8562,
      "Ġmultiplicity": 8563,
      "Ġcoincidence": 8564,
      "Ġreleased": 8565,
      "Ġboredom": 8566,
      "Ġcrowned": 8567,
      "Ġuntruth": 8568,
      "Ġantagonism": 8569,
      "Ġcowardly": 8570,
      "Ġnakedness": 8571,
      "Ġreconciled": 8572,
      "Ġimpatience": 8573,
      "Ġstirring": 8574,
      "Ġsurrounding": 8575,
      "Ġclothed": 8576,
      "Ġreckoned": 8577,
      "Ġindustry": 8578,
      "Ġgestures": 8579,
      "Ġshoes": 8580,
      "Ġpronounced": 8581,
      "Ġadversity": 8582,
      "Ġathletes": 8583,
      "Î¿ÏĤ": 8584,
      "Ġwedding": 8585,
      "Ġcautious": 8586,
      "Ġetiology": 8587,
      "Ġtomorrow": 8588,
      "Ġisolated": 8589,
      "Ġcloak": 8590,
      "Ġdelphi": 8591,
      "Ġmischief": 8592,
      "Ġluminous": 8593,
      "Ġmaterials": 8594,
      "Ġapprehension": 8595,
      "Ġtedious": 8596,
      "Ġbosom": 8597,
      "Ġunimportant": 8598,
      "Ġmurderer": 8599,
      "Ġundergone": 8600,
      "Ġtremendous": 8601,
      "Ġmathematician": 8602,
      "freedom": 8603,
      "Ġinaccess": 8604,
      "Ġpuberty": 8605,
      "Ġdwelling": 8606,
      "Ġdiph": 8607,
      "Ġnucleus": 8608,
      "Ġdisdain": 8609,
      "Ġsupernatural": 8610,
      "Ġromanticism": 8611,
      "Ġmasculine": 8612,
      "Ġepisode": 8613,
      "Ġvitellozzo": 8614,
      "Ġcovetous": 8615,
      "Ġtissie": 8616,
      "Ġlacedaemon": 8617,
      "Ġtriangle": 8618,
      "Ġnewspap": 8619,
      "!)": 8620,
      ")-": 8621,
      "-'": 8622,
      "15": 8623,
      "36": 8624,
      "_),": 8625,
      "aet": 8626,
      "ban": 8627,
      "bot": 8628,
      "determ": 8629,
      "ho": 8630,
      "harm": 8631,
      "lic": 8632,
      "po": 8633,
      "pie": 8634,
      "rate": 8635,
      "sal": 8636,
      "sci": 8637,
      "ued": 8638,
      "xual": 8639,
      "zers": 8640,
      "ĠÂ": 8641,
      "Ġtire": 8642,
      "Ġaversion": 8643,
      "ini": 8644,
      "Ġoath": 8645,
      "Ġwitt": 8646,
      "Ġsne": 8647,
      "Ġsits": 8648,
      "Ġsigh": 8649,
      "onance": 8650,
      "Ġbon": 8651,
      "Ġble": 8652,
      "iteness": 8653,
      "Ġcath": 8654,
      "Ġcourses": 8655,
      "enn": 8656,
      "Ġfred": 8657,
      "Ġfert": 8658,
      "Ġfathom": 8659,
      "Ġinno": 8660,
      "Ġinability": 8661,
      "Ġpile": 8662,
      "Ġpick": 8663,
      "Ġpont": 8664,
      "Ġpushed": 8665,
      "Ġthunder": 8666,
      "Ġtoils": 8667,
      "Ġdaughters": 8668,
      "anism": 8669,
      "icating": 8670,
      "ller": 8671,
      "arls": 8672,
      "asium": 8673,
      "Ġlur": 8674,
      "Ġlone": 8675,
      "Ġlachesis": 8676,
      "oming": 8677,
      "otes": 8678,
      "Ġhearer": 8679,
      "lements": 8680,
      "lete": 8681,
      "alf": 8682,
      "alcul": 8683,
      "Ġgi": 8684,
      "Ġgap": 8685,
      "entiousness": 8686,
      "amen": 8687,
      "Ġaspire": 8688,
      "imental": 8689,
      "Ġanat": 8690,
      "Ġconced": 8691,
      "versy": 8692,
      "ironment": 8693,
      "idious": 8694,
      "Ġstum": 8695,
      "Ġstake": 8696,
      "Ġstub": 8697,
      "Ġstuff": 8698,
      "etched": 8699,
      "Ġexiled": 8700,
      "ulpt": 8701,
      "iller": 8702,
      "Ġfran": 8703,
      "iless": 8704,
      "Ġatom": 8705,
      "adation": 8706,
      "Ġrout": 8707,
      "Ġruss": 8708,
      "usory": 8709,
      "Ġseve": 8710,
      "Ġseren": 8711,
      "oren": 8712,
      "Ġdell": 8713,
      "pered": 8714,
      "thus": 8715,
      "Ġallies": 8716,
      "Ġalluded": 8717,
      "Ġalliance": 8718,
      "istry": 8719,
      "Ġmeals": 8720,
      "Ġaltered": 8721,
      "Ġtran": 8722,
      "Ġshif": 8723,
      "Ġvow": 8724,
      "Ġvocation": 8725,
      "Ġhaste": 8726,
      "Ġnearest": 8727,
      "Ġthereafter": 8728,
      "Ġunites": 8729,
      "Ġunset": 8730,
      "Ġunconcern": 8731,
      "Ġunfulf": 8732,
      "Ġabol": 8733,
      "Ġabys": 8734,
      "Ġabuse": 8735,
      "Ġabasement": 8736,
      "erson": 8737,
      "ersen": 8738,
      "rav": 8739,
      "Ġjune": 8740,
      "acities": 8741,
      "key": 8742,
      "Ġdisinterested": 8743,
      "Ġdisorders": 8744,
      "Ġpled": 8745,
      "Ġcontem": 8746,
      "play": 8747,
      "Ġleop": 8748,
      "Ġusur": 8749,
      "aped": 8750,
      "apse": 8751,
      "Ġenno": 8752,
      "Ġenables": 8753,
      "Ġengend": 8754,
      "agoras": 8755,
      "Ġthanks": 8756,
      "rian": 8757,
      "Ġtimocr": 8758,
      "socr": 8759,
      "Ġsayings": 8760,
      "Ġphot": 8761,
      "ensity": 8762,
      "Ġadorn": 8763,
      "Ġadults": 8764,
      "Ġobedient": 8765,
      "Ġundist": 8766,
      "conn": 8767,
      "Ġgoodwill": 8768,
      "Ġpreached": 8769,
      "Ġpoll": 8770,
      "thew": 8771,
      "Ġnatives": 8772,
      "Ġcompose": 8773,
      "Ġaccent": 8774,
      "Ġtele": 8775,
      "Ġowners": 8776,
      "Ġshel": 8777,
      "Ġrelating": 8778,
      "Ġreliable": 8779,
      "Ġtwig": 8780,
      "Ġmatch": 8781,
      "symp": 8782,
      "Ġthrone": 8783,
      "ilet": 8784,
      "Ġsubd": 8785,
      "Ġinfinity": 8786,
      "Ġinfancy": 8787,
      "Ġpsychopath": 8788,
      "Ġassass": 8789,
      "Ġassimil": 8790,
      "Ġcomme": 8791,
      "Ġoverthrown": 8792,
      "Ġnothingness": 8793,
      "Ġarticle": 8794,
      "Ġended": 8795,
      "Ġendless": 8796,
      "Ġregions": 8797,
      "Ġyellow": 8798,
      "Ġflaw": 8799,
      "olding": 8800,
      "Ġroast": 8801,
      "Ġrogu": 8802,
      "Ġroof": 8803,
      "Ġdidst": 8804,
      "Ġopponent": 8805,
      "Ġscru": 8806,
      "Ġsculpt": 8807,
      "hylam": 8808,
      "Ġconfine": 8809,
      "Ġconfront": 8810,
      "Ġoldest": 8811,
      "Ġamongst": 8812,
[...]
