{
  "version": "1.0",
  "truncation": null,
  "padding": null,
  "added_tokens": [
    {
      "id": 0,
      "content": "<pad>",
      "single_word": false,
      "lstrip": false,
      "rstrip": false,
      "normalized": false,
      "special": true
    },
    {
      "id": 1,
      "content": "<unk>",
      "single_word": false,
      "lstrip": false,
      "rstrip": false,
      "normalized": false,
      "special": true
    },
    {
      "id": 2,
      "content": "<bos>",
      "single_word": false,
      "lstrip": false,
      "rstrip": false,
      "normalized": false,
      "special": true
    },
    {
      "id": 3,
      "content": "<eos>",
      "single_word": false,
      "lstrip": false,
      "rstrip": false,
      "normalized": false,
      "special": true
    }
  ],
  "normalizer": {
    "type": "Sequence",
    "normalizers": [
      {
        "type": "Replace",
        "pattern": {
          "String": "“"
        },
        "content": "\""
      },
      {
        "type": "Replace",
        "pattern": {
          "String": "”"
        },
        "content": "\""
      },
      {
        "type": "Replace",
        "pattern": {
          "String": "‘"
        },
        "content": "'"
      },
      {
        "type": "Replace",
        "pattern": {
          "String": "’"
        },
        "content": "'"
      },
      {
        "type": "Replace",
        "pattern": {
          "String": "—"
        },
        "content": "-"
      },
      {
        "type": "Replace",
        "pattern": {
          "String": "–"
        },
        "content": "-"
      },
      {
        "type": "Replace",
        "pattern": {
          "String": "…"
        },
        "content": "..."
      },
      {
        "type": "NFD"
      },
      {
        "type": "Lowercase"
      },
      {
        "type": "StripAccents"
      }
    ]
  },
  "pre_tokenizer": {
    "type": "ByteLevel",
    "add_prefix_space": true,
    "trim_offsets": true,
    "use_regex": true
  },
  "post_processor": {
    "type": "TemplateProcessing",
    "single": [
      {
        "SpecialToken": {
          "id": "<bos>",
          "type_id": 0
        }
      },
      {
        "Sequence": {
          "id": "A",
          "type_id": 0
        }
      },
      {
        "SpecialToken": {
          "id": "<eos>",
          "type_id": 0
        }
      }
    ],
    "pair": [
      {
        "SpecialToken": {
          "id": "<bos>",
          "type_id": 0
        }
      },
      {
        "Sequence": {
          "id": "A",
          "type_id": 0
        }
      },
      {
        "SpecialToken": {
          "id": "<eos>",
          "type_id": 0
        }
      },
      {
        "SpecialToken": {
          "id": "<bos>",
          "type_id": 0
        }
      },
      {
        "Sequence": {
          "id": "B",
          "type_id": 1
        }
      },
      {
        "SpecialToken": {
          "id": "<eos>",
          "type_id": 1
        }
      }
    ],
    "special_tokens": {
      "<bos>": {
        "id": "<bos>",
        "ids": [
          2
        ],
        "tokens": [
          "<bos>"
        ]
      },
      "<eos>": {
        "id": "<eos>",
        "ids": [
          3
        ],
        "tokens": [
          "<eos>"
        ]
      }
    }
  },
  "decoder": {
    "type": "ByteLevel",
    "add_prefix_space": true,
    "trim_offsets": true,
    "use_regex": true
  },
  "model": {
    "type": "BPE",
    "dropout": null,
    "unk_token": "<unk>",
    "continuing_subword_prefix": null,
    "end_of_word_suffix": null,
    "fuse_unk": false,
    "byte_fallback": false,
    "ignore_merges": false,
    "vocab": {
      "<pad>": 0,
      "<unk>": 1,
      "<bos>": 2,
      "<eos>": 3,
      "!": 4,
      "\"": 5,
      "#": 6,
      "$": 7,
      "%": 8,
      "&": 9,
      "'": 10,
      "(": 11,
      ")": 12,
      "*": 13,
      "+": 14,
      ",": 15,
      "-": 16,
      ".": 17,
      "/": 18,
      "0": 19,
      "1": 20,
      "2": 21,
      "3": 22,
      "4": 23,
      "5": 24,
      "6": 25,
      "7": 26,
      "8": 27,
      "9": 28,
      ":": 29,
      ";": 30,
      "<": 31,
      "=": 32,
      ">": 33,
      "?": 34,
      "@": 35,
      "[": 36,
      "\\": 37,
      "]": 38,
      "^": 39,
      "_": 40,
      "`": 41,
      "a": 42,
      "b": 43,
      "c": 44,
      "d": 45,
      "e": 46,
      "f": 47,
      "g": 48,
      "h": 49,
      "i": 50,
      "j": 51,
      "k": 52,
      "l": 53,
      "m": 54,
      "n": 55,
      "o": 56,
      "p": 57,
      "q": 58,
      "r": 59,
      "s": 60,
      "t": 61,
      "u": 62,
      "v": 63,
      "w": 64,
      "x": 65,
      "y": 66,
      "z": 67,
      "{": 68,
      "|": 69,
      "}": 70,
      "~": 71,
      "¢": 72,
      "£": 73,
      "¥": 74,
      "¦": 75,
      "§": 76,
      "©": 77,
      "«": 78,
      "¬": 79,
      "®": 80,
      "°": 81,
      "±": 82,
      "²": 83,
      "³": 84,
      "´": 85,
      "µ": 86,
      "·": 87,
      "¸": 88,
      "¹": 89,
      "º": 90,
      "»": 91,
      "¼": 92,
      "½": 93,
      "¾": 94,
      "¿": 95,
      "Â": 96,
      "Ã": 97,
      "Ä": 98,
      "Å": 99,
      "É": 100,
      "Ê": 101,
      "Î": 102,
      "Ï": 103,
      "á": 104,
      "â": 105,
      "ã": 106,
      "Ċ": 107,
      "č": 108,
      "Ġ": 109,
      "Ģ": 110,
      "ģ": 111,
      "Ĥ": 112,
      "ĥ": 113,
      "Ħ": 114,
      "ħ": 115,
      "Ĩ": 116,
      "ĩ": 117,
      "Ī": 118,
      "ī": 119,
      "Ĳ": 120,
      "Ĵ": 121,
      "ĵ": 122,
      "Ķ": 123,
      "ĸ": 124,
      "Ĺ": 125,
      "Ļ": 126,
      "ŀ": 127,
      "ł": 128,
      "Ġt": 129,
      "čĊ": 130,
      "Ġth": 131,
      "Ġa": 132,
      "Ġthe": 133,
      "ĠčĊ": 134,
      "in": 135,
      "Ġo": 136,
      "re": 137,
      "Ġw": 138,
      "Ġs": 139,
      "er": 140,
      "ĠĠ": 141,
      "Ġi": 142,
      "at": 143,
      "on": 144,
      "Ġb": 145,
      "en": 146,
      "Ġof": 147,
      "Ġh": 148,
      "Ġc": 149,
      "Ġm": 150,
      "Ġan": 151,
      "Ġf": 152,
      "es": 153,
      "Ġp": 154,
      "Ġin": 155,
      "an": 156,
      "Ġto": 157,
      "it": 158,
      "is": 159,
      "ed": 160,
      "Ġd": 161,
      "or": 162,
      "ou": 163,
      "Ġand": 164,
      "ing": 165,
      "ar": 166,
      "Ġn": 167,
      "al": 168,
      "ion": 169,
      "ic": 170,
      "Ġbe": 171,
      "Ġe": 172,
      "as": 173,
      "le": 174,
      "Ġwh": 175,
      "ĠĠĠĠ": 176,
      "om": 177,
      "ly": 178,
      "th": 179,
      "Ġre": 180,
      "Ġis": 181,
      "se": 182,
      "Ġl": 183,
      "Ġit": 184,
      "ll": 185,
      "Ġthat": 186,
      "Ġg": 187,
      "ve": 188,
      "st": 189,
      "ct": 190,
      "ent": 191,
      "ce": 192,
      "Ġno": 193,
      "ut": 194,
      "Ġon": 195,
      "Ġfor": 196,
      "Ġas": 197,
      "im": 198,
      "Ġhe": 199,
      "Ġha": 200,
      "Ġu": 201,
      "ro": 202,
      "Ġcon": 203,
      "ld": 204,
      "ith": 205,
      "ur": 206,
      "ver": 207,
      "ation": 208,
      "ch": 209,
      "ich": 210,
      "Ġwe": 211,
      "gh": 212,
      "ir": 213,
      "id": 214,
      "Ġwhich": 215,
      "am": 216,
      "Ġor": 217,
      "Ġnot": 218,
      "ow": 219,
      "ay": 220,
      "Ġwith": 221,
      "Ġsu": 222,
      "Ġst": 223,
      "qu": 224,
      "Ġy": 225,
      "Ġthis": 226,
      "Ġde": 227,
      "ter": 228,
      "Ġby": 229,
      "Ġex": 230,
      "Ġat": 231,
      "Ġmo": 232,
      "ill": 233,
      "Ġfr": 234,
      "ess": 235,
      "ther": 236,
      "Ġr": 237,
      "Ġse": 238,
      "Ġme": 239,
      "ad": 240,
      "ain": 241,
      "Ġbut": 242,
      "us": 243,
      "ul": 244,
      "ist": 245,
      "os": 246,
      "Ġare": 247,
      "il": 248,
      "ould": 249,
      "pe": 250,
      "ity": 251,
      "Ġfrom": 252,
      "Ġwas": 253,
      "Ġhave": 254,
      "ght": 255,
      "um": 256,
      "od": 257,
      "if": 258,
      "Ġsh": 259,
      "Ġpro": 260,
      "Ġcom": 261,
      "Ġun": 262,
      "res": 263,
      "Ġyou": 264,
      "Ġso": 265,
      "Ġv": 266,
      "ĠĠĠ": 267,
      "iv": 268,
      "ble": 269,
      "Ġhis": 270,
      "ere": 271,
      "ak": 272,
      "Ġne": 273,
      "ci": 274,
      "ge": 275,
      "ate": 276,
      "Ġk": 277,
      "Ġall": 278,
      "Ġwill": 279,
      "ol": 280,
      "sel": 281,
      "Ġ\"": 282,
      "et": 283,
      "and": 284,
      "est": 285,
      "Ġch": 286,
      "Ġone": 287,
      "ri": 288,
      "Ġthey": 289,
      "em": 290,
      "Ġthere": 291,
      "ant": 292,
      "Ġal": 293,
      "ous": 294,
      "pp": 295,
      "end": 296,
      "ect": 297,
      "ra": 298,
      "Ġmy": 299,
      "ust": 300,
      "ure": 301,
      "art": 302,
      "ight": 303,
      "Ġle": 304,
      "ive": 305,
      "Ġ(": 306,
      "Ġ1": 307,
      "oun": 308,
      "Ġother": 309,
      "ies": 310,
      "self": 311,
      "Ġqu": 312,
      "Ġhim": 313,
      "der": 314,
      "ig": 315,
      "ame": 316,
      "Ġif": 317,
      "Ġcan": 318,
      "Ġwho": 319,
      "Ġthem": 320,
      "Ġman": 321,
      "un": 322,
      "Ġab": 323,
      "Ġdo": 324,
      "Ġhad": 325,
      "ers": 326,
      "Ġar": 327,
      "de": 328,
      "all": 329,
      "ions": 330,
      "Ġint": 331,
      "ence": 332,
      "ome": 333,
      "very": 334,
      "ore": 335,
      "Ġwor": 336,
      "ac": 337,
      "Ġtheir": 338,
      "Ġtr": 339,
      "Ġj": 340,
      "Ġwould": 341,
      "'s": 342,
      "Ġim": 343,
      "ard": 344,
      "Ġhas": 345,
      "Ġpl": 346,
      "ap": 347,
      "ot": 348,
      "out": 349,
      "Ġits": 350,
      "op": 351,
      "ie": 352,
      "Ġbeing": 353,
      "ind": 354,
      "ally": 355,
      "ort": 356,
      "Ġany": 357,
      "Ġwhat": 358,
      "ose": 359,
      "ance": 360,
      "Ġpart": 361,
      "ment": 362,
      "Ġonly": 363,
      "ĠĠĠĠĠĠĠ": 364,
      "Ġper": 365,
      "Ġob": 366,
      "reat": 367,
      "ish": 368,
      "ong": 369,
      "per": 370,
      "act": 371,
      "our": 372,
      "Ġbeen": 373,
      "cc": 374,
      "ĠĠĠĠĠĠĠĠ": 375,
      "pl": 376,
      "ans": 377,
      "Ġen": 378,
      "Ġtim": 379,
      "pt": 380,
      "Ġmore": 381,
      "Ġgo": 382,
      "au": 383,
      "ast": 384,
      "Ġwhen": 385,
      "Ġkn": 386,
      "ough": 387,
      "ary": 388,
      "thing": 389,
      "ass": 390,
      "Ġev": 391,
      "Ġdis": 392,
      "Ġcons": 393,
      "Ġwere": 394,
      "are": 395,
      "ire": 396,
      "Ġour": 397,
      "ag": 398,
      "Ġcont": 399,
      "Ġthese": 400,
      "ound": 401,
      "Ġup": 402,
      "Ġsp": 403,
      "able": 404,
      "Ġsome": 405,
      "ject": 406,
      "Ġad": 407,
      "Ġpr": 408,
      "ff": 409,
      "Ġmay": 410,
      "Ġam": 411,
      "ke": 412,
      "fore": 413,
      "ake": 414,
      "ath": 415,
      "ace": 416,
      "ach": 417,
      "si": 418,
      "Ġbec": 419,
      "Ġsame": 420,
      "Ġlo": 421,
      "Ġknow": 422,
      "ces": 423,
      "ness": 424,
      "Ġfe": 425,
      "ine": 426,
      "Ġdes": 427,
      "Ġus": 428,
      "ical": 429,
      "Ġmust": 430,
      "Ġtime": 431,
      "Ġpos": 432,
      "Ġag": 433,
      "tain": 434,
      "Ġ2": 435,
      "ab": 436,
      "Ġspe": 437,
      "ok": 438,
      "ations": 439,
      "Ġcomp": 440,
      "Ġgreat": 441,
      "Ġli": 442,
      "av": 443,
      "Ġinto": 444,
      "iff": 445,
      "ĠĠĠĠĠĠ": 446,
      "Ġsuch": 447,
      "Ġthan": 448,
      "ction": 449,
      "Ġtw": 450,
      "ue": 451,
      "Ġgen": 452,
      "ult": 453,
      "ĠĠĠĠĠ": 454,
      "Ġres": 455,
      "Ġnat": 456,
      "ens": 457,
      "ays": 458,
      "ated": 459,
      "Ġthen": 460,
      "Ġpo": 461,
      "Ġout": 462,
      "Ġpre": 463,
      "Ġsa": 464,
      "wn": 465,
      "ress": 466,
      "Ġbod": 467,
      "Ġbo": 468,
      "eren": 469,
      "ree": 470,
      "Ġdiff": 471,
      "Ġhow": 472,
      "ite": 473,
      "Ġform": 474,
      "el": 475,
      "Ġph": 476,
      "Ġsub": 477,
      "ition": 478,
      "Ġunder": 479,
      "so": 480,
      "Ġcl": 481,
      "Ġfir": 482,
      "Ġrel": 483,
      "ice": 484,
      "Ġdre": 485,
      "Ġdist": 486,
      "Ġvery": 487,
      "Ġ'": 488,
      "Ġcomm": 489,
      "Ġgener": 490,
      "ause": 491,
      "Ġthose": 492,
      "ory": 493,
      "Ġ;": 494,
      "Ġher": 495,
      "Ġrem": 496,
      "iz": 497,
      "one": 498,
      "Ġ-": 499,
      "ings": 500,
      "ars": 501,
      "ru": 502,
      "Ġimp": 503,
      "Ġshould": 504,
      "age": 505,
      "Ġacc": 506,
      "int": 507,
      "Ġide": 508,
      "Ġdream": 509,
      "Ġtwo": 510,
      "ber": 511,
      "du": 512,
      "Ġap": 513,
      "Ġfirst": 514,
      "ud": 515,
      "ari": 516,
      "Ġevery": 517,
      ".\"": 518,
      "cl": 519,
      "Ġabout": 520,
      "itt": 521,
      "Ġpres": 522,
      "Ġbet": 523,
      "ry": 524,
      "ise": 525,
      "Ġatt": 526,
      "Ġeven": 527,
      "og": 528,
      "Ġnow": 529,
      "Ġ3": 530,
      "erv": 531,
      "uch": 532,
      "Ġcould": 533,
      "Ġgr": 534,
      "we": 535,
      "cess": 536,
      "Ġapp": 537,
      "ought": 538,
      "..": 539,
      "Ġlike": 540,
      "ang": 541,
      "con": 542,
      "Ġpe": 543,
      "ide": 544,
      "ade": 545,
      "Ġcor": 546,
      "Ġaf": 547,
      "Ġact": 548,
      "ase": 549,
      "Ġagain": 550,
      "ving": 551,
      "Ġinst": 552,
      "ife": 553,
      "oc": 554,
      "ord": 555,
      "00": 556,
      "Ġfact": 557,
      "ward": 558,
      "Ġalso": 559,
      "Ġmen": 560,
      "ual": 561,
      "Ġstate": 562,
      "ack": 563,
      "ered": 564,
      "Ġsaid": 565,
      "Ġworld": 566,
      "Ġshe": 567,
      "ertain": 568,
      "Ġsee": 569,
      "Ġref": 570,
      "Ġwithout": 571,
      "Ġfo": 572,
      "Ġ4": 573,
      "Ġinf": 574,
      "Ġrep": 575,
      "Ġsim": 576,
      "Ġfl": 577,
      "ple": 578,
      "Ġtherefore": 579,
      "ial": 580,
      "Ġmost": 581,
      "Ġreg": 582,
      "Ġind": 583,
      "Ġexist": 584,
      "Ġitself": 585,
      "Ġco": 586,
      "urn": 587,
      "Ġown": 588,
      "Ġinter": 589,
      "Ġbel": 590,
      "te": 591,
      "Ġ[": 592,
      "ied": 593,
      "ink": 594,
      "ves": 595,
      "ced": 596,
      "vel": 597,
      "ful": 598,
      "ince": 599,
      "Ġbecause": 600,
      "Ġbody": 601,
      "Ġmot": 602,
      "Ġlet": 603,
      "atter": 604,
      "Ġem": 605,
      "ov": 606,
      "Ġorder": 607,
      "ict": 608,
      "Ġlife": 609,
      "red": 610,
      "Ġgiv": 611,
      "ount": 612,
      "Ġnothing": 613,
      "ents": 614,
      "Ġsay": 615,
      "Ġappe": 616,
      "Ġbr": 617,
      "other": 618,
      "Ġafter": 619,
      "Ġobject": 620,
      "ither": 621,
      "Ġdifferen": 622,
      "ater": 623,
      "bl": 624,
      "Ġmake": 625,
      "sible": 626,
      "Ġgeneral": 627,
      "rib": 628,
      "Ġyour": 629,
      "Ġequ": 630,
      "Ġla": 631,
      "ious": 632,
      "Ġthr": 633,
      "Ġlong": 634,
      "Ġthus": 635,
      "erm": 636,
      "cious": 637,
      "Ġjust": 638,
      "ep": 639,
      "Ġsupp": 640,
      "ign": 641,
      "Ġcertain": 642,
      ",\"": 643,
      "cept": 644,
      "Ġwhere": 645,
      "ather": 646,
      "Ġho": 647,
      "ren": 648,
      "Ġmade": 649,
      "Ġhimself": 650,
      "Ġprop": 651,
      "Ġoff": 652,
      "Ġnew": 653,
      "ile": 654,
      "Ġanother": 655,
      "Ġpoint": 656,
      "Ġear": 657,
      "ality": 658,
      "lect": 659,
      "Ġhaving": 660,
      "Ġmany": 661,
      "Ġgood": 662,
      "Ġbefore": 663,
      "Ġpass": 664,
      "the": 665,
      "Ġway": 666,
      "Ġte": 667,
      "Ġpar": 668,
      "ular": 669,
      "Ġthought": 670,
      "Ġac": 671,
      "ates": 672,
      "ason": 673,
      "Ġdoes": 674,
      "ween": 675,
      "wh": 676,
      "Ġspeci": 677,
      "orm": 678,
      "Ġover": 679,
      "Ġmar": 680,
      "Ġbetween": 681,
      "Ġthrough": 682,
      "Ġdesc": 683,
      "Ġdid": 684,
      "'t": 685,
      "Ġstr": 686,
      "Ġhere": 687,
      "ism": 688,
      "Ġmuch": 689,
      "Ġwork": 690,
      "Ġmind": 691,
      "Ġupon": 692,
      "cre": 693,
      "Ġwell": 694,
      "Ġro": 695,
      "Ġtrans": 696,
      "Ġnature": 697,
      "Ġca": 698,
      "Ġconf": 699,
      "Ġplace": 700,
      "pect": 701,
      "Ġthings": 702,
      "ities": 703,
      "Ġconsid": 704,
      "Ġeach": 705,
      "ys": 706,
      "Ġobs": 707,
      "Ġend": 708,
      "llow": 709,
      "uth": 710,
      "Ġ_": 711,
      "Ġnever": 712,
      "Ġrec": 713,
      "Ġthink": 714,
      "Ġnecess": 715,
      "ower": 716,
      "to": 717,
      "own": 718,
      "Ġsy": 719,
      "Ġright": 720,
      "Ġyet": 721,
      "Ġreason": 722,
      "Ġshall": 723,
      "Ġ5": 724,
      "Ġexper": 725,
      "itu": 726,
      "Ġgiven": 727,
      "Ġpresent": 728,
      "Ġass": 729,
      "Ġmean": 730,
      "Ġarm": 731,
      "Ġfound": 732,
      "Ġdef": 733,
      "Ġext": 734,
      "ip": 735,
      "Ġsm": 736,
      "led": 737,
      "Ġfar": 738,
      "selves": 739,
      "Ġpartic": 740,
      "Ġexp": 741,
      "ational": 742,
      "Ġhand": 743,
      "iver": 744,
      "Ġbeg": 745,
      "ever": 746,
      "not": 747,
      "ffect": 748,
      "Ġprin": 749,
      "Ġquest": 750,
      "itself": 751,
      "Ġ18": 752,
      "Ġnum": 753,
      "ors": 754,
      "Ġthough": 755,
      "ances": 756,
      "ution": 757,
      "Ġdiv": 758,
      "Ġtake": 759,
      "Ġchar": 760,
      "ways": 761,
      "Ġpeop": 762,
      "Ġcome": 763,
      "Ġnor": 764,
      "les": 765,
      "ific": 766,
      "ute": 767,
      "Ġwar": 768,
      "ia": 769,
      "Ġwhole": 770,
      "ii": 771,
      "Ġsl": 772,
      "Ġbl": 773,
      "Ġcall": 774,
      "Ġcent": 775,
      "ense": 776,
      "Ġalways": 777,
      "Ġtak": 778,
      "Ġdisc": 779,
      "--": 780,
      "ph": 781,
      "ract": 782,
      "ility": 783,
      "Ġunderst": 784,
      "Ġmotion": 785,
      "Ġent": 786,
      "Ġconst": 787,
      "ty": 788,
      "ild": 789,
      "Ġseem": 790,
      "ning": 791,
      "Ġsur": 792,
      "Ġdep": 793,
      "ood": 794,
      "Ġop": 795,
      "Ġye": 796,
      "Ġfa": 797,
      "Ġpers": 798,
      "ix": 799,
      "Ġspecies": 800,
      "Ġstill": 801,
      "Ġfollow": 802,
      "als": 803,
      "Ġconscious": 804,
      "Ġprinci": 805,
      "ha": 806,
      "Ġcase": 807,
      "igh": 808,
      "ined": 809,
      "Ġaw": 810,
      "ian": 811,
      "Ġsince": 812,
      "Ġlook": 813,
      "ished": 814,
      "Ġmight": 815,
      "Ġet": 816,
      "ib": 817,
      "ond": 818,
      "Ġabs": 819,
      "ady": 820,
      "Ġdifferent": 821,
      "Ġnatur": 822,
      "ily": 823,
      "Ġx": 824,
      "Ġmatter": 825,
      "ved": 826,
      "ics": 827,
      "oph": 828,
      "igin": 829,
      "Ġword": 830,
      "ived": 831,
      "Ġpeople": 832,
      "Ġgod": 833,
      "ittle": 834,
      "Ġlight": 835,
      "Ġhum": 836,
      "Ġlittle": 837,
      "Ġsun": 838,
      "Ġorigin": 839,
      "Ġbelie": 840,
      "ures": 841,
      "Ġopp": 842,
      "Ġvari": 843,
      "Ġforce": 844,
      "ently": 845,
      "att": 846,
      "Ġless": 847,
      "Ġphil": 848,
      "Ġtoo": 849,
      "ck": 850,
      "row": 851,
      "Ġmeans": 852,
      "Ġideas": 853,
      ".)": 854,
      "Ġgl": 855,
      "Ġsc": 856,
      "Ġocc": 857,
      "be": 858,
      "Ġquestion": 859,
      "osoph": 860,
      "Ġfind": 861,
      "Ġart": 862,
      "Ġboth": 863,
      "Ġtrue": 864,
      "io": 865,
      "Ġcir": 866,
      "ons": 867,
      "Ġcond": 868,
      "Ġpower": 869,
      "Ġcour": 870,
      "ted": 871,
      "Ġidea": 872,
      "Ġphilosoph": 873,
      "Ġlaw": 874,
      "ner": 875,
      "edi": 876,
      "Ġuse": 877,
      "Ġthemselves": 878,
      "its": 879,
      "ps": 880,
      "Ġcannot": 881,
      "Ġthree": 882,
      "Ġtoward": 883,
      "Ġhapp": 884,
      "ange": 885,
      "Ġwhe": 886,
      "Ġremain": 887,
      "Ġconsider": 888,
      "Ġagainst": 889,
      "ked": 890,
      "ten": 891,
      "Ġreal": 892,
      "Ġearth": 893,
      "Ġwr": 894,
      "Ġdire": 895,
      "Ġpol": 896,
      "Ġday": 897,
      "Ġorg": 898,
      "Ġprodu": 899,
      "Ġunderstand": 900,
      "Ġ6": 901,
      "Ġcomple": 902,
      "Ġfre": 903,
      "Ġcol": 904,
      "Ġgive": 905,
      "ave": 906,
      "ating": 907,
      "osed": 908,
      "Ġcap": 909,
      "Ġstru": 910,
      "Ġsou": 911,
      "Ġfin": 912,
      "Ġinde": 913,
      "ove": 914,
      "cy": 915,
      "ited": 916,
      "Ġdu": 917,
      "Ġothers": 918,
      "Ġaccord": 919,
      "Ġcle": 920,
      "Ġcar": 921,
      "Ġel": 922,
      "Ġnatural": 923,
      "iss": 924,
      "Ġmyself": 925,
      "Ġexpl": 926,
      "Ġnecessary": 927,
      "ually": 928,
      "Ġmak": 929,
      "und": 930,
      "vol": 931,
      "Ġeither": 932,
      "ants": 933,
      "Ġconsciousness": 934,
      "Ġbodies": 935,
      "Ġobserv": 936,
      "Ġcirc": 937,
      "Ġbook": 938,
      "ision": 939,
      "Ġhuman": 940,
      "Ġput": 941,
      "Ġsubject": 942,
      "ts": 943,
      "Ġappear": 944,
      "ments": 945,
      "Ġdem": 946,
      "term": 947,
      "ative": 948,
      "Ġpossible": 949,
      "cond": 950,
      "Ġes": 951,
      "ried": 952,
      "âĢ": 953,
      "),": 954,
      "Ġlast": 955,
      "ost": 956,
      "he": 957,
      "olog": 958,
      "that": 959,
      "Ġsuff": 960,
      "ks": 961,
      "Ġable": 962,
      "Ġwhether": 963,
      "Ġonce": 964,
      "Ġhowever": 965,
      "Ġperf": 966,
      "Ġke": 967,
      "li": 968,
      "Ġgu": 969,
      "Ġexam": 970,
      "aps": 971,
      "Ġnational": 972,
      "Ġeffect": 973,
      "Ġimm": 974,
      "Ġhigh": 975,
      "Ġcharact": 976,
      "ention": 977,
      "Ġdescrib": 978,
      "less": 979,
      "den": 980,
      "Ġcontr": 981,
      "Ġins": 982,
      "Ġsecond": 983,
      "Ġbatt": 984,
      "ail": 985,
      "Ġthing": 986,
      "Ġrest": 987,
      "Ġmin": 988,
      "Ġparts": 989,
      "itions": 990,
      "ubl": 991,
      "Ġold": 992,
      "Ġcontin": 993,
      "Ġmove": 994,
      "Ġdec": 995,
      "Ġexperi": 996,
      "Ġconc": 997,
      "Ġwhy": 998,
      "Ġkind": 999,
      "ft": 1000,
      "Ġbecome": 1001,
      "sy": 1002,
      "Ġret": 1003,
      "Ġnumber": 1004,
      "iew": 1005,
      "Ġdur": 1006,
      "Ġcommon": 1007,
      "inct": 1008,
      "ick": 1009,
      "ared": 1010,
      "Ġuniver": 1011,
      "ew": 1012,
      "?\"": 1013,
      "Ġaccording": 1014,
      "Ġdown": 1015,
      "Ġamong": 1016,
      "Ġcount": 1017,
      "Ġtheory": 1018,
      "ledge": 1019,
      "Ġchild": 1020,
      "ines": 1021,
      "ivity": 1022,
      "Ġrad": 1023,
      "Ġmon": 1024,
      "Ġsomething": 1025,
      "Ġadv": 1026,
      "gether": 1027,
      "Ġma": 1028,
      "ends": 1029,
      "up": 1030,
      "Ġcourse": 1031,
      "ters": 1032,
      "Ġtruth": 1033,
      "gg": 1034,
      "Ġback": 1035,
      "Ġsol": 1036,
      "Ġsoci": 1037,
      "Ġest": 1038,
      "Ġshow": 1039,
      "Ġclass": 1040,
      "Ġorgan": 1041,
      "Ġgerm": 1042,
      "Ġdra": 1043,
      "Ġpur": 1044,
      "Ġrelation": 1045,
      "Ġequal": 1046,
      "Ġturn": 1047,
      "haps": 1048,
      "Ġfather": 1049,
      "Ġdeterm": 1050,
      "Ġadm": 1051,
      "Ġparticular": 1052,
      "ately": 1053,
      "ium": 1054,
      "of": 1055,
      "Ġmom": 1056,
      "Ġplac": 1057,
      "icult": 1058,
      "Ġenem": 1059,
      "Ġspeak": 1060,
      "ives": 1061,
      "Ġser": 1062,
      "lf": 1063,
      "que": 1064,
      "sib": 1065,
      "Ġknowledge": 1066,
      "Ġaway": 1067,
      "lection": 1068,
      "Ġinc": 1069,
      "Ġwhile": 1070,
      "Ġdou": 1071,
      "Ġwant": 1072,
      "Ġperhaps": 1073,
      "oy": 1074,
      "itch": 1075,
      "Ġcr": 1076,
      "Ġpsy": 1077,
      "Ġlar": 1078,
      "Ġchap": 1079,
      "Ġserv": 1080,
      "Ġgra": 1081,
      "Ġpsych": 1082,
      "most": 1083,
      "Ġtem": 1084,
      "Ġmor": 1085,
      "Ġinv": 1086,
      "ists": 1087,
      "Ġline": 1088,
      "Ġview": 1089,
      "Ġtimes": 1090,
      "Ġresult": 1091,
      "Ġarmy": 1092,
      "Ġneed": 1093,
      "Ġsmall": 1094,
      "ros": 1095,
      "Ġeng": 1096,
      "gth": 1097,
      "Ġspir": 1098,
      "Ġread": 1099,
      "stem": 1100,
      "Ġple": 1101,
      "Ġdifficult": 1102,
      "iment": 1103,
      ".'": 1104,
      "Ġdistance": 1105,
      "Ġval": 1106,
      "par": 1107,
      "ting": 1108,
      "ceed": 1109,
      "Ġyears": 1110,
      "Ġadd": 1111,
      "Ġcharacter": 1112,
      "vers": 1113,
      "ready": 1114,
      "Ġlove": 1115,
      "Ġself": 1116,
      "arly": 1117,
      "Ġspace": 1118,
      "Ġrevol": 1119,
      "Ġrather": 1120,
      "Ġdirect": 1121,
      "Ġbro": 1122,
      "Ġalready": 1123,
      "Ġ:": 1124,
      "Ġsense": 1125,
      "Ġplan": 1126,
      "Ġterm": 1127,
      "Ġwish": 1128,
      "Ġsystem": 1129,
      "ird": 1130,
      "ne": 1131,
      "ases": 1132,
      "iness": 1133,
      "Ġget": 1134,
      "Ġwhom": 1135,
      "Ġsever": 1136,
      "ides": 1137,
      "Ġexistence": 1138,
      "Ġsat": 1139,
      "Ġfeel": 1140,
      "Ġmoment": 1141,
      "itude": 1142,
      "ier": 1143,
      "ised": 1144,
      "quire": 1145,
      "Ġtaken": 1146,
      "Ġdr": 1147,
      "Ġimport": 1148,
      "âĢĲ": 1149,
      "Ġcaus": 1150,
      "ended": 1151,
      "ened": 1152,
      "Ġfall": 1153,
      "Ġfri": 1154,
      "ortion": 1155,
      "Ġeas": 1156,
      "Ġperson": 1157,
      "Ġtra": 1158,
      "Ġang": 1159,
      "Ġbegin": 1160,
      "oman": 1161,
      "err": 1162,
      "ety": 1163,
      "ient": 1164,
      "Ġfour": 1165,
      "Ġrece": 1166,
      "Ġphys": 1167,
      "nt": 1168,
      "Ġexpress": 1169,
      "Ġut": 1170,
      "Ġey": 1171,
      "Ġsoul": 1172,
      "Ġ7": 1173,
      "Ġoften": 1174,
      "Ġset": 1175,
      "Ġgreater": 1176,
      "nal": 1177,
      "Ġchapter": 1178,
      "reh": 1179,
      ").": 1180,
      "ior": 1181,
      "Ġproper": 1182,
      "ivid": 1183,
      "Ġfew": 1184,
      "asure": 1185,
      "unt": 1186,
      "Ġknown": 1187,
      "Ġenemy": 1188,
      "Ġneg": 1189,
      "Ġtogether": 1190,
      "lt": 1191,
      "Ġever": 1192,
      "sequ": 1193,
      "Ġseen": 1194,
      "Ġmem": 1195,
      "osha": 1196,
      "ize": 1197,
      "Ġlead": 1198,
      "ination": 1199,
      "Ġord": 1200,
      "ized": 1201,
      "Ġprov": 1202,
      "Ġregard": 1203,
      "Ġseveral": 1204,
      "Ġcalled": 1205,
      "ained": 1206,
      "Ġquant": 1207,
      "Ġbre": 1208,
      "Ġmod": 1209,
      "Ġhist": 1210,
      "Ġfreed": 1211,
      "Ġstand": 1212,
      "Ġwords": 1213,
      "ably": 1214,
      "Ġsent": 1215,
      "Ġcur": 1216,
      "Ġfore": 1217,
      "Ġaly": 1218,
      "Ġfree": 1219,
      "Ġleast": 1220,
      "Ġalyosha": 1221,
      "Ġdeg": 1222,
      "Ġperi": 1223,
      "inite": 1224,
      "Ġbelieve": 1225,
      "uc": 1226,
      "ret": 1227,
      "Ġsci": 1228,
      "ible": 1229,
      "Ġ8": 1230,
      "ull": 1231,
      "Ġexperience": 1232,
      "me": 1233,
      "Ġwithin": 1234,
      "Ġquite": 1235,
      "Ġbetter": 1236,
      "amp": 1237,
      "Ġsing": 1238,
      "over": 1239,
      "Ġiv": 1240,
      "by": 1241,
      "ern": 1242,
      "Ġpast": 1243,
      "ius": 1244,
      "Ġmag": 1245,
      "Ġtell": 1246,
      "Ġill": 1247,
      "Ġfur": 1248,
      "Ġed": 1249,
      "ples": 1250,
      "Ġwater": 1251,
      "Ġname": 1252,
      "omen": 1253,
      "000": 1254,
      "!\"": 1255,
      "Ġvel": 1256,
      "Ġdivision": 1257,
      "Ġalmost": 1258,
      "Ġrepres": 1259,
      "Ġmeaning": 1260,
      "Ġgerman": 1261,
      "Ġsud": 1262,
      "Ġfreedom": 1263,
      "rat": 1264,
      "Ġsign": 1265,
      "Ġsch": 1266,
      "Ġleg": 1267,
      "ven": 1268,
      "cul": 1269,
      "Ġsens": 1270,
      "ided": 1271,
      "Ġappro": 1272,
      "Ġbattal": 1273,
      "Ġhel": 1274,
      "Ġdel": 1275,
      "Ġdesire": 1276,
      "Ġindivid": 1277,
      "Ġdi": 1278,
      "Ġaff": 1279,
      "Ġleft": 1280,
      "Ġcause": 1281,
      "Ġsudden": 1282,
      "king": 1283,
      "Ġce": 1284,
      "Ġtowards": 1285,
      "air": 1286,
      "xt": 1287,
      "ush": 1288,
      "ets": 1289,
      ".,": 1290,
      "osition": 1291,
      "Ġdoub": 1292,
      "Ġindividual": 1293,
      "Ġmanner": 1294,
      "iter": 1295,
      "ussi": 1296,
      "Ġjud": 1297,
      "Ġcommand": 1298,
      "Ġele": 1299,
      "for": 1300,
      "Ġanim": 1301,
      "Ġduring": 1302,
      "ene": 1303,
      "Ġoriginal": 1304,
      "velop": 1305,
      "Ġauth": 1306,
      "Ġhead": 1307,
      "ert": 1308,
      "Ġprof": 1309,
      "sw": 1310,
      "Ġheart": 1311,
      "ged": 1312,
      "Ġanything": 1313,
      "Ġsimple": 1314,
      "Ġthou": 1315,
      "Ġfut": 1316,
      "Ġir": 1317,
      "Ġbri": 1318,
      "Ġspirit": 1319,
      "Ġnon": 1320,
      "erence": 1321,
      "Ġprob": 1322,
      "Ġabove": 1323,
      "Ġphilosophy": 1324,
      "Ġdest": 1325,
      "Ġstrong": 1326,
      "Ġrespect": 1327,
      "Ġmil": 1328,
      "Ġ9": 1329,
      "Ġess": 1330,
      "ences": 1331,
      "Ġsoon": 1332,
      "bit": 1333,
      "Ġ10": 1334,
      "Ġimag": 1335,
      "plic": 1336,
      "Ġhy": 1337,
      "Ġaction": 1338,
      "Ġansw": 1339,
      "vern": 1340,
      "Ġpossib": 1341,
      "Ġcomplete": 1342,
      "Ġposs": 1343,
      "Ġveloc": 1344,
      "Ġsitu": 1345,
      "iving": 1346,
      "Ġperiod": 1347,
      "Ġ19": 1348,
      "Ġcame": 1349,
      "Ġfam": 1350,
      "Ġsimil": 1351,
      "ae": 1352,
      "Ġdevelop": 1353,
      "ased": 1354,
      "Ġpubl": 1355,
      "Ġlear": 1356,
      "abl": 1357,
      "nect": 1358,
      "Ġopin": 1359,
      "Ġforces": 1360,
      "Ġvir": 1361,
      "Ġneither": 1362,
      "Ġperfect": 1363,
      "blem": 1364,
      "Ġsubst": 1365,
      "pet": 1366,
      "erest": 1367,
      "Ġdeath": 1368,
      "ibus": 1369,
      "Ġsw": 1370,
      "Ġlim": 1371,
      "Ġru": 1372,
      "Ġeverything": 1373,
      "Ġseems": 1374,
      "Ġpure": 1375,
      "Ġsuper": 1376,
      "str": 1377,
      "Ġque": 1378,
      "Ġreturn": 1379,
      "Ġarr": 1380,
      "Ġproblem": 1381,
      "Ġside": 1382,
      "Ġincre": 1383,
      "Ġindeed": 1384,
      "land": 1385,
      "Ġdays": 1386,
      "...": 1387,
      "ery": 1388,
      "ont": 1389,
      "Ġprinciple": 1390,
      "Ġstruct": 1391,
      "Ġcare": 1392,
      "Ġallow": 1393,
      "Ġdone": 1394,
      "Ġhard": 1395,
      "Ġ12": 1396,
      "Ġaccount": 1397,
      "ument": 1398,
      "Ġconnect": 1399,
      "uss": 1400,
      "Ġfurther": 1401,
      "Ġwhose": 1402,
      "Ġforms": 1403,
      "Ġfuture": 1404,
      "ross": 1405,
      "man": 1406,
      "ousand": 1407,
      "Ġrat": 1408,
      "omet": 1409,
      "Ġconstit": 1410,
      "usion": 1411,
      "Ġthousand": 1412,
      "Ġreally": 1413,
      "Ġconsequ": 1414,
      "Ġlarge": 1415,
      "Ġconcl": 1416,
      "Ġrepresent": 1417,
      "ark": 1418,
      "Ġcorps": 1419,
      "ified": 1420,
      ",'": 1421,
      "ng": 1422,
      "Ġbest": 1423,
      "Ġproportion": 1424,
      "Ġuniverse": 1425,
      "ogn": 1426,
      "ically": 1427,
      "Ġchang": 1428,
      "Ġposition": 1429,
      "Ġra": 1430,
      "Ġparis": 1431,
      "Ġsum": 1432,
      "Ġsucc": 1433,
      "Ġdisp": 1434,
      "Ġenough": 1435,
      "men": 1436,
      "Ġinterest": 1437,
      "Ġtot": 1438,
      "Ġconce": 1439,
      "olute": 1440,
      "Ġcho": 1441,
      "empt": 1442,
      "Ġcre": 1443,
      "Ġdon": 1444,
      "Ġpossess": 1445,
      "urd": 1446,
      "Ġstud": 1447,
      "Ġyoung": 1448,
      "Ġ181": 1449,
      "Ġmakes": 1450,
      "Ġdistinct": 1451,
      "Ġ.": 1452,
      "itted": 1453,
      "Ġprev": 1454,
      "erve": 1455,
      "Ġcommun": 1456,
      "âĶ": 1457,
      "Ġav": 1458,
      "Ġjo": 1459,
      "iments": 1460,
      "Ġmet": 1461,
      "Ġmere": 1462,
      "day": 1463,
      "Ġgrav": 1464,
      "Ġhold": 1465,
      "arch": 1466,
      "Ġsure": 1467,
      "ament": 1468,
      "Ġresist": 1469,
      "Ġid": 1470,
      "isf": 1471,
      "orn": 1472,
      "Ġchr": 1473,
      "Ġbelong": 1474,
      "ug": 1475,
      "Ġarg": 1476,
      "Ġcontrary": 1477,
      "Ġivan": 1478,
      "Ġprince": 1479,
      "Ġcircum": 1480,
      "ught": 1481,
      "inary": 1482,
      "Ġevid": 1483,
      "na": 1484,
      "itya": 1485,
      "Ġfig": 1486,
      "Ġpain": 1487,
      "Ġmass": 1488,
      "Ġdoubt": 1489,
      "Ġgovern": 1490,
      "Ġincl": 1491,
      "Ġmeet": 1492,
      "Ġchange": 1493,
      "Ġbeh": 1494,
      "Ġtion": 1495,
      "Ġbecom": 1496,
      "Ġpage": 1497,
      "Ġvirt": 1498,
      "Ġsuddenly": 1499,
      "Ġthird": 1500,
      "pr": 1501,
      "wise": 1502,
      "Ġmain": 1503,
      "arm": 1504,
      "vi": 1505,
      "Ġinterp": 1506,
      "su": 1507,
      "ield": 1508,
      "erg": 1509,
      "Ġmitya": 1510,
      "Ġkeep": 1511,
      "ressed": 1512,
      "Ġelse": 1513,
      "let": 1514,
      "Ġheav": 1515,
      "Ġabsolute": 1516,
      "Ġpract": 1517,
      "ison": 1518,
      "Ġlonger": 1519,
      "ception": 1520,
      "Ġthoughts": 1521,
      "Ġsuccess": 1522,
      "Ġassum": 1523,
      "âĶĢ": 1524,
      "Ġsocial": 1525,
      "ale": 1526,
      "Ġoffic": 1527,
      "Ġty": 1528,
      "Ġauthor": 1529,
      "Ġsepar": 1530,
      "Ġproject": 1531,
      "Ġeyes": 1532,
      "Ġvi": 1533,
      "Ġformer": 1534,
      "ovitch": 1535,
      "Ġimmedi": 1536,
      "Ġsuppose": 1537,
      "Ġratio": 1538,
      "Ġappears": 1539,
      "Ġsimilar": 1540,
      "Ġestabl": 1541,
      "Ġcompan": 1542,
      "Ġhistory": 1543,
      "por": 1544,
      "Ġver": 1545,
      "Ġused": 1546,
      "ering": 1547,
      "Ġwent": 1548,
      "Ġcreat": 1549,
      "Ġanal": 1550,
      "ency": 1551,
      "ouse": 1552,
      "Ġshort": 1553,
      "âĶĢâĶĢ": 1554,
      "Ġdet": 1555,
      "Ġwon": 1556,
      "Ġcertainly": 1557,
      "though": 1558,
      "Ġunt": 1559,
      "ured": 1560,
      "Ġclear": 1561,
      "gr": 1562,
      "Ġreve": 1563,
      "Ġentire": 1564,
      "Ġlater": 1565,
      "urg": 1566,
      "Ġgreatest": 1567,
      "Ġcaes": 1568,
      "arent": 1569,
      "Ġvelocity": 1570,
      "Ġought": 1571,
      "Ġlen": 1572,
      "ises": 1573,
      "Ġnothingness": 1574,
      "cise": 1575,
      "ying": 1576,
      "thod": 1577,
      "Ġsort": 1578,
      "Ġbrought": 1579,
      "Ġsingle": 1580,
      "lu": 1581,
      "pend": 1582,
      "ption": 1583,
      "ension": 1584,
      "Ġalone": 1585,
      "Ġleave": 1586,
      "Ġfaith": 1587,
      "yond": 1588,
      "Ġprocess": 1589,
      "ians": 1590,
      "iting": 1591,
      "Ġdim": 1592,
      "Ġimpos": 1593,
      "Ġcentre": 1594,
      "Ġexample": 1595,
      "Ġreach": 1596,
      "Ġmoon": 1597,
      "ages": 1598,
      "Ġobjects": 1599,
      "Ġ|": 1600,
      "ief": 1601,
      "ression": 1602,
      "imes": 1603,
      "Ġyes": 1604,
      "Ġlaws": 1605,
      "Ġhon": 1606,
      "ane": 1607,
      "Ġpolit": 1608,
      "Ġ11": 1609,
      "Ġground": 1610,
      "no": 1611,
      "Ġreality": 1612,
      "Ġexpect": 1613,
      "Ġden": 1614,
      "Ġface": 1615,
      "Ġvis": 1616,
      "Ġopinion": 1617,
      "Ġhor": 1618,
      "Ġz": 1619,
      "Ġoper": 1620,
      "Ġhal": 1621,
      "Ġhence": 1622,
      "wards": 1623,
      "Ġprinciples": 1624,
      "Ġremem": 1625,
      "ih": 1626,
      "mn": 1627,
      "Ġbad": 1628,
      "Ġdifference": 1629,
      "Ġcontinu": 1630,
      "Ġtal": 1631,
      "Ġpoints": 1632,
      "Ġdescribed": 1633,
      "Ġtri": 1634,
      "Ġmethod": 1635,
      "what": 1636,
      "Ġsituation": 1637,
      "Ġbeyond": 1638,
      "angu": 1639,
      "Ġge": 1640,
      "Ġcondition": 1641,
      "Ġair": 1642,
      "Ġmaj": 1643,
      "Ġpurp": 1644,
      "Ġreflect": 1645,
      "Ġsimp": 1646,
      "Ġcav": 1647,
      "Ġimportant": 1648,
      "Ġhelp": 1649,
      "ending": 1650,
      "Ġchrist": 1651,
      "Ġinh": 1652,
      "ric": 1653,
      "Ġoccas": 1654,
      "Ġcases": 1655,
      "Ġconv": 1656,
      "Ġbegan": 1657,
      "Ġmr": 1658,
      "hip": 1659,
      "ole": 1660,
      "ank": 1661,
      "bers": 1662,
      "oney": 1663,
      "ological": 1664,
      "Ġcast": 1665,
      "Ġant": 1666,
      "sem": 1667,
      "aterial": 1668,
      "ime": 1669,
      "aut": 1670,
      "Ġnight": 1671,
      "Ġfort": 1672,
      "Ġmovement": 1673,
      "burg": 1674,
      "Ġnap": 1675,
      "Ġfear": 1676,
      "Ġdreams": 1677,
      "ification": 1678,
      "Ġopen": 1679,
      "Ġfollowing": 1680,
      "Ġmaking": 1681,
      "Ġstructure": 1682,
      "Ġrecogn": 1683,
      "Ġbu": 1684,
      "Ġchildren": 1685,
      "Ġren": 1686,
      "ively": 1687,
      "ours": 1688,
      "Ġrevolution": 1689,
      "Ġinstance": 1690,
      "Ġconditions": 1691,
      "Ġvol": 1692,
      "cons": 1693,
      "iar": 1694,
      "ternal": 1695,
      "Ġgoing": 1696,
      "Ġ16": 1697,
      "augh": 1698,
      "Ġbring": 1699,
      "Ġtreat": 1700,
      "Ġwoman": 1701,
      "Ġrussi": 1702,
      "Ġfull": 1703,
      "Ġlength": 1704,
      "Ġcal": 1705,
      "Ġcountry": 1706,
      "ex": 1707,
      "Ġing": 1708,
      "ixed": 1709,
      "Ġpublic": 1710,
      "ell": 1711,
      "Ġaffect": 1712,
      "Ġwa": 1713,
      "Ġcomes": 1714,
      "Ġrelations": 1715,
      "Ġoccur": 1716,
      "ash": 1717,
      "Ġclose": 1718,
      "rodu": 1719,
      "Ġstates": 1720,
      "Ġlearn": 1721,
      "Ġinn": 1722,
      "Ġ15": 1723,
      "Ġsil": 1724,
      "Ġsuffic": 1725,
      "Ġdom": 1726,
      "Ġattempt": 1727,
      "Ġlangu": 1728,
      "ister": 1729,
      "Ġinfinite": 1730,
      "peci": 1731,
      "ential": 1732,
      "Ġalthough": 1733,
      "Ġmoney": 1734,
      "Ġconsidered": 1735,
      "mit": 1736,
      "Ġlatter": 1737,
      "Ġfac": 1738,
      "Ġsatisf": 1739,
      "ca": 1740,
      "Ġmarch": 1741,
      "Ġexact": 1742,
      "tained": 1743,
      "Ġappreh": 1744,
      "aster": 1745,
      "une": 1746,
      "Ġlab": 1747,
      "quired": 1748,
      "ising": 1749,
      "Ġcaesar": 1750,
      "enomen": 1751,
      "Ġfelt": 1752,
      "uted": 1753,
      "Ġplaces": 1754,
      "Ġpsychic": 1755,
      "Ġsomet": 1756,
      "Ġmill": 1757,
      "Ġhands": 1758,
      "oid": 1759,
      "Ġdraw": 1760,
      "Ġmaterial": 1761,
      "Ġtold": 1762,
      "oth": 1763,
      "Ġsix": 1764,
      "ital": 1765,
      "Ġcorre": 1766,
      "ock": 1767,
      "cip": 1768,
      "Ġjew": 1769,
      "Ġguard": 1770,
      "ature": 1771,
      "Ġmid": 1772,
      "get": 1773,
      "Ġsym": 1774,
      "Ġimpossible": 1775,
      "Ġten": 1776,
      "Ġattack": 1777,
      "where": 1778,
      "Ġfinally": 1779,
      "Ġsometimes": 1780,
      "Ġrepl": 1781,
      "Ġcaval": 1782,
      "iers": 1783,
      "Ġcult": 1784,
      "Ġrelig": 1785,
      "pond": 1786,
      "Ġsays": 1787,
      "Ġtook": 1788,
      "Ġtransc": 1789,
      "Ġgre": 1790,
      "Ġuntil": 1791,
      "Ġcop": 1792,
      "Ġproceed": 1793,
      "ĠĠĠĠĠĠĠĠĠĠĠĠĠĠĠĠ": 1794,
      "Ġobserved": 1795,
      "Ġgrou": 1796,
      "Ġweak": 1797,
      "Ġphenomen": 1798,
      "gress": 1799,
      "Ġq": 1800,
      "Ġsimply": 1801,
      "ls": 1802,
      "Ġcut": 1803,
      "ung": 1804,
      "Ġbrother": 1805,
      "Ġabsurd": 1806,
      "Ġhouse": 1807,
      "Ġ,": 1808,
      "Ġthy": 1809,
      "aring": 1810,
      "Ġevil": 1811,
      "Ġcauses": 1812,
      "gn": 1813,
      "ruct": 1814,
      "Ġdegree": 1815,
      "Ġdev": 1816,
      "Ġcontent": 1817,
      "Ġmis": 1818,
      "Ġstep": 1819,
      "Ġexc": 1820,
      "Ġasked": 1821,
      "Ġeff": 1822,
      "ains": 1823,
      "ob": 1824,
      "ingu": 1825,
      "Ġroom": 1826,
      "Ġbattalions": 1827,
      "kn": 1828,
      "....": 1829,
      "Ġterms": 1830,
      "atch": 1831,
      "Ġeasily": 1832,
      "cing": 1833,
      "aled": 1834,
      "Ġtre": 1835,
      "emat": 1836,
      "ization": 1837,
      "'ll": 1838,
      "Ġmult": 1839,
      "Ġnext": 1840,
      "Ġdiscuss": 1841,
      "Ġunderstanding": 1842,
      "pecially": 1843,
      "aint": 1844,
      "Ġhalf": 1845,
      "Ġmode": 1846,
      "arily": 1847,
      "Ġanimals": 1848,
      "oleon": 1849,
      "Ġsal": 1850,
      "Ġimper": 1851,
      "fully": 1852,
      "anger": 1853,
      "Ġnapoleon": 1854,
      "Ġconstant": 1855,
      "Ġanswer": 1856,
      "ires": 1857,
      "Ġmath": 1858,
      "aves": 1859,
      "Ġpurpose": 1860,
      "Ġcavalry": 1861,
      "Ġmeasure": 1862,
      "Ġduke": 1863,
      "Ġoccasion": 1864,
      "Ġlack": 1865,
      "irm": 1866,
      "odor": 1867,
      "Ġparty": 1868,
      "Ġappl": 1869,
      "Ġsen": 1870,
      "Ġfriends": 1871,
      "Ġbeginning": 1872,
      "Ġmilit": 1873,
      "br": 1874,
      "Ġfy": 1875,
      "Ġful": 1876,
      "Ġlive": 1877,
      "Ġrun": 1878,
      "ato": 1879,
      "Ġmer": 1880,
      "Ġnation": 1881,
      "Ġrul": 1882,
      "ef": 1883,
      "ee": 1884,
      "here": 1885,
      "Ġbar": 1886,
      "Ġmagn": 1887,
      "Ġbecomes": 1888,
      "Ġfav": 1889,
      "Ġsus": 1890,
      "Ġfriend": 1891,
      "Ġqui": 1892,
      "Ġprecise": 1893,
      "leep": 1894,
      "Ġsold": 1895,
      "Ġloc": 1896,
      "Ġsk": 1897,
      "Ġsubj": 1898,
      "_,": 1899,
      "Ġcross": 1900,
      "Ġfyodor": 1901,
      "Ġplaced": 1902,
      "Ġtend": 1903,
      "Ġmother": 1904,
      "Ġsend": 1905,
      "uro": 1906,
      "iously": 1907,
      "Ġespecially": 1908,
      "Ġmathemat": 1909,
      "Ġpra": 1910,
      "Ġking": 1911,
      "Ġparticles": 1912,
      "old": 1913,
      "ead": 1914,
      "use": 1915,
      "Ġfund": 1916,
      "ously": 1917,
      "Ġyear": 1918,
      "Ġqual": 1919,
      "Ġinflu": 1920,
      "Ġhope": 1921,
      "Ġfail": 1922,
      "Ġmajor": 1923,
      "Ġbes": 1924,
      "Ġdece": 1925,
      "Ġ...": 1926,
      "Ġtouch": 1927,
      "Ġask": 1928,
      "Ġexcept": 1929,
      "Ġnearly": 1930,
      "Ġ0": 1931,
      "Ġliving": 1932,
      "itive": 1933,
      "aries": 1934,
      "Ġgenerally": 1935,
      "Ġproduced": 1936,
      "Ġland": 1937,
      "Ġ14": 1938,
      "ton": 1939,
      "Ġsaw": 1940,
      "Ġlanguage": 1941,
      "Ġpat": 1942,
      "ury": 1943,
      "respond": 1944,
      "Ġmoder": 1945,
      "erent": 1946,
      "Ġattract": 1947,
      "Ġ1812": 1948,
      "Ġinterpret": 1949,
      "Ġpresence": 1950,
      "undred": 1951,
      "Ġlines": 1952,
      "ability": 1953,
      "Ġbas": 1954,
      "Ġ13": 1955,
      "Ġcorrespond": 1956,
      "Ġunivers": 1957,
      "Ġvalue": 1958,
      "ool": 1959,
      "Ġgot": 1960,
      "ortun": 1961,
      "Ġthinking": 1962,
      "Ġfight": 1963,
      "ories": 1964,
      "utes": 1965,
      "Ġstart": 1966,
      "Ġhundred": 1967,
      "duct": 1968,
      "Ġcircumst": 1969,
      "Ġstren": 1970,
      "Ġtransf": 1971,
      "Ġextre": 1972,
      "'ve": 1973,
      "Â°": 1974,
      "Ġgall": 1975,
      "imate": 1976,
      "Ġann": 1977,
      "Ġheard": 1978,
      "Ġetc": 1979,
      "Ġconcern": 1980,
      "ins": 1981,
      "Ġasc": 1982,
      "illed": 1983,
      "ler": 1984,
      "oura": 1985,
      "Ġlooked": 1986,
      "Ġteach": 1987,
      "Ġign": 1988,
      "oss": 1989,
      "Ġ20": 1990,
      "Ġlat": 1991,
      "Ġjustice": 1992,
      "Ġhost": 1993,
      "Ġslight": 1994,
      "enty": 1995,
      "go": 1996,
      "ement": 1997,
      "Ġplay": 1998,
      "Ġenerg": 1999,
      "ev": 2000,
      "oms": 2001,
      "Ġselection": 2002,
      "Ġknew": 2003,
      "Ġstrength": 2004,
      "ues": 2005,
      "Ġve": 2006,
      "Ġweight": 2007,
      "Ġjudg": 2008,
      "Ġcamp": 2009,
      "Ġson": 2010,
      "Ġdoct": 2011,
      "Ġprim": 2012,
      "Ġimmediately": 2013,
      "aim": 2014,
      "Ġfigure": 2015,
      "Ġresistance": 2016,
      "ihil": 2017,
      "Ġsqu": 2018,
      "Ġscience": 2019,
      "Ġeduc": 2020,
      "just": 2021,
      "Ġactivity": 2022,
      "Ġremains": 2023,
      "Ġfal": 2024,
      "Ġgovernment": 2025,
      "Ġremember": 2026,
      "Ġbound": 2027,
      "Ġprom": 2028,
      "Ġemb": 2029,
      "Ġcarry": 2030,
      "eds": 2031,
      "Ġvarious": 2032,
      "ration": 2033,
      "Ġelect": 2034,
      "you": 2035,
      "Ġheat": 2036,
      "Ġconcept": 2037,
      "Ġsec": 2038,
      "Ġsolid": 2039,
      "conscious": 2040,
      "Ġdemand": 2041,
      "ster": 2042,
      "cret": 2043,
      "Ġappearance": 2044,
      "owers": 2045,
      "oses": 2046,
      "Ġdanger": 2047,
      "Ġevent": 2048,
      "Ġbecame": 2049,
      "Ġlost": 2050,
      "Ġcircle": 2051,
      "Ġ^": 2052,
      "Ġpen": 2053,
      "Ġlie": 2054,
      "Ġinform": 2055,
      "iction": 2056,
      "Ġomn": 2057,
      "Ġfixed": 2058,
      "Ġpie": 2059,
      "ries": 2060,
      "ma": 2061,
      "aking": 2062,
      "itation": 2063,
      "Ġhome": 2064,
      "Ġquick": 2065,
      "Ġseemed": 2066,
      "orum": 2067,
      "Ġlaugh": 2068,
      "Ġgravity": 2069,
      "erning": 2070,
      "ites": 2071,
      "Ġrepe": 2072,
      "Ġones": 2073,
      "ident": 2074,
      "Ġconsist": 2075,
      "Ġfive": 2076,
      "oud": 2077,
      "Ġital": 2078,
      "Ġpossibility": 2079,
      "Ġerr": 2080,
      "Ġage": 2081,
      "Ġtaking": 2082,
      "Ġfield": 2083,
      "Ġnear": 2084,
      "Ġservice": 2085,
      "Ġbor": 2086,
      "Ġmarx": 2087,
      "Ġxx": 2088,
      "Ġrule": 2089,
      "Ġoppos": 2090,
      "Ġgrow": 2091,
      "Ġintrodu": 2092,
      "Ġdistingu": 2093,
      "Ġdescribe": 2094,
      "ger": 2095,
      "side": 2096,
      "Ġmut": 2097,
      "istic": 2098,
      "Ġ17": 2099,
      "Ġsupport": 2100,
      "Ġvict": 2101,
      "Ġdecl": 2102,
      "Ġstrugg": 2103,
      "az": 2104,
      "Ġder": 2105,
      "ology": 2106,
      "Ġgave": 2107,
      "rown": 2108,
      "Ġentirely": 2109,
      "Ġexer": 2110,
      "etic": 2111,
      "Ġsociety": 2112,
      "Ġdevelopment": 2113,
      "Ġpolitical": 2114,
      "sc": 2115,
      "Ġforg": 2116,
      "bles": 2117,
      "Ġreceived": 2118,
      "Ġtranscend": 2119,
      "aces": 2120,
      "Ġhigher": 2121,
      "Ġbeaut": 2122,
      "Ġsex": 2123,
      "Ġadvant": 2124,
      "Ġrepubl": 2125,
      "cr": 2126,
      "Ġaut": 2127,
      "Ġtown": 2128,
      "Ġshown": 2129,
      "Ġourselves": 2130,
      "ounded": 2131,
      "inate": 2132,
      "ony": 2133,
      "ows": 2134,
      "rench": 2135,
      "Ġau": 2136,
      "Ġwag": 2137,
      "Ġempl": 2138,
      "uls": 2139,
      "Ġtrain": 2140,
      "Ġcoun": 2141,
      "Ġmonth": 2142,
      "Ġdetermined": 2143,
      "but": 2144,
      "Ġsaying": 2145,
      "Ġmerely": 2146,
      "chan": 2147,
      "Ġstri": 2148,
      "Ġdoing": 2149,
      "ips": 2150,
      "atever": 2151,
      "Ġreport": 2152,
      "Ġemp": 2153,
      "Ġdirection": 2154,
      "Ġdifficulty": 2155,
      "Ġconnection": 2156,
      "eness": 2157,
      "Ġmention": 2158,
      "Ġchief": 2159,
      "Ġactions": 2160,
      "Ġur": 2161,
      "Ġcarried": 2162,
      "Ġaccom": 2163,
      "dom": 2164,
      "ling": 2165,
      "Ġstars": 2166,
      "Ġmemory": 2167,
      "lying": 2168,
      "ka": 2169,
      "action": 2170,
      "Ġment": 2171,
      "Ġmotions": 2172,
      "Ġspecial": 2173,
      "Ġexplain": 2174,
      "Ġfalse": 2175,
      "ensity": 2176,
      "Ġtro": 2177,
      "isions": 2178,
      "Ġmanif": 2179,
      "Ġpleasure": 2180,
      "ission": 2181,
      "Ġperce": 2182,
      "Ġconcerning": 2183,
      "ook": 2184,
      "Ġdrawn": 2185,
      "com": 2186,
      "Ġreflection": 2187,
      "Ġflu": 2188,
      "Ġprot": 2189,
      "Ġapproach": 2190,
      "Ġenergy": 2191,
      "Ġsleep": 2192,
      "Ġunto": 2193,
      "Ġartill": 2194,
      "alth": 2195,
      "Ġled": 2196,
      "Ġmechan": 2197,
      "Ġcomplex": 2198,
      "Ġschool": 2199,
      "Ġident": 2200,
      "pon": 2201,
      "Ġax": 2202,
      "Ġorders": 2203,
      "Ġvirtue": 2204,
      "nd": 2205,
      "ches": 2206,
      "Ġliber": 2207,
      "Ġ&": 2208,
      "Ġter": 2209,
      "Ġaccept": 2210,
      "Ġnegation": 2211,
      "ining": 2212,
      "Ġworth": 2213,
      "Ġgrand": 2214,
      "Ġexperiment": 2215,
      "Ġproduce": 2216,
      "Ġartillery": 2217,
      "oint": 2218,
      "Ġcried": 2219,
      "Ġpress": 2220,
      "ication": 2221,
      "Ġcomb": 2222,
      "Ġmedi": 2223,
      "Ġexternal": 2224,
      "Ġexcl": 2225,
      "Ġemploy": 2226,
      "Ġciv": 2227,
      "Ġdue": 2228,
      "aw": 2229,
      "Ġready": 2230,
      "eties": 2231,
      "Ġfeet": 2232,
      "Ġgrad": 2233,
      "ram": 2234,
      "atic": 2235,
      "Ġrelat": 2236,
      "alle": 2237,
      "lex": 2238,
      "Ġrid": 2239,
      "Ġinstr": 2240,
      "Ġplants": 2241,
      "Ġwhatever": 2242,
      "Ġsuc": 2243,
      "Ġprobably": 2244,
      "Ġdestro": 2245,
      "ec": 2246,
      "lish": 2247,
      "Ġbus": 2248,
      "Ġgent": 2249,
      "Ġamount": 2250,
      "ruction": 2251,
      "Ġapparent": 2252,
      "Ġacqu": 2253,
      "Ġhardly": 2254,
      "Ġfire": 2255,
      "Ġpri": 2256,
      "used": 2257,
      "Ġarc": 2258,
      "Ġpref": 2259,
      "Ġnecessity": 2260,
      "Ġtakes": 2261,
      "Ġroman": 2262,
      "Ġnations": 2263,
      "Ġcorrect": 2264,
      "ator": 2265,
      "Ġfacts": 2266,
      "Ġminds": 2267,
      "Ġbrig": 2268,
      "Ġfun": 2269,
      "ival": 2270,
      "Ġdemoc": 2271,
      "Ġargument": 2272,
      "Ġfundament": 2273,
      "ien": 2274,
      "tern": 2275,
      "Ġ25": 2276,
      "Ġfollows": 2277,
      "Ġinterpretation": 2278,
      "._": 2279,
      "itable": 2280,
      "Ġtwenty": 2281,
      "Ġturned": 2282,
      "Ġquantity": 2283,
      "Ġtable": 2284,
      "Ġcity": 2285,
      "akov": 2286,
      "Ġmodern": 2287,
      "Ġslow": 2288,
      "berg": 2289,
      "Ġdemon": 2290,
      "Ġsac": 2291,
      "overed": 2292,
      "ify": 2293,
      "Ġplato": 2294,
      "Ġamb": 2295,
      "Ġ21": 2296,
      "Ġdistances": 2297,
      "Ġinstances": 2298,
      "Ġfeeling": 2299,
      "Ġactually": 2300,
      "Ġinstead": 2301,
      "Ġblack": 2302,
      "Ġquantum": 2303,
      "Ġanci": 2304,
      "Ġkept": 2305,
      "urope": 2306,
      "Ġrays": 2307,
      "Ġformed": 2308,
      "Ġextent": 2309,
      "orses": 2310,
      "Ġsupposed": 2311,
      "Ġredu": 2312,
      "osing": 2313,
      "ody": 2314,
      "Ġcontem": 2315,
      "Ġattention": 2316,
      "Ġbattalion": 2317,
      "rent": 2318,
      "Ġoccup": 2319,
      "Ġsecret": 2320,
      "Ġideal": 2321,
      "Ġprecisely": 2322,
      "Ġopposite": 2323,
      "pic": 2324,
      "Ġestablish": 2325,
      "Ġsubstance": 2326,
      "ude": 2327,
      "Ġsea": 2328,
      "crete": 2329,
      "Ġeurope": 2330,
      "Ġalong": 2331,
      "Ġenglish": 2332,
      "Ġchoice": 2333,
      "ellig": 2334,
      "Ġhorses": 2335,
      "Ġlay": 2336,
      "urb": 2337,
      "Ġstudy": 2338,
      "Ġqualities": 2339,
      "Ġwal": 2340,
      "ann": 2341,
      "Ġconduct": 2342,
      "Ġhappen": 2343,
      "Ġbene": 2344,
      "Ġharm": 2345,
      "Ġmach": 2346,
      "Ġclearly": 2347,
      "Ġmoral": 2348,
      "Ġreceive": 2349,
      "lig": 2350,
      "Ġmist": 2351,
      "ames": 2352,
      "Ġequally": 2353,
      "Ġdiscover": 2354,
      "Ġglo": 2355,
      "Ġmed": 2356,
      "Ġda": 2357,
      "ysis": 2358,
      "Ġphysics": 2359,
      "verse": 2360,
      "Ġpecul": 2361,
      "Ġgives": 2362,
      "erd": 2363,
      "Ġpop": 2364,
      "Ġcoll": 2365,
      "Ġindepend": 2366,
      "Ġevidence": 2367,
      "ub": 2368,
      "Ġextreme": 2369,
      "Ġmanifest": 2370,
      "well": 2371,
      "Ġunderstood": 2372,
      "Ġfrequ": 2373,
      "Ġpun": 2374,
      "Ġround": 2375,
      "pped": 2376,
      "wor": 2377,
      "Ġgri": 2378,
      "airs": 2379,
      "Ġsucceed": 2380,
      "Ġthee": 2381,
      "Ġsight": 2382,
      "Ġpa": 2383,
      "Ġdut": 2384,
      "Ġdepart": 2385,
      "Ġfamily": 2386,
      "Ġii": 2387,
      "imp": 2388,
      "Ġarea": 2389,
      "eless": 2390,
      "Ġmilitary": 2391,
      "Ġinfluence": 2392,
      "iform": 2393,
      "rive": 2394,
      "Ġcontrad": 2395,
      "Ġmathematical": 2396,
      "Ġhom": 2397,
      "Ġport": 2398,
      "Ġabst": 2399,
      "Ġcapable": 2400,
      "Ġknows": 2401,
      "bol": 2402,
      "ges": 2403,
      "set": 2404,
      "this": 2405,
      "Ġexactly": 2406,
      "Ġinfer": 2407,
      "Ġexperiments": 2408,
      "Ġinvest": 2409,
      "Ġmad": 2410,
      "Ġisland": 2411,
      "lled": 2412,
      "ustom": 2413,
      "ustri": 2414,
      "Ġund": 2415,
      "Ġven": 2416,
      "Ġafterwards": 2417,
      "Ġsenses": 2418,
      "Ġstruggle": 2419,
      "dle": 2420,
      "idence": 2421,
      "Ġvo": 2422,
      "Ġchristian": 2423,
      "Ġwrong": 2424,
      "Ġdan": 2425,
      "omic": 2426,
      "Ġtempor": 2427,
      "Ġsoldiers": 2428,
      "Ġoutside": 2429,
      "Ġpassed": 2430,
      "which": 2431,
      "Ġeffects": 2432,
      "Ġcompletely": 2433,
      "lected": 2434,
      "Ġspeaking": 2435,
      ".]": 2436,
      "lin": 2437,
      "itate": 2438,
      "Ġhab": 2439,
      "Ġtrou": 2440,
      "Ġresol": 2441,
      "Ġprincip": 2442,
      "Ġhappened": 2443,
      "Ġcapital": 2444,
      "Ġspec": 2445,
      "Ġvarieties": 2446,
      "onom": 2447,
      "Ġfrench": 2448,
      "Ġlu": 2449,
      "Ġorbit": 2450,
      "ote": 2451,
      "Ġblood": 2452,
      "Ġcircumstances": 2453,
      "ices": 2454,
      "Ġ30": 2455,
      "Ġextra": 2456,
      "Ġadvantage": 2457,
      "hood": 2458,
      "xim": 2459,
      "ina": 2460,
      "Ġaround": 2461,
      "Ġearly": 2462,
      "Ġsurpr": 2463,
      "Ġresults": 2464,
      "pi": 2465,
      "Ġtest": 2466,
      "itting": 2467,
      "Ġexpression": 2468,
      "Ġlist": 2469,
      "Ġunless": 2470,
      "udes": 2471,
      "Ġsouth": 2472,
      "icul": 2473,
      "Ġcompar": 2474,
      "Ġecon": 2475,
      "Ġotherwise": 2476,
      "Ġobservation": 2477,
      "Ġeasy": 2478,
      "Ġsufficient": 2479,
      "oke": 2480,
      "Ġimportance": 2481,
      "Ġgentle": 2482,
      "Ġrequ": 2483,
      "Ġunity": 2484,
      "Ġfoundation": 2485,
      "Ġpeculiar": 2486,
      "Ġsour": 2487,
      "Ġil": 2488,
      "iation": 2489,
      "pass": 2490,
      "Ġmaster": 2491,
      "Ġenc": 2492,
      "Ġsphere": 2493,
      "Ġindic": 2494,
      "Ġserve": 2495,
      "Ġviol": 2496,
      "Ġmus": 2497,
      "Ġpict": 2498,
      "Ġletter": 2499,
      "Ġdimin": 2500,
      "Ġdeal": 2501,
      "Ġrespon": 2502,
      "Ġprep": 2503,
      "Ġrelative": 2504,
      "Ġnihil": 2505,
      "Ġperpet": 2506,
      "Ġreference": 2507,
      "Ġignor": 2508,
      "asures": 2509,
      "utions": 2510,
      "Ġmasses": 2511,
      "Ġthir": 2512,
      "ilities": 2513,
      "ription": 2514,
      "rupt": 2515,
      "ggest": 2516,
      "Ġdirectly": 2517,
      "Ġdiame": 2518,
      "Ġproportional": 2519,
      "Ġeffort": 2520,
      "roc": 2521,
      "olly": 2522,
      "Ġuniform": 2523,
      "ops": 2524,
      "Ġobv": 2525,
      "Ġpriv": 2526,
      "Ġsuggest": 2527,
      "Ġstrange": 2528,
      "Ġminister": 2529,
      "Ġsumm": 2530,
      "letari": 2531,
      "ron": 2532,
      "edu": 2533,
      "Ġagree": 2534,
      "ech": 2535,
      "ats": 2536,
      "Ġmars": 2537,
      "Ġintel": 2538,
      "ots": 2539,
      "Ġphysical": 2540,
      "Ġimagine": 2541,
      "Ġtill": 2542,
      "Ġhear": 2543,
      "Ġconcrete": 2544,
      "fe": 2545,
      "Ġer": 2546,
      "orrow": 2547,
      "Ġgree": 2548,
      "Ġfundamental": 2549,
      "Ġangle": 2550,
      "Ġwind": 2551,
      "Ġregiment": 2552,
      "Ġintellig": 2553,
      "Ġrefer": 2554,
      "Ġinterv": 2555,
      "Ġparalle": 2556,
      "Ġbehind": 2557,
      "Ġsound": 2558,
      "Ġquar": 2559,
      "Ġterr": 2560,
      "Ġ24": 2561,
      "Ġremark": 2562,
      "Ġdepos": 2563,
      "Ġwonder": 2564,
      "Ġsin": 2565,
      "Ġheld": 2566,
      "Ġmoreover": 2567,
      "Ġ22": 2568,
      "Ġordinary": 2569,
      "Ġwit": 2570,
      "Ġpath": 2571,
      "Ġrect": 2572,
      "Ġran": 2573,
      "Ġpost": 2574,
      "Ġbattle": 2575,
      "ulation": 2576,
      "Ġdesign": 2577,
      "theless": 2578,
      "amed": 2579,
      "Ġproletari": 2580,
      "Ġobserve": 2581,
      "ax": 2582,
      "Ġwin": 2583,
      "Ġlow": 2584,
      "Ġdetail": 2585,
      "Ġmeant": 2586,
      "Ġelements": 2587,
      "Ġcoming": 2588,
      "Ġevents": 2589,
      "Ġrecip": 2590,
      "appe": 2591,
      "Ġexists": 2592,
      "Ġtemper": 2593,
      "Ġessential": 2594,
      "plicate": 2595,
      "Ġtotal": 2596,
      "uit": 2597,
      "Ġ+": 2598,
      "Ġrh": 2599,
      "Ġaim": 2600,
      "Ġdiver": 2601,
      "Ġfoot": 2602,
      "Ġwrite": 2603,
      "hl": 2604,
      "Ġrare": 2605,
      "Ġdesp": 2606,
      "Ġtransl": 2607,
      "Ġgods": 2608,
      "Ġperform": 2609,
      "read": 2610,
      "Ġstra": 2611,
      "Ġproof": 2612,
      "Ġ27": 2613,
      "Ġappeared": 2614,
      "âĶĢâĶĢâĶĢâĶĢ": 2615,
      "Ġrelativity": 2616,
      "Ġdemonstr": 2617,
      "Ġinvestig": 2618,
      "esis": 2619,
      "Ġexplan": 2620,
      "aught": 2621,
      "Ġelement": 2622,
      "af": 2623,
      "Ġways": 2624,
      "sec": 2625,
      "Ġpeace": 2626,
      "Ġopportun": 2627,
      "Ġchanges": 2628,
      "co": 2629,
      "gen": 2630,
      "Ġcit": 2631,
      "Ġtor": 2632,
      "Ġist": 2633,
      "Ġatque": 2634,
      "Ġplane": 2635,
      "Ġinhab": 2636,
      "Ġintellect": 2637,
      "atus": 2638,
      "Ġbear": 2639,
      "Ġunf": 2640,
      "acy": 2641,
      "Ġinstant": 2642,
      "Ġbrief": 2643,
      "Ġreplied": 2644,
      "Ġtransform": 2645,
      "Ġbusiness": 2646,
      "Ġred": 2647,
      "Ġunc": 2648,
      "Ġlog": 2649,
      "aving": 2650,
      "Ġlikewise": 2651,
      "Ġpersons": 2652,
      "Ġnote": 2653,
      "Ġnumbers": 2654,
      "Ġlooking": 2655,
      "Ġhour": 2656,
      "Ġrequired": 2657,
      "Ġimpro": 2658,
      "Ġbesides": 2659,
      "with": 2660,
      "Ġga": 2661,
      "Ġquestions": 2662,
      "Ġsurf": 2663,
      "Ġdeep": 2664,
      "Ġancient": 2665,
      "Ġcomet": 2666,
      "Ġinstinct": 2667,
      "Ġpot": 2668,
      "Ġdark": 2669,
      "Ġyouth": 2670,
      "raction": 2671,
      "Ġsolution": 2672,
      "Ġconsequently": 2673,
      "enka": 2674,
      "Ġbeings": 2675,
      "Ġwide": 2676,
      "Ġwife": 2677,
      "ctions": 2678,
      "Ġune": 2679,
      "oved": 2680,
      "Ġproposition": 2681,
      "Ġestablished": 2682,
      "racy": 2683,
      "being": 2684,
      "like": 2685,
      "Ġrevealed": 2686,
      "ral": 2687,
      "Ġnar": 2688,
      "Ġtry": 2689,
      "aken": 2690,
      "Ġarch": 2691,
      "Ġtru": 2692,
      "Ġformation": 2693,
      "Ġconclusion": 2694,
      "Ġquickly": 2695,
      "ural": 2696,
      "Ġattrib": 2697,
      "Ġnevertheless": 2698,
      "Ġeducation": 2699,
      "iqu": 2700,
      "Ġcompany": 2701,
      "Ġforth": 2702,
      "rop": 2703,
      "Ġdiscovered": 2704,
      "Ġenter": 2705,
      "Ġtotality": 2706,
      "Ġdestroy": 2707,
      "Ġche": 2708,
      "Ġglobe": 2709,
      "Ġarist": 2710,
      "Ġinterm": 2711,
      "body": 2712,
      "Ġfurn": 2713,
      "Ġdie": 2714,
      "quir": 2715,
      "Ġprogress": 2716,
      "cape": 2717,
      "erdy": 2718,
      "rees": 2719,
      "ilt": 2720,
      "Ġobservations": 2721,
      "Ġincrease": 2722,
      "Ġpay": 2723,
      "Ġbelief": 2724,
      "Ġallowed": 2725,
      "Ġchanged": 2726,
      "erdyakov": 2727,
      "kind": 2728,
      "ades": 2729,
      "Ġnone": 2730,
      "uments": 2731,
      "izing": 2732,
      "Ġpassage": 2733,
      "Ġintention": 2734,
      "soci": 2735,
      "Ġindiff": 2736,
      "teen": 2737,
      "Ġhappiness": 2738,
      "mitri": 2739,
      "Ġmiddle": 2740,
      "iful": 2741,
      "Ġplain": 2742,
      "Ġnewton": 2743,
      "Ġdepend": 2744,
      "Ġbuild": 2745,
      "Ġlower": 2746,
      "Ġdead": 2747,
      "itten": 2748,
      "Ġarms": 2749,
      "Ġminute": 2750,
      "Ġmorning": 2751,
      "Ġperfectly": 2752,
      "Ġsmerdyakov": 2753,
      "Ġadmit": 2754,
      "Ġprofess": 2755,
      "Ġwomen": 2756,
      "Ġforward": 2757,
      "Ġ28": 2758,
      "Ġpreserv": 2759,
      "Ġheaven": 2760,
      "Ġparallel": 2761,
      "ids": 2762,
      "Ġdiss": 2763,
      "Ġpoor": 2764,
      "Ġborn": 2765,
      "Ġpowers": 2766,
      "Ġstar": 2767,
      "Ġfood": 2768,
      "Ġdidn": 2769,
      "fic": 2770,
      "Ġwall": 2771,
      "Ġult": 2772,
      "Ġhighest": 2773,
      "Ġcrit": 2774,
      "Ġuniversal": 2775,
      "Ġorgans": 2776,
      "Ġ23": 2777,
      "Ġcompreh": 2778,
      "Ġboy": 2779,
      "Ġscar": 2780,
      "Ġhyp": 2781,
      "Ġfif": 2782,
      "Ġdmitri": 2783,
      "urs": 2784,
      "Ġneare": 2785,
      "Ġconting": 2786,
      "Ġattach": 2787,
      "Ġexisting": 2788,
      "Ġnamely": 2789,
      "Ġauthority": 2790,
      "ati": 2791,
      "Ġgroup": 2792,
      "Ġworks": 2793,
      "Ġhorse": 2794,
      "Ġmedium": 2795,
      "Ġthereby": 2796,
      "Ġmankind": 2797,
      "aged": 2798,
      "Ġdetermine": 2799,
      "des": 2800,
      "Ġregular": 2801,
      "ushenka": 2802,
      "Ġpret": 2803,
      "Ġexplained": 2804,
      "Ġwanted": 2805,
      "Ġbasis": 2806,
      "Ġfan": 2807,
      "Ġgone": 2808,
      "Ġmoving": 2809,
      "Ġshows": 2810,
      "Ġphysic": 2811,
      "Ġalex": 2812,
      "Ġcontro": 2813,
      "Ġ26": 2814,
      "iii": 2815,
      "Ġsubstances": 2816,
      "Ġlimit": 2817,
      "cent": 2818,
      "Ġsake": 2819,
      "Ġimpression": 2820,
      "Ġplanets": 2821,
      "Ġeye": 2822,
      "Ġsurpass": 2823,
      "Ġduration": 2824,
      "Ġseries": 2825,
      "Ġmeeting": 2826,
      "Ġcy": 2827,
      "Ġresem": 2828,
      "Ġyourself": 2829,
      "Ġinstrument": 2830,
      "Ġvoice": 2831,
      "ring": 2832,
      "Ġswe": 2833,
      "Ġ29": 2834,
      "Ġescape": 2835,
      "Ġprevent": 2836,
      "rant": 2837,
      "Ġbit": 2838,
      "Ġbird": 2839,
      "Ġeight": 2840,
      "Ġunited": 2841,
      "Ġunconscious": 2842,
      "ored": 2843,
      "ott": 2844,
      "Ġscient": 2845,
      "bus": 2846,
      "Ġchance": 2847,
      "Ġdoor": 2848,
      "cil": 2849,
      "Ġtas": 2850,
      "ones": 2851,
      "Ġmoved": 2852,
      "known": 2853,
      "Ġeld": 2854,
      "ired": 2855,
      "Ġgrushenka": 2856,
      "Ġfamil": 2857,
      "Ġinnate": 2858,
      "Ġbig": 2859,
      "Ġhither": 2860,
      "Ġcu": 2861,
      "ĠĠĠĠĠĠĠĠĠ": 2862,
      "Ġcomposed": 2863,
      "Ġanalysis": 2864,
      "Ġrussia": 2865,
      "Ġjudgment": 2866,
      "Ġgrant": 2867,
      "Ġquality": 2868,
      "ois": 2869,
      "Ġrich": 2870,
      "ards": 2871,
      "Ġradium": 2872,
      "eal": 2873,
      "Ġgir": 2874,
      "Ġstay": 2875,
      "Ġlevel": 2876,
      "Ġaccur": 2877,
      "Ġdivisions": 2878,
      "Ġconsideration": 2879,
      "Ġfacult": 2880,
      "Ġreciproc": 2881,
      "Ġreject": 2882,
      "Ġgal": 2883,
      "Ġrap": 2884,
      "raph": 2885,
      "Ġearli": 2886,
      "Ġnumer": 2887,
      "Ġhur": 2888,
      "Ġfirm": 2889,
      "Ġactive": 2890,
      "Ġdefinite": 2891,
      "Ġnaturally": 2892,
      "Ġ=": 2893,
      "Ġtried": 2894,
      "eric": 2895,
      "asing": 2896,
      "Ġsto": 2897,
      "Ġju": 2898,
      "Ġimage": 2899,
      "Ġspeech": 2900,
      "Ġactual": 2901,
      "Ġregions": 2902,
      "Ġcompanies": 2903,
      "hib": 2904,
      "Ġbed": 2905,
      "Ġstre": 2906,
      "Ġstood": 2907,
      "soever": 2908,
      "ially": 2909,
      "mber": 2910,
      "Ġforget": 2911,
      "Ġquod": 2912,
      "Ġclaim": 2913,
      "Ġjudge": 2914,
      "Ġtype": 2915,
      "Ġfyodorovitch": 2916,
      "Ġsurface": 2917,
      "inity": 2918,
      "Ġliter": 2919,
      "aren": 2920,
      "Ġwhereas": 2921,
      "Ġavoid": 2922,
      "Ġclosely": 2923,
      "uous": 2924,
      "Â·": 2925,
      "Ġsides": 2926,
      "acity": 2927,
      "cs": 2928,
      "Ġtail": 2929,
      "Ġbell": 2930,
      "Ġles": 2931,
      "Ġheight": 2932,
      "Ġrise": 2933,
      "ders": 2934,
      "Ġattitude": 2935,
      "Ġdefin": 2936,
      "bre": 2937,
      "Ġreligion": 2938,
      "zy": 2939,
      "Ġcold": 2940,
      "Ġsurr": 2941,
      "Ġwritten": 2942,
      "Ġdecided": 2943,
      "come": 2944,
      "inist": 2945,
      "Ġwest": 2946,
      "Ġmir": 2947,
      "ositions": 2948,
      "Ġpassion": 2949,
      "Ġessence": 2950,
      "Ġpractice": 2951,
      "Ġfully": 2952,
      "Ġbra": 2953,
      "Ġwholly": 2954,
      "Ġquad": 2955,
      "Ġenj": 2956,
      "uded": 2957,
      "rd": 2958,
      "sh": 2959,
      "Ġtheore": 2960,
      "Ġnames": 2961,
      "Ġconvers": 2962,
      "Ġobjective": 2963,
      "Ġadded": 2964,
      "Ġindividuals": 2965,
      "Ġexplanation": 2966,
      "overy": 2967,
      "Ġnotion": 2968,
      "Ġinternal": 2969,
      "Ġfrance": 2970,
      "Ġdisappe": 2971,
      "Ġlearned": 2972,
      "Ġtroops": 2973,
      "asp": 2974,
      "vere": 2975,
      "aded": 2976,
      "Ġchur": 2977,
      "Ġconceive": 2978,
      "rom": 2979,
      "ya": 2980,
      "Ġanx": 2981,
      "there": 2982,
      "Ġlived": 2983,
      "Ġprison": 2984,
      "Ġstrict": 2985,
      "'m": 2986,
      "Ġdensity": 2987,
      "Ġorb": 2988,
      "Ġsacr": 2989,
      "20": 2990,
      "erable": 2991,
      "resh": 2992,
      "ateg": 2993,
      "Ġmatters": 2994,
      "Ġphilosopher": 2995,
      "Ġuseful": 2996,
      "Ġmillion": 2997,
      "Ġdeposit": 2998,
      "Ġnav": 2999,
      "asm": 3000,
      "uring": 3001,
      "Ġfollowed": 3002,
      "Ġserious": 3003,
      "Ġbreak": 3004,
      "Ġphenomenon": 3005,
      "Ġow": 3006,
      "icity": 3007,
      "seless": 3008,
      "Ġpreced": 3009,
      "Ġphilosophers": 3010,
      "Ġordered": 3011,
      "Ġanalog": 3012,
      "Ġrussian": 3013,
      "Ġpieces": 3014,
      "Ġstraight": 3015,
      "Ġtast": 3016,
      "ishes": 3017,
      "Ġknowing": 3018,
      "Ġexpressed": 3019,
      "Ġirre": 3020,
      "Ġscarce": 3021,
      "Ġwatch": 3022,
      "Ġhours": 3023,
      "Ġpal": 3024,
      "Ġinvol": 3025,
      "Ġcomment": 3026,
      "Ġvice": 3027,
      "Ġseeing": 3028,
      "Ġcoh": 3029,
      "Ġdifferences": 3030,
      "Ġcontinue": 3031,
      "?'": 3032,
      "ken": 3033,
      "Ġhar": 3034,
      "Ġfle": 3035,
      "Ġtoday": 3036,
      "Ġshame": 3037,
      "Ġherself": 3038,
      "Ġproperty": 3039,
      "Ġsensible": 3040,
      "Ġduty": 3041,
      "Ġni": 3042,
      "Ġremar": 3043,
      "Ġtransp": 3044,
      "ata": 3045,
      "Ġlives": 3046,
      "Ġunion": 3047,
      "Ġgoes": 3048,
      "tains": 3049,
      "Ġregiments": 3050,
      "Ġpropag": 3051,
      "Ġgroups": 3052,
      "ey": 3053,
      "Ġaustri": 3054,
      "Ġdecre": 3055,
      "Ġperpend": 3056,
      "Ġcitiz": 3057,
      "pri": 3058,
      "Ġmur": 3059,
      "ift": 3060,
      "Ġprove": 3061,
      "Ġdescription": 3062,
      "Ġsuperior": 3063,
      "ils": 3064,
      "Ġaffairs": 3065,
      "ourage": 3066,
      "Ġitaly": 3067,
      "Ġabstract": 3068,
      "Ġwood": 3069,
      "asant": 3070,
      "Ġriver": 3071,
      "ishment": 3072,
      "Ġevening": 3073,
      "Ġcourt": 3074,
      "Ġsexual": 3075,
      "pan": 3076,
      "Ġfront": 3077,
      "alled": 3078,
      "Ġdoctr": 3079,
      "Ġempire": 3080,
      "Ġbrigade": 3081,
      "Ġtruly": 3082,
      "Ġpav": 3083,
      "Ġproved": 3084,
      "Ġsuffer": 3085,
      "Ġtalk": 3086,
      "iam": 3087,
      "Ġpap": 3088,
      "Ġarise": 3089,
      "Ġworkers": 3090,
      "Ġrestr": 3091,
      ",-": 3092,
      "riage": 3093,
      "Ġdog": 3094,
      "Ġdisg": 3095,
      "Ġep": 3096,
      "Ġhabit": 3097,
      "astic": 3098,
      "Ġreasons": 3099,
      "Ġbelieved": 3100,
      "Ġcharacters": 3101,
      "Ġconcerned": 3102,
      "zig": 3103,
      "Ġmal": 3104,
      "Ġrequire": 3105,
      "iding": 3106,
      "Ġpassing": 3107,
      "Ġjoin": 3108,
      "inction": 3109,
      "Ġacts": 3110,
      "Ġinfant": 3111,
      "Ġconfess": 3112,
      "Ġfair": 3113,
      "Ġassume": 3114,
      "Ġchurch": 3115,
      "ators": 3116,
      "Ġinj": 3117,
      "Ġgar": 3118,
      "Ġsole": 3119,
      "Ġaddition": 3120,
      "Ġsignific": 3121,
      "Ġprofound": 3122,
      "Ġcalcul": 3123,
      "app": 3124,
      "Ġmun": 3125,
      "Ġlies": 3126,
      "Ġsett": 3127,
      "how": 3128,
      "Ġcous": 3129,
      "Ġlose": 3130,
      "Ġexce": 3131,
      "Ġarrive": 3132,
      "Ġspite": 3133,
      "Ġparticularly": 3134,
      "Ġiii": 3135,
      "Ġclasses": 3136,
      "Ġarrived": 3137,
      "Ġincreased": 3138,
      "Ġsymbol": 3139,
      "cap": 3140,
      "Ġwhil": 3141,
      "Ġves": 3142,
      "Ġwhatsoever": 3143,
      "Ġintermedi": 3144,
      "Ġsem": 3145,
      "raid": 3146,
      "Ġimpress": 3147,
      "Ġconfirm": 3148,
      "Ġnecessarily": 3149,
      "pre": 3150,
      "Ġfit": 3151,
      "Ġpy": 3152,
      "ingly": 3153,
      "ula": 3154,
      "umin": 3155,
      "Ġameric": 3156,
      "upiter": 3157,
      "Ġevident": 3158,
      "Ġcivil": 3159,
      "Ġsource": 3160,
      "icular": 3161,
      "Ġoblig": 3162,
      "Ġradiation": 3163,
      "Ġpursu": 3164,
      "Ġanimal": 3165,
      "Ġreached": 3166,
      "Ġcontinued": 3167,
      "Ġwitness": 3168,
      "lovitch": 3169,
      "Ġach": 3170,
      "Ġwise": 3171,
      "Ġsn": 3172,
      "Ġconj": 3173,
      "acle": 3174,
      "Ġcontain": 3175,
      "Ġbrid": 3176,
      "Ġremained": 3177,
      "Ġappropri": 3178,
      "Ġsword": 3179,
      "Ġreligious": 3180,
      "Ġpavlovitch": 3181,
      "Ġinse": 3182,
      "Ġcompared": 3183,
      "they": 3184,
      "Ġhappens": 3185,
      "Ġgermany": 3186,
      "Ġperception": 3187,
      "together": 3188,
      "Ġcolon": 3189,
      "Ġextraord": 3190,
      "ique": 3191,
      "ned": 3192,
      "ris": 3193,
      "Ġstory": 3194,
      "Ġjupiter": 3195,
      "Ġago": 3196,
      "Ġafraid": 3197,
      "Ġsyn": 3198,
      "Ġcrew": 3199,
      "Ġoperation": 3200,
      "Ġerror": 3201,
      "Ġcousin": 3202,
      "Ġlate": 3203,
      "Ġhealth": 3204,
      "Ġnotice": 3205,
      "Ġimpl": 3206,
      "Ġdisturb": 3207,
      "Ġinstit": 3208,
      "Ġobsc": 3209,
      "Ġraised": 3210,
      "Ġforgot": 3211,
      "Ġtranscendence": 3212,
      "crates": 3213,
      "Ġhypoth": 3214,
      "iently": 3215,
      "Ġcry": 3216,
      "Ġmou": 3217,
      "cies": 3218,
      "Ġadop": 3219,
      "cont": 3220,
      "Ġhole": 3221,
      "Ġ50": 3222,
      "Ġphenomena": 3223,
      "Ġindu": 3224,
      "Ġlord": 3225,
      "otion": 3226,
      "cles": 3227,
      "Ġreasoning": 3228,
      "Ġwhilst": 3229,
      "ares": 3230,
      "Ġ?": 3231,
      "Ġbour": 3232,
      "Ġroad": 3233,
      "Ġincom": 3234,
      "Ġdegrees": 3235,
      "Ġbeautiful": 3236,
      "_.": 3237,
      "Ġrace": 3238,
      "Ġpoet": 3239,
      "Ġdiffer": 3240,
      "Ġmentioned": 3241,
      "Ġsav": 3242,
      "Ġsomewhat": 3243,
      "Ġdistant": 3244,
      "Ġ31": 3245,
      "Ġconnected": 3246,
      "Ġbur": 3247,
      "Ġcum": 3248,
      "Ġfast": 3249,
      "Ġwhite": 3250,
      "Ġaltogether": 3251,
      "Ġperm": 3252,
      "ishing": 3253,
      "Ġhappy": 3254,
      "Ġhistor": 3255,
      "Ġofficers": 3256,
      "know": 3257,
      "Ġfavor": 3258,
      "Ġdanzig": 3259,
      "Ġmoun": 3260,
      "esh": 3261,
      "Ġassoci": 3262,
      "Ġdear": 3263,
      "Ġsocrates": 3264,
      "Ġdefined": 3265,
      "Ġradio": 3266,
      "Ġadminist": 3267,
      "Ġdeveloped": 3268,
      "isation": 3269,
      "Ġ40": 3270,
      "Ġdelight": 3271,
      "Ġenjoy": 3272,
      "ah": 3273,
      "Ġrom": 3274,
      "Ġnorth": 3275,
      "Ġstanding": 3276,
      "Ġforeign": 3277,
      "ratic": 3278,
      "oured": 3279,
      "Ġash": 3280,
      "Ġinstruct": 3281,
      "Ġwishes": 3282,
      "Ġaxis": 3283,
      "rest": 3284,
      "icism": 3285,
      "pper": 3286,
      "Ġgold": 3287,
      "ensive": 3288,
      "Ġfalling": 3289,
      "Ġapprehend": 3290,
      "Ġfluid": 3291,
      "Ġrapid": 3292,
      "oly": 3293,
      "Ġwis": 3294,
      "Ġparen": 3295,
      "Ġcompl": 3296,
      "Ġ35": 3297,
      "Ġkinds": 3298,
      "Ġmaxim": 3299,
      "Ġmembers": 3300,
      "Ġconvin": 3301,
      "ril": 3302,
      "Ġthor": 3303,
      "Ġell": 3304,
      "Ġsection": 3305,
      "Ġvan": 3306,
      "Ġobtained": 3307,
      "Ġcell": 3308,
      "gor": 3309,
      "icy": 3310,
      "ograph": 3311,
      "ckm": 3312,
      "Ġdiameter": 3313,
      "Ġneigh": 3314,
      "Ġusually": 3315,
      "Ġcountries": 3316,
      "Ġearlier": 3317,
      "Ġthrow": 3318,
      "Ġsir": 3319,
      "enced": 3320,
      "ese": 3321,
      "Ġende": 3322,
      "Ġsuffering": 3323,
      "lict": 3324,
      "Ġast": 3325,
      "Ġjan": 3326,
      "Ġgiving": 3327,
      "Ġremaining": 3328,
      "Ġelder": 3329,
      "bs": 3330,
      "ĠÂ": 3331,
      "Ġban": 3332,
      "Ġdoth": 3333,
      "Ġassign": 3334,
      "utation": 3335,
      "osen": 3336,
      "Ġenv": 3337,
      "Ġadap": 3338,
      "Ġ32": 3339,
      "Ġprobable": 3340,
      "Ġofficer": 3341,
      "Ġeconomic": 3342,
      "Ġsize": 3343,
      "Ġrev": 3344,
      "Ġconqu": 3345,
      "Ġconception": 3346,
      "ched": 3347,
      "owed": 3348,
      "Ġcompe": 3349,
      "geois": 3350,
      "Ġalt": 3351,
      "Ġflesh": 3352,
      "way": 3353,
      "atur": 3354,
      "Ġpet": 3355,
      "imul": 3356,
      "Ġalter": 3357,
      "Ġsquare": 3358,
      "Ġobvious": 3359,
      "hal": 3360,
      "Ġah": 3361,
      "Ġsi": 3362,
      "Ġinquir": 3363,
      "Ġpositive": 3364,
      "Ġpersu": 3365,
      "Ġlegion": 3366,
      "Ġsensation": 3367,
      "Ġchoose": 3368,
      "Ġimmediate": 3369,
      "Ġscarcely": 3370,
      "Ġneighb": 3371,
      "ao": 3372,
      "aph": 3373,
      "angle": 3374,
      "Ġempt": 3375,
      "Ġcenter": 3376,
      "Ġcreated": 3377,
      "Ġprincipal": 3378,
      "Ġendeav": 3379,
      "Ġconsequences": 3380,
      "Ġfulf": 3381,
      "Ġrepublic": 3382,
      "Ġprotect": 3383,
      "Ġaristot": 3384,
      "een": 3385,
      "yes": 3386,
      "Ġsovi": 3387,
      "Ġfinal": 3388,
      "Ġbread": 3389,
      "Ġ1811": 3390,
      "Ġpractical": 3391,
      "Ġfrequently": 3392,
      "do": 3393,
      "national": 3394,
      "Ġbased": 3395,
      "Ġfran": 3396,
      "Ġdistrib": 3397,
      "Ġends": 3398,
      "Ġparticle": 3399,
      "Ġglass": 3400,
      "Ġseparated": 3401,
      "Ġfunction": 3402,
      "Ġspecific": 3403,
      "Ġvessel": 3404,
      "inations": 3405,
      "Ġwaking": 3406,
      "cts": 3407,
      "Ġobst": 3408,
      "Ġagre": 3409,
      "Ġ33": 3410,
      "Ġsupply": 3411,
      "Ġdivine": 3412,
      "Ġengland": 3413,
      "Ġutter": 3414,
      "Ġaffirm": 3415,
      "Ġconstitution": 3416,
      "Ġbehav": 3417,
      "Ġabsolutely": 3418,
      "Ġvisit": 3419,
      "Ġdomest": 3420,
      "Ġproletariat": 3421,
      "Ġtask": 3422,
      "Ġdesires": 3423,
      "izes": 3424,
      "bled": 3425,
      "Ġdescend": 3426,
      "Ġpeoples": 3427,
      "Ġrealized": 3428,
      "Ġorganization": 3429,
      "Ġdrink": 3430,
      "Ġliberty": 3431,
      "Ġexcell": 3432,
      ".[": 3433,
      "ios": 3434,
      "Ġunknown": 3435,
      "Ġapart": 3436,
      "Ġdiscovery": 3437,
      "Ġbelonging": 3438,
      "Ġprior": 3439,
      "Ġdaily": 3440,
      "18": 3441,
      "ref": 3442,
      "Ġont": 3443,
      "Ġ60": 3444,
      "sibility": 3445,
      "Ġfate": 3446,
      "irth": 3447,
      "Ġperman": 3448,
      "Ġglad": 3449,
      "Ġsubjects": 3450,
      "Ġdiscussion": 3451,
      "Ġgallic": 3452,
      "Ġinhabit": 3453,
      "gar": 3454,
      "Ġthick": 3455,
      "ste": 3456,
      "cial": 3457,
      "Ġflight": 3458,
      "Ġregarded": 3459,
      "Ġarrange": 3460,
      "Ġpossession": 3461,
      "inc": 3462,
      "Ġhath": 3463,
      "Ġcourage": 3464,
      "Ġinit": 3465,
      "usions": 3466,
      "rible": 3467,
      "Ġpolicy": 3468,
      "Ġcreation": 3469,
      "Ġculture": 3470,
      "pes": 3471,
      "Ġaug": 3472,
      "Ġber": 3473,
      "Ġpend": 3474,
      "ulse": 3475,
      "Ġpred": 3476,
      "Ġdivided": 3477,
      "Ġcharge": 3478,
      "Ġdifficulties": 3479,
      "Ġconsequence": 3480,
      "Ġinterests": 3481,
      "Ġoperations": 3482,
      "Ġrepeated": 3483,
      "Ġprepared": 3484,
      "Ġnarrow": 3485,
      "Ġbirds": 3486,
      "Ġastr": 3487,
      "stand": 3488,
      "Ġbooks": 3489,
      "Ġgermans": 3490,
      "Ġopportunity": 3491,
      "Ġparents": 3492,
      "15": 3493,
      "Ġvers": 3494,
      "Ġseven": 3495,
      "Ġprosec": 3496,
      "Ġlikely": 3497,
      "Ġwarm": 3498,
      "Ġorganic": 3499,
      "Ġprovided": 3500,
      "ushed": 3501,
      "Ġconstantly": 3502,
      "ging": 3503,
      "rate": 3504,
      "erunt": 3505,
      "Ġburn": 3506,
      "ayed": 3507,
      "Ġreserve": 3508,
      "Ġ36": 3509,
      "Ġemper": 3510,
      "Ġlaid": 3511,
      "Ġcollect": 3512,
      "Ġrepublics": 3513,
      "Ġdemocracy": 3514,
      "Ġlisten": 3515,
      "Ġintellectual": 3516,
      "Ġpour": 3517,
      "idden": 3518,
      "ols": 3519,
      "Ġchosen": 3520,
      "oted": 3521,
      "Ġappoint": 3522,
      "Ġpossibilities": 3523,
      "Ġcommunity": 3524,
      "ox": 3525,
      "Ġinner": 3526,
      "Ġattain": 3527,
      "Ġanswered": 3528,
      "Ġproblems": 3529,
      "Ġgeomet": 3530,
      "ashion": 3531,
      "Ġjews": 3532,
      "Ġpenet": 3533,
      "onomy": 3534,
      "Ġmine": 3535,
      "Ġgain": 3536,
      "amm": 3537,
      "Ġstimul": 3538,
      "ourse": 3539,
      "Ġbrit": 3540,
      "Ġfourth": 3541,
      "Ġlabor": 3542,
      "Ġcel": 3543,
      "Ġfacticity": 3544,
      "Ġrealize": 3545,
      "Ġescap": 3546,
      "Ġadmitted": 3547,
      "Ġbecoming": 3548,
      "Ġgregor": 3549,
      "Ġperceive": 3550,
      "19": 3551,
      "Ġforced": 3552,
      "chn": 3553,
      "Ġgrasp": 3554,
      "Ġcentri": 3555,
      "Ġmaintain": 3556,
      "Ġvictory": 3557,
      "bed": 3558,
      "his": 3559,
      "Ġeckm": 3560,
      "asy": 3561,
      "Ġuseless": 3562,
      "Ġfellow": 3563,
      "Ġleads": 3564,
      "Ġmechanics": 3565,
      "Ġslowly": 3566,
      "Ġcontempl": 3567,
      "eration": 3568,
      "Ġcra": 3569,
      "Ġexcess": 3570,
      "Ġ100": 3571,
      "Ġacquired": 3572,
      "Ġdouble": 3573,
      "Ġbelongs": 3574,
      "Ġhonor": 3575,
      "Ġapplied": 3576,
      "14": 3577,
      "dem": 3578,
      "Ġtz": 3579,
      "Ġbirth": 3580,
      "anced": 3581,
      "Ġunjust": 3582,
      "Ġjour": 3583,
      "Ġassist": 3584,
      "Ġconsiderable": 3585,
      "Ġmodified": 3586,
      "Ġrules": 3587,
      "Ġextraordinary": 3588,
      "ky": 3589,
      "morrow": 3590,
      "Ġstage": 3591,
      "Ġprussi": 3592,
      "Ġdefend": 3593,
      "Ġvariety": 3594,
      "petal": 3595,
      "Ġtrouble": 3596,
      "Ġscientific": 3597,
      "Ġhitherto": 3598,
      "Ġrate": 3599,
      "ume": 3600,
      "Ġquum": 3601,
      "Ġjoy": 3602,
      "Ġafric": 3603,
      "Ġneeds": 3604,
      "Ġconcepts": 3605,
      "Ġderived": 3606,
      "Ġstatement": 3607,
      "Ġacce": 3608,
      "why": 3609,
      "Ġexpected": 3610,
      "Ġintermediate": 3611,
      "Ġfat": 3612,
      "Ġlady": 3613,
      "Ġste": 3614,
      "ables": 3615,
      "Ġavail": 3616,
      "Ġpicture": 3617,
      "Ġbourgeois": 3618,
      "'d": 3619,
      "//": 3620,
      "Ġrights": 3621,
      "Ġadvance": 3622,
      "Ġcitizens": 3623,
      "Ġsynth": 3624,
      "Ġsoviet": 3625,
      "Ġaid": 3626,
      "Ġhit": 3627,
      "under": 3628,
      "Ġdirected": 3629,
      "Ġexerc": 3630,
      "iced": 3631,
      "Ġchem": 3632,
      "Ġeverywhere": 3633,
      "Ġ38": 3634,
      "Ġletters": 3635,
      "Ġreflected": 3636,
      "Ġjewish": 3637,
      "Ġgradually": 3638,
      "Ġcontradict": 3639,
      "Ġforgotten": 3640,
      "Ġwhence": 3641,
      "Ġarises": 3642,
      "Ġconsists": 3643,
      "Ġposit": 3644,
      "Ġesse": 3645,
      "Ġnegative": 3646,
      "Ġdistinguished": 3647,
      "Ġcentripetal": 3648,
      "fect": 3649,
      "Ġlying": 3650,
      "umn": 3651,
      "ript": 3652,
      "Ġmark": 3653,
      "Ġlarger": 3654,
      "Ġgreek": 3655,
      "Ġhes": 3656,
      "Ġhind": 3657,
      "Ġfashion": 3658,
      "Ġisol": 3659,
      "usted": 3660,
      "Ġappre": 3661,
      "book": 3662,
      "Ġdise": 3663,
      "Ġ45": 3664,
      "Ġsuppl": 3665,
      "Ġoffer": 3666,
      "Ġshowed": 3667,
      "Ġlimits": 3668,
      "Ġsurely": 3669,
      "Ġheavy": 3670,
      "Ġcomparison": 3671,
      "ties": 3672,
      "Ġrank": 3673,
      "Ġmeasures": 3674,
      "oles": 3675,
      "ague": 3676,
      "Ġremoved": 3677,
      "Ġreply": 3678,
      "Ġaccompl": 3679,
      "Ġtaste": 3680,
      "Ġtransport": 3681,
      "rit": 3682,
      "Ġtang": 3683,
      "icate": 3684,
      "Ġeternal": 3685,
      "ented": 3686,
      "Ġkar": 3687,
      "arian": 3688,
      "Ġiron": 3689,
      "Ġpurely": 3690,
      "Ġinher": 3691,
      "Ġwait": 3692,
      "Ġperpendicular": 3693,
      "eng": 3694,
      "Ġfert": 3695,
      "terior": 3696,
      "Ġtrad": 3697,
      "ounds": 3698,
      "Ġthinks": 3699,
      "ifications": 3700,
      "Ġvariation": 3701,
      "aneous": 3702,
      "Ġmonths": 3703,
      "Ġremarkable": 3704,
      "Ġaristotle": 3705,
      "Ġwars": 3706,
      "isc": 3707,
      "Ġcontact": 3708,
      "ensions": 3709,
      "Ġ39": 3710,
      "Ġtechn": 3711,
      "Ġmarxism": 3712,
      "Ġterrit": 3713,
      "ience": 3714,
      "Ġsart": 3715,
      "Ġsaint": 3716,
      "Ġhi": 3717,
      "Ġnoble": 3718,
      "umb": 3719,
      "Ġjune": 3720,
      "Ġrefers": 3721,
      "Ġ46": 3722,
      "Ġsteps": 3723,
      "Ġemployed": 3724,
      "Ġindifferent": 3725,
      "Ġpi": 3726,
      "Ġaspect": 3727,
      "ams": 3728,
      "Ġareas": 3729,
      "iled": 3730,
      "Ġvain": 3731,
      "Ġquae": 3732,
      "Ġgenera": 3733,
      "Ġthroughout": 3734,
      "Ġdescent": 3735,
      "Ġworking": 3736,
      "Ġcentury": 3737,
      "Ġduplicate": 3738,
      "Ġradius": 3739,
      "Ġpersonal": 3740,
      "Ġsatisfied": 3741,
      "Ġtendency": 3742,
      "Ġreduced": 3743,
      "Ġhu": 3744,
      "atel": 3745,
      "Ġworse": 3746,
      "Ġreader": 3747,
      "Ġsuperfic": 3748,
      "Ġdeny": 3749,
      "Ġmulti": 3750,
      "Ġlocal": 3751,
      "Ġextremely": 3752,
      "Ġscre": 3753,
      "Ġportion": 3754,
      "Ġdedu": 3755,
      "omb": 3756,
      "ifice": 3757,
      "Ġshout": 3758,
      "Ġspect": 3759,
      "els": 3760,
      "Ġ34": 3761,
      "Ġ48": 3762,
      "pected": 3763,
      "Ġexamples": 3764,
      "Ġmodification": 3765,
      "Ġstronger": 3766,
      "Ġbenef": 3767,
      "Ġtzu": 3768,
      "Ġsartre": 3769,
      "dered": 3770,
      "Ġbott": 3771,
      "Ġrou": 3772,
      "Ġdispl": 3773,
      "Ġthence": 3774,
      "Ġfarther": 3775,
      "Ġconstruct": 3776,
      "Ġaware": 3777,
      "Ġabsence": 3778,
      "Ġcaptain": 3779,
      "Ġinsist": 3780,
      "Ġopinions": 3781,
      "Ġdoctor": 3782,
      "Ġindependent": 3783,
      "Ġdiminished": 3784,
      "Ġresponsible": 3785,
      "Ġattached": 3786,
      "my": 3787,
      "iring": 3788,
      "Ġexec": 3789,
      "gel": 3790,
      "Ġexisted": 3791,
      "Ġhighly": 3792,
      "Ġprefer": 3793,
      "Ġuncertain": 3794,
      "10": 3795,
      "band": 3796,
      "path": 3797,
      "Ġtions": 3798,
      "rel": 3799,
      "Ġconver": 3800,
      "Ġpartly": 3801,
      "Ġpray": 3802,
      "Ġgeneration": 3803,
      "Ġcentral": 3804,
      "Ġbeauty": 3805,
      "Ġhabits": 3806,
      "Ġgentlemen": 3807,
      "Ġemperor": 3808,
      "hen": 3809,
      "Ġsed": 3810,
      "Ġregion": 3811,
      "Ġacknow": 3812,
      "Ġstruck": 3813,
      "Ġconstitute": 3814,
      "Ġgravit": 3815,
      "Ġfighting": 3816,
      "Ġmusic": 3817,
      "Ġconvinced": 3818,
      "ta": 3819,
      "ture": 3820,
      "Ġtit": 3821,
      "Ġtrib": 3822,
      "Ġyield": 3823,
      "esty": 3824,
      "Ġobtain": 3825,
      "Ġofficial": 3826,
      "Ġsufficiently": 3827,
      "Ġwisdom": 3828,
      "Ġtu": 3829,
      "Ġnotes": 3830,
      "Ġvic": 3831,
      "ovna": 3832,
      "Ġwrit": 3833,
      "Ġenemies": 3834,
      "Ġtravel": 3835,
      "Ġsciences": 3836,
      "Ġseparate": 3837,
      "Ġnumerous": 3838,
      "Ġmouth": 3839,
      "stein": 3840,
      "jo": 3841,
      "Ġ)": 3842,
      "Ġ*": 3843,
      "Ġmas": 3844,
      "Ġmiss": 3845,
      "Ġseek": 3846,
      "bling": 3847,
      "Ġblind": 3848,
      "Ġreadily": 3849,
      "Ġcharacteristic": 3850,
      "Ġpossibly": 3851,
      "Ġterrible": 3852,
      "Ġignorance": 3853,
      "Ġdoctrine": 3854,
      "Ġachie": 3855,
      "Ġacceler": 3856,
      "12": 3857,
      "Ġspoke": 3858,
      "Ġloved": 3859,
      "object": 3860,
      "Ġinfantry": 3861,
      "Ġwants": 3862,
      "Ġfem": 3863,
      "Ġsimult": 3864,
      "Ġnews": 3865,
      "Ġengaged": 3866,
      "Ġthyself": 3867,
      "Ġimperial": 3868,
      "ga": 3869,
      "pres": 3870,
      "lling": 3871,
      "Ġstation": 3872,
      "Ġunable": 3873,
      "Ġkill": 3874,
      "apse": 3875,
      "Ġexamine": 3876,
      "Ġleaders": 3877,
      "Ġpatient": 3878,
      "Ġmental": 3879,
      "Ġfamiliar": 3880,
      "Ġimpressions": 3881,
      "Ġwild": 3882,
      "Ġcongress": 3883,
      "Ġdevi": 3884,
      "Ġfool": 3885,
      "Ġtext": 3886,
      "Ġxxx": 3887,
      "will": 3888,
      "Ġcens": 3889,
      "orph": 3890,
      "icked": 3891,
      "iling": 3892,
      "Ġapply": 3893,
      "anged": 3894,
      "Ġacross": 3895,
      "Ġreading": 3896,
      "Ġdistinguish": 3897,
      "Ġislands": 3898,
      "Ġbi": 3899,
      "Ġster": 3900,
      "Ġhero": 3901,
      "their": 3902,
      "Ġdepends": 3903,
      "Ġreturned": 3904,
      "Ġivanovna": 3905,
      "Ġprimary": 3906,
      "Ġwagram": 3907,
      "Ġridicul": 3908,
      "Ġwaves": 3909,
      "Ġbal": 3910,
      "itudes": 3911,
      "Ġkilled": 3912,
      "uel": 3913,
      "Ġcaused": 3914,
      "Ġrepresented": 3915,
      "Ġrecognize": 3916,
      "Ġapparently": 3917,
      "rs": 3918,
      "oned": 3919,
      "Ġhop": 3920,
      "rod": 3921,
      "Ġenl": 3922,
      "ager": 3923,
      "âĢ¢": 3924,
      "upid": 3925,
      "Ġspiritual": 3926,
      "Ġinformation": 3927,
      "Ġdivers": 3928,
      "Ġdissol": 3929,
      "Ġdefinition": 3930,
      "gory": 3931,
      "Ġhat": 3932,
      "Ġdeb": 3933,
      "Ġvast": 3934,
      "Ġvii": 3935,
      "Ġcontained": 3936,
      "Ġfell": 3937,
      "Ġaccustom": 3938,
      "Ġneeded": 3939,
      "Ġstructures": 3940,
      "Ġowing": 3941,
      "oot": 3942,
      "Ġassem": 3943,
      "Ġexceed": 3944,
      "Ġvig": 3945,
      "Ġneuch": 3946,
      "Ġspeed": 3947,
      "Ġprepar": 3948,
      "Ġvariations": 3949,
      "Ġgetting": 3950,
      "Ġbridge": 3951,
      "13": 3952,
      "Ġconven": 3953,
      "Ġweap": 3954,
      "ulum": 3955,
      "oken": 3956,
      "Ġ44": 3957,
      "Ġbran": 3958,
      "ribed": 3959,
      "Ġfinds": 3960,
      "Ġconsidering": 3961,
      "Ġvelocities": 3962,
      "Ġnearer": 3963,
      "Ġafrica": 3964,
      "Ġneuchatel": 3965,
      "16": 3966,
      "inal": 3967,
      "Ġsad": 3968,
      "atis": 3969,
      "ensible": 3970,
      "Ġfresh": 3971,
      "Ġdil": 3972,
      "Ġnerv": 3973,
      "Ġloss": 3974,
      "Ġcloud": 3975,
      "Ġcontinually": 3976,
      "Ġexperiences": 3977,
      "Ġcopy": 3978,
      "Ġade": 3979,
      "Ġsis": 3980,
      "Ġsearch": 3981,
      "Ġlem": 3982,
      "uding": 3983,
      "Ġfortune": 3984,
      "Ġquiet": 3985,
      "Ġpiece": 3986,
      "Ġstrictly": 3987,
      "Ġdomestic": 3988,
      "called": 3989,
      "Ġthreat": 3990,
      "icit": 3991,
      "icip": 3992,
      "rog": 3993,
      "Ġships": 3994,
      "Ġmyth": 3995,
      "Ġquint": 3996,
      "Ġusual": 3997,
      "Ġattraction": 3998,
      "Ġindian": 3999,
      "Ġdecision": 4000,
      "Ġraise": 4001,
      "Ġsuccession": 4002,
      "Ġsalv": 4003,
      "Ġprivate": 4004,
      "Ġreciprocally": 4005,
      "dra": 4006,
      "lim": 4007,
      "ores": 4008,
      "inated": 4009,
      "Ġosc": 4010,
      "Ġsees": 4011,
      "osal": 4012,
      "iven": 4013,
      "Ġleaves": 4014,
      "igs": 4015,
      "Ġindia": 4016,
      "Ġpowerful": 4017,
      "Ġcolour": 4018,
      "Ġvolunt": 4019,
      "Ġaffected": 4020,
      "egr": 4021,
      "Ġthorn": 4022,
      "Ġparent": 4023,
      "org": 4024,
      "Ġstone": 4025,
      "ode": 4026,
      "auc": 4027,
      "aterina": 4028,
      "Ġopposed": 4029,
      "Ġstrongly": 4030,
      "olya": 4031,
      "Ġsick": 4032,
      "Ġfing": 4033,
      "utor": 4034,
      "Ġwee": 4035,
      "Ġmein": 4036,
      "elf": 4037,
      "Ġ37": 4038,
      "Ġflo": 4039,
      "Ġdefense": 4040,
      "Ġextension": 4041,
      "Ġnationalities": 4042,
      "Ġmodes": 4043,
      "ampf": 4044,
      "Ġaccompan": 4045,
      "bar": 4046,
      "ero": 4047,
      "Ġnove": 4048,
      "Ġsty": 4049,
      "Ġcomets": 4050,
      "aced": 4051,
      "Ġsubsequ": 4052,
      "Ġ43": 4053,
      "Ġmotive": 4054,
      "plicity": 4055,
      "Ġmachine": 4056,
      "Ġinferior": 4057,
      "Ġpreceding": 4058,
      "ape": 4059,
      "bant": 4060,
      "jus": 4061,
      "oh": 4062,
      "isse": 4063,
      "Ġstop": 4064,
      "Ġkolya": 4065,
      "Ġkampf": 4066,
      "Ġages": 4067,
      "Ġcorp": 4068,
      "Ġcapacity": 4069,
      "Ġmovements": 4070,
      "aneously": 4071,
      "Ġwidely": 4072,
      "bru": 4073,
      "iis": 4074,
      "Ġthrown": 4075,
      "Ġcat": 4076,
      "ito": 4077,
      "Ġupper": 4078,
      "Ġaband": 4079,
      "Ġwhenever": 4080,
      "Ġconsci": 4081,
      "Ġsubt": 4082,
      "Ġdistinction": 4083,
      "Ġviews": 4084,
      "Ġlimited": 4085,
      "Ġsignificance": 4086,
      "Ġinhabitants": 4087,
      ":-": 4088,
      "tered": 4089,
      "Ġtur": 4090,
      "Ġtaught": 4091,
      "Ġhot": 4092,
      "Ġfilled": 4093,
      "Ġpan": 4094,
      "Ġrational": 4095,
      "Ġapril": 4096,
      "Ġrecol": 4097,
      "Ġsystems": 4098,
      "Ġmajority": 4099,
      "17": 4100,
      "look": 4101,
      "tical": 4102,
      "iny": 4103,
      "llen": 4104,
      "vet": 4105,
      "Ġvary": 4106,
      "ander": 4107,
      "Ġrecall": 4108,
      "Ġassert": 4109,
      "Ġconclude": 4110,
      "justice": 4111,
      "Ġaux": 4112,
      "Ġtemporal": 4113,
      "Ġthirty": 4114,
      "Ġoscill": 4115,
      "ai": 4116,
      "bered": 4117,
      "Ġsister": 4118,
      "Ġhus": 4119,
      "Ġmort": 4120,
      "Ġpull": 4121,
      "Ġnotions": 4122,
      "akes": 4123,
      "Ġgreatly": 4124,
      "Ġbroken": 4125,
      "Ġafford": 4126,
      "Ġdestruction": 4127,
      "Ġaccustomed": 4128,
      "Ġaud": 4129,
      "itum": 4130,
      "Ġvent": 4131,
      "Ġspread": 4132,
      "Ġcloth": 4133,
      "Ġpasses": 4134,
      "Ġstrateg": 4135,
      "Ġrock": 4136,
      "Ġcentur": 4137,
      "liament": 4138,
      "Ġfamous": 4139,
      "Ġmidst": 4140,
      "Ġcultural": 4141,
      "Ġsemi": 4142,
      "Ġinquiry": 4143,
      "her": 4144,
      "sur": 4145,
      "Ġbare": 4146,
      "Ġhos": 4147,
      "thus": 4148,
      "Ġsust": 4149,
      "Ġleaving": 4150,
      "Ġgoal": 4151,
      "Ġrelated": 4152,
      "others": 4153,
      "Ġspirits": 4154,
      "Ġangry": 4155,
      "Ġcarefully": 4156,
      "Ġfine": 4157,
      "Ġkaterina": 4158,
      "rah": 4159,
      "Ġtrying": 4160,
      "Ġappar": 4161,
      "Ġentered": 4162,
      "Ġoriginally": 4163,
      "Ġdetermination": 4164,
      "Ġservant": 4165,
      "Ġfigures": 4166,
      "Ġdemands": 4167,
      "Ġgirl": 4168,
      "Ġgravitational": 4169,
      "ners": 4170,
      "ship": 4171,
      "yn": 4172,
      "Ġoh": 4173,
      "Ġcog": 4174,
      "Ġegg": 4175,
      "Ġrome": 4176,
      "Ġremote": 4177,
      "Ġopposition": 4178,
      "Ġreflective": 4179,
      "Ġmurder": 4180,
      "Ġellips": 4181,
      "iety": 4182,
      "Ġspl": 4183,
      "Ġsought": 4184,
      "Ġcustom": 4185,
      "Ġmess": 4186,
      "itin": 4187,
      "Ġdial": 4188,
      "Ġhaw": 4189,
      "amaz": 4190,
      "Ġdisci": 4191,
      "Ġspoken": 4192,
      "Ġsafe": 4193,
      "Ġbelow": 4194,
      "Ġplease": 4195,
      "Ġfeelings": 4196,
      "Ġprevious": 4197,
      "Ġintroduction": 4198,
      "Ġconversation": 4199,
      "sue": 4200,
      "time": 4201,
      "inates": 4202,
      "atum": 4203,
      "Ġdict": 4204,
      "Ġlest": 4205,
      "Ġham": 4206,
      "Ġatoms": 4207,
      "Ġrak": 4208,
      "Ġsubs": 4209,
      "Ġundert": 4210,
      "Ġ49": 4211,
      "Ġhybr": 4212,
      "Ġmethods": 4213,
      "Ġrender": 4214,
      "Ġsympath": 4215,
      "Ġcontrol": 4216,
      "Ġhusband": 4217,
      "ope": 4218,
      "Ġoce": 4219,
      "Ġlad": 4220,
      "rote": 4221,
      "Ġhast": 4222,
      "Ġpresented": 4223,
      "âĢ²": 4224,
      "Ġturning": 4225,
      "Ġsmaller": 4226,
      "Ġarguments": 4227,
      "Ġmodel": 4228,
      "Ġwindow": 4229,
      "Ġpaper": 4230,
      "Ġamerica": 4231,
      "],": 4232,
      "iance": 4233,
      "Ġeth": 4234,
      "Ġexception": 4235,
      "ifying": 4236,
      "Ġarbit": 4237,
      "Ġpole": 4238,
      "Ġpropositions": 4239,
      "Ġpublished": 4240,
      "Ġmetaph": 4241,
      "Ġhonour": 4242,
      "Ġattracted": 4243,
      "Ġgaul": 4244,
      "Ġthorough": 4245,
      "amazov": 4246,
      "then": 4247,
      "Ġstupid": 4248,
      "ump": 4249,
      "Ġboys": 4250,
      "Ġtears": 4251,
      "note": 4252,
      "Ġcontempor": 4253,
      "Ġroubles": 4254,
      "ĠÎ": 4255,
      "eral": 4256,
      "ulated": 4257,
      "Ġtrust": 4258,
      "Ġdecide": 4259,
      "Ġmultitude": 4260,
      "Ġcommentaries": 4261,
      "Ġrakitin": 4262,
      "aff": 4263,
      "uish": 4264,
      "Ġcow": 4265,
      "Ġinjustice": 4266,
      "ainted": 4267,
      "Ġfreely": 4268,
      "Ġassumed": 4269,
      "Ġformerly": 4270,
      "Ġtreated": 4271,
      "Ġdecember": 4272,
      "Ġwagons": 4273,
      "Ġcontradiction": 4274,
      "Ġempty": 4275,
      "Ġberlin": 4276,
      "25": 4277,
      "lit": 4278,
      "Ġwrote": 4279,
      "Ġsit": 4280,
      "Ġpq": 4281,
      "Ġnodes": 4282,
      "Ġatom": 4283,
      "Ġparliament": 4284,
      "Ġconfusion": 4285,
      "Ġscene": 4286,
      "Ġamongst": 4287,
      "Ġtempt": 4288,
      "Ġcurrent": 4289,
      "Ġillust": 4290,
      "work": 4291,
      "Ġignorant": 4292,
      "Ġdestroyed": 4293,
      "',": 4294,
      "ued": 4295,
      "Ġbreat": 4296,
      "Ġgenus": 4297,
      "Ġimpulse": 4298,
      "Ġeman": 4299,
      "Ġprobability": 4300,
      "Ġsilent": 4301,
      "Ġautonomy": 4302,
      "Ġcohort": 4303,
      "bat": 4304,
      "jud": 4305,
      "was": 4306,
      "Ġapt": 4307,
      "Ġlot": 4308,
      "vered": 4309,
      "ests": 4310,
      "Ġplant": 4311,
      "Ġsave": 4312,
      "Ġdistr": 4313,
      "Ġinfinity": 4314,
      "Ġopened": 4315,
      "Ġcondem": 4316,
      "ucle": 4317,
      "Ġpossessed": 4318,
      "Ġmistake": 4319,
      "mitted": 4320,
      "reg": 4321,
      "Ġris": 4322,
      "usha": 4323,
      "gels": 4324,
      "ruc": 4325,
      "Ġmarked": 4326,
      "Ġbegins": 4327,
      "Ġconceived": 4328,
      "Ġvisible": 4329,
      "Ġsilence": 4330,
      "Ġnihilation": 4331,
      "Ġlogical": 4332,
      "Ġprisoner": 4333,
      "asmuch": 4334,
      "bruary": 4335,
      "Ġhawking": 4336,
      "ias": 4337,
      "pro": 4338,
      "ule": 4339,
      "Ġts": 4340,
      "Ġcart": 4341,
      "Ġdro": 4342,
      "Ġdare": 4343,
      "Ġdied": 4344,
      "Ġretain": 4345,
      "ifies": 4346,
      "Ġfebruary": 4347,
      "Ġflowers": 4348,
      "Ġfault": 4349,
      "Ġabsor": 4350,
      "Ġphilosophical": 4351,
      "Ġperiods": 4352,
      "Ġtalking": 4353,
      "Ġdangerous": 4354,
      "Ġwinter": 4355,
      "Ġinvestigation": 4356,
      "Ġquadrat": 4357,
      "Ġtheories": 4358,
      "Ġnucle": 4359,
      "Ġrecon": 4360,
      "Ġstat": 4361,
      "Ġshad": 4362,
      "active": 4363,
      "ormal": 4364,
      "Ġarts": 4365,
      "Ġmorality": 4366,
      "Ġcommander": 4367,
      "Ġgrigory": 4368,
      "Ġaston": 4369,
      "Ġprosecutor": 4370,
      "Ġridiculous": 4371,
      "atures": 4372,
      "ili": 4373,
      "Ġwilling": 4374,
      "race": 4375,
      "Ġcontains": 4376,
      "Ġearn": 4377,
      "Ġexamination": 4378,
      "Ġsouls": 4379,
      "Ġsingular": 4380,
      "Ġheavens": 4381,
      "Ġcouncil": 4382,
      "Ġcontingency": 4383,
      "Ġfancy": 4384,
      "Ġhypothesis": 4385,
      "Ġkaramazov": 4386,
      "ki": 4387,
      "Ġwid": 4388,
      "Ġhung": 4389,
      "Ġallied": 4390,
      "Ġspaces": 4391,
      "Ġspring": 4392,
      "Ġconfused": 4393,
      "Ġcommonly": 4394,
      "Ġproperly": 4395,
      "Ġauthors": 4396,
      "Ġinnoc": 4397,
      "Ġinfinitely": 4398,
      "Ġtrem": 4399,
      "Ġfrancs": 4400,
      "rons": 4401,
      "yal": 4402,
      "Ġsine": 4403,
      "Ġinev": 4404,
      "usc": 4405,
      "Ġcontrib": 4406,
      "Ġconfined": 4407,
      "Ġconfidence": 4408,
      "Ġrecent": 4409,
      "Ġarmed": 4410,
      "Ġ185": 4411,
      "Ġengine": 4412,
      "pring": 4413,
      "Ġrendered": 4414,
      "Ġexercise": 4415,
      "Ġidentity": 4416,
      "Ġsurround": 4417,
      "Ġpill": 4418,
      "Ġinasmuch": 4419,
      "order": 4420,
      "imately": 4421,
      "terday": 4422,
      "Ġsequ": 4423,
      "Ġsevere": 4424,
      "Ġvist": 4425,
      "Ġcost": 4426,
      "rence": 4427,
      "Ġ53": 4428,
      "Ġlesser": 4429,
      "Ġconstitutes": 4430,
      "Ġveget": 4431,
      "Ġperpetually": 4432,
      "Ġpredict": 4433,
      "eth": 4434,
      "rical": 4435,
      "Ġsitting": 4436,
      "Ġhall": 4437,
      "Ġcred": 4438,
      "itated": 4439,
      "ici": 4440,
      "aked": 4441,
      "Ġ47": 4442,
      "Ġcoinc": 4443,
      "Ġcertainty": 4444,
      "Ġreck": 4445,
      "Ġ54": 4446,
      "Ġdrun": 4447,
      "Ġyesterday": 4448,
      "Ġsucceeded": 4449,
      "Ġperpetual": 4450,
      "Ġromans": 4451,
      "Ġstrategy": 4452,
      "11": 4453,
      "bing": 4454,
      "spring": 4455,
      "tic": 4456,
      "Ġshape": 4457,
      "Ġquam": 4458,
      "Ġemph": 4459,
      "Ġoffered": 4460,
      "phal": 4461,
      "Ġcondens": 4462,
      "Ġorganism": 4463,
      "Ġproperties": 4464,
      "Ġcurve": 4465,
      "Ġreferred": 4466,
      "Ġadministration": 4467,
      "'re": 4468,
      "fort": 4469,
      "Ġhidden": 4470,
      "Ġpier": 4471,
      "Ġduch": 4472,
      "Ġsupre": 4473,
      "Ġexhib": 4474,
      ".\"]": 4475,
      "Ġmarriage": 4476,
      "Ġcalls": 4477,
      "Ġchildhood": 4478,
      "Ġclassical": 4479,
      "Ġordre": 4480,
      "Ġinteresting": 4481,
      "Ġsatisfaction": 4482,
      "Ġimperfect": 4483,
      "Ġsuspic": 4484,
      "zyg": 4485,
      ",[": 4486,
      "inism": 4487,
      "Ġbond": 4488,
      "ening": 4489,
      "Ġcrow": 4490,
      "Ġqua": 4491,
      "Ġintended": 4492,
      "Ġpercept": 4493,
      "Ġserved": 4494,
      "Ġpsycho": 4495,
      "Ġimagination": 4496,
      "Ġconclusions": 4497,
      "Ġcreature": 4498,
      "Ġdiscussed": 4499,
      "Ġultimate": 4500,
      "Ġaustria": 4501,
      "Ġimplies": 4502,
      "Ġstyle": 4503,
      "she": 4504,
      "Ġfed": 4505,
      "arp": 4506,
      "Ġbeat": 4507,
      "ley": 4508,
      "Ġexterior": 4509,
      "osis": 4510,
      "ilty": 4511,
      "Ġtwice": 4512,
      "Ġprevail": 4513,
      ".--": 4514,
      "Ġdeli": 4515,
      "Ġvill": 4516,
      "acles": 4517,
      "athers": 4518,
      "Ġsurv": 4519,
      "Ġstands": 4520,
      "Ġrepresents": 4521,
      "Ġreveal": 4522,
      "Ġremembered": 4523,
      "Ġstarted": 4524,
      "versely": 4525,
      "Ġremarks": 4526,
      "Ġconjun": 4527,
      "Ġappreci": 4528,
      "eper": 4529,
      "more": 4530,
      "rated": 4531,
      "uff": 4532,
      "rew": 4533,
      "anal": 4534,
      "Ġsuitable": 4535,
      "Ġliqu": 4536,
      "Ġforming": 4537,
      "Ġrepro": 4538,
      "Ġfounded": 4539,
      "Ġdepth": 4540,
      "nex": 4541,
      "Ġanguish": 4542,
      "Ġcease": 4543,
      "âĶĢâĶĢâĶĢâĶĢâĶĢâĶĢâĶĢâĶĢ": 4544,
      "Ġashamed": 4545,
      "iant": 4546,
      "ms": 4547,
      "tr": 4548,
      "rect": 4549,
      "alt": 4550,
      "aud": 4551,
      "Ġpeasant": 4552,
      "Ġ52": 4553,
      "ney": 4554,
      "Ġprovide": 4555,
      "Ġcommanding": 4556,
      "Ġcorresponding": 4557,
      "Ġharmony": 4558,
      "ji": 4559,
      "would": 4560,
      "itor": 4561,
      "Ġwithdra": 4562,
      "Ġexha": 4563,
      "Ġunre": 4564,
      "Ġflour": 4565,
      "Ġequality": 4566,
      "Ġpolice": 4567,
      "Ġproduction": 4568,
      "Ġdescribes": 4569,
      "Ġsecondary": 4570,
      "Ġorganized": 4571,
      "Ġvalues": 4572,
      "Ġwaiting": 4573,
      "Ġorbits": 4574,
      "Ġhistorical": 4575,
      "cer": 4576,
      "Ġcou": 4577,
      "Ġmurd": 4578,
      "isp": 4579,
      "omy": 4580,
      "Ġrele": 4581,
      "quar": 4582,
      "Ġvul": 4583,
      "Ġviz": 4584,
      "ounced": 4585,
      "Ġspont": 4586,
      "Ġconflict": 4587,
      "Ġobser": 4588,
      "Ġfinite": 4589,
      "Ġsecondly": 4590,
      "Ġutil": 4591,
      "Ġtreatment": 4592,
      "Ġoccurred": 4593,
      "Ġchristianity": 4594,
      "democ": 4595,
      "Ġconscience": 4596,
      "Ġoct": 4597,
      "Ġine": 4598,
      "Ġrese": 4599,
      "istics": 4600,
      "Ġ(_": 4601,
      "Ġanyone": 4602,
      "ĠĠĠĠĠĠĠĠĠĠ": 4603,
      "Ġnatures": 4604,
      ".),": 4605,
      "Ġdimensions": 4606,
      "Ġweakness": 4607,
      "Ġrepeat": 4608,
      "Ġitalian": 4609,
      "Ġanxiety": 4610,
      "Ġpendulum": 4611,
      "!'": 4612,
      "lor": 4613,
      "Ã¦": 4614,
      "Ġinches": 4615,
      "Ġeat": 4616,
      "Ġeast": 4617,
      "Ġgained": 4618,
      "Ġaside": 4619,
      "Ġfright": 4620,
      "Ġrig": 4621,
      "ola": 4622,
      "Ġcover": 4623,
      "Ġobjection": 4624,
      "Ġdefe": 4625,
      "Ġ187": 4626,
      "Ġsigns": 4627,
      "Ġheads": 4628,
      "Ġthousands": 4629,
      "Ġcorrel": 4630,
      "Ġoneself": 4631,
      "Ġoccupied": 4632,
      "Ġbitter": 4633,
      "Ġwestphal": 4634,
      "Ġsacrifice": 4635,
      "mach": 4636,
      "Ġbatter": 4637,
      "ani": 4638,
      "Ġgard": 4639,
      "iihl": 4640,
      "Ġbless": 4641,
      "Ġscale": 4642,
      "Ġangles": 4643,
      "Ġquantities": 4644,
      "Ġholds": 4645,
      "Ġsuccessive": 4646,
      "Ġexcit": 4647,
      "Ġfavour": 4648,
      "Ġcheck": 4649,
      "Ġsweet": 4650,
      "Ġinsects": 4651,
      "Ġresearch": 4652,
      "ees": 4653,
      "pir": 4654,
      "rison": 4655,
      "Ġmel": 4656,
      "ulate": 4657,
      "Ġparad": 4658,
      "Ġrecord": 4659,
      "Ġreasonable": 4660,
      "Ġcircles": 4661,
      "Ġbroad": 4662,
      "Ġdomin": 4663,
      "Ġapplication": 4664,
      "Ġslightly": 4665,
      "Ġdetails": 4666,
      "Ġperformed": 4667,
      "after": 4668,
      "mbre": 4669,
      "och": 4670,
      "ses": 4671,
      "Ġsag": 4672,
      "Ġna": 4673,
      "alg": 4674,
      "Ġeg": 4675,
      "Ġkiss": 4676,
      "Ġchair": 4677,
      "asts": 4678,
      "Ġgenius": 4679,
      "Ġ42": 4680,
      "Ġconsiderations": 4681,
      "Ġleading": 4682,
      "Ġmagde": 4683,
      "Ġrepresentation": 4684,
      "Ġhoriz": 4685,
      "Ġtraining": 4686,
      "Ġpopular": 4687,
      "Ġresolved": 4688,
      "Ġsuggested": 4689,
      "Ġunfortun": 4690,
      "standing": 4691,
      "ze": 4692,
      "Ġwes": 4693,
      "Ġpon": 4694,
      "Ġspent": 4695,
      "Ġsupposing": 4696,
      "Ġoffice": 4697,
      "Ġoffspring": 4698,
      "Ġtransition": 4699,
      "Ġtemp": 4700,
      "Ġpleasures": 4701,
      "Ġbreed": 4702,
      "Ġempir": 4703,
      "Ġrequires": 4704,
      "Ġtransformation": 4705,
      "ealous": 4706,
      "Ġobscure": 4707,
      "Ġhosp": 4708,
      "Ġapparatus": 4709,
      "had": 4710,
      "Ġwine": 4711,
      "Ġvision": 4712,
      "Ġenorm": 4713,
      "Ġcontempt": 4714,
      "Ġcouldn": 4715,
      "Ġacting": 4716,
      "Ġwherein": 4717,
      "Ġbegun": 4718,
      "Ġabsent": 4719,
      "Ġanger": 4720,
      "Ġlegs": 4721,
      "Ġkeeping": 4722,
      "Ġexclus": 4723,
      "Ġpunishment": 4724,
      "Ġdisappear": 4725,
      "igsberg": 4726,
      "Ġcrowd": 4727,
      "Ġmagdeburg": 4728,
      "ona": 4729,
      "Ġdaugh": 4730,
      "Ġsoft": 4731,
      "Ġspot": 4732,
      "ressing": 4733,
      "Ġexpans": 4734,
      "Ġinterpre": 4735,
      "Ġcrossed": 4736,
      "Ġsurprised": 4737,
      "rad": 4738,
      "tin": 4739,
      "uary": 4740,
      "Ġfill": 4741,
      "Ġfond": 4742,
      "arity": 4743,
      "icle": 4744,
      "omm": 4745,
      "Ġrevel": 4746,
      "see": 4747,
      "Ġclim": 4748,
      "Ġflower": 4749,
      "Ġacquire": 4750,
      "Ġconform": 4751,
      "Ġwriting": 4752,
      "Ġpoles": 4753,
      "Ġsaturn": 4754,
      "Ġessent": 4755,
      "going": 4756,
      "Ġmutual": 4757,
      "Ġgrande": 4758,
      "lie": 4759,
      "Ġod": 4760,
      "Ġnost": 4761,
      "uting": 4762,
      "Ġabol": 4763,
      "Ġimped": 4764,
      "Ġcovered": 4765,
      "Ġmotives": 4766,
      "when": 4767,
      "Ġassured": 4768,
      "Ġlooks": 4769,
      "Ġcolle": 4770,
      "Ġimmense": 4771,
      "Ġsimilarly": 4772,
      "Ġlearning": 4773,
      "Ġchiefly": 4774,
      "Ġperceived": 4775,
      "Ġeuropean": 4776,
      "Ġpreserved": 4777,
      "Ġfifteen": 4778,
      "bi": 4779,
      "fa": 4780,
      "kin": 4781,
      "Ġsorrow": 4782,
      "Ġfix": 4783,
      "Ġness": 4784,
      "Ġvac": 4785,
      "Ġaltern": 4786,
      "Ġtwel": 4787,
      "Ġaccident": 4788,
      "Ġcorn": 4789,
      "Ġreprodu": 4790,
      "Ġconstruction": 4791,
      "Ġfinished": 4792,
      "Ġeffected": 4793,
      "Ġsentence": 4794,
      "Ġincreasing": 4795,
      "Ġcareful": 4796,
      "Ġcreate": 4797,
      "Ġdetach": 4798,
      "Ġattributed": 4799,
      "Ġgranted": 4800,
      "Ġstreet": 4801,
      "Ġinitial": 4802,
      "Ġdisease": 4803,
      "Ġdeliber": 4804,
      "Ġtwelve": 4805,
      ");": 4806,
      "bted": 4807,
      "ĠâĢ¢": 4808,
      "Ġsharp": 4809,
      "Ġability": 4810,
      "Ġens": 4811,
      "Ġupsur": 4812,
      "Ġclosed": 4813,
      "Ġpassions": 4814,
      "Ġexpand": 4815,
      "Ġrecognized": 4816,
      "Ġfailure": 4817,
      "Ġstriking": 4818,
      "Ġpopulation": 4819,
      "Ġthirst": 4820,
      "Ġintelligence": 4821,
      "Ġexcellent": 4822,
      "Ġocean": 4823,
      "Ġupsurge": 4824,
      "Ġaver": 4825,
      "Ġcas": 4826,
      "Ġincon": 4827,
      "itud": 4828,
      "cio": 4829,
      "Ġintu": 4830,
      "Ġsomeone": 4831,
      "Ġcompare": 4832,
      "Ġrefus": 4833,
      "phus": 4834,
      "head": 4835,
      "Ġarrival": 4836,
      "Ġencoun": 4837,
      "Ġobliged": 4838,
      "Ġbottom": 4839,
      "quarters": 4840,
      "atory": 4841,
      "Ġbase": 4842,
      "Ġbund": 4843,
      "Ġdign": 4844,
      "Ġlink": 4845,
      "Ġcomr": 4846,
      "inted": 4847,
      "Ġgrat": 4848,
      "Ġcorrupt": 4849,
      "Ġrot": 4850,
      "Ġsyzyg": 4851,
      "Ġ184": 4852,
      "Ġputting": 4853,
      "Ġschol": 4854,
      "Ġinclined": 4855,
      "Ġvirtues": 4856,
      "Ġsocialist": 4857,
      "Ġkingdom": 4858,
      "Ġfailed": 4859,
      "ourable": 4860,
      "Ġsurprise": 4861,
      "Ġavailable": 4862,
      "Ġhatred": 4863,
      "Ġmetaphys": 4864,
      "\",": 4865,
      "fen": 4866,
      "point": 4867,
      "uf": 4868,
      "Ġsie": 4869,
      "Ġinex": 4870,
      "Ġlif": 4871,
      "urity": 4872,
      "Ġnoticed": 4873,
      "Ġfruit": 4874,
      "Ġseeds": 4875,
      "Ġmyst": 4876,
      "Ġinterior": 4877,
      "Ġtruths": 4878,
      "Ġincap": 4879,
      "ugn": 4880,
      "Ġborder": 4881,
      "Ġtranscendent": 4882,
      "Ġaccepted": 4883,
      "Ġpressure": 4884,
      "Ġacquainted": 4885,
      "Ġviolent": 4886,
      "Ġtranslation": 4887,
      "Ġfaculty": 4888,
      "Ġellipsis": 4889,
      "Ġquadratures": 4890,
      "bel": 4891,
      "cause": 4892,
      "from": 4893,
      "Ġtum": 4894,
      "amorph": 4895,
      "Ġyu": 4896,
      "Ġalarm": 4897,
      "Ġworst": 4898,
      "Ġpositions": 4899,
      "Ġremove": 4900,
      "Ġaccum": 4901,
      "Ġemotion": 4902,
      "Ġdoesn": 4903,
      "Ġblame": 4904,
      "Ġappearances": 4905,
      "Ġimmort": 4906,
      "Ġadvanced": 4907,
      "Ġadmir": 4908,
      "Ġtraject": 4909,
      "Ġdesired": 4910,
      "Ġmiles": 4911,
      "Ġlabour": 4912,
      "Ġpraise": 4913,
      "Ġforgive": 4914,
      "Ġfaculties": 4915,
      "Ġjuin": 4916,
      "Ġquintals": 4917,
      "hn": 4918,
      "Ġwu": 4919,
      "Ġbomb": 4920,
      "ching": 4921,
      "Ġunex": 4922,
      "Ġcontract": 4923,
      "Ġusing": 4924,
      "Ġmarried": 4925,
      "Ġoppressed": 4926,
      "Ġexperienced": 4927,
      "Ġincor": 4928,
      "Ġfalls": 4929,
      "Ġtrace": 4930,
      "Ġprocesses": 4931,
      "Ġfortun": 4932,
      "Ġmagnitude": 4933,
      "Ġwalk": 4934,
      "Ġilusha": 4935,
      "\";": 4936,
      "30": 4937,
      "hand": 4938,
      "ients": 4939,
      "met": 4940,
      "Ġcd": 4941,
      "Ġcogn": 4942,
      "orous": 4943,
      "Ġef": 4944,
      "leg": 4945,
      "ima": 4946,
      "quis": 4947,
      "Ġframe": 4948,
      "Ġprogr": 4949,
      "orent": 4950,
      "agn": 4951,
      "abor": 4952,
      "Ġdreamer": 4953,
      "ocus": 4954,
      "Ġinsult": 4955,
      "Ġcrim": 4956,
      "Ġpsychological": 4957,
      "Ġtyr": 4958,
      "Ġrunning": 4959,
      "Ġresponsibility": 4960,
      "Ġrectangle": 4961,
      "Ġlogic": 4962,
      "Ġeckmiihl": 4963,
      "'.": 4964,
      "germ": 4965,
      "enburg": 4966,
      "che": 4967,
      "Ġwealth": 4968,
      "Ġalien": 4969,
      "Ġtrif": 4970,
      "Ġreform": 4971,
      "Ġinternational": 4972,
      "Ġholy": 4973,
      "Ġrob": 4974,
      "Ġarmee": 4975,
      "Ġcolumn": 4976,
      "Ġguilty": 4977,
      "Ġcruel": 4978,
      "Ġbright": 4979,
      "Ġmetamorph": 4980,
      "Ġvien": 4981,
      "Ġattempts": 4982,
      "Ġdrawing": 4983,
      "Ġcounsel": 4984,
      "Ġinterval": 4985,
      "Ġcontingent": 4986,
      "Ġjanuary": 4987,
      "Ġsplend": 4988,
      "Ġbreath": 4989,
      "Ġpsychoanal": 4990,
      "gu": 4991,
      "rum": 4992,
      "yphus": 4993,
      "Ġwished": 4994,
      "ĠĠĠĠĠĠĠĠĠĠĠ": 4995,
      "Ġlx": 4996,
      "Ġrange": 4997,
      "etor": 4998,
      "Ġarising": 4999,
      "Ġproud": 5000,
      "Ġcompass": 5001,
      "Ġwherever": 5002,
      "Ġentertain": 5003,
      "Ġpains": 5004,
      "Ġmerc": 5005,
      "Ġgrowing": 5006,
      "Ġintroduced": 5007,
      "Ġintervals": 5008,
      "Ġresembl": 5009,
      "Ġfirmly": 5010,
      "Ġtheorem": 5011,
      "Ġinduced": 5012,
      "Ġassigned": 5013,
      "Ġcompelled": 5014,
      "Ġontological": 5015,
      "Ġappointed": 5016,
      "29": 5017,
      "foot": 5018,
      "ming": 5019,
      "non": 5020,
      "sis": 5021,
      "Ġbac": 5022,
      "Ġbag": 5023,
      "Ġisa": 5024,
      "Ġhearing": 5025,
      "ilment": 5026,
      "Ġbox": 5027,
      "Ġclean": 5028,
      "Ġexplo": 5029,
      "Ġturns": 5030,
      "erring": 5031,
      "Ġconstituted": 5032,
      "Ġsorts": 5033,
      "Ġsecure": 5034,
      "Ġlaughed": 5035,
      "Ġtemporality": 5036,
      "Ġsummer": 5037,
      "Ġtemperature": 5038,
      "Ġdeeply": 5039,
      "Ġalexey": 5040,
      "Ġwarsaw": 5041,
      "Ġsisyphus": 5042,
      "di": 5043,
      "ipt": 5044,
      "oll": 5045,
      "Ġthin": 5046,
      "ini": 5047,
      "Ġbul": 5048,
      "Ġmixed": 5049,
      "icient": 5050,
      "Ġatomic": 5051,
      "Ġspain": 5052,
      "Ġlover": 5053,
      "ordinate": 5054,
      "Ġpointed": 5055,
      "Ġ188": 5056,
      "Ġglob": 5057,
      "Ġmoments": 5058,
      "Ġtrial": 5059,
      "Ġanticip": 5060,
      "Ġoccasionally": 5061,
      "Ġcounter": 5062,
      "Ġworthy": 5063,
      "Ġmadame": 5064,
      "Ġresolution": 5065,
      "Ġdespair": 5066,
      "Ġnearest": 5067,
      "Ġagreed": 5068,
      "Ġreproach": 5069,
      "med": 5070,
      "Ġwave": 5071,
      "Ġhin": 5072,
      "Ġdig": 5073,
      "Ġhair": 5074,
      "Ġjealous": 5075,
      "Ġengels": 5076,
      "Ġphant": 5077,
      "Ġrefuse": 5078,
      "Ġdefect": 5079,
      "Ġillness": 5080,
      "Ġheadquarters": 5081,
      "Ġperiodic": 5082,
      "Ġmaintained": 5083,
      "Ġabsurdity": 5084,
      "Ġefforts": 5085,
      "bo": 5086,
      "ding": 5087,
      "hel": 5088,
      "rass": 5089,
      "Ġwicked": 5090,
      "atu": 5091,
      "Ġps": 5092,
      "Ġdam": 5093,
      "Ġnine": 5094,
      "Ġego": 5095,
      "Ġgun": 5096,
      "iles": 5097,
      "Ġali": 5098,
      "Ġfeatures": 5099,
      "Ġspecul": 5100,
      "attern": 5101,
      "while": 5102,
      "onsense": 5103,
      "Ġcollected": 5104,
      "Ġcapt": 5105,
      "Ġhumanity": 5106,
      "Ġconcent": 5107,
      "Ġgrave": 5108,
      "Ġhyster": 5109,
      "Ġjoined": 5110,
      "Ġpolitics": 5111,
      "Ġapprehension": 5112,
      "Ġmillions": 5113,
      "Ġcircumstance": 5114,
      "Ġlaughing": 5115,
      "Ġcollapse": 5116,
      "Ġvistula": 5117,
      "^^": 5118,
      "Ġly": 5119,
      "Ġta": 5120,
      "Ġbank": 5121,
      "Ġforty": 5122,
      "owing": 5123,
      "eret": 5124,
      "Ġclos": 5125,
      "Ġbrings": 5126,
      "Ġ186": 5127,
      "Ġpersist": 5128,
      "Ġdescribing": 5129,
      "sub": 5130,
      "Ġteacher": 5131,
      "Ġobviously": 5132,
      "Ġprivile": 5133,
      "Ġdemonstrated": 5134,
      "Ġarchives": 5135,
      "Ġdistribution": 5136,
      "Ġtel": 5137,
      "Ġsan": 5138,
      "Ġhate": 5139,
      "Ġek": 5140,
      "Ġlod": 5141,
      "Ġasking": 5142,
      "Ġpride": 5143,
      "Ġcomposition": 5144,
      "Ġsmile": 5145,
      "Ġentr": 5146,
      "Ġtells": 5147,
      "Ġtrium": 5148,
      "Ġbuilt": 5149,
      "Ġgrowth": 5150,
      "Ġpotential": 5151,
      "Ġplainly": 5152,
      "Ġmountain": 5153,
      "Ġinstructions": 5154,
      "Ġadapted": 5155,
      "bour": 5156,
      "sky": 5157,
      "Ġip": 5158,
      "Ġcad": 5159,
      "lli": 5160,
      "thern": 5161,
      "Ġkon": 5162,
      "Ġsubdu": 5163,
      "Ġbetr": 5164,
      "Ġovercome": 5165,
      "Ġpolish": 5166,
      "Ġproduct": 5167,
      "Ġcontinent": 5168,
      "Ġcharacteristics": 5169,
      "Ġdriven": 5170,
      "Ġstandard": 5171,
      "Ġhelvet": 5172,
      "Ġtrees": 5173,
      "Ġinformed": 5174,
      "Ġomnes": 5175,
      "Ġomnibus": 5176,
      "Ġschools": 5177,
      "world": 5178,
      "Ġmarshal": 5179,
      "Ġfurnished": 5180,
      "Ġhitler": 5181,
      "Ġcenturies": 5182,
      "bid": 5183,
      "erted": 5184,
      "Ġfer": 5185,
      "Ġtow": 5186,
      "rier": 5187,
      "Ġabrah": 5188,
      "Ġphr": 5189,
      "Ġcommitt": 5190,
      "Ġwhereby": 5191,
      "Ġcompleted": 5192,
      "Ġsubjective": 5193,
      "Ġcontrast": 5194,
      "Ġexpansion": 5195,
      "Ġabraham": 5196,
      "Ġtant": 5197,
      "Ġpattern": 5198,
      "Ġgrown": 5199,
      "Ġuns": 5200,
      "Ġappeal": 5201,
      "Ġ56": 5202,
      "Ġslave": 5203,
      "Ġshowing": 5204,
      "Ġpleased": 5205,
      "Ġdelay": 5206,
      "Ġmeasured": 5207,
      "Ġacquaint": 5208,
      "Ġutterly": 5209,
      "cus": 5210,
      "kh": 5211,
      "Ġ/": 5212,
      "Ġmu": 5213,
      "Ġfocus": 5214,
      "vement": 5215,
      "Ġstro": 5216,
      "Ġship": 5217,
      "Ġintensity": 5218,
      "Ġdisorder": 5219,
      "enses": 5220,
      "Ġ55": 5221,
      "happ": 5222,
      "Ġdecree": 5223,
      "Ġevidently": 5224,
      "Ġexcited": 5225,
      "Ġlacking": 5226,
      "Ġpaid": 5227,
      "Ġsounds": 5228,
      "Ġpriori": 5229,
      "Ġnovember": 5230,
      "Ġessentially": 5231,
      "fl": 5232,
      "line": 5233,
      "ysi": 5234,
      "Ġante": 5235,
      "Ġtop": 5236,
      "Ġein": 5237,
      "Ġmole": 5238,
      "ivable": 5239,
      "anda": 5240,
      "Ġcham": 5241,
      "Ġintent": 5242,
      "Ġparties": 5243,
      "Ġgenerations": 5244,
      "Ġproposed": 5245,
      "Ġextended": 5246,
      "Ġexposed": 5247,
      "attered": 5248,
      "Ġmonaster": 5249,
      "Ġfallen": 5250,
      "Ġcommunic": 5251,
      "Ġinclination": 5252,
      "Ġaffection": 5253,
      "Ġbrothers": 5254,
      "Ġsalt": 5255,
      "Ġsquares": 5256,
      "Ġarcs": 5257,
      "Ġsacred": 5258,
      "Ġpictures": 5259,
      "Ġliterature": 5260,
      "aign": 5261,
      "iated": 5262,
      "Ġae": 5263,
      "Ġpressed": 5264,
      "ano": 5265,
      "thy": 5266,
      "Ġgy": 5267,
      "quate": 5268,
      "Ġrud": 5269,
      "ulous": 5270,
      "Ġcomfort": 5271,
      "erer": 5272,
      "mented": 5273,
      "Ġnative": 5274,
      "Ġcorner": 5275,
      "Ġglory": 5276,
      "heres": 5277,
      "Ġprovince": 5278,
      "archy": 5279,
      "ugal": 5280,
      "Ġcastruc": 5281,
      "Ġsatisfy": 5282,
      "Ġmechanical": 5283,
      "Ġwonderful": 5284,
      "Ġpermanent": 5285,
      "Ġcastruccio": 5286,
      "27": 5287,
      "iour": 5288,
      "tt": 5289,
      "zen": 5290,
      "Ġcam": 5291,
      "Ġcaught": 5292,
      "icus": 5293,
      "Ġcomplic": 5294,
      "arded": 5295,
      "Ġspher": 5296,
      "Ġcommitted": 5297,
      "Ġpreserve": 5298,
      "Ġequation": 5299,
      "iae": 5300,
      "Ġadvice": 5301,
      "Ġplanet": 5302,
      "Ġlearnt": 5303,
      "Ġincluding": 5304,
      "Ġelsewhere": 5305,
      "Ġcutting": 5306,
      "Ġcylin": 5307,
      "Ġappropriate": 5308,
      "Ġadopted": 5309,
      "arant": 5310,
      "Ġnormal": 5311,
      "lla": 5312,
      "Ġgame": 5313,
      "imil": 5314,
      "Ġstorm": 5315,
      "Ġseed": 5316,
      "osph": 5317,
      "Ġflame": 5318,
      "Ġxl": 5319,
      "Ġexamined": 5320,
      "Ġperfection": 5321,
      "Ġoccurs": 5322,
      "Ġaxi": 5323,
      "Ġinstruments": 5324,
      "Ġquarters": 5325,
      "Ġstopped": 5326,
      "Ġastronom": 5327,
      "Ġjourney": 5328,
      "Ġthoroughly": 5329,
      "Ġcoward": 5330,
      "Ġsyzygies": 5331,
      "23": 5332,
      "ference": 5333,
      "Ġabund": 5334,
      "activity": 5335,
      "Ġconsult": 5336,
      "Ġprejud": 5337,
      "Ġrecomm": 5338,
      "Ġincident": 5339,
      "Ġdirections": 5340,
      "Ġcurious": 5341,
      "Ġreveals": 5342,
      "Ġfriendship": 5343,
      "Ġuran": 5344,
      "Ġultimately": 5345,
      "Ġsaved": 5346,
      "Ġgeometry": 5347,
      "Ġacknowled": 5348,
      "Ġsimultaneously": 5349,
      "thusi": 5350,
      "Ġisaac": 5351,
      "Ġkonigsberg": 5352,
      "200": 5353,
      "Ġsor": 5354,
      "Ġetern": 5355,
      "Ġeager": 5356,
      "Ġejus": 5357,
      "Ġfrag": 5358,
      "Ġring": 5359,
      "Ġvil": 5360,
      "ouses": 5361,
      "ected": 5362,
      "Ġtrade": 5363,
      "Ġenthusi": 5364,
      "Ġpron": 5365,
      "erences": 5366,
      "clf": 5367,
      "ocks": 5368,
      "Ġsuffered": 5369,
      "Ġolder": 5370,
      "exist": 5371,
      "Ġcampaign": 5372,
      "Ġsupported": 5373,
      "Ġindependently": 5374,
      "Ġanalogy": 5375,
      "Ġexcitement": 5376,
      "footnote": 5377,
      "-\"": 5378,
      "24": 5379,
      "long": 5380,
      "pere": 5381,
      "ested": 5382,
      "Ġequival": 5383,
      "Ġendure": 5384,
      "Ġdefine": 5385,
      "Ġcrime": 5386,
      "Ġbroke": 5387,
      "Ġhyper": 5388,
      "Ġhonest": 5389,
      "Ġannihil": 5390,
      "Ġerrors": 5391,
      "Ġidentical": 5392,
      "Ġuneas": 5393,
      "Ġearnest": 5394,
      "rid": 5395,
      "Ġsons": 5396,
      "encies": 5397,
      "Ġlise": 5398,
      "step": 5399,
      "Ġneut": 5400,
      "right": 5401,
      "eme": 5402,
      "Ġintend": 5403,
      "Ġbold": 5404,
      "arians": 5405,
      "Ġacted": 5406,
      "who": 5407,
      "Ġglau": 5408,
      "atively": 5409,
      "Ġcausa": 5410,
      "Ġregards": 5411,
      "Ġsubstit": 5412,
      "Ġswift": 5413,
      "ground": 5414,
      "Ġextrem": 5415,
      "Ġascent": 5416,
      "Ġdeparture": 5417,
      "Ġdiameters": 5418,
      "Ġinstincts": 5419,
      "Ġprofessor": 5420,
      "Ġaccurate": 5421,
      "Ġremarked": 5422,
      "Ġcrews": 5423,
      "Ġarbitr": 5424,
      "Ġdaughter": 5425,
      "Ġtrajectory": 5426,
      "mon": 5427,
      "Ġox": 5428,
      "edy": 5429,
      "ounce": 5430,
      "Ġintense": 5431,
      "otr": 5432,
      "Ġours": 5433,
      "Ġrole": 5434,
      "Ġindef": 5435,
      "Ġspeaks": 5436,
      "Ġneglect": 5437,
      "Ġcurv": 5438,
      "Ġedition": 5439,
      "Ġholding": 5440,
      "Ġbehold": 5441,
      "Ġseparation": 5442,
      "Ġcalm": 5443,
      "Ġsusp": 5444,
      "Ġwalls": 5445,
      "Ġsacrific": 5446,
      "Ġfairly": 5447,
      "Ġsettle": 5448,
      "Ġgarden": 5449,
      "Ġenormous": 5450,
      "Ġtriumph": 5451,
      "hi": 5452,
      "kes": 5453,
      "isset": 5454,
      "arn": 5455,
      "Ġnonsense": 5456,
      "Ġmoves": 5457,
      "Ġrout": 5458,
      "Ġseason": 5459,
      "pping": 5460,
      "Ġconsol": 5461,
      "Ġgenu": 5462,
      "Ġseeking": 5463,
      "Ġassent": 5464,
      "Ġextinct": 5465,
      "Ġproduces": 5466,
      "Ġirr": 5467,
      "Ġassumption": 5468,
      "Ġoccasions": 5469,
      "Ġbringing": 5470,
      "aimed": 5471,
      "Ġvictor": 5472,
      "Ġviolence": 5473,
      "Ġuniformly": 5474,
      "Ġbuilding": 5475,
      "Ġweapons": 5476,
      "Ġempirical": 5477,
      "Ġintuition": 5478,
      "Ġincapable": 5479,
      "Ġeinstein": 5480,
      "mar": 5481,
      "ror": 5482,
      "val": 5483,
      "Ġot": 5484,
      "Ġbd": 5485,
      "Ġcess": 5486,
      "Ġcces": 5487,
      "Ġpor": 5488,
      "rose": 5489,
      "Ġrising": 5490,
      "Ġcompet": 5491,
      "Ġclar": 5492,
      "clock": 5493,
      "Ġsimpl": 5494,
      "Ġfinding": 5495,
      "Ġcolours": 5496,
      "Ġaccordance": 5497,
      "Ġminutes": 5498,
      "Ġseriously": 5499,
      "Ġrevolutionary": 5500,
      "Ġcultiv": 5501,
      "Ġdeclared": 5502,
      "Ġstrike": 5503,
      "Ġmedic": 5504,
      "Ġaims": 5505,
      "Ġrarely": 5506,
      "Ġhybrids": 5507,
      "Ġemphas": 5508,
      "Ġprogram": 5509,
      "german": 5510,
      "Ġekst": 5511,
      "inn": 5512,
      "Ġbab": 5513,
      "Ġmale": 5514,
      "ita": 5515,
      "ales": 5516,
      "them": 5517,
      "Ġrail": 5518,
      "Ġsets": 5519,
      "Ġadvers": 5520,
      "Ġcommission": 5521,
      "Ġsubjectivity": 5522,
      "ierke": 5523,
      "Ġsocialism": 5524,
      "Ġcastris": 5525,
      "Ġapprehended": 5526,
      "Ġoccupy": 5527,
      "Ġindicate": 5528,
      "Ġsurrounded": 5529,
      "Ġgarrison": 5530,
      "Ġterritory": 5531,
      "Ġeggs": 5532,
      "Ġdiscipl": 5533,
      "Ġsympathy": 5534,
      "Ġglaucon": 5535,
      "Ġ\\": 5536,
      "Ġmat": 5537,
      "Ġpu": 5538,
      "Ġraces": 5539,
      "Ġconsum": 5540,
      "Ġequit": 5541,
      "have": 5542,
      "Ġadvent": 5543,
      "Ġcommanded": 5544,
      "Ġprimitive": 5545,
      "Ġmistaken": 5546,
      "Ġdealing": 5547,
      "Ġsettled": 5548,
      "Ġisolated": 5549,
      "Ġhorizon": 5550,
      "Ġbacon": 5551,
      "Ġmonastery": 5552,
      "la": 5553,
      "rating": 5554,
      "Ġhun": 5555,
      "Ġcities": 5556,
      "Ġkierke": 5557,
      "emed": 5558,
      "Ġquid": 5559,
      "Ġaccess": 5560,
      "Ġattend": 5561,
      "erved": 5562,
      "lessly": 5563,
      "Ġlegions": 5564,
      "Ġconviction": 5565,
      "Ġdeceived": 5566,
      "Ġfrequent": 5567,
      "Ġundou": 5568,
      "Ġanalogous": 5569,
      "Ġarrangement": 5570,
      "Ġbenefit": 5571,
      "Ġvoluntary": 5572,
      "Ġfloor": 5573,
      "Ġvienna": 5574,
      "Ġthread": 5575,
      "ino": 5576,
      "aters": 5577,
      "itary": 5578,
      "uten": 5579,
      "Ġshare": 5580,
      "emen": 5581,
      "antly": 5582,
      "Ġgenerated": 5583,
      "Ġreputation": 5584,
      "Ġinterrupt": 5585,
      "Ġrecently": 5586,
      "Ġvalid": 5587,
      "Ġutmost": 5588,
      "Ġcommunication": 5589,
      "Ġslightest": 5590,
      "Ġconsistent": 5591,
      "ulses": 5592,
      "Ġcivit": 5593,
      "Ġproletarian": 5594,
      "Ġrhine": 5595,
      "Ġunequ": 5596,
      "Ġpyotr": 5597,
      "Ġmountains": 5598,
      "Ġchemical": 5599,
      "Ġsuperficies": 5600,
      "Ġsupreme": 5601,
      "Ġparadox": 5602,
      "Ġrevelation": 5603,
      "Ġuranium": 5604,
      "vent": 5605,
      "Ġcust": 5606,
      "Ġmount": 5607,
      "Ġdans": 5608,
      "Ġunhapp": 5609,
      "Ġalliance": 5610,
      "Ġja": 5611,
      "Ġpoets": 5612,
      "Ġclever": 5613,
      "Ġlastly": 5614,
      "ucid": 5615,
      "Ġ96": 5616,
      "Ġfurthermore": 5617,
      "Ġrulers": 5618,
      "Ġteaching": 5619,
      "Ġcapitalist": 5620,
      "Ġpoetry": 5621,
      "Ġdescendants": 5622,
      "Ġtradition": 5623,
      "Ġfemale": 5624,
      "Ġdistrict": 5625,
      "Ġinnocent": 5626,
      "Ġcylinder": 5627,
      "bly": 5628,
      "form": 5629,
      "vii": 5630,
      "Ġtree": 5631,
      "atives": 5632,
      "Ġhill": 5633,
      "Ġhuss": 5634,
      "Ġholes": 5635,
      "Ġmi": 5636,
      "ims": 5637,
      "agon": 5638,
      "Ġspr": 5639,
      "Ġclo": 5640,
      "Ġpeas": 5641,
      "Ġcircular": 5642,
      "Ġaccordingly": 5643,
      "Ġmember": 5644,
      "Ġsentiment": 5645,
      "Ġpreviously": 5646,
      "Ġcontinuous": 5647,
      "Ġfeltre": 5648,
      "Ġembry": 5649,
      "Ġphysician": 5650,
      "Ġcogito": 5651,
      "Ġwithdraw": 5652,
      "Ġtyrann": 5653,
      "26": 5654,
      "four": 5655,
      "nat": 5656,
      "Ġence": 5657,
      "Ġmix": 5658,
      "Ġped": 5659,
      "Ġecl": 5660,
      "Ġreverse": 5661,
      "Ġrejo": 5662,
      "Ġstead": 5663,
      "Ġevol": 5664,
      "Ġgreatness": 5665,
      "Ġindians": 5666,
      "Ġ57": 5667,
      "Ġinsp": 5668,
      "Ġeste": 5669,
      "Ġsaty": 5670,
      "retched": 5671,
      "Ġdiet": 5672,
      "Ġanti": 5673,
      "Ġrecognition": 5674,
      "Ġthickness": 5675,
      "Ġbritish": 5676,
      "Ġassistance": 5677,
      "gaard": 5678,
      "Ġencounter": 5679,
      "Ġuneasiness": 5680,
      "Ġgenuine": 5681,
      "Ġccesar": 5682,
      "Ġundoubted": 5683,
      "mod": 5684,
      "Ġmari": 5685,
      "Ġpil": 5686,
      "Ġdin": 5687,
      "Ġeorum": 5688,
      "asc": 5689,
      "Ġhegel": 5690,
      "Ġconic": 5691,
      "iron": 5692,
      "Ġprohib": 5693,
      "Ġunite": 5694,
      "oused": 5695,
      "arted": 5696,
      "things": 5697,
      "Ġdism": 5698,
      "Ġcompounded": 5699,
      "Ġprec": 5700,
      "Ġparab": 5701,
      "Ġ183": 5702,
      "Ġslaves": 5703,
      "ibility": 5704,
      "Ġcollection": 5705,
      "Ġcarriage": 5706,
      "Ġminist": 5707,
      "Ġengage": 5708,
      "Ġsetting": 5709,
      "Ġbreeds": 5710,
      "Ġceased": 5711,
      "Ġ190": 5712,
      "Ġdisposition": 5713,
      "Ġpainful": 5714,
      "Ġsuspect": 5715,
      "Ġpromise": 5716,
      "Ġanxious": 5717,
      "Ġsolely": 5718,
      "Ġbehaviour": 5719,
      "Ġcensor": 5720,
      "Ġdilig": 5721,
      "Ġdrunk": 5722,
      "Ġmetamorphosis": 5723,
      "bri": 5724,
      "iable": 5725,
      "rain": 5726,
      "such": 5727,
      "erred": 5728,
      "Ġgh": 5729,
      "Ġnostr": 5730,
      "Ġconject": 5731,
      "urance": 5732,
      "Ġchlor": 5733,
      "Ġimplic": 5734,
      "orted": 5735,
      "Ġuses": 5736,
      "Ġpossi": 5737,
      "Ġprem": 5738,
      "arium": 5739,
      "Ġequator": 5740,
      "Ġroyal": 5741,
      "Ġprinces": 5742,
      "Ġchanging": 5743,
      "Ġconcealed": 5744,
      "Ġdenied": 5745,
      "Ġattempted": 5746,
      "Ġsoldier": 5747,
      "Ġsky": 5748,
      "Ġsources": 5749,
      "Ġindicated": 5750,
      "Ġhurt": 5751,
      "Ġconfirmed": 5752,
      "Ġinstitutions": 5753,
      "Ġwritings": 5754,
      "âĢ²_": 5755,
      "Ġsiege": 5756,
      "Ġhyperbol": 5757,
      "Ġkierkegaard": 5758,
      "Ġsate": 5759,
      "Ġdress": 5760,
      "Ġears": 5761,
      "thetic": 5762,
      "Ġrear": 5763,
      "Ġretained": 5764,
      "Ġstated": 5765,
      "Ġshalt": 5766,
      "Ġimpe": 5767,
      "aux": 5768,
      "aret": 5769,
      "Ġspheres": 5770,
      "Ġremind": 5771,
      "ervation": 5772,
      "ocked": 5773,
      "Ġdescended": 5774,
      "Ġcaiss": 5775,
      "Ġprovin": 5776,
      "Ġincluded": 5777,
      "Ġpurposes": 5778,
      "Ġsynthesis": 5779,
      "Ġdialect": 5780,
      "Ġaverage": 5781,
      "Ġeternity": 5782,
      "ds": 5783,
      "rays": 5784,
      "war": 5785,
      "Ġtact": 5786,
      "Ġsene": 5787,
      "Ġcand": 5788,
      "Ġfoss": 5789,
      "Ġpt": 5790,
      "Ġpom": 5791,
      "Ġdir": 5792,
      "Ġdressed": 5793,
      "arge": 5794,
      "icles": 5795,
      "Ġasleep": 5796,
      "imony": 5797,
      "ading": 5798,
      "Ġthereof": 5799,
      "Ġjump": 5800,
      "auv": 5801,
      "agger": 5802,
      "oked": 5803,
      "Ġliable": 5804,
      "Ġfeels": 5805,
      "Ġregarding": 5806,
      "Ġsensations": 5807,
      "Ġruin": 5808,
      "Ġmisery": 5809,
      "Ġplayed": 5810,
      "Ġcarrying": 5811,
      "consciousness": 5812,
      "Ġcapitalism": 5813,
      "Ġprofession": 5814,
      "Ġrapidly": 5815,
      "Ġweek": 5816,
      "Ġunexpected": 5817,
      "28": 5818,
      "inent": 5819,
      "atically": 5820,
      "Ġmig": 5821,
      "Ġtomorrow": 5822,
      "Ġshut": 5823,
      "Ġprogen": 5824,
      "estial": 5825,
      "Ġquo": 5826,
      "Ġfeature": 5827,
      "anging": 5828,
      "Ġcastra": 5829,
      "Ġlands": 5830,
      "Ġfields": 5831,
      "Ġtheoretical": 5832,
      "Ġcelestial": 5833,
      "Ġcontemplation": 5834,
      "Ġuncertainty": 5835,
      "Ġfinger": 5836,
      "Ġalike": 5837,
      ".-": 5838,
      "Ġaz": 5839,
      "Ġari": 5840,
      "Ġcateg": 5841,
      "Ġmisf": 5842,
      "Ġlit": 5843,
      "Ġattained": 5844,
      "rial": 5845,
      "Ġenable": 5846,
      "bert": 5847,
      "Ġobjections": 5848,
      "Ġputs": 5849,
      "Ġpsychology": 5850,
      "Ġrevolve": 5851,
      "Ġimages": 5852,
      "Ġincreases": 5853,
      "Ġanaly": 5854,
      "Ġambass": 5855,
      "Ġindifference": 5856,
      "Ġinstitution": 5857,
      "ĠÂ£": 5858,
      "Ġendeavour": 5859,
      "Ġinherited": 5860,
      "Ġrisk": 5861,
      "Ġhinder": 5862,
      "Ġsatell": 5863,
      "hold": 5864,
      "mer": 5865,
      "Ġmamm": 5866,
      "Ġpist": 5867,
      "asse": 5868,
      "Ġreaction": 5869,
      "amma": 5870,
      "Ġplut": 5871,
      "Ġconsc": 5872,
      "Ġformations": 5873,
      "Ġindign": 5874,
      "Ġoppon": 5875,
      "Ġorganisation": 5876,
      "Ġaffair": 5877,
      "Ġsuccessful": 5878,
      "Ġmerch": 5879,
      "Ġurged": 5880,
      "Ġdemocratic": 5881,
      "Ġintelligent": 5882,
      "Ġgalile": 5883,
      "Ġgalax": 5884,
      "Ġnavy": 5885,
      "Ġpropaganda": 5886,
      "Ġrestrict": 5887,
      "reflect": 5888,
      "Ġconstructed": 5889,
      "Ġliquid": 5890,
      "bility": 5891,
      "can": 5892,
      "Ġix": 5893,
      "Ġdish": 5894,
      "oring": 5895,
      "lls": 5896,
      "Ġgest": 5897,
      "vert": 5898,
      "Ġnoted": 5899,
      "Ġstones": 5900,
      "Ġseized": 5901,
      "antic": 5902,
      "Ġmyster": 5903,
      "Ġquot": 5904,
      "Ġphysi": 5905,
      "Ġreliqu": 5906,
      "Ġrefused": 5907,
      "Ġindisp": 5908,
      "Ġrightly": 5909,
      "Ġ189": 5910,
      "Ġartific": 5911,
      "Ġlawy": 5912,
      "ushing": 5913,
      "Ġdispers": 5914,
      "Ġhostile": 5915,
      "Ġgrief": 5916,
      "Ġpreservation": 5917,
      "Ġnik": 5918,
      "Ġescapes": 5919,
      "Ġfatal": 5920,
      "Ġpierre": 5921,
      "Ġvulgar": 5922,
      "Ġsatyag": 5923,
      "Ġseneca": 5924,
      "Ġeb": 5925,
      "vey": 5926,
      "Ġsup": 5927,
      "Ġintegr": 5928,
      "Ġobey": 5929,
      "abled": 5930,
      "Ġpollen": 5931,
      "Ġsail": 5932,
      "Ġpresc": 5933,
      "Ġbrain": 5934,
      "Ġbelieves": 5935,
      "Ġinside": 5936,
      "Ġminor": 5937,
      "Ġdetermines": 5938,
      "Ġdisposal": 5939,
      "Ġstudies": 5940,
      "Ġpractically": 5941,
      "Ġprojects": 5942,
      "Ġguardians": 5943,
      "Ġreplaced": 5944,
      "Ġtransformed": 5945,
      "Ġattribute": 5946,
      "Ġcriticism": 5947,
      "Ġirreg": 5948,
      "Ġinjur": 5949,
      "Ġsnow": 5950,
      "Ġobserver": 5951,
      "Ġpeasants": 5952,
      ",)": 5953,
      "tes": 5954,
      "tem": 5955,
      "ancy": 5956,
      "itz": 5957,
      "rov": 5958,
      "Ġweigh": 5959,
      "Ġmeat": 5960,
      "Ġprocl": 5961,
      "cible": 5962,
      "Ġconsent": 5963,
      "Ġdread": 5964,
      "Ġ300": 5965,
      "Ġinfin": 5966,
      "Ġflow": 5967,
      "Ġcalling": 5968,
      "Ġawaken": 5969,
      "Ġservants": 5970,
      "rehensible": 5971,
      "Ġdelicate": 5972,
      "Ġmilk": 5973,
      "Ġallows": 5974,
      "Ġcopern": 5975,
      "Ġskill": 5976,
      "Ġlatitude": 5977,
      "Ġborrow": 5978,
      "Ġcomplain": 5979,
      "Ġsuspicion": 5980,
      "Ġambassad": 5981,
      "gent": 5982,
      "Ġfly": 5983,
      "Ġded": 5984,
      "Ġbearing": 5985,
      "Ġnobody": 5986,
      "Ġproc": 5987,
      "Ġplat": 5988,
      "place": 5989,
      "Ġdisint": 5990,
      "arer": 5991,
      "Ġclimate": 5992,
      "Ġinterc": 5993,
      "Ġwhereof": 5994,
      "Ġ500": 5995,
      "Ġoppression": 5996,
      "Ġmodifications": 5997,
      "Ġconceal": 5998,
      "Ġassuming": 5999,
      "Ġvolume": 6000,
      "Ġtouched": 6001,
      "ulsion": 6002,
      "Ġneighbour": 6003,
      "Ġabandon": 6004,
      "Ġnucleus": 6005,
      "Ġbombay": 6006,
      "Ġirregular": 6007,
      "ige": 6008,
      "Ġtends": 6009,
      "Ġtlie": 6010,
      "Ġarose": 6011,
      "inus": 6012,
      "Ġcath": 6013,
      "Ġfitted": 6014,
      "esc": 6015,
      "Ġreich": 6016,
      "Ġalive": 6017,
      "Ġtran": 6018,
      "Ġhasten": 6019,
      "Ġ200": 6020,
      "Ġseeks": 6021,
      "urnal": 6022,
      "Ġsupposition": 6023,
      "Ġconference": 6024,
      "Ġrecover": 6025,
      "Ġproducing": 6026,
      "Ġobserving": 6027,
      "Ġchapters": 6028,
      "Ġrevolving": 6029,
      "Ġleader": 6030,
      "Ġgrew": 6031,
      "Ġgreen": 6032,
      "Ġelectric": 6033,
      "Ġaustrian": 6034,
      "Ġofficials": 6035,
      "Ġsubsequently": 6036,
      "Ġexteriority": 6037,
      "\".": 6038,
      "):": 6039,
      "era": 6040,
      "Ġily": 6041,
      "enh": 6042,
      "Ġhouses": 6043,
      "Ġfil": 6044,
      "Ġtoler": 6045,
      "Ġnin": 6046,
      "Ġkant": 6047,
      "Ġject": 6048,
      "Ġhaste": 6049,
      "Ġcontend": 6050,
      "ruption": 6051,
      "Ġeveryone": 6052,
      "Ġexistent": 6053,
      "Ġcentres": 6054,
      "Ġfaire": 6055,
      "because": 6056,
      "issent": 6057,
      "Ġretreat": 6058,
      "Ġreceives": 6059,
      "Ġdistinctly": 6060,
      "Ġmajesty": 6061,
      "Ġreflecting": 6062,
      "Ġfalsehood": 6063,
      "Ġexperimental": 6064,
      "Ġfurnish": 6065,
      "restrial": 6066,
      "Ġtangent": 6067,
      "Ġcloser": 6068,
      "Ġcomplicated": 6069,
      "21": 6070,
      "iat": 6071,
      "jt": 6072,
      "oon": 6073,
      "Â®": 6074,
      "Ġtam": 6075,
      "Ġwil": 6076,
      "onic": 6077,
      "Ġdres": 6078,
      "Ġnaked": 6079,
      "Ġerect": 6080,
      "Ġnovel": 6081,
      "irect": 6082,
      "Ġdesper": 6083,
      "Ġsimplicity": 6084,
      "ribe": 6085,
      "Ġslim": 6086,
      "Ġdecis": 6087,
      "Ġmonk": 6088,
      "Ġinvent": 6089,
      "Ġinvention": 6090,
      "Ġforest": 6091,
      "Ġgrounds": 6092,
      "Ġtalked": 6093,
      "Ġreplace": 6094,
      "Ġdevil": 6095,
      "Ġcrossing": 6096,
      "Ġelectron": 6097,
      "Ġmutually": 6098,
      "Ġflee": 6099,
      "Ġcontaining": 6100,
      "Ġaccomplished": 6101,
      "Ġinherit": 6102,
      "Ġrecollection": 6103,
      "Ġresemblance": 6104,
      "].": 6105,
      "hr": 6106,
      "lo": 6107,
      "uros": 6108,
      "Â£": 6109,
      "Ġtending": 6110,
      "Ġcub": 6111,
      "Ġincons": 6112,
      "Ġdry": 6113,
      "icks": 6114,
      "Ġrebus": 6115,
      "utive": 6116,
      "rol": 6117,
      "Ġstages": 6118,
      "Ġrough": 6119,
      "iline": 6120,
      "Ġcher": 6121,
      "determ": 6122,
      "allen": 6123,
      "Ġwouldn": 6124,
      "Ġdisag": 6125,
      "Ġpock": 6126,
      "Ġimpressed": 6127,
      "fulness": 6128,
      "Ġgenerals": 6129,
      "Ġconfron": 6130,
      "Ġexped": 6131,
      "rats": 6132,
      "Ġimaginary": 6133,
      "Ġinclude": 6134,
      "Ġproceeds": 6135,
      "Ġdevoted": 6136,
      "Ġbarb": 6137,
      "Ġbeside": 6138,
      "Ġrejected": 6139,
      "Ġinvolved": 6140,
      "Ġadopt": 6141,
      "Ġagreement": 6142,
      "nexion": 6143,
      "Ġgymn": 6144,
      "Ġequivalent": 6145,
      ";-": 6146,
      "ht": 6147,
      "ped": 6148,
      "sar": 6149,
      "Ġsion": 6150,
      "Ġball": 6151,
      "Ġbud": 6152,
      "Ġpup": 6153,
      "Ġnay": 6154,
      "Ġecc": 6155,
      "Ġlumin": 6156,
      "Ġhem": 6157,
      "qui": 6158,
      "acc": 6159,
      "actory": 6160,
      "Ġlips": 6161,
      "Ġelbe": 6162,
      "gger": 6163,
      "Ġgets": 6164,
      "Ġforegoing": 6165,
      "Ġelev": 6166,
      "Ġtyrant": 6167,
      "Ġsympt": 6168,
      "Ġruling": 6169,
      "Ġmachines": 6170,
      "Ġhomer": 6171,
      "Ġaccuracy": 6172,
      "Ġscreen": 6173,
      "Ġsterility": 6174,
      "Ġaccompanied": 6175,
      "Ġindefinite": 6176,
      "Ġplutarch": 6177,
      "_)": 6178,
      "cf": 6179,
      "eu": 6180,
      "gre": 6181,
      "tum": 6182,
      "Ġpity": 6183,
      "isl": 6184,
      "Ġdav": 6185,
      "cel": 6186,
      "Ġhaun": 6187,
      "change": 6188,
      "Ġstore": 6189,
      "Ġatm": 6190,
      "Ġpros": 6191,
      "Ġunique": 6192,
      "iveness": 6193,
      "olay": 6194,
      "Ġspat": 6195,
      "Ġbeloved": 6196,
      "Ġpropose": 6197,
      "Ġconsiders": 6198,
      "ibly": 6199,
      "Ġsooner": 6200,
      "Ġreturning": 6201,
      "Ġstudied": 6202,
      "Ġcreatures": 6203,
      "semble": 6204,
      "Ġpatients": 6205,
      "Ġwalking": 6206,
      "Ġpaul": 6207,
      "Ġincomp": 6208,
      "Ġenviron": 6209,
      "Ġmasters": 6210,
      "Ġshadow": 6211,
      "Ġacquaintance": 6212,
      "Ġspherical": 6213,
      "Ġundoubtedly": 6214,
      "vant": 6215,
      "inarily": 6216,
      "Ġnov": 6217,
      "Ġconnexion": 6218,
      "Ġstock": 6219,
      "Ġmeas": 6220,
      "Ġunm": 6221,
      "Ġvid": 6222,
      "Ġplate": 6223,
      "ortune": 6224,
      "Ġbodily": 6225,
      "Ġindul": 6226,
      "Ġcoff": 6227,
      "Ġteeth": 6228,
      "Ġpark": 6229,
      "Ġmeanwhile": 6230,
      "Ġcharged": 6231,
      "Ġdepr": 6232,
      "Ġawa": 6233,
      "ondon": 6234,
      ".).": 6235,
      "Ġproductions": 6236,
      "Ġsuffice": 6237,
      "Ġguarant": 6238,
      "version": 6239,
      "Ġverte": 6240,
      "Ġtries": 6241,
      "Ġattacked": 6242,
      "Ġstarting": 6243,
      "Ġduties": 6244,
      "Ġlowest": 6245,
      "Ġgauls": 6246,
      "Ġsurpassing": 6247,
      "Ġmiracle": 6248,
      "Ġdisgrace": 6249,
      "Ġpursuit": 6250,
      "Ġconverted": 6251,
      "Ġchloride": 6252,
      "don": 6253,
      "sp": 6254,
      "uum": 6255,
      "Ġwaters": 6256,
      "Ġinversely": 6257,
      "itably": 6258,
      "Ġdif": 6259,
      "Ġdwell": 6260,
      "Ġbears": 6261,
      "Ġsul": 6262,
      "Ġmosc": 6263,
      "pel": 6264,
      "uman": 6265,
      "Ġvoid": 6266,
      "Ġkov": 6267,
      "raha": 6268,
      "Ġarrest": 6269,
      "Ġsax": 6270,
      "ordinates": 6271,
      "Ġcarries": 6272,
      "Ġwanting": 6273,
      "Ġanswers": 6274,
      "Ġincludes": 6275,
      "Ġgeological": 6276,
      "Ġsurprising": 6277,
      "Ġtestimony": 6278,
      "Ġintelligible": 6279,
      "Ġtails": 6280,
      "Ġniemen": 6281,
      "Ġdignity": 6282,
      "aur": 6283,
      "gio": 6284,
      "kt": 6285,
      "Ġbent": 6286,
      "itus": 6287,
      "Ġdar": 6288,
      "seen": 6289,
      "Ġstet": 6290,
      "Ġri": 6291,
      "Ġproves": 6292,
      "artes": 6293,
      "Ġenabled": 6294,
      "Ġroot": 6295,
      "Ġfoundations": 6296,
      "Ġsurren": 6297,
      "Ġdepot": 6298,
      "Ġartist": 6299,
      "Ġdecay": 6300,
      "Ġrevolutions": 6301,
      "Ġrespects": 6302,
      "Ġsituated": 6303,
      "Ġdispute": 6304,
      "Ġdoubtful": 6305,
      "Ġzoss": 6306,
      "Ġingen": 6307,
      "Ġlabien": 6308,
      "Ġstephen": 6309,
      "Ġdependent": 6310,
      "Ġcomprehension": 6311,
      "Ġconquer": 6312,
      "Ġstimuli": 6313,
      "Ġpositively": 6314,
      "Ġhopes": 6315,
      "Ġcommittee": 6316,
      "Ġmedicine": 6317,
      "Ġunhappy": 6318,
      "Ġnikolay": 6319,
      "Ġatmosph": 6320,
      "Ġmoscow": 6321,
      "Ġzossima": 6322,
      "some": 6323,
      "yev": 6324,
      "Ġ!": 6325,
      "Ġath": 6326,
      "Ġol": 6327,
      "Ġom": 6328,
      "any": 6329,
      "ician": 6330,
      "Ġlac": 6331,
      "Ġweep": 6332,
      "Ġselect": 6333,
      "Ġdost": 6334,
      "Ġintimate": 6335,
      "Ġplans": 6336,
      "Ġsaf": 6337,
      "Ġstatements": 6338,
      "Ġflood": 6339,
      "Ġsupposes": 6340,
      "Ġexpense": 6341,
      "Ġdiscern": 6342,
      "Ġvariable": 6343,
      "Ġjudged": 6344,
      "Ġsleeping": 6345,
      "Ġgentleman": 6346,
      "cope": 6347,
      "Ġimproved": 6348,
      "Ġheavenly": 6349,
      "Ġreciprocal": 6350,
      "Ġassociation": 6351,
      "Ġbatteries": 6352,
      "Ġcustoms": 6353,
      "40": 6354,
      "erie": 6355,
      "Ġcatch": 6356,
      "isen": 6357,
      "aly": 6358,
      "Ġease": 6359,
      "Ġreward": 6360,
      "amation": 6361,
      "Ġneck": 6362,
      "Ġchain": 6363,
      "Ġalle": 6364,
      "actions": 6365,
      "Ġoutward": 6366,
      "Ġformal": 6367,
      "Ġbrand": 6368,
      "Ġrose": 6369,
      "ologists": 6370,
      "Ġexpresses": 6371,
      "Ġstudent": 6372,
      "Ġeventually": 6373,
      "Ġpaths": 6374,
      "Ġdarkness": 6375,
      "Ġfifth": 6376,
      "Ġpropagated": 6377,
      "Ġburning": 6378,
      "Ġdresden": 6379,
      "22": 6380,
      "acious": 6381,
      "Ġscious": 6382,
      "Ġcro": 6383,
      "Ġdate": 6384,
      "Ġlondon": 6385,
      "chief": 6386,
      "Ġexagger": 6387,
      "Ġproel": 6388,
      "Ġchauv": 6389,
      "Ġmanuf": 6390,
      "Ġjes": 6391,
      "agne": 6392,
      "Ġthank": 6393,
      "angers": 6394,
      "Ġparfen": 6395,
      "Ġmarry": 6396,
      "Ġhumble": 6397,
      "edience": 6398,
      "Ġwheel": 6399,
      "Ġexplicit": 6400,
      "lessness": 6401,
      "Ġestim": 6402,
      "Ġserves": 6403,
      "Ġvalu": 6404,
      "Ġtelling": 6405,
      "Ġlargely": 6406,
      "Ġinnum": 6407,
      "Ġmiserable": 6408,
      "Ġcorrespondence": 6409,
      "Ġannual": 6410,
      "Ġascertain": 6411,
      "Ġlieuten": 6412,
      "Ġconsisting": 6413,
      "Ġintroduce": 6414,
      "Ġadapt": 6415,
      "Ġbehavior": 6416,
      "Ġprussia": 6417,
      "Ġchemist": 6418,
      "Ġglobes": 6419,
      "Ġstettin": 6420,
      "Ġparfenovitch": 6421,
      "\"--": 6422,
      "Ġsle": 6423,
      "Ġbow": 6424,
      "Ġfish": 6425,
      "isible": 6426,
      "Ġgaz": 6427,
      "olit": 6428,
      "auer": 6429,
      "Ġsomewhere": 6430,
      "Ġliked": 6431,
      "Ġresour": 6432,
      "Ġcommer": 6433,
      "Ġeverybody": 6434,
      "Ġpresents": 6435,
      "ogene": 6436,
      "velope": 6437,
      "fulf": 6438,
      "Ġglance": 6439,
      "Ġscound": 6440,
      "Ġillusion": 6441,
      "Ġhearts": 6442,
      "Ġimagined": 6443,
      "Ġargue": 6444,
      "Ġdeclare": 6445,
      "Ġfunctions": 6446,
      "Ġpunish": 6447,
      "Ġprepare": 6448,
      "Ġgreeks": 6449,
      "Ġfamilies": 6450,
      "Ġcuir": 6451,
      "Ġbreadth": 6452,
      "Ġfoolish": 6453,
      "Ġexclusively": 6454,
      "ilinear": 6455,
      "Ġkovno": 6456,
      "good": 6457,
      "Ġss": 6458,
      "Ġsams": 6459,
      "erate": 6460,
      "Ġbav": 6461,
      "Ġfoun": 6462,
      "anim": 6463,
      "arme": 6464,
      "icable": 6465,
      "Ġlic": 6466,
      "Ġgather": 6467,
      "Ġdeed": 6468,
      "Ġunus": 6469,
      "Ġ\"_": 6470,
      "Ġimit": 6471,
      "Ġamaz": 6472,
      "Ġpresident": 6473,
      "Ġemitted": 6474,
      "ibi": 6475,
      "Ġkey": 6476,
      "Ġguide": 6477,
      "Ġpursue": 6478,
      "Ġarranged": 6479,
      "Ġproceeding": 6480,
      "Ġplaying": 6481,
      "Ġterror": 6482,
      "vereign": 6483,
      "engers": 6484,
      ".--_": 6485,
      "Ġcriminal": 6486,
      "Ġinheritance": 6487,
      "bon": 6488,
      "cle": 6489,
      "liness": 6490,
      "uity": 6491,
      "viii": 6492,
      "Ġdrive": 6493,
      "Ġeu": 6494,
      "Ġisn": 6495,
      "Ġlust": 6496,
      "ctor": 6497,
      "Ġnoct": 6498,
      "ille": 6499,
      "Ġsoph": 6500,
      "ems": 6501,
      "def": 6502,
      "Ġspend": 6503,
      "Ġposen": 6504,
      "Ġouter": 6505,
      "Ġhohl": 6506,
      "Ġdescartes": 6507,
      "Ġextend": 6508,
      "Ġblow": 6509,
      "Ġblue": 6510,
      "Ġdifferently": 6511,
      "cked": 6512,
      "Ġexplains": 6513,
      "Ġguess": 6514,
      "Ġnationalism": 6515,
      "Ġbackward": 6516,
      "Ġcurios": 6517,
      "Ġscheme": 6518,
      "Ġdestined": 6519,
      "Ġavo": 6520,
      "Ġtional": 6521,
      "Ġauthorities": 6522,
      "Ġexpectation": 6523,
      "Ġsilver": 6524,
      "Ġattacks": 6525,
      "Ġruler": 6526,
      "Ġweights": 6527,
      "Ġembar": 6528,
      "Ġvenus": 6529,
      "Ġcritical": 6530,
      "Ġalexand": 6531,
      "Ġpersuaded": 6532,
      "Ġladies": 6533,
      "Ġcomrades": 6534,
      "Ġinnumerable": 6535,
      "Ġhohlakov": 6536,
      "bra": 6537,
      "ipped": 6538,
      "oys": 6539,
      "Ġwings": 6540,
      "Ġfathers": 6541,
      "icious": 6542,
      "Ġasks": 6543,
      "Ġheide": 6544,
      "Ġstir": 6545,
      "Ġshop": 6546,
      "Ġprog": 6547,
      "antur": 6548,
      "Ġensemble": 6549,
      "arya": 6550,
      "Ġprice": 6551,
      "Ġgoodness": 6552,
      "Ġoppid": 6553,
      "Ġgrace": 6554,
      "Ġinvari": 6555,
      "Ġforever": 6556,
      "ussian": 6557,
      "Ġdestiny": 6558,
      "ensional": 6559,
      "Ġantiqu": 6560,
      "Ġsixth": 6561,
      "Ġterrestrial": 6562,
      "Ġcombination": 6563,
      "Ġaccurately": 6564,
      "Ġclaims": 6565,
      "Ġceler": 6566,
      "Ġbourgeoisie": 6567,
      "Ġsynthetic": 6568,
      "Ġbranches": 6569,
      "Ġcontemporary": 6570,
      "Ġexhausted": 6571,
      "Ġocto": 6572,
      "Ġwestphalia": 6573,
      "Ġcaissons": 6574,
      "Ġsatyagraha": 6575,
      "Ġcuirass": 6576,
      "dat": 6577,
      "now": 6578,
      "part": 6579,
      "ye": 6580,
      "Ġsends": 6581,
      "Ġhide": 6582,
      "Ġmic": 6583,
      "Ġpaces": 6584,
      "iti": 6585,
      "icide": 6586,
      "Ġlis": 6587,
      "ctive": 6588,
      "room": 6589,
      "ldom": 6590,
      "Ġfrank": 6591,
      "ivities": 6592,
      "Ġleap": 6593,
      "Ġworship": 6594,
      "Ġje": 6595,
      "Ġimitation": 6596,
      "otions": 6597,
      "Ġdrew": 6598,
      "Ġattitudes": 6599,
      "ovist": 6600,
      "Ġradical": 6601,
      "Ġcele": 6602,
      "Ġtypes": 6603,
      "Ġcontinues": 6604,
      "Ġweaker": 6605,
      "Ġattractive": 6606,
      "Ġhostes": 6607,
      "Ġwalked": 6608,
      "Ġharmon": 6609,
      "Ġrhy": 6610,
      "Ġdemonstration": 6611,
      "Ġregularly": 6612,
      "Ġgirls": 6613,
      "Ġwitnesses": 6614,
      "Ġtitle": 6615,
      "Ġphrase": 6616,
      "Ġarbitrary": 6617,
      "Ġdecisive": 6618,
      "upp": 6619,
      "Ġtides": 6620,
      "Ġsjt": 6621,
      "Ġbc": 6622,
      "Ġcic": 6623,
      "Ġcert": 6624,
      "eses": 6625,
      "Ġdrop": 6626,
      "Ġec": 6627,
      "Ġloses": 6628,
      "Ġlosing": 6629,
      "Ġstaff": 6630,
      "Ġray": 6631,
      "Ġkir": 6632,
      "Ġchest": 6633,
      "Ġquas": 6634,
      "Ġplates": 6635,
      "otic": 6636,
      "Ġenquir": 6637,
      "Ġcontents": 6638,
      "Ġloves": 6639,
      "Ġfee": 6640,
      "Ġprelim": 6641,
      "Ġequations": 6642,
      "Ġoverth": 6643,
      "Ġxi": 6644,
      "Ġconcur": 6645,
      "upon": 6646,
      "Ġedge": 6647,
      "Ġsituations": 6648,
      "....\"": 6649,
      "ĠĠĠĠĠĠĠĠĠĠĠĠĠĠĠĠĠĠĠĠĠĠĠĠ": 6650,
      "Ġlacks": 6651,
      "Ġsuspected": 6652,
      "Ġtouching": 6653,
      "Ġcorresponds": 6654,
      "Ġpromised": 6655,
      "Ġcombined": 6656,
      "Ġalexander": 6657,
      "Ġdisgu": 6658,
      "Ġdefeat": 6659,
      "pereur": 6660,
      "Ġariovist": 6661,
      "fee": 6662,
      "uan": 6663,
      "wind": 6664,
      "Ġ#": 6665,
      "Ġost": 6666,
      "Ġcure": 6667,
      "Ġfro": 6668,
      "Ġfile": 6669,
      "Ġfaint": 6670,
      "Ġflying": 6671,
      "Ġseldom": 6672,
      "Ġkh": 6673,
      "ivered": 6674,
      "Ġspin": 6675,
      "Ġdesir": 6676,
      "Ġresign": 6677,
      "Ġprecip": 6678,
      "Ġclock": 6679,
      "Ġjustified": 6680,
      "whel": 6681,
      "Ġtransmitted": 6682,
      "Ġpresently": 6683,
      "Ġscattered": 6684,
      "Ġnaturalists": 6685,
      "Ġeasier": 6686,
      "Ġtrag": 6687,
      "Ġprovidence": 6688,
      "Ġsuperst": 6689,
      "Ġinterested": 6690,
      "Ġelementary": 6691,
      "Ġresemble": 6692,
      "Ġsupplied": 6693,
      "Ġdeviation": 6694,
      "Ġcohorts": 6695,
      "Ġinevitable": 6696,
      "bourg": 6697,
      "Ġintentions": 6698,
      "Ġacknowledged": 6699,
      "Ġmanufact": 6700,
      "armee": 6701,
      "://": 6702,
      "dim": 6703,
      "iest": 6704,
      "pical": 6705,
      "rates": 6706,
      "Ġ{": 6707,
      "Ġopt": 6708,
      "Ġbill": 6709,
      "Ġcru": 6710,
      "Ġmand": 6711,
      "Ġfu": 6712,
      "Ġfought": 6713,
      "Ġpd": 6714,
      "Ġinward": 6715,
      "orable": 6716,
      "Ġnur": 6717,
      "thag": 6718,
      "Ġlan": 6719,
      "Ġseize": 6720,
      "Ġwasn": 6721,
      "Ġunlike": 6722,
      "geon": 6723,
      "Ġarid": 6724,
      "Ġworry": 6725,
      "Ġenvelope": 6726,
      "Ġfeed": 6727,
      "Ġsheth": 6728,
      "Ġinference": 6729,
      "Ġoverwhel": 6730,
      "Ġdiscourse": 6731,
      "racted": 6732,
      "Ġfollowers": 6733,
      "Ġbelieving": 6734,
      "Ġvaried": 6735,
      "Ġneglected": 6736,
      "Ġlegisl": 6737,
      "Ġgovernor": 6738,
      "Ġdecembre": 6739,
      "Ġuniversally": 6740,
      "Ġadvantages": 6741,
      "Ġbrigades": 6742,
      "Ġcomprehend": 6743,
      "Ġescaped": 6744,
      "Ġsuperficial": 6745,
      "Ġsubtle": 6746,
      "Ġcondemned": 6747,
      "Ġsagr": 6748,
      "Ġsubduplicate": 6749,
      "Ġclarke": 6750,
      "Ġilyitch": 6751,
      "Ġenvironment": 6752,
      "hor": 6753,
      "pap": 6754,
      "Ġthrew": 6755,
      "Ġov": 6756,
      "Ġsab": 6757,
      "Ġmare": 6758,
      "Ġreven": 6759,
      "using": 6760,
      "Ġagent": 6761,
      "Ġreggio": 6762,
      "Ġobjectivity": 6763,
      "Ġassure": 6764,
      "Ġsla": 6765,
      "Ġsubjected": 6766,
      "Ġkeen": 6767,
      "imentary": 6768,
      "Ġcircumference": 6769,
      "Ġcreator": 6770,
      "Ġprompt": 6771,
      "Ġborders": 6772,
      "Ġderive": 6773,
      "Ġtowns": 6774,
      "Ġpriest": 6775,
      "Ġbenefic": 6776,
      "Ġfifty": 6777,
      "Ġprevented": 6778,
      "Ġbrave": 6779,
      "Ġamerican": 6780,
      "Ġcryst": 6781,
      "Ġburst": 6782,
      "Ġpermitted": 6783,
      "Ġcells": 6784,
      "Ġaltitude": 6785,
      "Ġtechnical": 6786,
      "Ġwriters": 6787,
      "Ġcredit": 6788,
      "Ġsorry": 6789,
      "having": 6790,
      "ik": 6791,
      "nes": 6792,
      "oe": 6793,
      "son": 6794,
      "yl": 6795,
      "Ġbarium": 6796,
      "Ġpac": 6797,
      "those": 6798,
      "Ġgate": 6799,
      "Ġnode": 6800,
      "cile": 6801,
      "Ġku": 6802,
      "Ġcannon": 6803,
      "Ġpartial": 6804,
      "Ġobli": 6805,
      "sip": 6806,
      "Ġpoison": 6807,
      "Ġphot": 6808,
      "Ġdreaming": 6809,
      "Ġregul": 6810,
      "Ġregret": 6811,
      "cede": 6812,
      "Ġsuppressed": 6813,
      "Ġwherefore": 6814,
      "Ġgoods": 6815,
      "attle": 6816,
      "bell": 6817,
      "Ġelabor": 6818,
      "Ġappearing": 6819,
      "Ġinsign": 6820,
      "Ġtrave": 6821,
      "Ġdoubts": 6822,
      "Ġdenom": 6823,
      "Ġgeorg": 6824,
      "Ġwax": 6825,
      "Ġmisunder": 6826,
      "Ġfavourable": 6827,
      "Ġtender": 6828,
      "Ġuniversity": 6829,
      "Ġindependence": 6830,
      "Ġranks": 6831,
      "Ġenterpr": 6832,
      "Ġpursued": 6833,
      "baron": 6834,
      "Ġperceptions": 6835,
      "Ġinequ": 6836,
      "Ġaxioms": 6837,
      "Ġsciousness": 6838,
      "Ġheidegger": 6839,
      "Ġcelebr": 6840,
      "oen": 6841,
      "Ġaqu": 6842,
      "Ġben": 6843,
      "Ġbath": 6844,
      "Ġinquire": 6845,
      "itur": 6846,
      "Ġwhis": 6847,
      "Ġgif": 6848,
      "Ġhell": 6849,
      "Ġstick": 6850,
      "Ġunwill": 6851,
      "ria": 6852,
      "Ġplays": 6853,
      "Ġencl": 6854,
      "Ġsubmit": 6855,
      "Ġpresum": 6856,
      "ogue": 6857,
      "Ġcorruption": 6858,
      "Ġindirect": 6859,
      "Ġequip": 6860,
      "Ġmeanings": 6861,
      "Ġsmo": 6862,
      "Ġpersonality": 6863,
      "Ġbreast": 6864,
      "Ġsentiments": 6865,
      "Ġcareer": 6866,
      "Ġzeal": 6867,
      "Ġteachers": 6868,
      "Ġborne": 6869,
      "Ġreduce": 6870,
      "Ġbeneath": 6871,
      "Ġeconomy": 6872,
      "Ġphysicist": 6873,
      "Ġdecrease": 6874,
      "Ġachieved": 6875,
      "Ġauxil": 6876,
      "Ġpsychoanalysis": 6877,
      "Ġmisfortune": 6878,
      "Ġcuriosity": 6879,
      "Ġpreliminary": 6880,
      "50": 6881,
      "Â«": 6882,
      "erl": 6883,
      "Ġhoc": 6884,
      "Ġfab": 6885,
      "Ġpush": 6886,
      "itors": 6887,
      "Ġgumb": 6888,
      "Ġforb": 6889,
      "Ġcong": 6890,
      "Ġrain": 6891,
      "Ġsections": 6892,
      "Ġsoil": 6893,
      "Ġviii": 6894,
      "Ġabrupt": 6895,
      "Ġconspic": 6896,
      "Ġadult": 6897,
      "Ġremo": 6898,
      "Ġinstruction": 6899,
      "Ġfactors": 6900,
      "plex": 6901,
      "Ġparticip": 6902,
      "Ġyellow": 6903,
      "Ġservices": 6904,
      "Ġnaples": 6905,
      "Ġopening": 6906,
      "Ġ150": 6907,
      "Ġboundary": 6908,
      "Ġamounts": 6909,
      "Ġlistened": 6910,
      "Ġindicates": 6911,
      "Ġsurpassed": 6912,
      "Ġprotection": 6913,
      "Ġaugmented": 6914,
      "asymach": 6915,
      "Ġprussian": 6916,
      "Ġclothes": 6917,
      "Ġsurrounding": 6918,
      "Ġvillage": 6919,
      "Ġenthusiasm": 6920,
      "natural": 6921,
      "Ġpocket": 6922,
      "asymachus": 6923,
      "ba": 6924,
      "uk": 6925,
      "Ġther": 6926,
      "Ġsand": 6927,
      "Ġsink": 6928,
      "eroy": 6929,
      "Ġik": 6930,
      "Ġband": 6931,
      "Ġcos": 6932,
      "Ġpale": 6933,
      "Ġinert": 6934,
      "Ġdual": 6935,
      "Ġsuicide": 6936,
      "ette": 6937,
      "Ġloving": 6938,
      "Ġlovers": 6939,
      "Ġnatal": 6940,
      "Ġexistential": 6941,
      "Ġemotions": 6942,
      "Ġpassive": 6943,
      "Ġmarcus": 6944,
      "Ġhereafter": 6945,
      "Ġworked": 6946,
      "Ġadds": 6947,
      "Ġirres": 6948,
      "Ġhelped": 6949,
      "Ġskin": 6950,
      "Ġmedit": 6951,
      "withstanding": 6952,
      "Ġpapers": 6953,
      "Ġepoch": 6954,
      "Ġpersuade": 6955,
      "Ġdrinking": 6956,
      "Ġaugust": 6957,
      "Ġgeometrical": 6958,
      "Ġshouted": 6959,
      "Ġachieve": 6960,
      "Ġbalance": 6961,
      "Ġdissolved": 6962,
      "Ġsubsequent": 6963,
      "Ġsubsist": 6964,
      "Ġhunger": 6965,
      "Ġmurdered": 6966,
      "Ġinterpreted": 6967,
      "iptic": 6968,
      "ogeneous": 6969,
      "Ġscoundrel": 6970,
      "Ġcuirassiers": 6971,
      "dimensional": 6972,
      "Ġslavery": 6973,
      "father": 6974,
      "flu": 6975,
      "ml": 6976,
      "sing": 6977,
      "were": 6978,
      "rels": 6979,
      "Ġsom": 6980,
      "Ġdyn": 6981,
      "Ġreun": 6982,
      "Ġfraction": 6983,
      "Ġram": 6984,
      "Ġwash": 6985,
      "Ġvow": 6986,
      "Ġneque": 6987,
      "Ġkung": 6988,
      "rav": 6989,
      "Ġarrow": 6990,
      "Ġanywhere": 6991,
      "Ġpermit": 6992,
      "Ġadh": 6993,
      "Ġposited": 6994,
      "oking": 6995,
      "Ġpresupp": 6996,
      "Ġthrasymachus": 6997,
      "Ġjustly": 6998,
      "Ġhook": 6999,
      "Ġworker": 7000,
      "Ġcolor": 7001,
      "Ġpurch": 7002,
      "Ġprovision": 7003,
      "Ġprovisions": 7004,
      "Ġsignify": 7005,
      "Ġcommands": 7006,
      "Ġchoosing": 7007,
      "Ġpossesses": 7008,
      "Ġseparates": 7009,
      "Ġantagon": 7010,
      "Ġreported": 7011,
      "Ġapproaching": 7012,
      "Ġhorsemen": 7013,
      "Ġcycl": 7014,
      "Ġinstrumental": 7015,
      "Ġcalculation": 7016,
      "Ġfulfilled": 7017,
      "Ġacknowledge": 7018,
      "Ġviceroy": 7019,
      "Ġsterile": 7020,
      "Ġbranch": 7021,
      "Ġpillau": 7022,
      "Ġwesel": 7023,
      "Ġdiscipline": 7024,
      "Ġmeasuring": 7025,
      "48": 7026,
      "off": 7027,
      "tu": 7028,
      "Ġos": 7029,
      "onium": 7030,
      "Ġbind": 7031,
      "Ġhan": 7032,
      "Ġcc": 7033,
      "Ġmitt": 7034,
      "Ġpitch": 7035,
      "Ġnom": 7036,
      "Ġissue": 7037,
      "Ġgas": 7038,
      "Ġwear": 7039,
      "Ġvague": 7040,
      "olic": 7041,
      "ements": 7042,
      "Ġquos": 7043,
      "Ġmanage": 7044,
      "unci": 7045,
      "Ġdisch": 7046,
      "Ġconsil": 7047,
      "aging": 7048,
      "Ġindust": 7049,
      "Ġcoast": 7050,
      "Ġsmiled": 7051,
      "Ġglor": 7052,
      "Ġwriter": 7053,
      "Ġimmov": 7054,
      "Ġplacing": 7055,
      "Ġcausing": 7056,
      "Ġbreaking": 7057,
      "Ġprofit": 7058,
      "Ġdimension": 7059,
      "Ġrelationship": 7060,
      "Ġconcerns": 7061,
      "Ġlatin": 7062,
      "Ġdiscoveries": 7063,
      "Ġrequest": 7064,
      "Ġfatig": 7065,
      "Ġfertility": 7066,
      "organ": 7067,
      "Ġconjunction": 7068,
      "diame": 7069,
      "Ġrecommend": 7070,
      "Ġcurvature": 7071,
      "Ġinterrupted": 7072,
      "Ġhyperbola": 7073,
      "Ġoctober": 7074,
      "law": 7075,
      "mo": 7076,
      "Ġscept": 7077,
      "Ġsending": 7078,
      "Ġfant": 7079,
      "isters": 7080,
      "Ġdust": 7081,
      "state": 7082,
      "Ġdeter": 7083,
      "Ġva": 7084,
      "Ġlect": 7085,
      "Ġfeared": 7086,
      "ensable": 7087,
      "Ġboats": 7088,
      "Ġfactor": 7089,
      "Ġsheep": 7090,
      "Ġyours": 7091,
      "Ġproposal": 7092,
      "cks": 7093,
      "Ġwrites": 7094,
      "Ġarrives": 7095,
      "Ġdisposed": 7096,
      "Ġresisting": 7097,
      "Ġvisited": 7098,
      "Ġmathematics": 7099,
      "Ġascend": 7100,
      "Ġsquad": 7101,
      "Ġexclaimed": 7102,
      "Ġcorrectly": 7103,
      "Ġquarter": 7104,
      "Ġfleet": 7105,
      "Ġobstacle": 7106,
      "Ġmarket": 7107,
      "Ġrigid": 7108,
      "Ġdominant": 7109,
      "Ġunfortunately": 7110,
      "helion": 7111,
      "innen": 7112,
      "Ġpossibles": 7113,
      "Ġdisintegr": 7114,
      "Ġdeprived": 7115,
      "Ġsmooth": 7116,
      "light": 7117,
      "tw": 7118,
      "uated": 7119,
      "vis": 7120,
      "za": 7121,
      "Ġaa": 7122,
      "Ġaust": 7123,
      "Ġsins": 7124,
      "Ġsibi": 7125,
      "erts": 7126,
      "atisf": 7127,
      "Ġci": 7128,
      "Ġfol": 7129,
      "Ġfier": 7130,
      "itals": 7131,
      "icians": 7132,
      "Ġeating": 7133,
      "Ġvap": 7134,
      "Ġchines": 7135,
      "Ġary": 7136,
      "Ġtrained": 7137,
      "Ġjam": 7138,
      "pless": 7139,
      "Ġdisapp": 7140,
      "Ġposter": 7141,
      "Ġcoat": 7142,
      "Ġmarks": 7143,
      "Ġglog": 7144,
      "hearted": 7145,
      "Ġorganiz": 7146,
      "parable": 7147,
      "necess": 7148,
      "Ġtraged": 7149,
      "Ġhyd": 7150,
      "Ġconcluded": 7151,
      "Ġtotally": 7152,
      "Ġmagnet": 7153,
      "Ġsuggestion": 7154,
      "Ġphysicists": 7155,
      "Ġdisturbed": 7156,
      "Ġdelighted": 7157,
      "Ġvanity": 7158,
      "Ġcontradictions": 7159,
      "Ġadequate": 7160,
      "Ġabsorbed": 7161,
      "democratic": 7162,
      "Ġhospital": 7163,
      "Ġmetaphysical": 7164,
      "Ġunequal": 7165,
      "Ġatmosphere": 7166,
      "Ġgumbinnen": 7167,
      "45": 7168,
      "500": 7169,
      "bor": 7170,
      "rin": 7171,
      "Ġmart": 7172,
      "Ġanc": 7173,
      "Ġfiction": 7174,
      "itious": 7175,
      "Ġdens": 7176,
      "Ġnest": 7177,
      "uti": 7178,
      "Ġhaven": 7179,
      "chal": 7180,
      "Ġnotwithstanding": 7181,
      "Ġfrument": 7182,
      "osure": 7183,
      "pered": 7184,
      "Ġwaste": 7185,
      "aker": 7186,
      "empereur": 7187,
      "Ġpover": 7188,
      "Ġprecious": 7189,
      "resses": 7190,
      "Ġundergo": 7191,
      "Ġcler": 7192,
      "Ġbrut": 7193,
      "Ġmarine": 7194,
      "Ġreasonings": 7195,
      "Ġ58": 7196,
      "Ġawake": 7197,
      "Ġvariability": 7198,
      "Ġdecres": 7199,
      "Ġdetermining": 7200,
      "Ġtermed": 7201,
      "Ġdispositions": 7202,
      "Ġlanguages": 7203,
      "Ġeducated": 7204,
      "Ġcombat": 7205,
      "Ġencoura": 7206,
      "ropy": 7207,
      "Ġhealthy": 7208,
      "Ġpreparation": 7209,
      "Ġweeks": 7210,
      "Ġrailway": 7211,
      "Ġdishon": 7212,
      "Ġambassadors": 7213,
      "Ġsulph": 7214,
      "Ġchauvinism": 7215,
      "Ġavoided": 7216,
      "col": 7217,
      "five": 7218,
      "god": 7219,
      "nam": 7220,
      "zo": 7221,
      "Ġtong": 7222,
      "inter": 7223,
      "Ġcup": 7224,
      "lets": 7225,
      "uration": 7226,
      "adem": 7227,
      "Ġquibus": 7228,
      "Ġenum": 7229,
      "Ġupwards": 7230,
      "Ġspies": 7231,
      "athered": 7232,
      "Ġcomput": 7233,
      "Ġactivities": 7234,
      "Ġflorent": 7235,
      "Ġoffers": 7236,
      "pective": 7237,
      "Ġpresentation": 7238,
      "Ġassimil": 7239,
      "Ġgla": 7240,
      "Ġduc": 7241,
      "Ġguilt": 7242,
      "Ġmonks": 7243,
      "cules": 7244,
      "Ġapprove": 7245,
      "Ġdeliver": 7246,
      "Ġstrongest": 7247,
      "Ġaccounts": 7248,
      "Ġkeeps": 7249,
      "Ġmagnetic": 7250,
      "Ġlatent": 7251,
      "itatem": 7252,
      "Ġcheer": 7253,
      "Ġreview": 7254,
      "eenth": 7255,
      "Ġvessels": 7256,
      "Ġpenetrate": 7257,
      "Ġstimulus": 7258,
      "Ġsupplies": 7259,
      "Ġnewspap": 7260,
      "Ġassembled": 7261,
      "Ġnervous": 7262,
      "Ġfingers": 7263,
      "Ġpulled": 7264,
      "Ġcondemn": 7265,
      "Ġduchy": 7266,
      "Ġmercury": 7267,
      "Ġparabola": 7268,
      "Ġawakening": 7269,
      "Ġslimy": 7270,
      "Ġeucl": 7271,
      "Ġalexandrov": 7272,
      "Ġglogau": 7273,
      "Ġpoverty": 7274,
      "russian": 7275,
      "ui": 7276,
      "Ġtert": 7277,
      "orter": 7278,
      "Ġlately": 7279,
      "entric": 7280,
      "Ġsugar": 7281,
      "Ġseg": 7282,
      "Ġsel": 7283,
      "Ġunp": 7284,
      "cia": 7285,
      "Ġkol": 7286,
      "Ġwhoever": 7287,
      "Ġdiscont": 7288,
      "Ġloose": 7289,
      "Ġdesert": 7290,
      "Ġrelief": 7291,
      "blah": 7292,
      "Ġlonging": 7293,
      "Ġpassages": 7294,
      "Ġstring": 7295,
      "Ġtransm": 7296,
      "Ġrecru": 7297,
      "bear": 7298,
      "Ġserving": 7299,
      "Ġconnections": 7300,
      "Ġraj": 7301,
      "Ġprojected": 7302,
      "Ġfaithful": 7303,
      "Ġreaches": 7304,
      "aneity": 7305,
      "Ġoperate": 7306,
      "Ġbadly": 7307,
      "Ġlengths": 7308,
      "Ġmaterials": 7309,
      "Ġproceeded": 7310,
      "atched": 7311,
      "Ġattractions": 7312,
      "Ġembra": 7313,
      "edui": 7314,
      "Ġmeantime": 7315,
      "deskt": 7316,
      "Ġbritain": 7317,
      "Ġweapon": 7318,
      "Ġoscillations": 7319,
      "Ġcompassion": 7320,
      "2001": 7321,
      "stephen": 7322,
      "Ġhusserl": 7323,
      "Ġevolution": 7324,
      "Ġdinner": 7325,
      "Ġindispensable": 7326,
      "html": 7327,
      "Ġsafety": 7328,
      ":///": 7329,
      "Ġchinese": 7330,
      "blahh": 7331,
      "desktop": 7332,
      "'-": 7333,
      "born": 7334,
      "gence": 7335,
      "rim": 7336,
      "Ġ~": 7337,
      "Ġolig": 7338,
      "Ġwont": 7339,
      "Ġsese": 7340,
      "Ġcp": 7341,
      "ancing": 7342,
      "Ġtools": 7343,
      "Ġnice": 7344,
      "Ġlin": 7345,
      "Ġconse": 7346,
      "cho": 7347,
      "owder": 7348,
      "Ġdeeper": 7349,
      "istical": 7350,
      "Ġvit": 7351,
      "Ġvivid": 7352,
      "cius": 7353,
      "Ġkl": 7354,
      "Ġtimid": 7355,
      "agen": 7356,
      "Ġadam": 7357,
      "Ġpreach": 7358,
      "Ġphase": 7359,
      "Ġworldly": 7360,
      "Ġappet": 7361,
      "Ġoverlook": 7362,
      "Ġmarvel": 7363,
      "Ġsmell": 7364,
      "Ġsincere": 7365,
      "Ġsunt": 7366,
      "Ġarticle": 7367,
      "Ġincred": 7368,
      "Ġinvited": 7369,
      "Ġpleasant": 7370,
      "Ġsensitive": 7371,
      "Ġsixty": 7372,
      "Ġsixteen": 7373,
      "Ġdeceive": 7374,
      "Ġjudges": 7375,
      "Ġreports": 7376,
      "Ġambition": 7377,
      "Ġancients": 7378,
      "worthy": 7379,
      "Ġpythag": 7380,
      "Ġpermanence": 7381,
      "Ġterritories": 7382,
      "Ġexecution": 7383,
      "Ġlemma": 7384,
      "Ġabandoned": 7385,
      "Ġrecollect": 7386,
      "Ġventure": 7387,
      "uscle": 7388,
      "Ġchemistry": 7389,
      "Ġunwilling": 7390,
      "Ġimmovable": 7391,
      "fty": 7392,
      "pent": 7393,
      "va": 7394,
      "Ġsong": 7395,
      "Ġhsi": 7396,
      "Ġcard": 7397,
      "Ġcab": 7398,
      "Ġcattle": 7399,
      "oral": 7400,
      "these": 7401,
      "Ġrewards": 7402,
      "quam": 7403,
      "osc": 7404,
      "Ġprolong": 7405,
      "Ġvar": 7406,
      "Ġkaut": 7407,
      "Ġcompound": 7408,
      "Ġcomprom": 7409,
      "Ġformula": 7410,
      "Ġsubm": 7411,
      "Ġextinction": 7412,
      "Ġsmoke": 7413,
      "Ġawful": 7414,
      "gged": 7415,
      "Ġmemories": 7416,
      "iusov": 7417,
      "Ġsensory": 7418,
      "Ġcommune": 7419,
      "Ġjohn": 7420,
      "Ġtriangle": 7421,
      "Ġgeograph": 7422,
      "Ġopenly": 7423,
      "Ġrecognised": 7424,
      "Ġdevotion": 7425,
      "Ġmercy": 7426,
      "Ġhostium": 7427,
      "Ġsolidity": 7428,
      "comte": 7429,
      "Ġestablishment": 7430,
      "Ġmiracles": 7431,
      "Ġwoods": 7432,
      "Ġcolonies": 7433,
      "Ġpermission": 7434,
      "Ġenlight": 7435,
      "Ġtrembling": 7436,
      "Ġcoincide": 7437,
      "Ġreckon": 7438,
      "Ġimmortal": 7439,
      "Ġindustry": 7440,
      "99": 7441,
      "even": 7442,
      "oqu": 7443,
      "rations": 7444,
      "uge": 7445,
      "wer": 7446,
      "Ġmiusov": 7447,
      "Ġfen": 7448,
      "Ġpair": 7449,
      "anes": 7450,
      "aning": 7451,
      "iture": 7452,
      "Ġlun": 7453,
      "Ġgathered": 7454,
      "aming": 7455,
      "Ġally": 7456,
      "Ġaroused": 7457,
      "Ġperplex": 7458,
      "Ġamid": 7459,
      "rup": 7460,
      "Ġdreamed": 7461,
      "erves": 7462,
      "angles": 7463,
      "bler": 7464,
      "Ġconfer": 7465,
      "Ġelim": 7466,
      "Ġchildish": 7467,
      "Ġmorals": 7468,
      "Ġwishing": 7469,
      "Ġmodlin": 7470,
      "Ġstandpoint": 7471,
      "Ġlegal": 7472,
      "Ġdiurnal": 7473,
      "Ġceases": 7474,
      "Ġ120": 7475,
      "Ġgoverned": 7476,
      "Ġexcuse": 7477,
      "Ġruns": 7478,
      "Ġpraes": 7479,
      "Ġbasic": 7480,
      "Ġelectrons": 7481,
      "Ġgradual": 7482,
      "Ġportugal": 7483,
      "Ġpretend": 7484,
      "Ġliterary": 7485,
      "Ġdisappears": 7486,
      "Ġdoctrines": 7487,
      "Ġcrying": 7488,
      "Ġmaxims": 7489,
      "Ġhuge": 7490,
      "aucas": 7491,
      "Ġvarying": 7492,
      "Ġassertion": 7493,
      "Ġhamburg": 7494,
      "Ġemancip": 7495,
      "Ġunfortunate": 7496,
      "Ġcadres": 7497,
      ".*": 7498,
      "ban": 7499,
      "fir": 7500,
      "rative": 7501,
      "vir": 7502,
      "vable": 7503,
      "Ġtone": 7504,
      "rem": 7505,
      "Ġbay": 7506,
      "Ġberg": 7507,
      "Ġhated": 7508,
      "esse": 7509,
      "Ġpere": 7510,
      "oul": 7511,
      "arse": 7512,
      "Ġissu": 7513,
      "Ġgro": 7514,
      "Ġexert": 7515,
      "adays": 7516,
      "Ġsovereign": 7517,
      "Ġtheme": 7518,
      "Ġparte": 7519,
      "Ġdiscl": 7520,
      "Ġdisreg": 7521,
      "Ġsomehow": 7522,
      "Ġagitation": 7523,
      "Ġoutline": 7524,
      "Ġeveryday": 7525,
      "Ġbeforehand": 7526,
      "Ġarmies": 7527,
      "Ġeffective": 7528,
      "Ġministers": 7529,
      "Ġmagist": 7530,
      "Ġraising": 7531,
      "Ġhorror": 7532,
      "ashed": 7533,
      "Ġhostages": 7534,
      "Ġdemanded": 7535,
      "Ġcritic": 7536,
      "Ġfulfill": 7537,
      "Ġlistening": 7538,
      "Ġdisplace": 7539,
      "Ġcorpuscle": 7540,
      "Ġinevitably": 7541,
      "Ġappreciate": 7542,
      "Ġteles": 7543,
      "Ġhelvetii": 7544,
      "Ġstroke": 7545,
      "Ġastronomers": 7546,
      "Ġekstatic": 7547,
      "42": 7548,
      "back": 7549,
      "ny": 7550,
      "pos": 7551,
      "Ġsic": 7552,
      "Ġbis": 7553,
      "Ġhorn": 7554,
      "Ġmission": 7555,
      "itis": 7556,
      "ara": 7557,
      "ica": 7558,
      "Ġbeak": 7559,
      "thm": 7560,
      "Ġrein": 7561,
      "Ġwearing": 7562,
      "Ġselected": 7563,
      "adier": 7564,
      "estion": 7565,
      "iguous": 7566,
      "Ġcanal": 7567,
      "otes": 7568,
      "aria": 7569,
      "Ġattended": 7570,
      "idean": 7571,
      "Ġsimplic": 7572,
      "Ġspecially": 7573,
      "Ġendowed": 7574,
      "ologist": 7575,
      "Ġplanes": 7576,
      "Ġdram": 7577,
      "Ġreceiving": 7578,
      "Ġ70": 7579,
      "Ġmodest": 7580,
      "Ġillumin": 7581,
      "force": 7582,
      "Ġassumes": 7583,
      "Ġrenew": 7584,
      "Ġtreatise": 7585,
      "Ġwaited": 7586,
      "Ġdraws": 7587,
      "Ġmagnific": 7588,
      "Ġprae": 7589,
      "Ġbounds": 7590,
      "Ġluck": 7591,
      "Ġpretty": 7592,
      "Ġhurried": 7593,
      "Ġontology": 7594,
      "Ġconvenient": 7595,
      "Ġcondensation": 7596,
      "Ġfrightened": 7597,
      "Ġhysterical": 7598,
      "Ġipse": 7599,
      "Ġcopernicus": 7600,
      "every": 7601,
      "nce": 7602,
      "occ": 7603,
      "vier": 7604,
      "Ġthine": 7605,
      "Ġoil": 7606,
      "Ġsam": 7607,
      "eri": 7608,
      "Ġbore": 7609,
      "Ġbass": 7610,
      "Ġanarch": 7611,
      "Ġfame": 7612,
      "Ġfolly": 7613,
      "Ġdies": 7614,
      "imant": 7615,
      "Ġheated": 7616,
      "road": 7617,
      "Ġexterm": 7618,
      "Ġvib": 7619,
      "Ġkat": 7620,
      "Ġwillingly": 7621,
      "Ġcha": 7622,
      "Ġpredom": 7623,
      "Ġcommit": 7624,
      "Ġimpr": 7625,
      "Ġ400": 7626,
      "isms": 7627,
      "Ġseeming": 7628,
      "edient": 7629,
      "Ġincarn": 7630,
      "Ġaddressed": 7631,
      "Ġsensual": 7632,
      "Ġapproxim": 7633,
      "forth": 7634,
      "Ġprofitable": 7635,
      "Ġidi": 7636,
      "Ġfaces": 7637,
      "Ġapplies": 7638,
      "Ġenergies": 7639,
      "Ġsecurity": 7640,
      "Ġconsisted": 7641,
      "Ġdepartment": 7642,
      "Ġabstraction": 7643,
      "Ġlux": 7644,
      "Ġadvantageous": 7645,
      "Ġcontrover": 7646,
      "Ġhurry": 7647,
      "Ġsolemn": 7648,
      "Ġfavorable": 7649,
      "Ġversa": 7650,
      "Ġmystery": 7651,
      "Ġbulk": 7652,
      "Ġrudimentary": 7653,
      "Ġtactics": 7654,
      "Ġmammals": 7655,
      "asseurs": 7656,
      "Ġinconsist": 7657,
      "Ġsymptoms": 7658,
      "Ġinsignific": 7659,
      "Ġtragedy": 7660,
      ";\"": 7661,
      "fold": 7662,
      "nis": 7663,
      "Ġti": 7664,
      "Ġthesis": 7665,
      "Ġfid": 7666,
      "Ġink": 7667,
      "arged": 7668,
      "Ġnour": 7669,
      "quet": 7670,
      "Ġdeck": 7671,
      "Ġdeeds": 7672,
      "Ġrival": 7673,
      "Ġsofa": 7674,
      "Ġgokh": 7675,
      "Ġamalg": 7676,
      "Ġrepent": 7677,
      "Ġflat": 7678,
      "Ġ59": 7679,
      "Ġassurance": 7680,
      "Ġwarn": 7681,
      "Ġentit": 7682,
      "Ġconsiderably": 7683,
      "Ġcoloured": 7684,
      "sibly": 7685,
      "Ġtemple": 7686,
      "Ġrevolt": 7687,
      "Ġfourteen": 7688,
      "Ġexpressions": 7689,
      "Ġdelivered": 7690,
      "Ġrepresentative": 7691,
      "Ġcompanions": 7692,
      "Ġrenders": 7693,
      "Ġsatisfactory": 7694,
      "Ġmultitud": 7695,
      "Ġcrosses": 7696,
      "Ġannounced": 7697,
      "Ġteaches": 7698,
      "Ġprotest": 7699,
      "Ġapproaches": 7700,
      "Ġmedical": 7701,
      "Ġspecim": 7702,
      "Ġstream": 7703,
      "Ġisolation": 7704,
      "Ġaccomplish": 7705,
      "Ġaspects": 7706,
      "Ġpreparing": 7707,
      "Ġparliamentary": 7708,
      "Ġchamber": 7709,
      "Ġdisagree": 7710,
      "fulfilment": 7711,
      "Ġgokhale": 7712,
      "80": 7713,
      "ais": 7714,
      "fig": 7715,
      "mas": 7716,
      "rich": 7717,
      "zed": 7718,
      "ĠÃ¦": 7719,
      "inem": 7720,
      "inating": 7721,
      "Ġwounded": 7722,
      "onne": 7723,
      "Ġble": 7724,
      "Ġpont": 7725,
      "Ġnamed": 7726,
      "Ġnoise": 7727,
      "Ġsuit": 7728,
      "Ġrushed": 7729,
      "aine": 7730,
      "Ġprod": 7731,
      "Ġproced": 7732,
      "Ġuna": 7733,
      "Ġchasseurs": 7734,
      "Ġ(\"": 7735,
      "Ġperse": 7736,
      "Ġspare": 7737,
      "Ġfever": 7738,
      "Ġrespond": 7739,
      "Ġnowadays": 7740,
      "Ġreferring": 7741,
      "Ġflum": 7742,
      "Ġcool": 7743,
      "Ġinterse": 7744,
      "Ġrow": 7745,
      "Ġcaut": 7746,
      "Ġexpenses": 7747,
      "Ġentering": 7748,
      "Ġconstitu": 7749,
      "issy": 7750,
      "Ġsignifies": 7751,
      "Ġdoubtless": 7752,
      "Ġcreative": 7753,
      "Ġreaching": 7754,
      "Ġcopenh": 7755,
      "Ġjudgments": 7756,
      "Ġestablishing": 7757,
      "iculars": 7758,
      "Ġinstantly": 7759,
      "Ġbriefly": 7760,
      "Ġbuildings": 7761,
      "Ġwatching": 7762,
      "Ġburden": 7763,
      "Ġconquered": 7764,
      "Ġaudience": 7765,
      "Ġethical": 7766,
      "Ġbeaten": 7767,
      "trans": 7768,
      "Ġprejudice": 7769,
      "Ġirrational": 7770,
      "Ġdismiss": 7771,
      "Ġministre": 7772,
      "Ġconjecture": 7773,
      "Ġprogenitor": 7774,
      "36": 7775,
      "eches": 7776,
      "Ġture": 7777,
      "inqu": 7778,
      "Ġice": 7779,
      "enum": 7780,
      "Ġct": 7781,
      "Ġming": 7782,
      "esion": 7783,
      "anov": 7784,
      "itimate": 7785,
      "entia": 7786,
      "Ġwel": 7787,
      "Ġorient": 7788,
      "Ġshorter": 7789,
      "ppers": 7790,
      "endum": 7791,
      "Ġpled": 7792,
      "Ġpert": 7793,
      "agues": 7794,
      "Ġrela": 7795,
      "arsh": 7796,
      "Ġpeters": 7797,
      "Ġinfl": 7798,
      "Ġinterf": 7799,
      "Ġoffensive": 7800,
      "Ġstriving": 7801,
      "Ġwarri": 7802,
      "Ġxii": 7803,
      "Ġclearer": 7804,
      "Ġelastic": 7805,
      "apsed": 7806,
      "Ġmont": 7807,
      "Ġ80": 7808,
      "Ġmainz": 7809,
      "Ġmainly": 7810,
      "Ġdetect": 7811,
      "Ġfortifications": 7812,
      "Ġrussians": 7813,
      "cingetor": 7814,
      "Ġattracting": 7815,
      "Ġnihilating": 7816,
      "Ġdisgust": 7817,
      "Ġfertile": 7818,
      "Ġdeduced": 7819,
      "Ġinsisted": 7820,
      "Ġadeimant": 7821,
      "Ġmortal": 7822,
      "Ġexhaust": 7823,
      "Ġmurderer": 7824,
      "Ġbetray": 7825,
      "Ġlabienus": 7826,
      "Ġresources": 7827,
      "Ġunusual": 7828,
      "Ġembarrass": 7829,
      "Ġtragic": 7830,
      "Ġadeimantus": 7831,
      "\"-": 7832,
      "mpt": 7833,
      "night": 7834,
      "overs": 7835,
      "Ġoder": 7836,
      "Ġsar": 7837,
      "erous": 7838,
      "Ġcf": 7839,
      "Ġments": 7840,
      "ania": 7841,
      "Ġdying": 7842,
      "icing": 7843,
      "Ġbees": 7844,
      "Ġepic": 7845,
      "Ġrevers": 7846,
      "Ġrepet": 7847,
      "roph": 7848,
      "urt": 7849,
      "aman": 7850,
      "Ġexchange": 7851,
      "Ġrises": 7852,
      "Ġseat": 7853,
      "andi": 7854,
      "Ġmanners": 7855,
      "Ġarith": 7856,
      "orem": 7857,
      "Ġcomparing": 7858,
      "Ġprey": 7859,
      "Ġsubordinate": 7860,
      "sov": 7861,
      "Ġrelie": 7862,
      "Ġbrute": 7863,
      "Ġthrust": 7864,
      "Ġstranger": 7865,
      "Ġnorthern": 7866,
      "Ġpolonium": 7867,
      "Ġ600": 7868,
      "Ġsouthern": 7869,
      "Ġbattles": 7870,
      "Ġradii": 7871,
      "Ġorganize": 7872,
      "Ġadmits": 7873,
      "Ġinval": 7874,
      "Ġsmallest": 7875,
      "Ġlimiting": 7876,
      "mann": 7877,
      "Ġjoh": 7878,
      "Ġjoining": 7879,
      "Ġtypical": 7880,
      "Ġexpecting": 7881,
      "Ġchristians": 7882,
      "Ġantip": 7883,
      "Ġmarxist": 7884,
      "Ġpaissy": 7885,
      "Ġranked": 7886,
      "Ġdetailed": 7887,
      "Ġimprovement": 7888,
      "iques": 7889,
      "Ġdisappeared": 7890,
      "Ġnavig": 7891,
      "Ġcitizen": 7892,
      "atorship": 7893,
      "Ġhypotheses": 7894,
      "Ġthorium": 7895,
      "Ġseventh": 7896,
      "Ġdiversity": 7897,
      "Ġabolition": 7898,
      "Ġlxx": 7899,
      "Ġimplicit": 7900,
      "Ġdavout": 7901,
      "Ġsurrender": 7902,
      "Ġkautsky": 7903,
      "Ġtelescope": 7904,
      "Ġbassano": 7905,
      "55": 7906,
      "sa": 7907,
      "sburg": 7908,
      "uously": 7909,
      "Ġ....": 7910,
      "Ġsid": 7911,
      "Ġbure": 7912,
      "Ġbeds": 7913,
      "Ġcz": 7914,
      "Ġtoiling": 7915,
      "Ġdf": 7916,
      "icacy": 7917,
      "Ġbeast": 7918,
      "imum": 7919,
      "urable": 7920,
      "Ġstern": 7921,
      "Ġfrig": 7922,
      "Ġunav": 7923,
      "ometer": 7924,
      "Ġworn": 7925,
      "Ġobedience": 7926,
      "Ġlofty": 7927,
      "Ġdeserve": 7928,
      "Ġspeeches": 7929,
      "Ġclient": 7930,
      "rud": 7931,
      "Ġemerg": 7932,
      "Ġpassengers": 7933,
      "Ġtea": 7934,
      "whe": 7935,
      "Ġendless": 7936,
      "Ġbackground": 7937,
      "Ġselfness": 7938,
      "Ġhelpless": 7939,
      "Ġdoubted": 7940,
      "Ġsuperflu": 7941,
      "Ġrepresentatives": 7942,
      "Ġthirdly": 7943,
      "Ġconvict": 7944,
      "brid": 7945,
      "Ġoccupation": 7946,
      "Ġmachin": 7947,
      "Ġportions": 7948,
      "Ġmadness": 7949,
      "Ġpeculiarities": 7950,
      "Ġtranslated": 7951,
      "Ġtort": 7952,
      "Ġdefinitely": 7953,
      "Ġforgetting": 7954,
      "Ġconfession": 7955,
      "uminium": 7956,
      "Ġappropriation": 7957,
      "Ġcolonel": 7958,
      "Ġenjoyment": 7959,
      "Ġashram": 7960,
      "Ġalteration": 7961,
      "Ġpenetrating": 7962,
      "Ġhindu": 7963,
      "bantur": 7964,
      "Ġethics": 7965,
      "Ġshadows": 7966,
      "Ġduchess": 7967,
      "Ġconjunct": 7968,
      "Ġbagg": 7969,
      "subject": 7970,
      "Ġclothing": 7971,
      "Ġecliptic": 7972,
      "Ġimpelled": 7973,
      "reflective": 7974,
      "Ġvaluable": 7975,
      "Ġtongue": 7976,
      "Ġsimplicio": 7977,
      "Ġcopenhagen": 7978,
      "dre": 7979,
      "ext": 7980,
      "jar": 7981,
      "must": 7982,
      "oo": 7983,
      "Ġ<": 7984,
      "Ġwing": 7985,
      "Ġwond": 7986,
      "Ġses": 7987,
      "Ġsii": 7988,
      "erat": 7989,
      "Ġcrown": 7990,
      "Ġfg": 7991,
      "Ġpugn": 7992,
      "alm": 7993,
      "ione": 7994,
      "Ġnose": 7995,
      "uts": 7996,
      "utable": 7997,
      "etch": 7998,
      "Ġmaneu": 7999,
      "otkin": 8000,
      "perf": 8001,
      "Ġagr": 8002,
      "Ġ--": 8003,
      "ordered": 8004,
      "Ġrefined": 8005,
      "Ġdidst": 8006,
      "Ġended": 8007,
      "Ġrecalled": 8008,
      "Ġinsol": 8009,
      "Ġkindly": 8010,
      "Ġsolved": 8011,
      "Ġclassification": 8012,
      "Ġcrust": 8013,
      "Ġinvitation": 8014,
      "Ġadding": 8015,
      "Ġcausality": 8016,
      "untur": 8017,
      "Ġmemor": 8018,
      "Ġsignal": 8019,
      "Ġirma": 8020,
      "Ġirrit": 8021,
      "Ġstudents": 8022,
      "Ġchrom": 8023,
      "Ġvolition": 8024,
      "Ġpublication": 8025,
      "Ġtransferred": 8026,
      "Ġjudging": 8027,
      "Ġcombinations": 8028,
      "Ġgrie": 8029,
      "Ġimprob": 8030,
      "Ġliterally": 8031,
      "Ġassociations": 8032,
      "Ġfertil": 8033,
      "Ġpreferred": 8034,
      "present": 8035,
      "Ġreconcil": 8036,
      "Ġinconven": 8037,
      "Ġincorpor": 8038,
      "Ġsplendid": 8039,
      "Ġjealousy": 8040,
      "Ġmysterious": 8041,
      "Ġariovistus": 8042,
      "Ġinequality": 8043,
      "Ġcosm": 8044,
      "could": 8045,
      "iere": 8046,
      "uits": 8047,
      "water": 8048,
      "Ġtin": 8049,
      "Ġck": 8050,
      "Ġcere": 8051,
      "Ġmamma": 8052,
      "Ġpit": 8053,
      "Ġpest": 8054,
      "Ġpushed": 8055,
      "Ġdic": 8056,
      "Ġnull": 8057,
      "Ġloud": 8058,
      "Ġlucid": 8059,
      "stone": 8060,
      "changed": 8061,
      "uses": 8062,
      "Ġsho": 8063,
      "andhi": 8064,
      "Ġchann": 8065,
      "Ġadj": 8066,
      "abat": 8067,
      "Ġboast": 8068,
      "Ġapo": 8069,
      "...\"": 8070,
      "Ġ41": 8071,
      "Ġexistim": 8072,
      "Ġletting": 8073,
      "Ġbrill": 8074,
      "Ġrecovered": 8075,
      "phem": 8076,
      "Ġwheat": 8077,
      "Ġradically": 8078,
      "Ġuttered": 8079,
      "Ġordinarily": 8080,
      "Ġreturns": 8081,
      "Ġsimilarity": 8082,
      "Ġoccurrence": 8083,
      "Ġsymmet": 8084,
      "Ġtenth": 8085,
      "Ġfails": 8086,
      "owski": 8087,
      "Ġtroubled": 8088,
      "Ġrequis": 8089,
      "Ġdogs": 8090,
      "Ġobligation": 8091,
      "Ġjanvier": 8092,
      "Ġarrangements": 8093,
      "ripts": 8094,
      "Ġbarely": 8095,
      "Ġastonishment": 8096,
      "Ġimmortality": 8097,
      "rassotkin": 8098,
      "Ġcategory": 8099,
      "Ġsatellites": 8100,
      "Ġlawyer": 8101,
      "Ġguarantee": 8102,
      "Ġmarechal": 8103,
      "two": 8104,
      "Ġancest": 8105,
      "Ġkatya": 8106,
      "him": 8107,
      "human": 8108,
      "ker": 8109,
      "ti": 8110,
      "Ġtive": 8111,
      "Ġbang": 8112,
      "Ġcass": 8113,
      "Ġfasc": 8114,
      "Ġpis": 8115,
      "Ġbeasts": 8116,
      "Ġreb": 8117,
      "Ġita": 8118,
      "sters": 8119,
      "Ġhaec": 8120,
      "idents": 8121,
      "Ġsuited": 8122,
      "Ġfried": 8123,
      "osity": 8124,
      "Ġshih": 8125,
      "Ġkitch": 8126,
      "endi": 8127,
      "Ġpartem": 8128,
      "ĠĠĠĠĠĠĠĠĠĠĠĠĠ": 8129,
      "Ġgover": 8130,
      "Ġload": 8131,
      "Ġfev": 8132,
      "Ġremedy": 8133,
      "Ġimply": 8134,
      "cession": 8135,
      "Ġpropter": 8136,
      "Ġentropy": 8137,
      "Ġawak": 8138,
      "Ġfines": 8139,
      "Ġinspect": 8140,
      "Ġcontinual": 8141,
      "Ġmonarchy": 8142,
      "Ġadvis": 8143,
      "Ġadmire": 8144,
      "Ġratios": 8145,
      "Ġguardian": 8146,
      "Ġhousehold": 8147,
      "Ġdiscussions": 8148,
      "Ġmuttered": 8149,
      "Ġexplaining": 8150,
      "Ġapproached": 8151,
      "Ġgradations": 8152,
      "Ġbrigadier": 8153,
      "Ġpopul": 8154,
      "Ġmanifests": 8155,
      "Ġrelatively": 8156,
      "Ġgreece": 8157,
      "Ġdespite": 8158,
      "Ġuncle": 8159,
      "Ġsurpasses": 8160,
      "Ġpassionate": 8161,
      "Ġsignificant": 8162,
      "Ġprofoundly": 8163,
      "Ġaltered": 8164,
      "Ġaccelerative": 8165,
      "Ġimperialism": 8166,
      "Ġsafely": 8167,
      "Ġdictatorship": 8168,
      "Ġtemptation": 8169,
      "Ġspontaneous": 8170,
      "Ġimpediment": 8171,
      "Ġaccidental": 8172,
      "orentz": 8173,
      "Ġmolecules": 8174,
      "Ġinspired": 8175,
      "Ġmarienburg": 8176,
      "Ġincomprehensible": 8177,
      "Ġprogression": 8178,
      "Ġcicero": 8179,
      "56": 8180,
      "fast": 8181,
      "gon": 8182,
      "hot": 8183,
      "Ġtide": 8184,
      "Ġwound": 8185,
      "Ġwretched": 8186,
      "Ġsedu": 8187,
      "Ġcun": 8188,
      "Ġdense": 8189,
      "Ġlou": 8190,
      "Ġgross": 8191,
      "ession": 8192,
      "Ġunint": 8193,
      "Ġvon": 8194,
      "Ġvort": 8195,
      "Ġallusion": 8196,
      "Ġchamp": 8197,
      "riages": 8198,
      "Ġaloud": 8199,
      "Ġaluminium": 8200,
      "Ġmanaged": 8201,
      "Ġabdu": 8202,
      "Ġspan": 8203,
      "Ġfec": 8204,
      "Ġflore": 8205,
      "Ġtele": 8206,
      "Ġstrain": 8207,
      "Ġroots": 8208,
      "iave": 8209,
      "Ġconstr": 8210,
      "Ġrealization": 8211,
      "Ġfinish": 8212,
      "Ġelbing": 8213,
      "Ġmax": 8214,
      "Ġadmission": 8215,
      "Ġreaders": 8216,
      "Ġcommanders": 8217,
      "Ġconceivable": 8218,
      "Ġyounger": 8219,
      "Ġbelonged": 8220,
      "Ġvercingetor": 8221,
      "anean": 8222,
      "Ġze": 8223,
      "Ġhenceforth": 8224,
      "obs": 8225,
      "Ġfriendly": 8226,
      "Ġfunds": 8227,
      "Ġstrive": 8228,
      "Ġpreference": 8229,
      "Ġdiminish": 8230,
      "Ġagreeable": 8231,
      "Ġbellum": 8232,
      "Ġdefinitions": 8233,
      "Ġconversion": 8234,
      "Ġprisoners": 8235,
      "Ġdebt": 8236,
      "Ġundertaken": 8237,
      "chingen": 8238,
      "Ġentrance": 8239,
      "Ġesteemed": 8240,
      "Ġsailors": 8241,
      "Ġborrowed": 8242,
      "Ġintercourse": 8243,
      "Ġenquiry": 8244,
      "Ġtherm": 8245,
      "Ġglacial": 8246,
      "Ġsuperfluous": 8247,
      "Ġmachinery": 8248,
      "Ġfevrier": 8249,
      "'\"": 8250,
      "bal": 8251,
      "ethe": 8252,
      "rous": 8253,
      "uation": 8254,
      "zes": 8255,
      "Ġtain": 8256,
      "erburg": 8257,
      "Ġig": 8258,
      "Ġhid": 8259,
      "Ġangel": 8260,
      "Ġfi": 8261,
      "Ġfare": 8262,
      "Ġpc": 8263,
      "Ġpick": 8264,
      "Ġinade": 8265,
      "omach": 8266,
      "stit": 8267,
      "Ġnobility": 8268,
      "Ġstamp": 8269,
      "Ġunsu": 8270,
      "gee": 8271,
      "Ġjury": 8272,
      "Ġjaw": 8273,
      "Ġimitate": 8274,
      "Ġspo": 8275,
      "Ġagg": 8276,
      "Ġthanks": 8277,
      "Ġcommence": 8278,
      "Ġimpulses": 8279,
      "Ġshoulders": 8280,
      "anges": 8281,
      "Ġindustri": 8282,
      "Ġcoarse": 8283,
      "Ġbelg": 8284,
      "Ġrecourse": 8285,
      "Ġasserted": 8286,
      "Ġdull": 8287,
      "Ġcarn": 8288,
      "Ġinsuff": 8289,
      "Ġmai": 8290,
      "Ġordinate": 8291,
      "Ġruined": 8292,
      "Ġrecognise": 8293,
      "Ġvolun": 8294,
      "Ġevils": 8295,
      "Ġlatus": 8296,
      "Ġrelatives": 8297,
      "Ġtroubles": 8298,
      "Ġeconom": 8299,
      "Ġmarsh": 8300,
      "Ġaristoc": 8301,
      "Ġtasks": 8302,
      "should": 8303,
      "Ġcohesion": 8304,
      "Ġrestrain": 8305,
      "Ġconfessed": 8306,
      "Ġmunition": 8307,
      "Ġcivilization": 8308,
      "Ġbridges": 8309,
      "Ġassociated": 8310,
      "Ġfulfilment": 8311,
      "Ġvisitors": 8312,
      "Ġcollective": 8313,
      "Ġtechnique": 8314,
      "Ġmultipl": 8315,
      "Ġdisplay": 8316,
      "Ġvegetarian": 8317,
      "Ġorganisms": 8318,
      "Ġdepths": 8319,
      "alganov": 8320,
      "Ġassuredly": 8321,
      "Ġexpanding": 8322,
      "Ġalarmed": 8323,
      "Ġsacrifices": 8324,
      "Ġtyranny": 8325,
      "Ġsteadily": 8326,
      "Ġdesperate": 8327,
      "windows": 8328,
      "necessary": 8329,
      "Ġjohann": 8330,
      "Ġchromos": 8331,
      "Ġabdulla": 8332,
      "47": 8333,
      "ford": 8334,
      "jet": 8335,
      "ss": 8336,
      "Â»": 8337,
      "Ġtch": 8338,
      "Ġties": 8339,
      "Ġtables": 8340,
      "inable": 8341,
      "enes": 8342,
      "Ġhol": 8343,
      "Ġfest": 8344,
      "Ġinapp": 8345,
      "Ġdata": 8346,
      "Ġhered": 8347,
      "Ġoran": 8348,
      "Ġration": 8349,
      "Ġrag": 8350,
      "Ġmeets": 8351,
      "Ġproxim": 8352,
      "Ġkrassotkin": 8353,
      "Ġkalganov": 8354,
      "Ġtherein": 8355,
      "Ġalas": 8356,
      "ortions": 8357,
      "ptions": 8358,
      "Ġprud": 8359,
      "Ġcompens": 8360,
      "Ġrelates": 8361,
      "Ġremin": 8362,
      "Ġnowhere": 8363,
      "Ġrefuge": 8364,
      "Ġrod": 8365,
      "Ġdivide": 8366,
      "Ġmighty": 8367,
      "Ġoppose": 8368,
      "Ġ66": 8369,
      "Ġrestored": 8370,
      "Ġdraft": 8371,
      "Ġrevolved": 8372,
      "Ġdirector": 8373,
      "Ġdiag": 8374,
      "Ġmilan": 8375,
      "Ġrepresenting": 8376,
      "Ġracial": 8377,
      "Ġchooses": 8378,
      "Ġjoke": 8379,
      "Ġvirtuous": 8380,
      "Ġclearness": 8381,
      "Ġmarching": 8382,
      "Ġbarbar": 8383,
      "Ġsexes": 8384,
      "Ġmechanism": 8385,
      "Ġresolve": 8386,
      "Ġsincer": 8387,
      "Ġdesignated": 8388,
      "Ġtemperance": 8389,
      "Ġinjury": 8390,
      "Ġinsect": 8391,
      "Ġjournal": 8392,
      "Ġexercised": 8393,
      "Ġmultiplicity": 8394,
      "Ġprayer": 8395,
      "Ġhoped": 8396,
      "Ġsalvation": 8397,
      "Ġhybrid": 8398,
      "Ġblessed": 8399,
      "Ġlinks": 8400,
      "Ġmolec": 8401,
      "Ġgalaxies": 8402,
      "Ġartificial": 8403,
      "Ġhydro": 8404,
      "Ġentitled": 8405,
      "whether": 8406,
      "iavelli": 8407,
      "32": 8408,
      "batur": 8409,
      "house": 8410,
      "jan": 8411,
      "tus": 8412,
      "zki": 8413,
      "Ġ]": 8414,
      "Ġthief": 8415,
      "Ġave": 8416,
      "Ġahead": 8417,
      "inement": 8418,
      "Ġips": 8419,
      "atos": 8420,
      "Ġmud": 8421,
      "Ġpack": 8422,
      "Ġdangers": 8423,
      "ali": 8424,
      "omp": 8425,
      "Ġstomach": 8426,
      "Ġate": 8427,
      "Ġrash": 8428,
      "Ġsev": 8429,
      "Ġsept": 8430,
      "isting": 8431,
      "Ġchose": 8432,
      "rium": 8433,
      "empl": 8434,
      "Ġpoly": 8435,
      "Ġapsis": 8436,
      "Ġdescending": 8437,
      "Ġstrata": 8438,
      "Ġconfed": 8439,
      "Ġextends": 8440,
      "Ġgujar": 8441,
      "Ġinsight": 8442,
      "Ġdegrad": 8443,
      "Ġeleven": 8444,
      "Ġlimbs": 8445,
      "ergy": 8446,
      "Ġshortly": 8447,
      "Ġimpossibility": 8448,
      "Ġmoderate": 8449,
      "Ġascending": 8450,
      "Ġprimarily": 8451,
      "Ġidealism": 8452,
      "Ġdawn": 8453,
      "Ġmanifested": 8454,
      "Ġtorn": 8455,
      "Ġunconsciously": 8456,
      "Ġstores": 8457,
      "Ġbrah": 8458,
      "Ġgrasped": 8459,
      "Ġvigorous": 8460,
      "Ġclouds": 8461,
      "Ġquietly": 8462,
      "Ġsustain": 8463,
      "Ġtempted": 8464,
      "âĶĢâĶĢâĶĢâĶĢâĶĢâĶĢâĶĢâĶĢâĶĢâĶĢâĶĢâĶĢâĶĢâĶĢâĶĢâĶĢ": 8465,
      "piration": 8466,
      "Ġinconce": 8467,
      "Ġcruelty": 8468,
      "Ġrhythm": 8469,
      "Ġnurse": 8470,
      "Ġbaggage": 8471,
      "33": 8472,
      "ault": 8473,
      "cut": 8474,
      "mind": 8475,
      "uo": 8476,
      "uate": 8477,
      "view": 8478,
      "Â¢": 8479,
      "Ġtick": 8480,
      "Ġtired": 8481,
      "Ġwed": 8482,
      "Ġbru": 8483,
      "Ġcott": 8484,
      "Ġannex": 8485,
      "Ġfitting": 8486,
      "Ġinch": 8487,
      "itic": 8488,
      "Ġdance": 8489,
      "Ġbehave": 8490,
      "Ġlion": 8491,
      "Ġsecre": 8492,
      "erel": 8493,
      "rie": 8494,
      "Ġjub": 8495,
      "Ġimpet": 8496,
      "Ġplur": 8497,
      "mentary": 8498,
      "Ġposse": 8499,
      "Ġposset": 8500,
      "Ġpoll": 8501,
      "Ġpope": 8502,
      "Ġboat": 8503,
      "Ġboard": 8504,
      "Ġimposed": 8505,
      "Ġimpati": 8506,
      "Ġequil": 8507,
      "Ġsuppression": 8508,
      "Ġrecovery": 8509,
      "Ġdepending": 8510,
      "Ġproducts": 8511,
      "held": 8512,
      "Ġsuffers": 8513,
      "Ġseconds": 8514,
      "Ġvalor": 8515,
      "Ġforeconscious": 8516,
      "Ġdegen": 8517,
      "Ġessay": 8518,
      "Ġsums": 8519,
      "Ġcommunicate": 8520,
      "Ġcreating": 8521,
      "Ġreverence": 8522,
      "Ġconvince": 8523,
      "Ġaffects": 8524,
      "Ġerrone": 8525,
      "Ġdecline": 8526,
      "Ġromani": 8527,
      "Ġlaying": 8528,
      "Ġmachiavelli": 8529,
      "Ġpunished": 8530,
      "Ġinhabiting": 8531,
      "Ġimprove": 8532,
      "Ġattributes": 8533,
      "Ġriches": 8534,
      "Ġearliest": 8535,
      "Ġinvolves": 8536,
      "Ġperpendiculars": 8537,
      "Ġcolonial": 8538,
      "Ġobscurity": 8539,
      "Ġroads": 8540,
      "Ġburied": 8541,
      "Ġmaximov": 8542,
      "Ġvanish": 8543,
      "Ġdistributed": 8544,
      "riptions": 8545,
      "Ġastonished": 8546,
      "Ġengineers": 8547,
      "Ġunreal": 8548,
      "Ġotto": 8549,
      "Ġeccentric": 8550,
      "Ġlieutenant": 8551,
      "Ġfeeble": 8552,
      "Ġgifts": 8553,
      "Ġcycloid": 8554,
      "Ġdisappoint": 8555,
      "Ġwondered": 8556,
      "Ġkitchen": 8557,
      "Ġdiagram": 8558,
      "Ġsincerity": 8559,
      "';": 8560,
      "46": 8561,
      "65": 8562,
      "cum": 8563,
      "ded": 8564,
      "eous": 8565,
      "gl": 8566,
      "gest": 8567,
      "|/": 8568,
      "rer": 8569,
      "Ġba": 8570,
      "Ġbauer": 8571,
      "Ġcx": 8572,
      "Ġfug": 8573,
      "icated": 8574,
      "think": 8575,
      "Ġlam": 8576,
      "Ġgates": 8577,
      "Ġconvey": 8578,
      "Ġexh": 8579,
      "Ġmood": 8580,
      "usive": 8581,
      "ulars": 8582,
      "Ġshr": 8583,
      "Ġshores": 8584,
      "Ġvall": 8585,
      "Ġleib": 8586,
      "Ġjun": 8587,
      "ardon": 8588,
      "Ġplenty": 8589,
      "Ġplague": 8590,
      "Ġanyway": 8591,
      "asty": 8592,
      "Ġresort": 8593,
      "Ġsubl": 8594,
      "Ġrelate": 8595,
      "Ġcord": 8596,
      "ountered": 8597,
      "Ġwarning": 8598,
      "Ġimmaterial": 8599,
      "Ġradi": 8600,
      "Ġmonarch": 8601,
      "Ġestate": 8602,
      "Ġinvented": 8603,
      "Ġaddress": 8604,
      "Ġtravers": 8605,
      "Ġ75": 8606,
      "Ġperihelion": 8607,
      "Ġpossent": 8608,
      "Ġswall": 8609,
      "Ġrepresentations": 8610,
      "Ġpossessing": 8611,
      "Ġmetal": 8612,
      "supp": 8613,
      "Ġbuy": 8614,
      "Ġaffections": 8615,
      "Ġlearns": 8616,
      "Ġexcite": 8617,
      "Ġrooms": 8618,
      "Ġsenate": 8619,
      "Ġvictim": 8620,
      "Ġaccommod": 8621,
      "Ġundiff": 8622,
      "Ġcomparatively": 8623,
      "Ġencountered": 8624,
      "Ġrectum": 8625,
      "Ġheights": 8626,
      "Ġmunich": 8627,
      "Ġthreatened": 8628,
      "Ġsingularity": 8629,
      "Ġkissed": 8630,
      "Ġtrifling": 8631,
      "Ġcowardice": 8632,
      "Ġvilna": 8633,
      "Ġprovinces": 8634,
      "Ġgalileo": 8635,
      "Ġninet": 8636,
      "Ġconfronted": 8637,
      "Ġrevenge": 8638,
      "Ġoblique": 8639,
      "Ġphotograph": 8640,
      "Ġconspicuous": 8641,
      "Ġfatigue": 8642,
      "Ġinsignificant": 8643,
      "Ġunavoid": 8644,
      "Ġbrilliant": 8645,
      "Ġvolunte": 8646,
      "aus": 8647,
      "car": 8648,
      "gin": 8649,
      "Ġtight": 8650,
      "Ġwand": 8651,
      "Ġske": 8652,
      "Ġinquired": 8653,
      "Ġitin": 8654,
      "roe": 8655,
      "Ġconversely": 8656,
      "Ġsteal": 8657,
      "Ġmob": 8658,
      "Ġfron": 8659,
      "Ġunified": 8660,
      "Ġunification": 8661,
      "Ġchord": 8662,
      "oreal": 8663,
      "Ġtriv": 8664,
      "operation": 8665,
      "Ġlibr": 8666,
      "avit": 8667,
      "Ġtween": 8668,
      "Ġgrate": 8669,
      "Ġflows": 8670,
      "plete": 8671,
      "Ġnewly": 8672,
      "Ġetiam": 8673,
      "Ġlessons": 8674,
      "Ġcourts": 8675,
      "Ġrealizing": 8676,
      "Ġrealizes": 8677,
      "Ġconsciousnesses": 8678,
      "Ġestimate": 8679,
      "Ġpurity": 8680,
      "Ġinvisible": 8681,
      "Ġspiral": 8682,
      "Ġpersonally": 8683,
      "Ġtraces": 8684,
      "Ġ90": 8685,
      "Ġdetected": 8686,
      "Ġcontinuity": 8687,
      "Ġnationality": 8688,
      "Ġlocation": 8689,
      "Ġinfluences": 8690,
      "Ġgrows": 8691,
      "comm": 8692,
      "Ġbusy": 8693,
      "Ġfundamentally": 8694,
      "Ġhomogeneous": 8695,
      "Ġhabsburg": 8696,
      "Ġwindows": 8697,
      "Ġrectilinear": 8698,
      "Ġmediums": 8699,
      "Ġflew": 8700,
      "Ġsuperiority": 8701,
      "Ġmales": 8702,
      "Ġrequirements": 8703,
      "Ġinfantile": 8704,
      "Ġcalculated": 8705,
      "Ġcontradictory": 8706,
      "Ġturk": 8707,
      "Ġundertake": 8708,
      "Ġemanation": 8709,
      "Ġwestern": 8710,
      "Ġrefusal": 8711,
      "Ġsplendor": 8712,
      "Ġphantasy": 8713,
      "Ġtower": 8714,
      "Ġconsolation": 8715,
      "Ġcessac": 8716,
      "Ġluminous": 8717,
      "Ġvertex": 8718,
      "Ġbeneficial": 8719,
      "Ġcelebrated": 8720,
      "Ġrajk": 8721,
      "Ġfenya": 8722,
      "Ġprocedure": 8723,
      "Ġpetersburg": 8724,
      "Ġleibn": 8725,
      "/,": 8726,
      "38": 8727,
      "39": 8728,
      "ront": 8729,
      "ua": 8730,
      "ux": 8731,
      "uct": 8732,
      "Ġtar": 8733,
      "Ġou": 8734,
      "Ġbot": 8735,
      "Ġbern": 8736,
      "Ġfishes": 8737,
      "itect": 8738,
      "inging": 8739,
      "arum": 8740,
      "Ġlon": 8741,
      "Ġstret": 8742,
      "Ġrum": 8743,
      "Ġvoy": 8744,
      "Ġvital": 8745,
      "Ġki": 8746,
      "Ġquoted": 8747,
      "Ġdoc": 8748,
      "Ġplen": 8749,
      "ieur": 8750,
      "perhaps": 8751,
      "about": 8752,
      "Ġrelating": 8753,
      "Ġideals": 8754,
      "Ġcorpor": 8755,
      "Ġinterven": 8756,
      "Ġhollow": 8757,
      "Ġparas": 8758,
      "Ġ51": 8759,
      "Ġdefence": 8760,
      "Ġdeflected": 8761,
      "Ġcharming": 8762,
      "Ġscorn": 8763,
      "Ġrealism": 8764,
      "Ġpoland": 8765,
      "Ġelchingen": 8766,
      "Ġdownwards": 8767,
      "Ġsolitude": 8768,
      "Ġcommunism": 8769,
      "Ġresisted": 8770,
      "Ġidle": 8771,
      "Ġseparately": 8772,
      "Ġzero": 8773,
      "Ġtriangles": 8774,
      "Ġinherent": 8775,
      "Ġcalam": 8776,
      "Ġattacking": 8777,
      "Ġloco": 8778,
      "Ġinfluenced": 8779,
      "Ġinvestigated": 8780,
      "Ġcube": 8781,
      "Ġjuly": 8782,
      "Ġinduction": 8783,
      "Ġtransported": 8784,
      "Ġnovembre": 8785,
      "Ġrocks": 8786,
      "Ġillustration": 8787,
      "Ġexhibit": 8788,
      "Ġcouple": 8789,
      "Ġrotation": 8790,
      "Ġinexplic": 8791,
      "Ġalienation": 8792,
      "Ġtavern": 8793,
      "Ġsprings": 8794,
      "Ġmixture": 8795,
      "Ġindignation": 8796,
      "Ġinfinitum": 8797,
      "Ġgymnastic": 8798,
      "Ġflorentines": 8799,
      "Ġeuclidean": 8800,
      "Ġpythagore": 8801,
      "Ġimprinted": 8802,
      "Ġamalgamation": 8803,
      "Ġflorence": 8804,
      "gone": 8805,
      "rus": 8806,
      "rep": 8807,
      "Ġharsh": 8808,
      "Ġccs": 8809,
      "Ġpam": 8810,
      "Ġpag": 8811,
      "Ġdp": 8812,
      "Ġreign": 8813,
      "Ġlm": 8814,
      "Ġlorentz": 8815,
      "Ġgos": 8816,
      "Ġgently": 8817,
      "utis": 8818,
      "Ġrush": 8819,
      "Ġunit": 8820,
      "Ġsoever": 8821,
      "ivation": 8822,
      "Ġabd": 8823,
      "Ġard": 8824,
      "oty": 8825,
      "Ġperish": 8826,
      "Ġknife": 8827,
      "arem": 8828,
      "Ġphoen": 8829,
      "Ġgrains": 8830,
      "Ġcoroll": 8831,
      "Ġflatter": 8832,
      "Ġinterrog": 8833,
      "Ġafterward": 8834,
      "Ġproph": 8835,
      "Ġconfig": 8836,
      "Ġprincess": 8837,
      "Ġslower": 8838,
      "Ġarticul": 8839,
      "Ġcrass": 8840,
      "Ġcrush": 8841,
      "Ġallowing": 8842,
      "Ġcommunist": 8843,
      "Ġreflections": 8844,
      "Ġbuff": 8845,
      "Ġapprehends": 8846,
      "urov": 8847,
      "Ġpatience": 8848,
      "Ġcorrected": 8849,
      "Ġconducted": 8850,
      "Ġinferred": 8851,
      "Ġtemperate": 8852,
      "Ġarchitect": 8853,
      "Ġdogm": 8854,
      "Ġdisturbance": 8855,
      "Ġbanquet": 8856,
      "Ġstatistical": 8857,
      "Ġexclusive": 8858,
      "Ġnostri": 8859,
      "Ġadmiration": 8860,
      "Ġsuspended": 8861,
      "Ġfossil": 8862,
      "Ġopponents": 8863,
      "Ġphysiological": 8864,
      "yevna": 8865,
      "Ġantiquity": 8866,
      "diameter": 8867,
      "Ġbureauc": 8868,
      "Ġconjunctly": 8869,
      "Ġequilib": 8870,
      "Ġccssar": 8871,
      "dam": 8872,
      "kroe": 8873,
      "lal": 8874,
      "rif": 8875,
      "tis": 8876,
      "zv": 8877,
      "Ġtax": 8878,
      "Ġoath": 8879,
      "Ġsne": 8880,
      "Ġmild": 8881,
      "Ġpars": 8882,
      "Ġtoul": 8883,
      "Ġdri": 8884,
      "Ġbeard": 8885,
      "Ġeug": 8886,
      "Ġwhit": 8887,
      "three": 8888,
      "Ġgandhi": 8889,
      "Ġcondu": 8890,
      "ura": 8891,
      "vering": 8892,
      "chi": 8893,
      "Ġmoll": 8894,
      "Ġmokroe": 8895,
      "ums": 8896,
      "Ġshir": 8897,
      "Ġunits": 8898,
      "Ġunnecessary": 8899,
      "Ġvices": 8900,
      "ivol": 8901,
      "atem": 8902,
      "Ġquies": 8903,
      "Ġabn": 8904,
      "Ġhadn": 8905,
      "ople": 8906,
      "orts": 8907,
      "plan": 8908,
      "Ġknees": 8909,
      "ago": 8910,
      "Ġspots": 8911,
      "Ġagrees": 8912,
      "Ġsubduct": 8913,
      "Ġrelax": 8914,
      "Ġgrain": 8915,
      "Ġinsterburg": 8916,
      "Ġfactual": 8917,
[...]
