{
  "version": "1.0",
  "truncation": null,
  "padding": null,
  "added_tokens": [
    {
      "id": 0,
      "content": "<pad>",
      "single_word": false,
      "lstrip": false,
      "rstrip": false,
      "normalized": false,
      "special": true
    },
    {
      "id": 1,
      "content": "<unk>",
      "single_word": false,
      "lstrip": false,
      "rstrip": false,
      "normalized": false,
      "special": true
    },
    {
      "id": 2,
      "content": "<bos>",
      "single_word": false,
      "lstrip": false,
      "rstrip": false,
      "normalized": false,
      "special": true
    },
    {
      "id": 3,
      "content": "<eos>",
      "single_word": false,
      "lstrip": false,
      "rstrip": false,
      "normalized": false,
      "special": true
    },
    {
      "id": 4,
      "content": "<|user|>",
      "single_word": false,
      "lstrip": false,
      "rstrip": false,
      "normalized": false,
      "special": true
    },
    {
      "id": 5,
      "content": "<|assistant|>",
      "single_word": false,
      "lstrip": false,
      "rstrip": false,
      "normalized": false,
      "special": true
    },
    {
      "id": 6,
      "content": "<|system|>",
      "single_word": false,
      "lstrip": false,
      "rstrip": false,
      "normalized": false,
      "special": true
    },
    {
      "id": 7,
      "content": "<|eot|>",
      "single_word": false,
      "lstrip": false,
      "rstrip": false,
      "normalized": false,
      "special": true
    }
  ],
  "normalizer": {
    "type": "Sequence",
    "normalizers": [
      {
        "type": "Replace",
        "pattern": {
          "String": "“"
        },
        "content": "\""
      },
      {
        "type": "Replace",
        "pattern": {
          "String": "”"
        },
        "content": "\""
      },
      {
        "type": "Replace",
        "pattern": {
          "String": "‘"
        },
        "content": "'"
      },
      {
        "type": "Replace",
        "pattern": {
          "String": "’"
        },
        "content": "'"
      },
      {
        "type": "Replace",
        "pattern": {
          "String": "—"
        },
        "content": "-"
      },
      {
        "type": "Replace",
        "pattern": {
          "String": "–"
        },
        "content": "-"
      },
      {
        "type": "Replace",
        "pattern": {
          "String": "…"
        },
        "content": "..."
      },
      {
        "type": "NFKC"
      }
    ]
  },
  "pre_tokenizer": {
    "type": "ByteLevel",
    "add_prefix_space": true,
    "trim_offsets": true,
    "use_regex": true
  },
  "post_processor": {
    "type": "TemplateProcessing",
    "single": [
      {
        "SpecialToken": {
          "id": "<bos>",
          "type_id": 0
        }
      },
      {
        "Sequence": {
          "id": "A",
          "type_id": 0
        }
      },
      {
        "SpecialToken": {
          "id": "<eos>",
          "type_id": 0
        }
      }
    ],
    "pair": [
      {
        "SpecialToken": {
          "id": "<bos>",
          "type_id": 0
        }
      },
      {
        "Sequence": {
          "id": "A",
          "type_id": 0
        }
      },
      {
        "SpecialToken": {
          "id": "<eos>",
          "type_id": 0
        }
      },
      {
        "SpecialToken": {
          "id": "<bos>",
          "type_id": 0
        }
      },
      {
        "Sequence": {
          "id": "B",
          "type_id": 1
        }
      },
      {
        "SpecialToken": {
          "id": "<eos>",
          "type_id": 1
        }
      }
    ],
    "special_tokens": {
      "<bos>": {
        "id": "<bos>",
        "ids": [
          2
        ],
        "tokens": [
          "<bos>"
        ]
      },
      "<eos>": {
        "id": "<eos>",
        "ids": [
          3
        ],
        "tokens": [
          "<eos>"
        ]
      }
    }
  },
  "decoder": {
    "type": "ByteLevel",
    "add_prefix_space": true,
    "trim_offsets": true,
    "use_regex": true
  },
  "model": {
    "type": "BPE",
    "dropout": null,
    "unk_token": "<unk>",
    "continuing_subword_prefix": null,
    "end_of_word_suffix": null,
    "fuse_unk": false,
    "byte_fallback": false,
    "ignore_merges": false,
    "vocab": {
      "<pad>": 0,
      "<unk>": 1,
      "<bos>": 2,
      "<eos>": 3,
      "<|user|>": 4,
      "<|assistant|>": 5,
      "<|system|>": 6,
      "<|eot|>": 7,
      "!": 8,
      "\"": 9,
      "#": 10,
      "$": 11,
      "%": 12,
      "&": 13,
      "'": 14,
      "(": 15,
      ")": 16,
      "*": 17,
      "+": 18,
      ",": 19,
      "-": 20,
      ".": 21,
      "/": 22,
      "0": 23,
      "1": 24,
      "2": 25,
      "3": 26,
      "4": 27,
      "5": 28,
      "6": 29,
      "7": 30,
      "8": 31,
      "9": 32,
      ":": 33,
      ";": 34,
      "<": 35,
      "=": 36,
      ">": 37,
      "?": 38,
      "@": 39,
      "A": 40,
      "B": 41,
      "C": 42,
      "D": 43,
      "E": 44,
      "F": 45,
      "G": 46,
      "H": 47,
      "I": 48,
      "J": 49,
      "K": 50,
      "L": 51,
      "M": 52,
      "N": 53,
      "O": 54,
      "P": 55,
      "Q": 56,
      "R": 57,
      "S": 58,
      "T": 59,
      "U": 60,
      "V": 61,
      "W": 62,
      "X": 63,
      "Y": 64,
      "Z": 65,
      "[": 66,
      "\\": 67,
      "]": 68,
      "^": 69,
      "_": 70,
      "`": 71,
      "a": 72,
      "b": 73,
      "c": 74,
      "d": 75,
      "e": 76,
      "f": 77,
      "g": 78,
      "h": 79,
      "i": 80,
      "j": 81,
      "k": 82,
      "l": 83,
      "m": 84,
      "n": 85,
      "o": 86,
      "p": 87,
      "q": 88,
      "r": 89,
      "s": 90,
      "t": 91,
      "u": 92,
      "v": 93,
      "w": 94,
      "x": 95,
      "y": 96,
      "z": 97,
      "{": 98,
      "|": 99,
      "}": 100,
      "~": 101,
      "¡": 102,
      "¢": 103,
      "£": 104,
      "¤": 105,
      "¥": 106,
      "¦": 107,
      "§": 108,
      "¨": 109,
      "©": 110,
      "ª": 111,
      "«": 112,
      "¬": 113,
      "®": 114,
      "¯": 115,
      "°": 116,
      "±": 117,
      "²": 118,
      "³": 119,
      "´": 120,
      "µ": 121,
      "¶": 122,
      "·": 123,
      "¸": 124,
      "¹": 125,
      "º": 126,
      "»": 127,
      "¼": 128,
      "½": 129,
      "¾": 130,
      "¿": 131,
      "Â": 132,
      "Ã": 133,
      "Ä": 134,
      "Å": 135,
      "Æ": 136,
      "Ç": 137,
      "È": 138,
      "É": 139,
      "Ê": 140,
      "Ë": 141,
      "Ì": 142,
      "Í": 143,
      "Î": 144,
      "Ï": 145,
      "Ð": 146,
      "Ñ": 147,
      "Ò": 148,
      "Ó": 149,
      "Ô": 150,
      "Õ": 151,
      "Ö": 152,
      "×": 153,
      "Ø": 154,
      "Ù": 155,
      "Ú": 156,
      "Û": 157,
      "Ü": 158,
      "à": 159,
      "á": 160,
      "â": 161,
      "ã": 162,
      "ä": 163,
      "å": 164,
      "æ": 165,
      "ç": 166,
      "è": 167,
      "é": 168,
      "ê": 169,
      "ë": 170,
      "ì": 171,
      "í": 172,
      "ï": 173,
      "ð": 174,
      "ó": 175,
      "Ā": 176,
      "ă": 177,
      "Ĉ": 178,
      "ĉ": 179,
      "Ċ": 180,
      "č": 181,
      "đ": 182,
      "ē": 183,
      "ę": 184,
      "Ě": 185,
      "ě": 186,
      "Ġ": 187,
      "ġ": 188,
      "Ģ": 189,
      "ģ": 190,
      "Ĥ": 191,
      "ĥ": 192,
      "Ħ": 193,
      "ħ": 194,
      "Ĩ": 195,
      "ĩ": 196,
      "Ī": 197,
      "ī": 198,
      "Ĭ": 199,
      "ĭ": 200,
      "Į": 201,
      "į": 202,
      "İ": 203,
      "ı": 204,
      "Ĳ": 205,
      "ĳ": 206,
      "Ĵ": 207,
      "ĵ": 208,
      "Ķ": 209,
      "ķ": 210,
      "ĸ": 211,
      "Ĺ": 212,
      "ĺ": 213,
      "Ļ": 214,
      "ļ": 215,
      "Ľ": 216,
      "ľ": 217,
      "Ŀ": 218,
      "ŀ": 219,
      "Ł": 220,
      "ł": 221,
      "Ń": 222,
      "Ġt": 223,
      "Ġa": 224,
      "er": 225,
      "čĊ": 226,
      "Ġth": 227,
      "in": 228,
      "on": 229,
      "Ġs": 230,
      "ou": 231,
      "at": 232,
      "Ġw": 233,
      "Ġi": 234,
      "Ġthe": 235,
      "an": 236,
      "re": 237,
      "Ġh": 238,
      "Ġm": 239,
      "Ġc": 240,
      "st": 241,
      "en": 242,
      "Ġb": 243,
      "Ġo": 244,
      "Ġan": 245,
      "Ġf": 246,
      "or": 247,
      "Ġto": 248,
      "Ġy": 249,
      "es": 250,
      "Ġ.": 251,
      "ing": 252,
      "Ġp": 253,
      "Ġand": 254,
      "Ġd": 255,
      "ion": 256,
      "Ġyou": 257,
      "##": 258,
      "ll": 259,
      "it": 260,
      "Ġn": 261,
      "ed": 262,
      "ver": 263,
      "Ġin": 264,
      "ar": 265,
      "Ġof": 266,
      "Ġl": 267,
      "ss": 268,
      "ation": 269,
      "ant": 270,
      "ĠA": 271,
      "ĠC": 272,
      "ve": 273,
      "om": 274,
      "ist": 275,
      "Ġg": 276,
      "os": 277,
      "al": 278,
      "ser": 279,
      "ĠU": 280,
      "ic": 281,
      "ĠUser": 282,
      "is": 283,
      "ow": 284,
      "le": 285,
      "Ġbe": 286,
      "ssist": 287,
      "ssistant": 288,
      "ĠAssistant": 289,
      "vers": 290,
      "Ġe": 291,
      "ĠCon": 292,
      "Ġ<": 293,
      "versation": 294,
      "eos": 295,
      "ot": 296,
      "Ġ##": 297,
      "ĠConversation": 298,
      "Ġ###": 299,
      "ĠčĊ": 300,
      "as": 301,
      "Ġwh": 302,
      "Ġthat": 303,
      "ent": 304,
      "Ġit": 305,
      "et": 306,
      "Ġre": 307,
      "Ġ'": 308,
      "Ġis": 309,
      "Ġfor": 310,
      "Ġu": 311,
      "ld": 312,
      "ay": 313,
      "ac": 314,
      "Ġha": 315,
      "Ġon": 316,
      "ut": 317,
      "ro": 318,
      "Ġhe": 319,
      "id": 320,
      "gh": 321,
      "ere": 322,
      "Ġ?": 323,
      "se": 324,
      "Ġst": 325,
      "ly": 326,
      "ith": 327,
      "Ġsh": 328,
      "ir": 329,
      "im": 330,
      "ch": 331,
      "am": 332,
      "Ġme": 333,
      "Ġwe": 334,
      "ke": 335,
      "ad": 336,
      "Ġwith": 337,
      "Ġ!": 338,
      "ct": 339,
      "ce": 340,
      "ĠT": 341,
      "Ġsu": 342,
      "ill": 343,
      "Ġdo": 344,
      "ri": 345,
      "Ġhave": 346,
      "Ġas": 347,
      "th": 348,
      "Ġnot": 349,
      "Ġare": 350,
      "oo": 351,
      "Ġyour": 352,
      "out": 353,
      "all": 354,
      "ght": 355,
      "ould": 356,
      "il": 357,
      "ome": 358,
      "ur": 359,
      "Ġcan": 360,
      "Ġse": 361,
      "ĠTh": 362,
      "ers": 363,
      "ore": 364,
      "ess": 365,
      "Ġde": 366,
      "Ġmy": 367,
      "ĠI": 368,
      "Ġor": 369,
      "Ġk": 370,
      "ge": 371,
      "Ġli": 372,
      "ain": 373,
      "Ġch": 374,
      "Ġbut": 375,
      "ul": 376,
      "'t": 377,
      "Ġpro": 378,
      "our": 379,
      "ate": 380,
      "Ġso": 381,
      "pp": 382,
      "Ġex": 383,
      "ter": 384,
      "and": 385,
      "Ġcon": 386,
      "ust": 387,
      "Ġr": 388,
      "Ġne": 389,
      "nd": 390,
      "Ġwas": 391,
      "Ġwill": 392,
      "pe": 393,
      "ab": 394,
      "qu": 395,
      "ure": 396,
      "if": 397,
      "ĠS": 398,
      "Ġat": 399,
      "ive": 400,
      "ol": 401,
      "Ġall": 402,
      "Ġgo": 403,
      "Ġv": 404,
      "Ġcom": 405,
      "Ġwhat": 406,
      "Ġte": 407,
      "Ġtr": 408,
      "Ġj": 409,
      "Ġab": 410,
      "Ġen": 411,
      "Ġkn": 412,
      "Ġal": 413,
      "un": 414,
      "ment": 415,
      "ake": 416,
      "Ġthis": 417,
      "mp": 418,
      "us": 419,
      "Ġif": 420,
      "rom": 421,
      "ie": 422,
      "her": 423,
      "Ġthey": 424,
      "Ġwor": 425,
      "ĠThe": 426,
      "Ġknow": 427,
      "ast": 428,
      "Ġno": 429,
      "ort": 430,
      "Ġfe": 431,
      "ig": 432,
      "Ġmore": 433,
      "ity": 434,
      "Ġle": 435,
      "Ġher": 436,
      "ap": 437,
      "end": 438,
      "ies": 439,
      "'s": 440,
      "Ġus": 441,
      "ak": 442,
      "Ġthere": 443,
      "ud": 444,
      "op": 445,
      "em": 446,
      "Ġhow": 447,
      "ind": 448,
      "Ġany": 449,
      "ard": 450,
      "Ġsome": 451,
      "ood": 452,
      "ight": 453,
      "Ġad": 454,
      "el": 455,
      "Ġpl": 456,
      "Ġby": 457,
      "art": 458,
      "Ġtheir": 459,
      "Ġhim": 460,
      "Ġabout": 461,
      "Ġfrom": 462,
      "nt": 463,
      "Ġhas": 464,
      "ect": 465,
      "Ġman": 466,
      "are": 467,
      "Ġup": 468,
      "Ġshe": 469,
      "Ġwould": 470,
      "ack": 471,
      "act": 472,
      "Ġint": 473,
      "ide": 474,
      "one": 475,
      "ag": 476,
      "ink": 477,
      "iv": 478,
      "Ġthem": 479,
      "Ġam": 480,
      "very": 481,
      "ine": 482,
      "Ġhis": 483,
      "ions": 484,
      "ĠH": 485,
      "Ġout": 486,
      "Ġlike": 487,
      "um": 488,
      "ci": 489,
      "Ġone": 490,
      "Ġlo": 491,
      "age": 492,
      "ook": 493,
      "rou": 494,
      "ĠĠ": 495,
      "ong": 496,
      "Ġwell": 497,
      "ĠM": 498,
      "ry": 499,
      "reat": 500,
      "Ġ1": 501,
      "ff": 502,
      "ish": 503,
      "ĠP": 504,
      "Ġ-": 505,
      "ous": 506,
      "ĠB": 507,
      "ep": 508,
      "Ġwho": 509,
      "Ġsee": 510,
      "ose": 511,
      "ich": 512,
      "ĠW": 513,
      "iz": 514,
      "pl": 515,
      "Ġpre": 516,
      "Ġhad": 517,
      "able": 518,
      "ame": 519,
      "ally": 520,
      "av": 521,
      "od": 522,
      "Ġpr": 523,
      "Ġimp": 524,
      "ime": 525,
      "ite": 526,
      "ance": 527,
      "Ġthink": 528,
      "Ġinc": 529,
      "ence": 530,
      "ace": 531,
      "Ġpo": 532,
      "Ġqu": 533,
      "Ġhel": 534,
      "ip": 535,
      "Ġhere": 536,
      "ach": 537,
      "ice": 538,
      "for": 539,
      "ther": 540,
      "cc": 541,
      "Ġhelp": 542,
      "ck": 543,
      "Ġnow": 544,
      "ire": 545,
      "Ġwhen": 546,
      "fer": 547,
      "Ġsp": 548,
      "Ġsa": 549,
      "Ġdid": 550,
      "Ġun": 551,
      "Ġbeen": 552,
      "pt": 553,
      "ĠD": 554,
      "Ġbr": 555,
      "Ġco": 556,
      "ase": 557,
      "Ġar": 558,
      "Ġcl": 559,
      "Ġshould": 560,
      "Ġgood": 561,
      "per": 562,
      "est": 563,
      "Ġprov": 564,
      "ĠF": 565,
      "Ġsuch": 566,
      "Ġgr": 567,
      "Ġwhich": 568,
      "Ġget": 569,
      "ign": 570,
      "Ġcould": 571,
      "ays": 572,
      "sel": 573,
      "Ġtime": 574,
      "Ġcomp": 575,
      "Ġ2": 576,
      "form": 577,
      "Ġwere": 578,
      "Ġmake": 579,
      "Ġcome": 580,
      "Ġmay": 581,
      "Ġour": 582,
      "ail": 583,
      "Ġspe": 584,
      "ĠR": 585,
      "ings": 586,
      "Ġev": 587,
      "du": 588,
      "Ġother": 589,
      "ations": 590,
      "Ġadd": 591,
      "Ġover": 592,
      "so": 593,
      "Ġag": 594,
      "hing": 595,
      "ick": 596,
      "Ġper": 597,
      "ĠE": 598,
      "ĠCan": 599,
      "Ġcont": 600,
      "Ġro": 601,
      "ound": 602,
      "own": 603,
      "Ġwork": 604,
      "Ġtell": 605,
      "Ġthen": 606,
      "ru": 607,
      "itt": 608,
      "Ġwant": 609,
      "Ġthan": 610,
      "Ġpe": 611,
      "Ġmust": 612,
      "Ġmo": 613,
      "ans": 614,
      "og": 615,
      "Ġapp": 616,
      "ult": 617,
      "ition": 618,
      "ue": 619,
      "ful": 620,
      "ber": 621,
      "Ġmar": 622,
      "ra": 623,
      "Ġsay": 624,
      "Ġlet": 625,
      "ĠO": 626,
      "Ġbet": 627,
      "ble": 628,
      "au": 629,
      "Ġri": 630,
      "Ġdes": 631,
      "ile": 632,
      "ass": 633,
      "Ġres": 634,
      "ĠThis": 635,
      "Ġbl": 636,
      "ang": 637,
      "Ġvery": 638,
      "Ġalso": 639,
      "Ġjust": 640,
      "ĠG": 641,
      "Ġthou": 642,
      "ces": 643,
      "oy": 644,
      "ild": 645,
      "Ġyes": 646,
      "vel": 647,
      "other": 648,
      "self": 649,
      "ĠL": 650,
      "ory": 651,
      "Ġinto": 652,
      "ific": 653,
      "ond": 654,
      "ount": 655,
      "Ġdis": 656,
      "ress": 657,
      "als": 658,
      "Ġlook": 659,
      "ord": 660,
      "ents": 661,
      "Ġtake": 662,
      "Ġwhy": 663,
      "lud": 664,
      "Ġfl": 665,
      "ear": 666,
      "tain": 667,
      "ree": 668,
      "ated": 669,
      "Ġoh": 670,
      "Ġaf": 671,
      "nder": 672,
      "Ġthese": 673,
      "ors": 674,
      "Ġind": 675,
      "ĠIn": 676,
      "Ġtoo": 677,
      "Ġnever": 678,
      "ather": 679,
      "fe": 680,
      "Ġmr": 681,
      "get": 682,
      "les": 683,
      "ade": 684,
      "ater": 685,
      "Ġuse": 686,
      "Ġonly": 687,
      "Ġshall": 688,
      "Ġwhere": 689,
      "Ġmu": 690,
      "Ġsupp": 691,
      "Ġway": 692,
      "Ġho": 693,
      "Ġ3": 694,
      "Ġnew": 695,
      "Ġke": 696,
      "Ġ\"": 697,
      "Ġser": 698,
      "we": 699,
      "Ġits": 700,
      "Ġoff": 701,
      "Ġacc": 702,
      "Ġsc": 703,
      "ical": 704,
      "wn": 705,
      "ary": 706,
      "Ġinclud": 707,
      "Ġgreat": 708,
      "Ġtw": 709,
      "Ġcomm": 710,
      "ens": 711,
      "iss": 712,
      "Ġfo": 713,
      "Ġpart": 714,
      "fore": 715,
      "ise": 716,
      "Ġright": 717,
      "ia": 718,
      "Ġdif": 719,
      "ning": 720,
      "Ġprovide": 721,
      "Ġunder": 722,
      "he": 723,
      "igh": 724,
      "Ġmuch": 725,
      "ĠY": 726,
      "lic": 727,
      "Ġback": 728,
      "ĠN": 729,
      "Ġexam": 730,
      "Ġstr": 731,
      "Ġaw": 732,
      "rough": 733,
      "Ġgive": 734,
      "ittle": 735,
      "Ġrem": 736,
      "Ġrec": 737,
      "oth": 738,
      "Ġlittle": 739,
      "int": 740,
      "ction": 741,
      "ne": 742,
      "Ġcre": 743,
      "Ġbec": 744,
      "ty": 745,
      "Ġevery": 746,
      "ons": 747,
      "Ġinform": 748,
      "Ġ4": 749,
      "gr": 750,
      "ave": 751,
      "ial": 752,
      "ft": 753,
      "ious": 754,
      "ness": 755,
      "aking": 756,
      "Ġfind": 757,
      "Ġsure": 758,
      "riend": 759,
      "ks": 760,
      "ĠIt": 761,
      "Ġbefore": 762,
      "Ġlong": 763,
      "Ġgoing": 764,
      "Ġbel": 765,
      "Ġthrough": 766,
      "Ġneed": 767,
      "xt": 768,
      "llow": 769,
      "Ġdown": 770,
      "Ġagain": 771,
      "ough": 772,
      "Ġsm": 773,
      "Ġid": 774,
      "cial": 775,
      "ities": 776,
      "ath": 777,
      "ments": 778,
      "Ġsir": 779,
      "omet": 780,
      "Ġgu": 781,
      "Ġlife": 782,
      "ving": 783,
      "Ġwr": 784,
      "Ġafter": 785,
      "Ġbu": 786,
      "Ġdiffer": 787,
      "ves": 788,
      "ved": 789,
      "Ġdet": 790,
      "Ġcour": 791,
      "Ġ(": 792,
      "ople": 793,
      "thing": 794,
      "urn": 795,
      "ont": 796,
      "Ġeff": 797,
      "Ġpers": 798,
      "ures": 799,
      "Ġexper": 800,
      "Ġlove": 801,
      "Ġeven": 802,
      "sh": 803,
      "Ġple": 804,
      "Ġold": 805,
      "ng": 806,
      "Ġim": 807,
      "Ġ5": 808,
      "Ġpeople": 809,
      "Ġown": 810,
      "Ġbetter": 811,
      "Ġinformation": 812,
      "red": 813,
      "round": 814,
      "ily": 815,
      "ub": 816,
      "alk": 817,
      "Ġgl": 818,
      "Ġhand": 819,
      "Ġfeel": 820,
      "ange": 821,
      "ady": 822,
      "Ġsomet": 823,
      "pect": 824,
      "iness": 825,
      "Ġfir": 826,
      "Ġgot": 827,
      "Ġhigh": 828,
      "Ġused": 829,
      "Ġmade": 830,
      "Ġfriend": 831,
      "Ġdoes": 832,
      "Ġrel": 833,
      "ool": 834,
      "Ġcons": 835,
      "ese": 836,
      "Ġcr": 837,
      "Ġem": 838,
      "ertain": 839,
      "Ġtwo": 840,
      "Ġcar": 841,
      "Ġsy": 842,
      "ĠJ": 843,
      "Ġday": 844,
      "air": 845,
      "ting": 846,
      "ull": 847,
      "Ġmany": 848,
      "ular": 849,
      "Ġca": 850,
      "ower": 851,
      "Ġspec": 852,
      "Ġeng": 853,
      "ience": 854,
      "Ġprodu": 855,
      "alth": 856,
      "ating": 857,
      "ian": 858,
      "Ġchar": 859,
      "ple": 860,
      "bs": 861,
      "ices": 862,
      "ause": 863,
      "Ġbus": 864,
      "be": 865,
      "Ġbo": 866,
      "Ġworld": 867,
      "Ġyear": 868,
      "Ġkeep": 869,
      "cess": 870,
      "chn": 871,
      "Ġfirst": 872,
      "te": 873,
      "Ġjo": 874,
      "Ġmin": 875,
      "Ġmed": 876,
      "ible": 877,
      "Ġdifferent": 878,
      "ips": 879,
      "Ġdear": 880,
      "Ġart": 881,
      "ject": 882,
      "uring": 883,
      "ize": 884,
      "Ġact": 885,
      "Ġmight": 886,
      "Ġmean": 887,
      "Ġthought": 888,
      "Ġset": 889,
      "Ġbelie": 890,
      "Ġmost": 891,
      "Ġcall": 892,
      "velop": 893,
      "Ġinst": 894,
      "its": 895,
      "Ġwhile": 896,
      "atter": 897,
      "ples": 898,
      "stand": 899,
      "ways": 900,
      "Ġperson": 901,
      "Ġph": 902,
      "arn": 903,
      "dd": 904,
      "Ġreg": 905,
      "Ġcare": 906,
      "ark": 907,
      "Ġhome": 908,
      "ility": 909,
      "ates": 910,
      "Ġsk": 911,
      "Ġthose": 912,
      "Ġmiss": 913,
      "Ġtechn": 914,
      "ĠĠĠĠ": 915,
      "ouse": 916,
      "ew": 917,
      "Ġhapp": 918,
      "Ġinter": 919,
      "iqu": 920,
      "ual": 921,
      "Ġcle": 922,
      "up": 923,
      "Ġrep": 924,
      "ody": 925,
      "ib": 926,
      "ics": 927,
      "Ġtry": 928,
      "Ġchild": 929,
      "Ġplace": 930,
      "Ġsomething": 931,
      "atch": 932,
      "olog": 933,
      "Ġplay": 934,
      "Ġmind": 935,
      "Ġaway": 936,
      "ased": 937,
      "ustom": 938,
      "gan": 939,
      "Ġthing": 940,
      "Ġcourse": 941,
      "Ġatt": 942,
      "Ġeach": 943,
      "arch": 944,
      "gest": 945,
      "arm": 946,
      "Ġnothing": 947,
      "ative": 948,
      "Ġsign": 949,
      "Ġalways": 950,
      "Ġhealth": 951,
      "Ġspecific": 952,
      "Ġcount": 953,
      "ced": 954,
      "Ġask": 955,
      "Ġvis": 956,
      "Ġunderstand": 957,
      "ener": 958,
      "Ġcreat": 959,
      "Ġbusiness": 960,
      "Ġreally": 961,
      "ĠSt": 962,
      "Ġprom": 963,
      "Ġbre": 964,
      "Ġstud": 965,
      "Ġthings": 966,
      "Ġexamples": 967,
      "Ġsug": 968,
      "gram": 969,
      "Ġdevelop": 970,
      "Ġever": 971,
      "ural": 972,
      "Ġins": 973,
      "ict": 974,
      "ĠCh": 975,
      "Ġfew": 976,
      "ix": 977,
      "ems": 978,
      "Ġusing": 979,
      "Ġexpl": 980,
      "Ġfather": 981,
      "ef": 982,
      "Ġsaid": 983,
      "oc": 984,
      "Ġshow": 985,
      "erest": 986,
      "Ġwater": 987,
      "Ġac": 988,
      "Ġdetail": 989,
      "Ġsec": 990,
      "ars": 991,
      "Ġcustom": 992,
      "Ġplease": 993,
      "ward": 994,
      "cy": 995,
      "ĠWh": 996,
      "Ġbest": 997,
      "ner": 998,
      "Ġmark": 999,
      "Ġcreate": 1000,
      "aw": 1001,
      "omm": 1002,
      "gy": 1003,
      "Ġunt": 1004,
      "Ġcol": 1005,
      "Ġwom": 1006,
      "akes": 1007,
      "Ġcommun": 1008,
      "Ġvar": 1009,
      "day": 1010,
      "Ġcap": 1011,
      "Ġanything": 1012,
      "Ġenough": 1013,
      "Ġlast": 1014,
      "Ġword": 1015,
      "Ġdec": 1016,
      "ute": 1017,
      "ys": 1018,
      "ren": 1019,
      "Ġserv": 1020,
      "ĠV": 1021,
      "Ġma": 1022,
      "Ġuser": 1023,
      "ense": 1024,
      "der": 1025,
      "00": 1026,
      "amp": 1027,
      "Ġprogram": 1028,
      "Ġmus": 1029,
      "Ġput": 1030,
      "led": 1031,
      "Ġadv": 1032,
      "Ġob": 1033,
      "ature": 1034,
      "ider": 1035,
      "Ġinterest": 1036,
      "ten": 1037,
      "Ġpres": 1038,
      "Ġdesign": 1039,
      "row": 1040,
      "ĠK": 1041,
      "Ġloc": 1042,
      "Ġmen": 1043,
      "Ġel": 1044,
      "iet": 1045,
      "Ġdr": 1046,
      "Ġsur": 1047,
      "ever": 1048,
      "Ġmet": 1049,
      "Ġbecause": 1050,
      "Ġeas": 1051,
      "Ġnight": 1052,
      "ven": 1053,
      "Ġve": 1054,
      "Ġide": 1055,
      "Ġread": 1056,
      "Ġsl": 1057,
      "man": 1058,
      "Ġche": 1059,
      "aps": 1060,
      "Ġyoung": 1061,
      "Ġdone": 1062,
      "Ġwithout": 1063,
      "ĠHere": 1064,
      "Ġele": 1065,
      "oney": 1066,
      "Ġwish": 1067,
      "gg": 1068,
      "Ġhope": 1069,
      "Ġimpro": 1070,
      "Ġfr": 1071,
      "Ġstory": 1072,
      "ock": 1073,
      "uth": 1074,
      "Ġfun": 1075,
      "Ġprovid": 1076,
      "Ġbeing": 1077,
      "Ġfam": 1078,
      "Ġopt": 1079,
      "Ġeffect": 1080,
      "ĠHow": 1081,
      "Ġsupport": 1082,
      "ms": 1083,
      "Ġend": 1084,
      "co": 1085,
      "Ġincluding": 1086,
      "ote": 1087,
      "Ġuntil": 1088,
      "eng": 1089,
      "irl": 1090,
      "Ġallow": 1091,
      "Ġdat": 1092,
      "Ġbelieve": 1093,
      "Ġent": 1094,
      "Ġimpact": 1095,
      "Ġhouse": 1096,
      "Ġsch": 1097,
      "Ġproduct": 1098,
      "Ġboy": 1099,
      "ied": 1100,
      "Ġpass": 1101,
      "ĠAdd": 1102,
      "gin": 1103,
      "Ġtalk": 1104,
      "Ġinf": 1105,
      "Ġsal": 1106,
      "Ġstart": 1107,
      "Ġfound": 1108,
      "Ġsim": 1109,
      "Ġsuggest": 1110,
      "ized": 1111,
      "Ġmother": 1112,
      "iting": 1113,
      "Ġname": 1114,
      "Ġreal": 1115,
      "Ġyet": 1116,
      "Ġtrans": 1117,
      "Ġpract": 1118,
      "Ġgod": 1119,
      "Ġrest": 1120,
      "ĠĠĠ": 1121,
      "Ġstill": 1122,
      "Ġtom": 1123,
      "ertainly": 1124,
      "ts": 1125,
      "Ġlist": 1126,
      "Ġmon": 1127,
      "Ġret": 1128,
      "Ġemp": 1129,
      "Ġaff": 1130,
      "Ġkind": 1131,
      "Ġexp": 1132,
      "Ġcompan": 1133,
      "ince": 1134,
      "Ġav": 1135,
      "ank": 1136,
      "Ġhear": 1137,
      "iew": 1138,
      "ier": 1139,
      "ell": 1140,
      "ried": 1141,
      "Ġed": 1142,
      "ember": 1143,
      "Ġval": 1144,
      "Ġheart": 1145,
      "Ġoffer": 1146,
      "ling": 1147,
      "Ġwa": 1148,
      "aut": 1149,
      "Ġpot": 1150,
      "Ġlead": 1151,
      "ern": 1152,
      "wh": 1153,
      "Ġmarket": 1154,
      "ruct": 1155,
      "itional": 1156,
      "ason": 1157,
      "less": 1158,
      "ric": 1159,
      "ween": 1160,
      "ences": 1161,
      "Ġinv": 1162,
      "Ġty": 1163,
      "Ġop": 1164,
      "Ġstre": 1165,
      "Ġduring": 1166,
      "Ġdep": 1167,
      "Ġcoll": 1168,
      "Ġbetween": 1169,
      "Ġboth": 1170,
      "imes": 1171,
      "mer": 1172,
      "ost": 1173,
      "Ġsocial": 1174,
      "Ġredu": 1175,
      "Ġanother": 1176,
      "Ġyears": 1177,
      "Ġgirl": 1178,
      "Ġcho": 1179,
      "Ġtold": 1180,
      "Ġlight": 1181,
      "Ġfollow": 1182,
      "Ġimport": 1183,
      "Ġstay": 1184,
      "Ġconf": 1185,
      "Ġgener": 1186,
      "ĠThese": 1187,
      "Ġhard": 1188,
      "ention": 1189,
      "Ġposs": 1190,
      "Ġmod": 1191,
      "ages": 1192,
      "Ġyourself": 1193,
      "rib": 1194,
      "Ġmyself": 1195,
      "Ġquite": 1196,
      "ash": 1197,
      "ential": 1198,
      "Ġcult": 1199,
      "Ġnum": 1200,
      "land": 1201,
      "Ġpower": 1202,
      "Ġsound": 1203,
      "Ġsuppose": 1204,
      "Ġ6": 1205,
      "ient": 1206,
      "Ġass": 1207,
      "Ġonce": 1208,
      "Ġmor": 1209,
      "onder": 1210,
      "cept": 1211,
      "Ġsyst": 1212,
      "Ġear": 1213,
      "ues": 1214,
      "ph": 1215,
      "Ġye": 1216,
      "Ġinclude": 1217,
      "Ġwo": 1218,
      "Ġupon": 1219,
      "ork": 1220,
      "Ġpoor": 1221,
      "Ġref": 1222,
      "ries": 1223,
      "Ġrun": 1224,
      "Ġcomple": 1225,
      "Ġsame": 1226,
      "und": 1227,
      "Ġmaking": 1228,
      "Ġsmall": 1229,
      "az": 1230,
      "Ġfre": 1231,
      "Ġexperience": 1232,
      "ique": 1233,
      "Ġmoney": 1234,
      "Ġill": 1235,
      "ĠUse": 1236,
      "ĠThey": 1237,
      "ĠYou": 1238,
      "Ġstand": 1239,
      "Ġpol": 1240,
      "ah": 1241,
      "ired": 1242,
      "con": 1243,
      "Ġfin": 1244,
      "Ġdont": 1245,
      "Ġben": 1246,
      "Ġaround": 1247,
      "Ġcame": 1248,
      "ivid": 1249,
      "Ġsub": 1250,
      "Ġdist": 1251,
      "Ġmem": 1252,
      "ccess": 1253,
      "Ġhead": 1254,
      "Ġpersonal": 1255,
      "haps": 1256,
      "Ġlearn": 1257,
      "ought": 1258,
      "Ġbeaut": 1259,
      "Ġter": 1260,
      "uc": 1261,
      "aph": 1262,
      "Ġtoget": 1263,
      "Ġtogether": 1264,
      "Ġmatter": 1265,
      "ines": 1266,
      "Ġpur": 1267,
      "Ġgiv": 1268,
      "Ġdata": 1269,
      "res": 1270,
      "Ġcook": 1271,
      "Ġsw": 1272,
      "ited": 1273,
      "ology": 1274,
      "ife": 1275,
      "Ġspeak": 1276,
      "Ġpos": 1277,
      "Ġ`": 1278,
      "Ġprocess": 1279,
      "Ġgre": 1280,
      "Ġrequ": 1281,
      "Ġtips": 1282,
      "Ġmusic": 1283,
      "ted": 1284,
      "Ġleave": 1285,
      "ĠFor": 1286,
      "ĠHe": 1287,
      "Ġperhaps": 1288,
      "Ġbook": 1289,
      "Ġhum": 1290,
      "ants": 1291,
      "Ġfood": 1292,
      "ional": 1293,
      "Ġsuccess": 1294,
      "Ġbring": 1295,
      "Ġtext": 1296,
      "ins": 1297,
      "Ġcor": 1298,
      "li": 1299,
      "Ġoften": 1300,
      "Ġconc": 1301,
      "Ġgrow": 1302,
      "br": 1303,
      "Ġplan": 1304,
      "avor": 1305,
      "cu": 1306,
      "ĠAs": 1307,
      "Ġchall": 1308,
      "Ġbuild": 1309,
      "Ġsignific": 1310,
      "Ġwoman": 1311,
      "ources": 1312,
      "line": 1313,
      "Ġseen": 1314,
      "Ġform": 1315,
      "Ġleft": 1316,
      "by": 1317,
      "Ġthree": 1318,
      "Ġprof": 1319,
      "Ġens": 1320,
      "Ġext": 1321,
      "ract": 1322,
      "ality": 1323,
      "Ġpartic": 1324,
      "lish": 1325,
      "ients": 1326,
      "Ġwonder": 1327,
      "ove": 1328,
      "ommend": 1329,
      "Ġheard": 1330,
      "body": 1331,
      "Ġcur": 1332,
      "Ġquest": 1333,
      "ee": 1334,
      "Ġpap": 1335,
      "Ġimprove": 1336,
      "Ġtrad": 1337,
      "Ġener": 1338,
      "Ġfact": 1339,
      "Ġorgan": 1340,
      "Ġturn": 1341,
      "Ġrecommend": 1342,
      "Ġfar": 1343,
      "cri": 1344,
      "Ġfellow": 1345,
      "Ġdetails": 1346,
      "itive": 1347,
      "ĠSure": 1348,
      "utes": 1349,
      "Ġpop": 1350,
      "ger": 1351,
      "Ġlar": 1352,
      "Ġsoon": 1353,
      "ton": 1354,
      "Ġbeh": 1355,
      "Ġey": 1356,
      "Ġexample": 1357,
      "ared": 1358,
      "Ġsou": 1359,
      "Ġhist": 1360,
      "Ġaccess": 1361,
      "cus": 1362,
      "Ġhour": 1363,
      "ps": 1364,
      "Ġmeet": 1365,
      "Ġstep": 1366,
      "ross": 1367,
      "ened": 1368,
      "Ġincre": 1369,
      "Ġlive": 1370,
      "Ġthough": 1371,
      "Ġsince": 1372,
      "ational": 1373,
      "Ġland": 1374,
      "Ġsaw": 1375,
      "Ġenergy": 1376,
      "ĠYes": 1377,
      "Ġsever": 1378,
      "no": 1379,
      "Ġtre": 1380,
      "aught": 1381,
      "Ġtra": 1382,
      "Ġmad": 1383,
      "Ġremember": 1384,
      "Ġteam": 1385,
      "aster": 1386,
      "Ġable": 1387,
      "Ġagainst": 1388,
      "ify": 1389,
      "Ġnor": 1390,
      "Ġah": 1391,
      "vent": 1392,
      "Ġsol": 1393,
      "Ġmom": 1394,
      "aging": 1395,
      "Ġpresent": 1396,
      "Ġmain": 1397,
      "uck": 1398,
      "Ġclear": 1399,
      "oub": 1400,
      "Ġnat": 1401,
      "ully": 1402,
      "Ġdev": 1403,
      "ush": 1404,
      "Ġindust": 1405,
      "Ġperform": 1406,
      "Ġsit": 1407,
      "put": 1408,
      "Ġconsider": 1409,
      "ortun": 1410,
      "ills": 1411,
      "pped": 1412,
      "Ġunique": 1413,
      "Ġopp": 1414,
      "Ġrese": 1415,
      "ield": 1416,
      "Ġgent": 1417,
      "cing": 1418,
      "Ġtrue": 1419,
      "ĠOver": 1420,
      "fect": 1421,
      "ution": 1422,
      "Ġsum": 1423,
      "Ġsty": 1424,
      "Ġexpect": 1425,
      "Ġlord": 1426,
      "Ġlady": 1427,
      "Ġhold": 1428,
      "ables": 1429,
      "Ġroom": 1430,
      "Ġprot": 1431,
      "els": 1432,
      "Ġmater": 1433,
      "Ġhal": 1434,
      "ns": 1435,
      "aste": 1436,
      "Ġtop": 1437,
      "Ġenv": 1438,
      "ives": 1439,
      "eed": 1440,
      "att": 1441,
      "Ġfamily": 1442,
      "ret": 1443,
      "ains": 1444,
      "Ġcamp": 1445,
      "Ġwebs": 1446,
      "Ġpri": 1447,
      "joy": 1448,
      "Ġswe": 1449,
      "'m": 1450,
      "Ġmedia": 1451,
      "lect": 1452,
      "angu": 1453,
      "iron": 1454,
      "ale": 1455,
      "ides": 1456,
      "Ġcontent": 1457,
      "Ġalong": 1458,
      "Ġelse": 1459,
      "ets": 1460,
      "agement": 1461,
      "orrow": 1462,
      "Ġpar": 1463,
      "Ġnear": 1464,
      "Ġ20": 1465,
      "ats": 1466,
      "ither": 1467,
      "Ġmrs": 1468,
      "Ġglad": 1469,
      "Ġfriends": 1470,
      "Ġbreak": 1471,
      "thers": 1472,
      "lu": 1473,
      "Ġfocus": 1474,
      "orts": 1475,
      "light": 1476,
      "Ġknew": 1477,
      "Ġproject": 1478,
      "ape": 1479,
      "ĠRe": 1480,
      "Ġknown": 1481,
      "Ġpay": 1482,
      "nect": 1483,
      "ists": 1484,
      "ery": 1485,
      "por": 1486,
      "ĠHowever": 1487,
      "ump": 1488,
      "Ġappro": 1489,
      "Ġrather": 1490,
      "to": 1491,
      "Ġresearch": 1492,
      "io": 1493,
      "lt": 1494,
      "Ġbad": 1495,
      "Ġpret": 1496,
      "Ġheav": 1497,
      "Ġdon": 1498,
      "Ġchalleng": 1499,
      "Ġothers": 1500,
      "Ġdish": 1501,
      "Ġcountry": 1502,
      "Ġ7": 1503,
      "Ġfeat": 1504,
      "Ġpub": 1505,
      "ately": 1506,
      "Ġminutes": 1507,
      "ether": 1508,
      "Ġmorning": 1509,
      "Ġsignificant": 1510,
      "ually": 1511,
      "Ġfree": 1512,
      "Ġresp": 1513,
      "Ġbenef": 1514,
      "Ġlangu": 1515,
      "Ġpoint": 1516,
      "Ġdri": 1517,
      "Ġwee": 1518,
      "Ġthank": 1519,
      "Ġenviron": 1520,
      "cle": 1521,
      "Ġcompany": 1522,
      "Ġseveral": 1523,
      "Ġhor": 1524,
      "aken": 1525,
      "mon": 1526,
      "Ġanal": 1527,
      "Ġmil": 1528,
      "Ġeasy": 1529,
      "Ġenc": 1530,
      "Ġpain": 1531,
      "ism": 1532,
      "Ġaud": 1533,
      "ots": 1534,
      "raid": 1535,
      "oun": 1536,
      "Ġactiv": 1537,
      "Ġseem": 1538,
      "Ġes": 1539,
      "Ġleast": 1540,
      "Ġreturn": 1541,
      "Ġclass": 1542,
      "ability": 1543,
      "Ġtrain": 1544,
      "Ġtool": 1545,
      "Ġsle": 1546,
      "Ġreci": 1547,
      "ird": 1548,
      "Ġperfect": 1549,
      "Ġbig": 1550,
      "ĠOverall": 1551,
      "ĠWe": 1552,
      "Ġsystem": 1553,
      "Ġfore": 1554,
      "ax": 1555,
      "Ġcity": 1556,
      "Ġstrong": 1557,
      "Ġcase": 1558,
      "Ġproper": 1559,
      "Ġsn": 1560,
      "Ġcent": 1561,
      "ivers": 1562,
      "Ġtri": 1563,
      "itionally": 1564,
      "Ġcontin": 1565,
      "Ġafraid": 1566,
      "Ġcal": 1567,
      "pes": 1568,
      "vern": 1569,
      "Ġ=": 1570,
      "Ġmess": 1571,
      "wer": 1572,
      "Ġgone": 1573,
      "bers": 1574,
      "Ġeverything": 1575,
      "Ġtemp": 1576,
      "Ġess": 1577,
      "Ġbit": 1578,
      "Ġless": 1579,
      "Ġought": 1580,
      "Ġtoday": 1581,
      "Ġensure": 1582,
      "ization": 1583,
      "ĠAl": 1584,
      "lement": 1585,
      "Ġchildren": 1586,
      "Ġpie": 1587,
      "illed": 1588,
      "Ġopen": 1589,
      "Ġdef": 1590,
      "pr": 1591,
      "vest": 1592,
      "ories": 1593,
      "Ġindivid": 1594,
      "Ġdre": 1595,
      "Ġsense": 1596,
      "Ġimportant": 1597,
      "chie": 1598,
      "Ġnext": 1599,
      "Ġface": 1600,
      "Ġair": 1601,
      "com": 1602,
      "ĠAdditionally": 1603,
      "ĠIf": 1604,
      "old": 1605,
      "Ġgentle": 1606,
      "Ġwait": 1607,
      "Ġresult": 1608,
      "Ġwar": 1609,
      "Ġways": 1610,
      "orpor": 1611,
      "Ġeffective": 1612,
      "Ġnumber": 1613,
      "pper": 1614,
      "Ġindeed": 1615,
      "Ġcup": 1616,
      "Ġhalf": 1617,
      "Ġdays": 1618,
      "Ġchang": 1619,
      "Ġside": 1620,
      "cript": 1621,
      "Ġwebsite": 1622,
      "ĠDo": 1623,
      "Ġste": 1624,
      "Ġwind": 1625,
      "acter": 1626,
      "ouble": 1627,
      "lf": 1628,
      "right": 1629,
      "Ġschool": 1630,
      "Ġcomes": 1631,
      "Ġbar": 1632,
      "Ġpast": 1633,
      "Ġsent": 1634,
      "ency": 1635,
      "ames": 1636,
      "Ġdevelopment": 1637,
      "Ġsend": 1638,
      "Ġdire": 1639,
      "ances": 1640,
      "Ġbegin": 1641,
      "Ġidea": 1642,
      "Ġfeatures": 1643,
      "Ġstrate": 1644,
      "Ġfac": 1645,
      "Ġinflu": 1646,
      "Ġmoment": 1647,
      "Ġbrand": 1648,
      "iety": 1649,
      "Ġenvironment": 1650,
      "Ġpat": 1651,
      "Ġconnect": 1652,
      "ney": 1653,
      "Ġnatural": 1654,
      "Ġcoming": 1655,
      "Ġlanguage": 1656,
      "ials": 1657,
      "Ġlocal": 1658,
      "ĠWr": 1659,
      "ott": 1660,
      "Ġsort": 1661,
      "Ġident": 1662,
      "Ġdead": 1663,
      "ined": 1664,
      "ok": 1665,
      "Ġtimes": 1666,
      "iful": 1667,
      "Ġveget": 1668,
      "ister": 1669,
      "Ġhands": 1670,
      "ĠAn": 1671,
      "ĠPro": 1672,
      "Ġsweet": 1673,
      "hip": 1674,
      "Ġpossible": 1675,
      "itions": 1676,
      "Ġseems": 1677,
      "ental": 1678,
      "ety": 1679,
      "Ġchange": 1680,
      "Ġauth": 1681,
      "Ġ[": 1682,
      "Ġtechnology": 1683,
      "ze": 1684,
      "Ġwent": 1685,
      "unt": 1686,
      "wards": 1687,
      "ob": 1688,
      "Ġemot": 1689,
      "Ġcost": 1690,
      "uce": 1691,
      "Ġforg": 1692,
      "Ġwalk": 1693,
      "Ġhur": 1694,
      "Ġkey": 1695,
      "po": 1696,
      "cl": 1697,
      "ital": 1698,
      "Ġoptions": 1699,
      "Ġwhole": 1700,
      "Ġbro": 1701,
      "ĠBy": 1702,
      "ead": 1703,
      "Ġenjoy": 1704,
      "abor": 1705,
      "erm": 1706,
      "Ġquick": 1707,
      "Ġreduce": 1708,
      "loy": 1709,
      "Ġdoing": 1710,
      "selves": 1711,
      "ĠCould": 1712,
      "Ġsat": 1713,
      "ert": 1714,
      "Ġbecome": 1715,
      "Ġtill": 1716,
      "Ġself": 1717,
      "Ġorder": 1718,
      "ctor": 1719,
      "itch": 1720,
      "Ġhot": 1721,
      "Ġtomorrow": 1722,
      "Ġlevel": 1723,
      "Ġmove": 1724,
      "orn": 1725,
      "Ġdeep": 1726,
      "ised": 1727,
      "Ġavail": 1728,
      "Ġcharacter": 1729,
      "Ġinvol": 1730,
      "Ġpotential": 1731,
      "Ġopportun": 1732,
      "Ġvarious": 1733,
      "Ġgrou": 1734,
      "asure": 1735,
      "Ġoil": 1736,
      "Ġpretty": 1737,
      "ĠAnd": 1738,
      "Ġalone": 1739,
      "ĠCertainly": 1740,
      "app": 1741,
      "ron": 1742,
      "Ġindustry": 1743,
      "Ġest": 1744,
      "Ġsoft": 1745,
      "Ġdoub": 1746,
      "Ġred": 1747,
      "ases": 1748,
      "raw": 1749,
      "Ġfresh": 1750,
      "Ġmot": 1751,
      "anger": 1752,
      "Ġhappy": 1753,
      "Ġcertainly": 1754,
      "Ġexperi": 1755,
      "work": 1756,
      "Ġfa": 1757,
      "Ġresources": 1758,
      "idd": 1759,
      "ĠWrite": 1760,
      "Ġmakes": 1761,
      "Ġfil": 1762,
      "the": 1763,
      "Ġris": 1764,
      "Ġguess": 1765,
      "view": 1766,
      "Ġgovern": 1767,
      "Ġsleep": 1768,
      "Ġeduc": 1769,
      "Ġhistory": 1770,
      "ring": 1771,
      "Ġpost": 1772,
      "Ġusers": 1773,
      "enty": 1774,
      "Ġmarketing": 1775,
      "Ġson": 1776,
      "Ġservice": 1777,
      "ards": 1778,
      "Ġblack": 1779,
      "Ġfire": 1780,
      "Ġprofess": 1781,
      "ĠBe": 1782,
      "ording": 1783,
      "Ġservices": 1784,
      "port": 1785,
      "Ġtraditional": 1786,
      "Ġfut": 1787,
      "Ġcut": 1788,
      "Ġbody": 1789,
      "ication": 1790,
      "Ġconst": 1791,
      "Ġla": 1792,
      "Ġvisit": 1793,
      "ination": 1794,
      "ying": 1795,
      "Ġtrack": 1796,
      "Ġton": 1797,
      "Ġlarge": 1798,
      "Ġstate": 1799,
      "sp": 1800,
      "fully": 1801,
      "Ġmine": 1802,
      "Ġwords": 1803,
      "Ġmeans": 1804,
      "Ġrece": 1805,
      "Ġgame": 1806,
      "hn": 1807,
      "Ġpopular": 1808,
      "Ġstudents": 1809,
      "Ġgiven": 1810,
      "Ġreach": 1811,
      "fort": 1812,
      "Ġeyes": 1813,
      "erc": 1814,
      "Ġwin": 1815,
      "Ġbeautiful": 1816,
      "Ġfear": 1817,
      "redients": 1818,
      "rist": 1819,
      "Ġcommunity": 1820,
      "ane": 1821,
      "Ġmist": 1822,
      "Ġfur": 1823,
      "Ġchallenges": 1824,
      "ny": 1825,
      "Ġoffers": 1826,
      "Ġdeath": 1827,
      "Ġwife": 1828,
      "Ġsing": 1829,
      "Ġhimself": 1830,
      "Ġready": 1831,
      "Ġking": 1832,
      "ato": 1833,
      "fic": 1834,
      "Ġcond": 1835,
      "Ġsays": 1836,
      "aves": 1837,
      "uals": 1838,
      "raph": 1839,
      "Ġparticular": 1840,
      "Ġfunction": 1841,
      "tern": 1842,
      "Ġinvest": 1843,
      "stain": 1844,
      "Ġrelations": 1845,
      "Ġsearch": 1846,
      "Ġview": 1847,
      "Ġhar": 1848,
      "Ġing": 1849,
      "ĠUn": 1850,
      "Ġpublic": 1851,
      "Ġthy": 1852,
      "Ġproducts": 1853,
      "Ġshare": 1854,
      "ex": 1855,
      "Ġ#": 1856,
      "Ġstyle": 1857,
      "Ġtrust": 1858,
      "Ġsor": 1859,
      "Ġevents": 1860,
      "Ġrele": 1861,
      "'re": 1862,
      "Ġrange": 1863,
      "Ġalm": 1864,
      "Ġjour": 1865,
      "Ġsustain": 1866,
      "conom": 1867,
      "Ġ8": 1868,
      "Ġfuture": 1869,
      "rought": 1870,
      "me": 1871,
      "Ġincorpor": 1872,
      "Ġrich": 1873,
      "Ġer": 1874,
      "Ġcomb": 1875,
      "iter": 1876,
      "unch": 1877,
      "aged": 1878,
      "Ġocc": 1879,
      "Ġhon": 1880,
      "Ġlate": 1881,
      "Ġsho": 1882,
      "Ġlear": 1883,
      "Ġtreat": 1884,
      "ison": 1885,
      "ĠThat": 1886,
      "oid": 1887,
      "Ġaffect": 1888,
      "ending": 1889,
      "Ġimplement": 1890,
      "Ġshort": 1891,
      "Ġachie": 1892,
      "Ġamong": 1893,
      "Ġsens": 1894,
      "Ġfall": 1895,
      "Ġcu": 1896,
      "Ġlaw": 1897,
      "Ġneeds": 1898,
      "Ġmonth": 1899,
      "Ġemploy": 1900,
      "Ġcolor": 1901,
      "Ġfool": 1902,
      "Ġfair": 1903,
      "ug": 1904,
      "Ġflavor": 1905,
      "ĠWhat": 1906,
      "atform": 1907,
      "Ġtest": 1908,
      "ray": 1909,
      "Ġwithin": 1910,
      "Ġwatch": 1911,
      "Ġreason": 1912,
      "ĠTo": 1913,
      "back": 1914,
      "Ġrequire": 1915,
      "Ġlot": 1916,
      "Ġgetting": 1917,
      "Ġclean": 1918,
      "Ġfull": 1919,
      "Ġtaken": 1920,
      "iques": 1921,
      "Ġleg": 1922,
      "Ġtown": 1923,
      "Ġmaj": 1924,
      "Ġworth": 1925,
      "aces": 1926,
      "Ġaudience": 1927,
      "Ġfight": 1928,
      "Ġlooking": 1929,
      "Ġknows": 1930,
      "Ġnecess": 1931,
      "my": 1932,
      "Ġequ": 1933,
      "Ġpositive": 1934,
      "ouch": 1935,
      "Ġlost": 1936,
      "Ġstore": 1937,
      "Ġtrouble": 1938,
      "Ġdi": 1939,
      "Ġlearning": 1940,
      "Ġchance": 1941,
      "Ġimm": 1942,
      "ec": 1943,
      "Ġmeth": 1944,
      "Ġweek": 1945,
      "Ġdeal": 1946,
      "Ġthee": 1947,
      "Ġtook": 1948,
      "ident": 1949,
      "Ġcustomers": 1950,
      "Ġfour": 1951,
      "Ġphys": 1952,
      "Ġwhite": 1953,
      "Ġ10": 1954,
      "Ġans": 1955,
      "Ġaccount": 1956,
      "Ġcalled": 1957,
      "Ġiss": 1958,
      "Ġtar": 1959,
      "isf": 1960,
      "ster": 1961,
      "Ġrecipe": 1962,
      "Ġfine": 1963,
      "Ġplatform": 1964,
      "ĠSh": 1965,
      "Ġai": 1966,
      "Ġago": 1967,
      "Ġcustomer": 1968,
      "bo": 1969,
      "Ġanim": 1970,
      "Ġrole": 1971,
      "Ġprotect": 1972,
      "Ġexplain": 1973,
      "ficult": 1974,
      "Ġwhether": 1975,
      "Ġsun": 1976,
      "Ġdoubt": 1977,
      "Ġnut": 1978,
      "cient": 1979,
      "Ġsafe": 1980,
      "way": 1981,
      "Ġbased": 1982,
      "Ġavailable": 1983,
      "Ġskills": 1984,
      "pping": 1985,
      "Ġprefer": 1986,
      "Ġdifficult": 1987,
      "Ġcertain": 1988,
      "Ġmix": 1989,
      "ode": 1990,
      "Ġeconom": 1991,
      "Ġlisten": 1992,
      "Ġideas": 1993,
      "Ġhaving": 1994,
      "eth": 1995,
      "ury": 1996,
      "Ġprep": 1997,
      "ior": 1998,
      "of": 1999,
      "Ġspir": 2000,
      "Ġther": 2001,
      "Ġstru": 2002,
      "rol": 2003,
      "come": 2004,
      "Ġtechniques": 2005,
      "ude": 2006,
      "Ġmag": 2007,
      "Ġbrought": 2008,
      "Ġaddress": 2009,
      "Ġ$": 2010,
      "pose": 2011,
      "Ġonline": 2012,
      "Ġquestion": 2013,
      "Ġstop": 2014,
      "Ġhuman": 2015,
      "ows": 2016,
      "pos": 2017,
      ".\"": 2018,
      "Ġdirect": 2019,
      "Ġcommon": 2020,
      "aring": 2021,
      "Ġmaster": 2022,
      "Ġcheck": 2023,
      "Ġapplic": 2024,
      "use": 2025,
      "ensive": 2026,
      "Ġnature": 2027,
      "Ġsorry": 2028,
      "Ġwanted": 2029,
      "aign": 2030,
      "Ġobject": 2031,
      "ically": 2032,
      "Ġadm": 2033,
      "Ġlad": 2034,
      "Ġbes": 2035,
      "Ġcomfort": 2036,
      "Ġdark": 2037,
      "Ġbrother": 2038,
      "Ġletter": 2039,
      "irt": 2040,
      "Ġdress": 2041,
      "ley": 2042,
      "uff": 2043,
      "Ġsounds": 2044,
      "ready": 2045,
      "Ġjob": 2046,
      "Ġprovides": 2047,
      "Ġbenefits": 2048,
      "ming": 2049,
      "Ġsav": 2050,
      "Ġsauce": 2051,
      "Ġlow": 2052,
      "ilities": 2053,
      "Ġcontrib": 2054,
      "Ġbed": 2055,
      "Ġtaking": 2056,
      "Ġmi": 2057,
      "Ġsave": 2058,
      "Ġfield": 2059,
      "Ġwrong": 2060,
      "Ġimag": 2061,
      "ĠAr": 2062,
      "ene": 2063,
      "Ġwriting": 2064,
      "ma": 2065,
      "Ġreport": 2066,
      "ners": 2067,
      "Ġlay": 2068,
      "ium": 2069,
      "Ġtonight": 2070,
      "rop": 2071,
      "Ġalready": 2072,
      "Ġwhom": 2073,
      "lling": 2074,
      "Ġhelps": 2075,
      "rent": 2076,
      "ering": 2077,
      "Ġforget": 2078,
      "Ġanswer": 2079,
      "Ġactivities": 2080,
      "Ġspecial": 2081,
      "Ġdisco": 2082,
      "Ġfive": 2083,
      "Ġten": 2084,
      "Ġworks": 2085,
      "Ġcampaign": 2086,
      "Ġdin": 2087,
      "Ġtypes": 2088,
      "ably": 2089,
      "oring": 2090,
      "just": 2091,
      "Ġgrand": 2092,
      "Ġgold": 2093,
      "Ġchick": 2094,
      "Ġinput": 2095,
      "ĠĠĠĠĠĠĠ": 2096,
      "Ġdescript": 2097,
      "mb": 2098,
      "Ġcreating": 2099,
      "Ġ201": 2100,
      "Ġcultural": 2101,
      "read": 2102,
      "ĠEx": 2103,
      "Ġmethod": 2104,
      "Ġgar": 2105,
      "ĠThere": 2106,
      "Ġfit": 2107,
      "Ġlooks": 2108,
      "Ġstrateg": 2109,
      "Ġeat": 2110,
      "Ġge": 2111,
      "undred": 2112,
      "Ġinteresting": 2113,
      "Ġline": 2114,
      "ousand": 2115,
      "Ġsqu": 2116,
      "Ġsecond": 2117,
      "Ġwomen": 2118,
      "Ġprevent": 2119,
      "Ġpow": 2120,
      "ware": 2121,
      "Ġacross": 2122,
      "Ġevent": 2123,
      "Ġwood": 2124,
      "Ġlim": 2125,
      "Ġdrink": 2126,
      "ones": 2127,
      "ican": 2128,
      "ĠShe": 2129,
      "Ġtools": 2130,
      "let": 2131,
      "Ġmention": 2132,
      "lly": 2133,
      "king": 2134,
      "anks": 2135,
      "Ġtruth": 2136,
      "side": 2137,
      "Ġfeed": 2138,
      "ship": 2139,
      "Ġtarget": 2140,
      "acy": 2141,
      "Ġdem": 2142,
      "Ġhelped": 2143,
      "Ġbur": 2144,
      "Ġexerc": 2145,
      "Ġadditional": 2146,
      "Ġhundred": 2147,
      "Ġmental": 2148,
      "Ġthousand": 2149,
      "Ġz": 2150,
      "Ġoper": 2151,
      "Ġencour": 2152,
      "Ġlikely": 2153,
      "Ġexplore": 2154,
      "Ġworking": 2155,
      "Ġda": 2156,
      "Ġnice": 2157,
      "ograph": 2158,
      "Ġareas": 2159,
      "ann": 2160,
      "men": 2161,
      "where": 2162,
      "cuss": 2163,
      "room": 2164,
      "ral": 2165,
      "gress": 2166,
      "idence": 2167,
      "Ġinte": 2168,
      "Ġgrowth": 2169,
      "Ġuncle": 2170,
      "Ġseason": 2171,
      "ians": 2172,
      "Ġ19": 2173,
      "'ll": 2174,
      "Ġpray": 2175,
      "Ġtravel": 2176,
      "Ġauthor": 2177,
      "Ġnecessary": 2178,
      "ngth": 2179,
      "Ġpractices": 2180,
      "Ġgreen": 2181,
      "Ġfurther": 2182,
      "Ġsuff": 2183,
      "imate": 2184,
      "Ġincrease": 2185,
      "af": 2186,
      "Ġclose": 2187,
      "Ġtouch": 2188,
      "Ġabs": 2189,
      "Ġdelic": 2190,
      "ilt": 2191,
      "utions": 2192,
      "Ġelect": 2193,
      "Ġingredients": 2194,
      "Ġexc": 2195,
      "ams": 2196,
      "Ġce": 2197,
      "Ġwarm": 2198,
      "Ġsil": 2199,
      "Ġru": 2200,
      "Ġcaptain": 2201,
      "Ġinsp": 2202,
      "Ġcheese": 2203,
      "Ġwrite": 2204,
      "Ġexpress": 2205,
      "ledge": 2206,
      "ung": 2207,
      "Ġremain": 2208,
      "ask": 2209,
      "ĠSo": 2210,
      "Ġmer": 2211,
      "icient": 2212,
      "Ġpack": 2213,
      "iment": 2214,
      "ructure": 2215,
      "ructions": 2216,
      "Ġmaterials": 2217,
      "duct": 2218,
      "Ġthinking": 2219,
      "Ġperformance": 2220,
      "ished": 2221,
      "go": 2222,
      "Ġregular": 2223,
      "Ġlonger": 2224,
      "Ġsatisf": 2225,
      "Ġearth": 2226,
      "aughter": 2227,
      "you": 2228,
      "Ġvariety": 2229,
      "Ġcover": 2230,
      "Ġexce": 2231,
      "Ġliving": 2232,
      "Ġaccording": 2233,
      "Ġgovernment": 2234,
      "Ġlives": 2235,
      "ĠEn": 2236,
      "Ġhours": 2237,
      "izing": 2238,
      "Ġapproach": 2239,
      "Ġdam": 2240,
      "Ġstrength": 2241,
      "Ġquality": 2242,
      "Ġdie": 2243,
      "Ġbal": 2244,
      "Ġprograms": 2245,
      "Ġground": 2246,
      "ibility": 2247,
      "ising": 2248,
      "any": 2249,
      "do": 2250,
      "Ġpa": 2251,
      "lo": 2252,
      "Ġeither": 2253,
      "Ġround": 2254,
      "ĠInst": 2255,
      "Ġpaper": 2256,
      "Ġsmo": 2257,
      "head": 2258,
      "itation": 2259,
      "ina": 2260,
      "Ġgoals": 2261,
      "Ġvalue": 2262,
      "Ġmult": 2263,
      "Ġjud": 2264,
      "itical": 2265,
      "ĠPl": 2266,
      "Ġport": 2267,
      "Ġtour": 2268,
      "ises": 2269,
      "Ġindividuals": 2270,
      "Ġcir": 2271,
      "Ġstudy": 2272,
      "Ġarea": 2273,
      "Ġtraining": 2274,
      "Ġdanger": 2275,
      "Ġpet": 2276,
      "Ġproviding": 2277,
      "ĠBut": 2278,
      "amed": 2279,
      "Ġcollect": 2280,
      "gu": 2281,
      "Ġbusinesses": 2282,
      "ĠSome": 2283,
      "Ġnews": 2284,
      "ĠOn": 2285,
      "Ġneg": 2286,
      "Ġtowards": 2287,
      "Ġsett": 2288,
      "Ġchoose": 2289,
      "Ġsoci": 2290,
      "band": 2291,
      "Ġfort": 2292,
      "Ġbow": 2293,
      "Ġbreat": 2294,
      "Ġ9": 2295,
      "Ġteach": 2296,
      "ision": 2297,
      "Ġmaintain": 2298,
      "Ġmanagement": 2299,
      "ĠDe": 2300,
      "Ġfoot": 2301,
      "Ġprint": 2302,
      "Ġmarry": 2303,
      "ights": 2304,
      "Ġra": 2305,
      "Ġbehind": 2306,
      "urch": 2307,
      "ĠCo": 2308,
      "Ġpepper": 2309,
      "Ġculture": 2310,
      "cul": 2311,
      "asing": 2312,
      "Ġcontrol": 2313,
      "Ġtrying": 2314,
      "Ġanaly": 2315,
      "Ġaut": 2316,
      "Ġjourney": 2317,
      "Ġinteract": 2318,
      "Ġrespons": 2319,
      "Ġcurrent": 2320,
      "ĠInd": 2321,
      "na": 2322,
      "Ġheat": 2323,
      "Ġmaybe": 2324,
      "Ġhealthy": 2325,
      "airs": 2326,
      "vation": 2327,
      "Ġstri": 2328,
      "Ġgave": 2329,
      "ĠCre": 2330,
      "Ġcomplex": 2331,
      "Ġoverall": 2332,
      "Ġgroup": 2333,
      "ieur": 2334,
      "Ġemail": 2335,
      "Ġsoul": 2336,
      "ĠInc": 2337,
      "Ġspace": 2338,
      "Ġboys": 2339,
      "Ġrepres": 2340,
      "Ġhelpful": 2341,
      "ator": 2342,
      "Ġcarry": 2343,
      "Ġsimple": 2344,
      "Ġappear": 2345,
      "care": 2346,
      "Ġtransport": 2347,
      "hips": 2348,
      "Ġelements": 2349,
      "Ġpeace": 2350,
      "Ġthroughout": 2351,
      "eal": 2352,
      "Ġpromot": 2353,
      "ĠWow": 2354,
      "Ġque": 2355,
      "Ġmodern": 2356,
      "Ġfelt": 2357,
      "Ġdoor": 2358,
      "Ġmill": 2359,
      "ike": 2360,
      "ees": 2361,
      "ered": 2362,
      "Ġarch": 2363,
      "Ġstrugg": 2364,
      "Ġstrategies": 2365,
      "Ġdiscuss": 2366,
      "Ġyours": 2367,
      "ĠCl": 2368,
      "Ġfan": 2369,
      "Ġalmost": 2370,
      "Ġinstead": 2371,
      "Ġvers": 2372,
      "ogn": 2373,
      "vert": 2374,
      "Ġcream": 2375,
      "Ġquestions": 2376,
      "ĠSp": 2377,
      "Ġexperiences": 2378,
      "ror": 2379,
      "Ġtaste": 2380,
      "Ġhus": 2381,
      "Ġnon": 2382,
      "Ġcause": 2383,
      "Ġwild": 2384,
      "Ġdog": 2385,
      "Ġsalt": 2386,
      "Ġeducation": 2387,
      "Ġap": 2388,
      "Ġmessage": 2389,
      "Ġgard": 2390,
      "omp": 2391,
      "Ġdest": 2392,
      "ĠOne": 2393,
      "Ġbeauty": 2394,
      "aur": 2395,
      "Ġroad": 2396,
      "Ġdoll": 2397,
      "ĠRem": 2398,
      "Ġincludes": 2399,
      "Ġpractice": 2400,
      "ivity": 2401,
      "asc": 2402,
      "val": 2403,
      "une": 2404,
      "Ġidentify": 2405,
      "Ġmons": 2406,
      "Ġfish": 2407,
      "Ġbuilding": 2408,
      "Ġbesides": 2409,
      "ĠBr": 2410,
      "Ġsix": 2411,
      "Ġcapt": 2412,
      "Ġfarm": 2413,
      "yn": 2414,
      "Ġ``": 2415,
      "Ġcompet": 2416,
      "Ġluck": 2417,
      "Ġcru": 2418,
      "Ġones": 2419,
      "iven": 2420,
      "Ġcold": 2421,
      "used": 2422,
      "Ġdeli": 2423,
      "Ġspirit": 2424,
      "ended": 2425,
      "olute": 2426,
      "Ġ```": 2427,
      "Ġabove": 2428,
      "Ġexact": 2429,
      "Ġdare": 2430,
      "Ġcomplete": 2431,
      "oss": 2432,
      "Ġpan": 2433,
      "Ġhusband": 2434,
      "Ġinit": 2435,
      "Ġamaz": 2436,
      "Ġdoctor": 2437,
      "but": 2438,
      "Ġphysical": 2439,
      "Ġmonsieur": 2440,
      "wor": 2441,
      "ender": 2442,
      "Ġdig": 2443,
      "ruction": 2444,
      "Ġkill": 2445,
      "ged": 2446,
      "Ġtype": 2447,
      "Ġbill": 2448,
      "Ġoptim": 2449,
      "Ġann": 2450,
      "Ġfeeling": 2451,
      "Ġtakes": 2452,
      "Ġmount": 2453,
      "Ġallows": 2454,
      "Ġnet": 2455,
      "Ġgeneral": 2456,
      "Ġblood": 2457,
      "Ġfavor": 2458,
      "Ġjohn": 2459,
      "Ġflow": 2460,
      "mar": 2461,
      "Ġchanges": 2462,
      "friend": 2463,
      ").": 2464,
      "Ġcant": 2465,
      "reh": 2466,
      "ester": 2467,
      "enced": 2468,
      "outh": 2469,
      "Ġthats": 2470,
      "Ġearly": 2471,
      "Ġbird": 2472,
      "Ġavoid": 2473,
      "Ġbutter": 2474,
      "cience": 2475,
      "ids": 2476,
      "ters": 2477,
      "Ġfeature": 2478,
      "rench": 2479,
      "Ġexcept": 2480,
      "Ġdeterm": 2481,
      "Ġsong": 2482,
      "how": 2483,
      "Ġmaterial": 2484,
      "Ġvegetables": 2485,
      "Ġknowledge": 2486,
      "Ġhappened": 2487,
      "Ġchicken": 2488,
      "Ġachieve": 2489,
      "ief": 2490,
      "ured": 2491,
      "Ġrout": 2492,
      "Ġsteps": 2493,
      "new": 2494,
      "Ġhy": 2495,
      "Ġpolic": 2496,
      "raft": 2497,
      "Ġphot": 2498,
      "Ġdetailed": 2499,
      "urity": 2500,
      "Ġsuggestions": 2501,
      "Ġpromote": 2502,
      "itten": 2503,
      "ored": 2504,
      "Ġdaughter": 2505,
      "Ġsystems": 2506,
      "word": 2507,
      "Ġopportunities": 2508,
      "ĠWith": 2509,
      "cially": 2510,
      "Ġvol": 2511,
      "enc": 2512,
      "ĠTr": 2513,
      "Ġsustainable": 2514,
      "Ġrecommendations": 2515,
      "arr": 2516,
      "Ġfru": 2517,
      "Ġwide": 2518,
      "Ġguide": 2519,
      "Ġinterested": 2520,
      "anced": 2521,
      "Ġanx": 2522,
      "Ġenh": 2523,
      "sc": 2524,
      "Ġdraw": 2525,
      "Ġmur": 2526,
      "Ġpiece": 2527,
      "Ġchrist": 2528,
      "Ġsea": 2529,
      "Ġengaging": 2530,
      "Ġsister": 2531,
      "Ġimportance": 2532,
      "Ġhair": 2533,
      "Ġsometimes": 2534,
      "ently": 2535,
      "Ġaunt": 2536,
      "Ġwall": 2537,
      "ĠIs": 2538,
      "Ġsold": 2539,
      "Ġpict": 2540,
      "Ġmanage": 2541,
      "Ġrecogn": 2542,
      "vant": 2543,
      "oud": 2544,
      "Ġeasily": 2545,
      "Ġdiscover": 2546,
      "Ġthemselves": 2547,
      "Ġdut": 2548,
      "Ġspo": 2549,
      "well": 2550,
      "Ġjack": 2551,
      "Ġunderstanding": 2552,
      "Ġintern": 2553,
      "ilar": 2554,
      "ource": 2555,
      "ysis": 2556,
      "//": 2557,
      "based": 2558,
      "ift": 2559,
      "oci": 2560,
      "Ġrob": 2561,
      "Ġamount": 2562,
      "Ġgen": 2563,
      "ili": 2564,
      "play": 2565,
      "Ġnav": 2566,
      "Ġheaven": 2567,
      "Ġattract": 2568,
      "ified": 2569,
      "Ġcompanies": 2570,
      "Ġexcell": 2571,
      "acters": 2572,
      "ived": 2573,
      "Ġtemper": 2574,
      "str": 2575,
      "Ġbear": 2576,
      "Ġfollowing": 2577,
      "Ġharm": 2578,
      "Ġgoes": 2579,
      "Ġvo": 2580,
      "Ġcollabor": 2581,
      "Ġasked": 2582,
      "ites": 2583,
      "zz": 2584,
      "Ġpatter": 2585,
      "izations": 2586,
      "Ġessential": 2587,
      "Ġled": 2588,
      "Ġdishes": 2589,
      "Ġprogress": 2590,
      "ĠAmer": 2591,
      "Ġrespect": 2592,
      "Ġskin": 2593,
      "ĠAf": 2594,
      "itude": 2595,
      "Ġsuccessful": 2596,
      "ĠWhen": 2597,
      "rel": 2598,
      "Ġrisk": 2599,
      "Ġtur": 2600,
      "aint": 2601,
      "ĠCreate": 2602,
      "Ġmembers": 2603,
      "ai": 2604,
      "Ġsitu": 2605,
      "Ġut": 2606,
      "Ġcharacters": 2607,
      "Ġnone": 2608,
      "Ġesc": 2609,
      "Ġbehav": 2610,
      "rodu": 2611,
      "Ġcommunication": 2612,
      "ony": 2613,
      "ges": 2614,
      "Ġattention": 2615,
      "Ġrock": 2616,
      "over": 2617,
      "Ġcool": 2618,
      "Ġhappen": 2619,
      "Ġbott": 2620,
      "Ġfast": 2621,
      "reci": 2622,
      "ĠJo": 2623,
      "Ġhes": 2624,
      "Ġoffic": 2625,
      "Ġmarried": 2626,
      "Ġsecret": 2627,
      "Ġstress": 2628,
      "arent": 2629,
      "Ġremind": 2630,
      "Ġmajor": 2631,
      "ĠTe": 2632,
      "Ġpoem": 2633,
      "rast": 2634,
      "Ġprin": 2635,
      "Ġju": 2636,
      "Ġamazing": 2637,
      "ĠDes": 2638,
      "Ġdesigned": 2639,
      "Ġprob": 2640,
      "Ġcatch": 2641,
      "Ġcolors": 2642,
      "istic": 2643,
      "Ġguid": 2644,
      "Ġpriv": 2645,
      "Ġbread": 2646,
      "Ġsubject": 2647,
      "Ġpick": 2648,
      "mbol": 2649,
      "Ġposition": 2650,
      "Ġbless": 2651,
      "ops": 2652,
      "Ġstrange": 2653,
      "friendly": 2654,
      "Ġstor": 2655,
      "The": 2656,
      "lle": 2657,
      "Ġplant": 2658,
      "Ġgirls": 2659,
      "olutely": 2660,
      "Ġaction": 2661,
      "Ġability": 2662,
      "osed": 2663,
      "Ġevening": 2664,
      "anch": 2665,
      "Ġegg": 2666,
      "Ġcross": 2667,
      "ĠQ": 2668,
      "Ġreflect": 2669,
      "Ġissues": 2670,
      "atic": 2671,
      "Ġ{": 2672,
      "rious": 2673,
      "Ġgentleman": 2674,
      "ival": 2675,
      "par": 2676,
      "Ġcompreh": 2677,
      "idge": 2678,
      "usion": 2679,
      "Ġfail": 2680,
      "ablish": 2681,
      "face": 2682,
      "agon": 2683,
      "olution": 2684,
      "ler": 2685,
      "Ġcooking": 2686,
      "'ve": 2687,
      "Ġlie": 2688,
      "Ġsources": 2689,
      "Ġhorse": 2690,
      "Ġdelicious": 2691,
      "apt": 2692,
      "iced": 2693,
      "Ġupd": 2694,
      "Ġneeded": 2695,
      "Ġrenew": 2696,
      "Ġfund": 2697,
      "Ġsymbol": 2698,
      "Ġpress": 2699,
      "Ġsuit": 2700,
      "ĠThanks": 2701,
      "Ġanalysis": 2702,
      "Ġfaith": 2703,
      "Ġwants": 2704,
      "Ġdue": 2705,
      "Ġloved": 2706,
      "ume": 2707,
      "pecially": 2708,
      "Ġori": 2709,
      "atives": 2710,
      "Ġarr": 2711,
      "Ġpurch": 2712,
      "Ġappreci": 2713,
      "urs": 2714,
      "ĠAlso": 2715,
      "Ġant": 2716,
      "aving": 2717,
      "Ġcontinue": 2718,
      "Ġartic": 2719,
      "Ġdinner": 2720,
      "Ġcast": 2721,
      "Ġquiet": 2722,
      "Ġsoftware": 2723,
      "Ġay": 2724,
      "atoes": 2725,
      "izes": 2726,
      "Ġvisual": 2727,
      "ik": 2728,
      "Ġgain": 2729,
      "Ġproble": 2730,
      "Ġfeedback": 2731,
      "ĠYour": 2732,
      "Ġprovided": 2733,
      "Ġtalking": 2734,
      "time": 2735,
      "Ġbrown": 2736,
      "lex": 2737,
      "Ġbright": 2738,
      "ĠCons": 2739,
      "Ġpromise": 2740,
      "Ġsurely": 2741,
      "Ġgarlic": 2742,
      "Ġrestaur": 2743,
      "Ġminute": 2744,
      "Ġparticip": 2745,
      "hood": 2746,
      "Ġsize": 2747,
      "Ġfinan": 2748,
      "ĠNew": 2749,
      "000": 2750,
      "Ġchurch": 2751,
      "Ġconcern": 2752,
      "Ġcode": 2753,
      "eds": 2754,
      "ground": 2755,
      "Ġadjust": 2756,
      "anc": 2757,
      "lebr": 2758,
      "Ġdrive": 2759,
      "Ġship": 2760,
      "Ġconte": 2761,
      "poon": 2762,
      "Ġrepresent": 2763,
      "Ġsuper": 2764,
      "Ġcla": 2765,
      "Ġsociety": 2766,
      "fulness": 2767,
      "Ġrelig": 2768,
      "Ġserve": 2769,
      "Ġstat": 2770,
      "Ġhighlight": 2771,
      "Ġbas": 2772,
      "inary": 2773,
      "Ġol": 2774,
      "umb": 2775,
      "Ġmach": 2776,
      "Ġmentioned": 2777,
      "itting": 2778,
      "uly": 2779,
      "),": 2780,
      "illing": 2781,
      "Ġbab": 2782,
      "gor": 2783,
      "Ġuses": 2784,
      "ica": 2785,
      "Ġparticularly": 2786,
      "Ġinno": 2787,
      "Ġsand": 2788,
      "atever": 2789,
      "Ġinstructions": 2790,
      "book": 2791,
      "Ġdisc": 2792,
      "Ġvill": 2793,
      "Ġboard": 2794,
      "Ġball": 2795,
      "Ġstick": 2796,
      "Ġmonths": 2797,
      "ken": 2798,
      "Ġextra": 2799,
      "Ġbuy": 2800,
      "ests": 2801,
      "Ġfig": 2802,
      "Ġhab": 2803,
      "Ġadding": 2804,
      "Ġmatch": 2805,
      "Ġespecially": 2806,
      "Ġbowl": 2807,
      "ends": 2808,
      "hy": 2809,
      "ram": 2810,
      "Ġdiv": 2811,
      "Ġtwenty": 2812,
      "ey": 2813,
      "Ġmam": 2814,
      "Ġaccept": 2815,
      "itor": 2816,
      "Ġfeet": 2817,
      "Ġleaves": 2818,
      "ĠRo": 2819,
      "Ġfol": 2820,
      "ĠAd": 2821,
      "Ġmeant": 2822,
      "Ġord": 2823,
      "Ġwritten": 2824,
      "Ġintegr": 2825,
      "Ġlau": 2826,
      "Ġboat": 2827,
      "Ġreview": 2828,
      "Ġexactly": 2829,
      "Ġhowever": 2830,
      "reen": 2831,
      "ĠBl": 2832,
      "Ġmilk": 2833,
      "Ġage": 2834,
      "xture": 2835,
      "Ġpal": 2836,
      "vey": 2837,
      "Ġquickly": 2838,
      "Ġdaily": 2839,
      "Ġiniti": 2840,
      "not": 2841,
      "ining": 2842,
      "ĠRes": 2843,
      "Ġwaste": 2844,
      "ĠMake": 2845,
      "Ġlevels": 2846,
      "Ġsmooth": 2847,
      "Ġtried": 2848,
      "yond": 2849,
      "Ġdry": 2850,
      "Ġgarden": 2851,
      "Ġefforts": 2852,
      "Ġsomeone": 2853,
      "ging": 2854,
      "Ġhang": 2855,
      "ils": 2856,
      "ply": 2857,
      "Ġaware": 2858,
      "Ġblue": 2859,
      "Ġestablish": 2860,
      "Ġprofessional": 2861,
      "osing": 2862,
      "Ġtable": 2863,
      "pri": 2864,
      ");": 2865,
      "dy": 2866,
      "Ġdance": 2867,
      "etic": 2868,
      "yal": 2869,
      "Ġassist": 2870,
      "Ġbeg": 2871,
      "Ġoutside": 2872,
      "ĠSer": 2873,
      "ĠMay": 2874,
      "erson": 2875,
      "itted": 2876,
      "Ġaddition": 2877,
      "Ġstarted": 2878,
      "Ġ}": 2879,
      "Ġbooks": 2880,
      "Ġeffects": 2881,
      "Ġlu": 2882,
      "iod": 2883,
      "attle": 2884,
      "Ġleading": 2885,
      "ideo": 2886,
      "asted": 2887,
      "Ġagree": 2888,
      "Ġrate": 2889,
      "Ġcountries": 2890,
      "Ġherself": 2891,
      "Ġreducing": 2892,
      "Ġrelevant": 2893,
      "Ġeffectively": 2894,
      "Ġeconomic": 2895,
      ",\"": 2896,
      "Ġvirt": 2897,
      "ims": 2898,
      "Ġplayed": 2899,
      "uro": 2900,
      "Ġwhatever": 2901,
      "omes": 2902,
      "Ġhurt": 2903,
      "Ġeye": 2904,
      "ĠFin": 2905,
      "itect": 2906,
      "Ġden": 2907,
      "Ġenglish": 2908,
      "Ġbud": 2909,
      "Ġmotiv": 2910,
      "Ġunless": 2911,
      "Ġtal": 2912,
      "icate": 2913,
      "Ġstra": 2914,
      "inite": 2915,
      "Ġadvice": 2916,
      "Ġweather": 2917,
      "Ġmixture": 2918,
      "Ġemotions": 2919,
      "Ġbeyond": 2920,
      "Ġorigin": 2921,
      "Ġwear": 2922,
      "esty": 2923,
      "Ġdar": 2924,
      "Ġtransportation": 2925,
      "Ġpard": 2926,
      "Ġsurpr": 2927,
      "Ġrelationships": 2928,
      "Ġcommand": 2929,
      "gn": 2930,
      "Ġeh": 2931,
      "Ġforgot": 2932,
      "onest": 2933,
      "Ġcloth": 2934,
      "place": 2935,
      "Ġengagement": 2936,
      "has": 2937,
      "tt": 2938,
      "ondon": 2939,
      "Ġtea": 2940,
      "Ġthr": 2941,
      "Ġperiod": 2942,
      "Ġemotional": 2943,
      "Ġindividual": 2944,
      "Ġsugar": 2945,
      "Ġorganizations": 2946,
      "Ġpurpose": 2947,
      "Ġrev": 2948,
      "Ġprojects": 2949,
      "Ġcomprehensive": 2950,
      "Ġpowerful": 2951,
      "ashion": 2952,
      "Ġcreative": 2953,
      "Ġengine": 2954,
      "Ġ0": 2955,
      "Ġstories": 2956,
      "Ġassoci": 2957,
      "Ġconditions": 2958,
      "ission": 2959,
      "Ġcontain": 2960,
      "Ġmel": 2961,
      "ators": 2962,
      "Ġsake": 2963,
      "Ġmeas": 2964,
      "Ġmob": 2965,
      "bert": 2966,
      "iddle": 2967,
      "ration": 2968,
      "acks": 2969,
      "Ġpowder": 2970,
      "Ġapplication": 2971,
      "Ġnavig": 2972,
      "emic": 2973,
      "Ġmis": 2974,
      "Ġcelebr": 2975,
      "Ġprote": 2976,
      "Ġunivers": 2977,
      "Ġdifference": 2978,
      "Ġvalu": 2979,
      "Ġparty": 2980,
      "Ġsam": 2981,
      "Ġregion": 2982,
      "Ġstring": 2983,
      "ned": 2984,
      "Ġdu": 2985,
      "astic": 2986,
      "aced": 2987,
      "Ġcred": 2988,
      "Ġphil": 2989,
      "de": 2990,
      "oint": 2991,
      "Ġmeaning": 2992,
      "Ġfactors": 2993,
      "action": 2994,
      "Ġstir": 2995,
      "Ġentire": 2996,
      "Ġcry": 2997,
      "Ġsurround": 2998,
      "fl": 2999,
      "fast": 3000,
      "Ġstreet": 3001,
      "Ġride": 3002,
      "Ġfif": 3003,
      "Ġsight": 3004,
      "riage": 3005,
      "ĠGr": 3006,
      "Ġterms": 3007,
      "Ġpen": 3008,
      "ength": 3009,
      "Ġsecurity": 3010,
      "Ġriver": 3011,
      "mpt": 3012,
      "Ġur": 3013,
      "aff": 3014,
      "ett": 3015,
      "Ġrefer": 3016,
      "Ġimpress": 3017,
      "Ġplenty": 3018,
      "Ġtechnolog": 3019,
      "Ġvari": 3020,
      "Ġvoice": 3021,
      "Ġopin": 3022,
      "bon": 3023,
      "Ġmurder": 3024,
      "ocol": 3025,
      "Ġhell": 3026,
      "Ġslow": 3027,
      "Ġlearned": 3028,
      "Ġdream": 3029,
      "Ġfinancial": 3030,
      "Ġexist": 3031,
      "Ġive": 3032,
      "ĠZ": 3033,
      "Ġliter": 3034,
      "Ġarchitect": 3035,
      "Ġarm": 3036,
      "Ġcy": 3037,
      "__": 3038,
      "Ġwine": 3039,
      "Ġcompl": 3040,
      "Ġintrodu": 3041,
      "Ġreceive": 3042,
      "Ġhistor": 3043,
      "Ġenhance": 3044,
      "Ġhol": 3045,
      "orge": 3046,
      "Ġlater": 3047,
      "ighb": 3048,
      "Ġrenewable": 3049,
      "Ġsaying": 3050,
      "Ġlaugh": 3051,
      "Ġacqu": 3052,
      "ounds": 3053,
      "ades": 3054,
      "Ġregard": 3055,
      "Ġautom": 3056,
      "Ġoffice": 3057,
      "Ġquar": 3058,
      "Ġsalad": 3059,
      "Ġwed": 3060,
      "Ġbelong": 3061,
      "Ġworse": 3062,
      "Ġsimilar": 3063,
      "Ġdel": 3064,
      "Ġrid": 3065,
      "Ġtables": 3066,
      "osp": 3067,
      "Ġbox": 3068,
      "Ġlooked": 3069,
      "Ġwilling": 3070,
      "Ġenem": 3071,
      "Ġprobably": 3072,
      "Ġconsist": 3073,
      "ffee": 3074,
      "amb": 3075,
      "Ġdesire": 3076,
      "Ġvideo": 3077,
      "Ġselect": 3078,
      "ulation": 3079,
      "Ġcoun": 3080,
      "Ġwont": 3081,
      "Ġlocation": 3082,
      "Ġglass": 3083,
      "Ġproduction": 3084,
      "rant": 3085,
      "Ġtruly": 3086,
      "Ġver": 3087,
      "Ġwaiting": 3088,
      "Ġthoughts": 3089,
      "Ġlower": 3090,
      "Ġenter": 3091,
      "Ġfile": 3092,
      "esterday": 3093,
      "iff": 3094,
      "ĠSe": 3095,
      "lease": 3096,
      "Ġlose": 3097,
      "Ġafford": 3098,
      "Ġconduct": 3099,
      "Ġmultip": 3100,
      "Ġsusp": 3101,
      "Ġkept": 3102,
      "Ġbag": 3103,
      "asks": 3104,
      "Ġsac": 3105,
      "Ġstraight": 3106,
      "Ġshowc": 3107,
      "Ġresults": 3108,
      "Ġneighb": 3109,
      "kes": 3110,
      "Ġinfluence": 3111,
      "Ġsaf": 3112,
      "Ġprev": 3113,
      "Ġpath": 3114,
      "Ġloss": 3115,
      "like": 3116,
      "Ġbeat": 3117,
      "Ġcolon": 3118,
      "Ġanimals": 3119,
      "Ġyesterday": 3120,
      "Ġcirc": 3121,
      "Ġexcellent": 3122,
      "Ġexpected": 3123,
      "Ġmeat": 3124,
      "Ġimages": 3125,
      "ĠThank": 3126,
      "Ġperfectly": 3127,
      "ĠRemember": 3128,
      "Ġisland": 3129,
      "Ġessay": 3130,
      "ule": 3131,
      "Ġtree": 3132,
      "Ġduty": 3133,
      "Ġopportunity": 3134,
      "Ġpieces": 3135,
      "Ġmadame": 3136,
      "ĠLe": 3137,
      "Ġpage": 3138,
      "that": 3139,
      "Ġpardon": 3140,
      "ĠConsider": 3141,
      "aly": 3142,
      "Ġhonest": 3143,
      "Ġcard": 3144,
      "Ġforward": 3145,
      "Ġnobody": 3146,
      "Ġprior": 3147,
      "Ġbreath": 3148,
      "Ġsus": 3149,
      "Ġfellows": 3150,
      "Ġhop": 3151,
      "Ġprison": 3152,
      "Ġpoet": 3153,
      "imately": 3154,
      "Ġfly": 3155,
      "Ġclimate": 3156,
      "Ġdollars": 3157,
      "Ġreck": 3158,
      "20": 3159,
      "Ġtim": 3160,
      "urope": 3161,
      "inc": 3162,
      "Ġcous": 3163,
      "Ġdemand": 3164,
      "Ġadded": 3165,
      "Ġexh": 3166,
      "Ġstar": 3167,
      "edi": 3168,
      "ding": 3169,
      "Ġthanks": 3170,
      "Ġserious": 3171,
      "Ġcommunities": 3172,
      "Ġhonor": 3173,
      "Ġlink": 3174,
      "Ġflo": 3175,
      "Ġnetwork": 3176,
      "Ġplans": 3177,
      "key": 3178,
      "Ġbecame": 3179,
      "Ġpoints": 3180,
      "Ġgri": 3181,
      "Ġkilled": 3182,
      "Ġinvolved": 3183,
      "Ġpull": 3184,
      "Ġdise": 3185,
      "Ġjoy": 3186,
      "Ġcell": 3187,
      "gle": 3188,
      "ĠProv": 3189,
      "Ġcou": 3190,
      "enge": 3191,
      "asant": 3192,
      "Ġsimply": 3193,
      "what": 3194,
      "Ġsingle": 3195,
      "Ġcurious": 3196,
      "Ġaltern": 3197,
      "erman": 3198,
      "Ġoption": 3199,
      "Ġchopped": 3200,
      "Ġcourt": 3201,
      "pro": 3202,
      "iveness": 3203,
      "Ġrain": 3204,
      "Ġanybody": 3205,
      "Ġcontinu": 3206,
      "Ġgun": 3207,
      "Ġcontact": 3208,
      "Ġweb": 3209,
      "Ġplaces": 3210,
      "Ġdetect": 3211,
      "Ġhealthcare": 3212,
      "lls": 3213,
      "Ġcolle": 3214,
      "ara": 3215,
      "Ġrelated": 3216,
      "Ġmeasure": 3217,
      "Ġhigher": 3218,
      "Ġmeal": 3219,
      "Ġamer": 3220,
      "ĠEng": 3221,
      "Ġtrees": 3222,
      "Ġsummer": 3223,
      "ension": 3224,
      "Ġforest": 3225,
      "Ġspl": 3226,
      "mit": 3227,
      "Ġnegative": 3228,
      "Ġ//": 3229,
      "su": 3230,
      "Ġvivid": 3231,
      "Ġefficient": 3232,
      "Ġmultiple": 3233,
      "Ġpropos": 3234,
      "unk": 3235,
      "Ġsetting": 3236,
      "ald": 3237,
      "Ġbalance": 3238,
      "ls": 3239,
      "Ġincorporate": 3240,
      "Ġrunning": 3241,
      "ole": 3242,
      "Ġfavorite": 3243,
      "Ġpleasure": 3244,
      "Ġsick": 3245,
      "Ġchoice": 3246,
      "uss": 3247,
      "zy": 3248,
      "Ġfront": 3249,
      "Ġplatforms": 3250,
      "Ġpair": 3251,
      "Ġemer": 3252,
      "noon": 3253,
      "uted": 3254,
      "ceed": 3255,
      "Ġdigital": 3256,
      "Ġdisplay": 3257,
      "Ġsafety": 3258,
      "Ġseemed": 3259,
      "Ġwon": 3260,
      "Ġhast": 3261,
      "Ġfamous": 3262,
      "Ġimposs": 3263,
      "Ġobser": 3264,
      "Ġpred": 3265,
      "Ġpatterns": 3266,
      "Ġtired": 3267,
      "Ġslic": 3268,
      "rible": 3269,
      "Ġdidnt": 3270,
      "Ġsen": 3271,
      "ham": 3272,
      "Ġpark": 3273,
      "icing": 3274,
      "uf": 3275,
      "Ġfest": 3276,
      "Ġemphas": 3277,
      "Ġcreated": 3278,
      "Ġallowed": 3279,
      "Ġtele": 3280,
      "Ġeasier": 3281,
      "Ġgiving": 3282,
      "Ġsales": 3283,
      "Ġinj": 3284,
      "Ġtyp": 3285,
      "Ġattend": 3286,
      "iction": 3287,
      "ĠPr": 3288,
      "Ġcoffee": 3289,
      "ĠPlease": 3290,
      "Ġforgive": 3291,
      "Ġdevil": 3292,
      "Ġfashion": 3293,
      "night": 3294,
      "Ġmass": 3295,
      "Ġbehavior": 3296,
      "Ġthemes": 3297,
      "Ġthird": 3298,
      "inating": 3299,
      "Ġinside": 3300,
      "Ã©": 3301,
      "initely": 3302,
      "Ġrecord": 3303,
      "Ġappeal": 3304,
      "ĠMar": 3305,
      "Ġcomfortable": 3306,
      "Ġbreakfast": 3307,
      "Ġvict": 3308,
      "Ġwhose": 3309,
      "Ġhardly": 3310,
      "pite": 3311,
      "Ġshoot": 3312,
      "Ġfell": 3313,
      "Ġbegan": 3314,
      "Ġstructure": 3315,
      "ino": 3316,
      "Ġprotein": 3317,
      "Ġvan": 3318,
      "Ġvalues": 3319,
      "Ġarri": 3320,
      "Ġvi": 3321,
      "Ġslight": 3322,
      "ech": 3323,
      "Ġhandle": 3324,
      "Ġconv": 3325,
      "Ġneither": 3326,
      "gorith": 3327,
      "ibly": 3328,
      "rupt": 3329,
      "Ġscar": 3330,
      "sequ": 3331,
      "Ġtexture": 3332,
      "Ġash": 3333,
      "Ġmere": 3334,
      "Ġshot": 3335,
      "Ġimpossible": 3336,
      "Ġmethods": 3337,
      "Ġdevices": 3338,
      "Ġbound": 3339,
      "Ġpassage": 3340,
      "Ġskill": 3341,
      "Ġartists": 3342,
      "onse": 3343,
      "Ġturned": 3344,
      "Ġadvert": 3345,
      "cious": 3346,
      "Ġolive": 3347,
      "Ġrom": 3348,
      "quality": 3349,
      "ĠFr": 3350,
      "life": 3351,
      "dom": 3352,
      "Ġenvironmental": 3353,
      "ana": 3354,
      "Ġpresence": 3355,
      "Ġscient": 3356,
      "Ġearn": 3357,
      "Ġsubst": 3358,
      "istics": 3359,
      "Ġfat": 3360,
      "Ġsurv": 3361,
      "Ġorganization": 3362,
      "Ġalive": 3363,
      "Ġintell": 3364,
      "Ġahead": 3365,
      "Ġmiles": 3366,
      "Ġtrail": 3367,
      "Ġyoure": 3368,
      "Ġrelationship": 3369,
      "Ġfilm": 3370,
      "ĠAmerican": 3371,
      "Ġaccur": 3372,
      "Ġhost": 3373,
      "Ġwel": 3374,
      "Ġbuilt": 3375,
      "Ġafternoon": 3376,
      "rew": 3377,
      "Ġhate": 3378,
      "Ġadvent": 3379,
      "Ġflav": 3380,
      "Ġir": 3381,
      "Ġsad": 3382,
      "ĠSch": 3383,
      "Ġoccas": 3384,
      "Ġalgorith": 3385,
      "oop": 3386,
      "Ġexercise": 3387,
      "Ġoven": 3388,
      "Ġprice": 3389,
      "Ġfix": 3390,
      "Ġitems": 3391,
      "Ġencourage": 3392,
      "Ġ&": 3393,
      "ford": 3394,
      "alt": 3395,
      "ided": 3396,
      "Ġhonour": 3397,
      "nal": 3398,
      "min": 3399,
      "Ġfancy": 3400,
      "board": 3401,
      "yst": 3402,
      "rif": 3403,
      "Ġpossess": 3404,
      "Ġpapa": 3405,
      "ĠOr": 3406,
      "Ġinsights": 3407,
      "Ġdemon": 3408,
      "'d": 3409,
      "tion": 3410,
      "Ġgreater": 3411,
      "Ġengage": 3412,
      "cer": 3413,
      "Ġparent": 3414,
      "Ġminim": 3415,
      "ius": 3416,
      "Ġsnow": 3417,
      "Ġbri": 3418,
      "Ġfasc": 3419,
      "Ġmeditation": 3420,
      "nam": 3421,
      "Ġancient": 3422,
      "bed": 3423,
      "ivil": 3424,
      "Ġtrade": 3425,
      "Ġgrat": 3426,
      "lude": 3427,
      "Ġanyone": 3428,
      "ĠSc": 3429,
      "Ġrice": 3430,
      "Ġtherap": 3431,
      "Ġhit": 3432,
      "Ġreckon": 3433,
      "ĠMark": 3434,
      "Ġweak": 3435,
      "Ġpolitical": 3436,
      "Ġshap": 3437,
      "obal": 3438,
      "Ġsched": 3439,
      "inger": 3440,
      "Ġemployees": 3441,
      "Ġthrow": 3442,
      "Ġthick": 3443,
      "Ġmemory": 3444,
      "ĠEm": 3445,
      "Ġtheres": 3446,
      "Ġgentlemen": 3447,
      "Ġtasks": 3448,
      "Ġarray": 3449,
      "Ġflowers": 3450,
      "Ġhun": 3451,
      "Ġplaying": 3452,
      "Ġgets": 3453,
      "Ġvaluable": 3454,
      "ification": 3455,
      "Ġbaking": 3456,
      "Ġheld": 3457,
      "Ġpartners": 3458,
      "iers": 3459,
      "ffic": 3460,
      "Ġrelax": 3461,
      "Ġshows": 3462,
      "Ġpractical": 3463,
      "Ġmax": 3464,
      "Ġsource": 3465,
      "apan": 3466,
      "Ġplants": 3467,
      "Ġlondon": 3468,
      "Ġdeliver": 3469,
      "Ġconflic": 3470,
      "Ġnumbers": 3471,
      "Ġfeelings": 3472,
      "Ġexercises": 3473,
      "Ġlived": 3474,
      "Ġplain": 3475,
      "hold": 3476,
      "Ġitself": 3477,
      "cribe": 3478,
      "Ġengland": 3479,
      "Ġspot": 3480,
      "Ġimage": 3481,
      "Ġbackground": 3482,
      "sy": 3483,
      "Ġhighly": 3484,
      "house": 3485,
      "Ġwinter": 3486,
      "Ġtone": 3487,
      "Ġnearly": 3488,
      "Ġcam": 3489,
      "Ġreading": 3490,
      "Ġice": 3491,
      "iles": 3492,
      "ĠOnce": 3493,
      "Ġwonderful": 3494,
      "Ġyer": 3495,
      "step": 3496,
      "Ġadvant": 3497,
      "Ġcalcul": 3498,
      "ĠOf": 3499,
      "Ġspread": 3500,
      "Ġcousin": 3501,
      "ĠOur": 3502,
      "Ġsecure": 3503,
      "erry": 3504,
      "Ġeight": 3505,
      "Ġbank": 3506,
      "gar": 3507,
      "itary": 3508,
      "Ġanxiety": 3509,
      "Ġreceived": 3510,
      "ado": 3511,
      "Ġlocated": 3512,
      "Ġcro": 3513,
      "Ġforce": 3514,
      "Ġsell": 3515,
      "Ġmobile": 3516,
      "Ġtechnologies": 3517,
      "Ġband": 3518,
      "ocolate": 3519,
      "Ġcareer": 3520,
      "Ġheavy": 3521,
      "Ġshape": 3522,
      "Ġgoodby": 3523,
      "Ġmary": 3524,
      "Ġgames": 3525,
      "Ġhoney": 3526,
      "Ġdiet": 3527,
      "Ġpicture": 3528,
      "Ġevidence": 3529,
      "Ġprivate": 3530,
      "Ġdro": 3531,
      "rate": 3532,
      "Ġbi": 3533,
      "ille": 3534,
      "reek": 3535,
      "Ġpersonalized": 3536,
      "Ġsmart": 3537,
      "Ġourselves": 3538,
      "Ġdelight": 3539,
      "Ġsail": 3540,
      "Ġdied": 3541,
      "Ġdeser": 3542,
      "rain": 3543,
      "ĠUnivers": 3544,
      "Ġmindfulness": 3545,
      "Ġcrow": 3546,
      "Ġpreferences": 3547,
      "Ġfright": 3548,
      "Ġyog": 3549,
      "Ġarticle": 3550,
      "Ġsoup": 3551,
      "Ġadvance": 3552,
      "Ġsepar": 3553,
      "Ġblock": 3554,
      "Ġwest": 3555,
      "free": 3556,
      "Ġ18": 3557,
      "Ġpaid": 3558,
      "Ġhu": 3559,
      "Ġconversation": 3560,
      "Ġcow": 3561,
      "ĠNor": 3562,
      "rest": 3563,
      "ĠAll": 3564,
      "Ġinterests": 3565,
      "ager": 3566,
      "Ġworked": 3567,
      "now": 3568,
      "Ġdesc": 3569,
      "Ġrad": 3570,
      "Ġtail": 3571,
      "Ġsolutions": 3572,
      "Ġengaged": 3573,
      "Ġcab": 3574,
      "aries": 3575,
      "Ġtrend": 3576,
      "Ġthor": 3577,
      "Ġproperty": 3578,
      "though": 3579,
      "Ġmodel": 3580,
      "Ġactivity": 3581,
      "Ġinvolves": 3582,
      "cast": 3583,
      "Ġstrategy": 3584,
      "Ġaspect": 3585,
      "osph": 3586,
      "Ġscience": 3587,
      "Ġdread": 3588,
      "Ġstuff": 3589,
      "Ġcris": 3590,
      "uten": 3591,
      "Ġguard": 3592,
      "ĠPh": 3593,
      "):": 3594,
      "Ġfruit": 3595,
      "Ġstock": 3596,
      "Ġchap": 3597,
      "Ġund": 3598,
      "Ġfrequ": 3599,
      "Ġescape": 3600,
      "Ġbell": 3601,
      "Ġlength": 3602,
      "Ġdecor": 3603,
      "Ġscene": 3604,
      "Ġtemperature": 3605,
      "Ġbase": 3606,
      "Ġatm": 3607,
      "Ġweeks": 3608,
      "Ġburn": 3609,
      "arian": 3610,
      "Ġfro": 3611,
      "Ġdocu": 3612,
      "Ġelectric": 3613,
      "Ġmatt": 3614,
      "Ġtelling": 3615,
      "Ġinn": 3616,
      "Ġrequired": 3617,
      "Ġscri": 3618,
      "Ġmamma": 3619,
      "ĠWhile": 3620,
      "que": 3621,
      "Ġbelieved": 3622,
      "Ġpreser": 3623,
      "Ġbudget": 3624,
      "Ġallowing": 3625,
      "Ġjim": 3626,
      "Ġhall": 3627,
      "amic": 3628,
      "Ġresponse": 3629,
      "Ġweight": 3630,
      "Ġang": 3631,
      "ĠChe": 3632,
      "Ġcand": 3633,
      "Ġunf": 3634,
      "Ġgroups": 3635,
      "iring": 3636,
      "Ġdisapp": 3637,
      "Ġtrip": 3638,
      "Ġfaced": 3639,
      "Ġcop": 3640,
      "ufact": 3641,
      "Ġcampaigns": 3642,
      "Ġclothes": 3643,
      "Ġbaby": 3644,
      "ĠComm": 3645,
      "Ġmachine": 3646,
      "Ġwhis": 3647,
      "ipment": 3648,
      "illy": 3649,
      "Ġparts": 3650,
      "etch": 3651,
      "Ġfrank": 3652,
      "Ġlog": 3653,
      "Ġpassed": 3654,
      "ĠAbs": 3655,
      "Ġscen": 3656,
      "Ġvegan": 3657,
      "ctions": 3658,
      "Ġmeeting": 3659,
      "Ġlines": 3660,
      "Ġsumm": 3661,
      "Ġstudies": 3662,
      "ĠFinally": 3663,
      "ĠMed": 3664,
      "Ġopinion": 3665,
      "Ġimproving": 3666,
      "Ġmedium": 3667,
      "Ġsituation": 3668,
      "Ġspeed": 3669,
      "iam": 3670,
      "Ġfault": 3671,
      "Ġletters": 3672,
      "Ġincorporating": 3673,
      "Ġplayers": 3674,
      "Ġflour": 3675,
      "rit": 3676,
      "rics": 3677,
      "Ġthreat": 3678,
      "Ġsky": 3679,
      "Ġgeorge": 3680,
      "irty": 3681,
      "Ġscript": 3682,
      "Ġ15": 3683,
      "ston": 3684,
      "Ġcosts": 3685,
      "Ġreaders": 3686,
      "Ġdeveloping": 3687,
      "Ġmeasures": 3688,
      "idden": 3689,
      "Ġrecent": 3690,
      "Ġincreased": 3691,
      "othing": 3692,
      "ulate": 3693,
      "Ġbeginning": 3694,
      "Ġhurry": 3695,
      "lled": 3696,
      "Ġdirectly": 3697,
      "ici": 3698,
      "Ġjew": 3699,
      "Ġseries": 3700,
      "ĠDevelop": 3701,
      "ĠPre": 3702,
      "med": 3703,
      "Ġpun": 3704,
      "Ġtit": 3705,
      "Ġobst": 3706,
      "made": 3707,
      "Ġvirtual": 3708,
      "ĠAbsolutely": 3709,
      "nown": 3710,
      "Ġgather": 3711,
      "Ġconsum": 3712,
      "Ġappreciate": 3713,
      "rect": 3714,
      "Ġcenter": 3715,
      "Ġconsidered": 3716,
      "icy": 3717,
      "Ġseeing": 3718,
      "Ġshar": 3719,
      "Ġsomebody": 3720,
      "Ġlab": 3721,
      "Ġdick": 3722,
      "Ġimmedi": 3723,
      "Ġpaint": 3724,
      "Ġfer": 3725,
      "ĠApp": 3726,
      "ĠProvide": 3727,
      "oming": 3728,
      "Ġcomput": 3729,
      "Ġimagine": 3730,
      "Ġdrop": 3731,
      "Ġinstall": 3732,
      "zen": 3733,
      "Ġteas": 3734,
      "illa": 3735,
      "Ġinnov": 3736,
      "ancing": 3737,
      "Ġcharge": 3738,
      "Ġfinding": 3739,
      "Ġmov": 3740,
      "Ġcat": 3741,
      "Ġjuice": 3742,
      "Ġadapt": 3743,
      "Ġmistake": 3744,
      "Ġreader": 3745,
      "oh": 3746,
      "unte": 3747,
      "Ġserved": 3748,
      "Ġseek": 3749,
      "Ġeveryone": 3750,
      "wise": 3751,
      "Ġet": 3752,
      "Ġappropri": 3753,
      "..": 3754,
      "Ġfully": 3755,
      "lection": 3756,
      "Ġnovel": 3757,
      "Ġbelow": 3758,
      "Ġbelief": 3759,
      "ball": 3760,
      "Ġargu": 3761,
      "Ġdeb": 3762,
      "Ġgrace": 3763,
      "Ġapplications": 3764,
      "Ġhotel": 3765,
      "Ġoccur": 3766,
      "Ġmanner": 3767,
      "Ġclients": 3768,
      "roud": 3769,
      "Ġhappiness": 3770,
      "Ġincreasing": 3771,
      "()": 3772,
      "Ġbroth": 3773,
      "Ġpatient": 3774,
      "lig": 3775,
      "Ġreven": 3776,
      "ĠWor": 3777,
      "Ġmillion": 3778,
      "--": 3779,
      "Ġje": 3780,
      "pre": 3781,
      "Ġnarr": 3782,
      "Ġworry": 3783,
      "Ġdecision": 3784,
      "Ġwal": 3785,
      "Ġdefinitely": 3786,
      "Ġgoal": 3787,
      "artment": 3788,
      "Ġcondition": 3789,
      "ĠSu": 3790,
      "Ġcuis": 3791,
      "Ġgoin": 3792,
      "Ġmedical": 3793,
      "Ġgrad": 3794,
      "Ġlif": 3795,
      "Ġinstru": 3796,
      "ĠUniversity": 3797,
      "Ġadop": 3798,
      "Ġequipment": 3799,
      "Ġfal": 3800,
      "Ġgrant": 3801,
      "unning": 3802,
      "Ġnote": 3803,
      "Ġconsequ": 3804,
      "Ġult": 3805,
      "Ġdemonstr": 3806,
      "Ġlock": 3807,
      "onsense": 3808,
      "Ġprec": 3809,
      "wood": 3810,
      "isions": 3811,
      "Ġfrench": 3812,
      "Ġlibr": 3813,
      "lin": 3814,
      "Ġchanged": 3815,
      "Ġpurchase": 3816,
      "Ġgall": 3817,
      "under": 3818,
      "Ġspr": 3819,
      "Ġtransform": 3820,
      "Ġovercome": 3821,
      "Ġprinci": 3822,
      "Ġapply": 3823,
      "Ġacad": 3824,
      "Ġaim": 3825,
      "osphere": 3826,
      "ography": 3827,
      "Ġshut": 3828,
      "(\"": 3829,
      "Ġleaders": 3830,
      "Ġroutine": 3831,
      "Ġcollection": 3832,
      "Ġ12": 3833,
      "Ġdeveloped": 3834,
      "Ġgraph": 3835,
      "Ġfinish": 3836,
      "Ġattack": 3837,
      "Ġwit": 3838,
      "Ġcircum": 3839,
      "Ġconcept": 3840,
      "acher": 3841,
      "Ġmanufact": 3842,
      "Ġassociated": 3843,
      "Ġjump": 3844,
      "Ġkeeping": 3845,
      "ological": 3846,
      "Ġrepe": 3847,
      "pected": 3848,
      "Ġorders": 3849,
      "Ġconnection": 3850,
      "Ġexperiment": 3851,
      "Ġjudge": 3852,
      "ha": 3853,
      "Ġhosp": 3854,
      "Ġcivil": 3855,
      "Ġ30": 3856,
      "Ġpromoting": 3857,
      "Ġproperly": 3858,
      "Ġspeaking": 3859,
      "ilies": 3860,
      "ĠLet": 3861,
      "Ġvisitors": 3862,
      "Ġflavors": 3863,
      "Ġnotice": 3864,
      "Ġleaving": 3865,
      "Ġeverybody": 3866,
      "Ġuseful": 3867,
      "Ġclassic": 3868,
      "Ġpu": 3869,
      "orses": 3870,
      "ĠRed": 3871,
      "ĠCent": 3872,
      "Ġdepend": 3873,
      "Ġanyway": 3874,
      "ĠJohn": 3875,
      "Ġcloud": 3876,
      "Ġsignificance": 3877,
      "aling": 3878,
      "Ġglobal": 3879,
      "Ġhelping": 3880,
      "ĠJapan": 3881,
      "eting": 3882,
      "In": 3883,
      "Ġros": 3884,
      "Ġpolice": 3885,
      "Ġatte": 3886,
      "ena": 3887,
      "Ġadvanced": 3888,
      "oogle": 3889,
      "Ġthinks": 3890,
      "Ġtrick": 3891,
      "Ġatmosphere": 3892,
      "ses": 3893,
      "Ġment": 3894,
      "Ġmid": 3895,
      "Ġconfess": 3896,
      "Ġdesigns": 3897,
      "Ġcoach": 3898,
      "ĠAnother": 3899,
      "Ġdivers": 3900,
      "Ġspecies": 3901,
      "ches": 3902,
      "Ġimplemented": 3903,
      "Ġremove": 3904,
      "Ġserving": 3905,
      "Ġproduce": 3906,
      "Ġbroken": 3907,
      "Ġcaught": 3908,
      "ateful": 3909,
      "ums": 3910,
      "Ġspend": 3911,
      "Ġbrave": 3912,
      "Ġbrain": 3913,
      "Ġhous": 3914,
      "ĠCar": 3915,
      "Ġversion": 3916,
      "Ġnonsense": 3917,
      "ĠChrist": 3918,
      "Ġinitiatives": 3919,
      "uel": 3920,
      "Ġcraft": 3921,
      "gers": 3922,
      "Ġdecl": 3923,
      "ipped": 3924,
      "Ġnames": 3925,
      "Ġconvey": 3926,
      "Ġprofession": 3927,
      "Ġactive": 3928,
      "rastructure": 3929,
      "asons": 3930,
      "Ġner": 3931,
      "Ġsaved": 3932,
      "ppers": 3933,
      "Ġunc": 3934,
      "Ġgratitude": 3935,
      "ĠMany": 3936,
      "ĠKe": 3937,
      "Ġdesired": 3938,
      "Ġarms": 3939,
      "Ġgives": 3940,
      "Ġnay": 3941,
      "ules": 3942,
      "Ġprince": 3943,
      "Ġoffered": 3944,
      "Ġwindow": 3945,
      "son": 3946,
      "Ġclub": 3947,
      "iver": 3948,
      "Ġcooked": 3949,
      "Ġtherefore": 3950,
      "Ġalt": 3951,
      "ĠDon": 3952,
      "Ġborn": 3953,
      "Ġconcl": 3954,
      "Ġconstant": 3955,
      "ĠMan": 3956,
      "Ġfocused": 3957,
      "Ġgas": 3958,
      "aming": 3959,
      "Ġpity": 3960,
      "rict": 3961,
      "Ġjoin": 3962,
      "ov": 3963,
      "Ġsess": 3964,
      "Ġelement": 3965,
      "Ġdepth": 3966,
      "izz": 3967,
      "ka": 3968,
      "Ġdistance": 3969,
      "Ġmovement": 3970,
      "Ġfascinating": 3971,
      "ata": 3972,
      "Ġprim": 3973,
      "Ġcarbon": 3974,
      "cent": 3975,
      "Ġvid": 3976,
      "Ġdur": 3977,
      "Ġcreatures": 3978,
      "Ġgh": 3979,
      "sert": 3980,
      "bb": 3981,
      "earch": 3982,
      "onds": 3983,
      "Ġgenerate": 3984,
      "ĠEurope": 3985,
      "Ġtender": 3986,
      "Ġwid": 3987,
      "irst": 3988,
      "Ġpapers": 3989,
      "Ġinfluenced": 3990,
      "outs": 3991,
      "Ġeconomy": 3992,
      "umber": 3993,
      "Ġarchitecture": 3994,
      "Ġinstance": 3995,
      "cean": 3996,
      "Ġneck": 3997,
      "Ġeggs": 3998,
      "Ġded": 3999,
      "Ġdarling": 4000,
      "oot": 4001,
      "Ġprevious": 4002,
      "ĠAm": 4003,
      "Ġproud": 4004,
      "ĠAv": 4005,
      "Ġrates": 4006,
      "Ġstyles": 4007,
      "Ġidentity": 4008,
      "Ġfolks": 4009,
      "load": 4010,
      "Ġactions": 4011,
      "ky": 4012,
      "Ġchallenge": 4013,
      "Ġcrowd": 4014,
      "ĠSm": 4015,
      "Ġmarriage": 4016,
      "Ġhorses": 4017,
      "Ġexpert": 4018,
      "set": 4019,
      "Ġlemon": 4020,
      "Ġchocolate": 4021,
      "coming": 4022,
      "Ġcorrect": 4023,
      "Ġmadam": 4024,
      "Ġbottom": 4025,
      "inct": 4026,
      "Ġproblem": 4027,
      "irth": 4028,
      "atory": 4029,
      "ĠHer": 4030,
      "Ġclim": 4031,
      "Ġhabit": 4032,
      "ĠCho": 4033,
      "Ġpleasant": 4034,
      "Ġdangerous": 4035,
      "Ġrise": 4036,
      "urt": 4037,
      "Ġrestaurant": 4038,
      "Ġbirds": 4039,
      "Ġpolicies": 4040,
      "Ġloyal": 4041,
      "ties": 4042,
      "ĠUnited": 4043,
      "Ġprove": 4044,
      "Ġbusy": 4045,
      "ĠImp": 4046,
      "Ġsin": 4047,
      "Ġsurface": 4048,
      "Ġchief": 4049,
      "Ġcuisine": 4050,
      "Ġseven": 4051,
      "Ġconfidence": 4052,
      "Ġrecipes": 4053,
      "Ġsection": 4054,
      "ĠAt": 4055,
      "ĠHey": 4056,
      "Ġdad": 4057,
      "Ġpassion": 4058,
      "Ġban": 4059,
      "Ġmyst": 4060,
      "ression": 4061,
      "Ġcontribute": 4062,
      "issions": 4063,
      "Ġcareful": 4064,
      "otes": 4065,
      "cuse": 4066,
      "ĠComp": 4067,
      "icated": 4068,
      "ĠTake": 4069,
      "Ġcritical": 4070,
      "Ġoutdo": 4071,
      "Ġladies": 4072,
      "Ġgrowing": 4073,
      "Ġforgotten": 4074,
      "using": 4075,
      "Ġcircumst": 4076,
      "Ġoblig": 4077,
      "Ġillust": 4078,
      "Ġoffering": 4079,
      "Ġtreatment": 4080,
      "ĠAfric": 4081,
      "Ġchann": 4082,
      "dden": 4083,
      "more": 4084,
      "Ġbold": 4085,
      "Ġhung": 4086,
      "Ġmouth": 4087,
      "Ġbenefit": 4088,
      "Ġinfrastructure": 4089,
      "Ġmort": 4090,
      "Ġisnt": 4091,
      "ompl": 4092,
      "Ġvideos": 4093,
      "ban": 4094,
      "alu": 4095,
      "Ġlimited": 4096,
      "Ġexpand": 4097,
      "iving": 4098,
      "Ġhistorical": 4099,
      "Ġ+": 4100,
      "Ġsummary": 4101,
      "Ġinteractive": 4102,
      "icked": 4103,
      "Ġprepare": 4104,
      "oms": 4105,
      "uild": 4106,
      "Ġlovely": 4107,
      "acing": 4108,
      "mas": 4109,
      "Ġdescription": 4110,
      "Ġexec": 4111,
      "Ġpowers": 4112,
      "Ġpros": 4113,
      "Ġamb": 4114,
      "Ġcorn": 4115,
      "Ġlarger": 4116,
      "agonist": 4117,
      "ĠAre": 4118,
      "chan": 4119,
      "Ġappropriate": 4120,
      "Ġwhe": 4121,
      "clock": 4122,
      "Ġsomewhere": 4123,
      "Ġpromised": 4124,
      "term": 4125,
      "ope": 4126,
      "Ġaffected": 4127,
      "Ġdepending": 4128,
      "Ġspring": 4129,
      "Ġscr": 4130,
      "Ġchallenging": 4131,
      "Ġfortune": 4132,
      "Ġindustries": 4133,
      "Ġreligious": 4134,
      "Ġblog": 4135,
      "Ġalternative": 4136,
      "iciency": 4137,
      "Ġrequest": 4138,
      "Ġwelcome": 4139,
      "tered": 4140,
      "Ġvisually": 4141,
      "Ġcrucial": 4142,
      "Ġii": 4143,
      "Ġbattle": 4144,
      "ĠMy": 4145,
      "Ġber": 4146,
      "Ġsoil": 4147,
      "Ġtax": 4148,
      "arah": 4149,
      "ĠMe": 4150,
      "Ġpartner": 4151,
      "Ġring": 4152,
      "Ġformat": 4153,
      "Ġstone": 4154,
      "ini": 4155,
      "Ġdiscovered": 4156,
      "Ġmilitary": 4157,
      "ĠQu": 4158,
      "Ġsquare": 4159,
      "iration": 4160,
      "epend": 4161,
      "Ġfinal": 4162,
      "Ġnoble": 4163,
      "uses": 4164,
      "Ġtroub": 4165,
      "Ġmission": 4166,
      "gment": 4167,
      "Ġresist": 4168,
      "Ġteaspoon": 4169,
      "Ġforms": 4170,
      "Ġpoetry": 4171,
      "Ġexhib": 4172,
      "Ġschem": 4173,
      "Ġhath": 4174,
      "Ġwise": 4175,
      "Ġrace": 4176,
      "ĠGoogle": 4177,
      "oon": 4178,
      "ĠCook": 4179,
      "ales": 4180,
      "Ġfilled": 4181,
      "Ġmajesty": 4182,
      "Ġincluded": 4183,
      "Ġthin": 4184,
      "Ġcommunicate": 4185,
      "Ġconcise": 4186,
      "iday": 4187,
      "Ġdate": 4188,
      "Ġmatters": 4189,
      "ires": 4190,
      "Ġlandsc": 4191,
      "Ġhen": 4192,
      "Ġqueen": 4193,
      "Ġexplan": 4194,
      "Ġaccompl": 4195,
      "Ġsudden": 4196,
      "Ġexcuse": 4197,
      "Ġgolden": 4198,
      "ĠEnjoy": 4199,
      "Ġbeach": 4200,
      "sych": 4201,
      "Ġinqu": 4202,
      "Ġcouple": 4203,
      "ĠNational": 4204,
      "Ġincred": 4205,
      "Ġentertain": 4206,
      "Ġ200": 4207,
      "Ġmuse": 4208,
      "Ġdeg": 4209,
      "Ġshel": 4210,
      "Ġclaim": 4211,
      "Ġtut": 4212,
      "Ġintellig": 4213,
      "Ġtask": 4214,
      "Ġcolonel": 4215,
      "Ġprotagonist": 4216,
      "ronic": 4217,
      "Ġutil": 4218,
      "Ġtraffic": 4219,
      "Ġfill": 4220,
      "Ġplanning": 4221,
      "Ġpublish": 4222,
      "Ġfoolish": 4223,
      "Ġcases": 4224,
      "look": 4225,
      "acles": 4226,
      "Ġmat": 4227,
      "Ġthus": 4228,
      "Ġpush": 4229,
      "Ġseeds": 4230,
      "Ġarrange": 4231,
      "ĠUS": 4232,
      "Ġprompt": 4233,
      "Ġearl": 4234,
      "omin": 4235,
      "ĠGener": 4236,
      "oman": 4237,
      "ague": 4238,
      "ĠAcc": 4239,
      "Ġoccasion": 4240,
      "iding": 4241,
      "Ġherbs": 4242,
      "being": 4243,
      "Ġmiddle": 4244,
      "ander": 4245,
      "iled": 4246,
      "Ġshown": 4247,
      "road": 4248,
      "Ġspices": 4249,
      "Ġcit": 4250,
      "Ġload": 4251,
      "Ġviol": 4252,
      "itute": 4253,
      "Ġblow": 4254,
      "ette": 4255,
      "Ġlatest": 4256,
      "Ġcombination": 4257,
      "Ġinternational": 4258,
      "Ġtypically": 4259,
      "Ġbull": 4260,
      "Ġprepared": 4261,
      "Ġparents": 4262,
      "Ġjustice": 4263,
      "ĠMaybe": 4264,
      "Ġvolunte": 4265,
      "Ġperspect": 4266,
      "ora": 4267,
      "Ġlimit": 4268,
      "Ġplot": 4269,
      "orm": 4270,
      "Ġbatter": 4271,
      "nes": 4272,
      "Ġconstruction": 4273,
      "Ġange": 4274,
      "Ġfitness": 4275,
      "Ġshad": 4276,
      "Ġcredit": 4277,
      "Ġdyn": 4278,
      "Ġbeef": 4279,
      "Ġoriginal": 4280,
      "Ġnavigate": 4281,
      "Ġreli": 4282,
      "Ġonion": 4283,
      "Ġeffort": 4284,
      "Ġclever": 4285,
      "Ġterrible": 4286,
      "verage": 4287,
      "kin": 4288,
      "Ġdistrib": 4289,
      "ogether": 4290,
      "Ġmoon": 4291,
      "Ġfamilies": 4292,
      "Ġpolicy": 4293,
      "Ġfields": 4294,
      "imin": 4295,
      "ama": 4296,
      "ĠInt": 4297,
      "Ġagric": 4298,
      "aked": 4299,
      "ening": 4300,
      "Ġkiss": 4301,
      "Ġusually": 4302,
      "Ġbroad": 4303,
      "ĠGo": 4304,
      "Ġaffair": 4305,
      "Ġassistance": 4306,
      "Ġsmell": 4307,
      "Ġreality": 4308,
      "Ġcentury": 4309,
      "Ġanimal": 4310,
      "iest": 4311,
      "Ġnorth": 4312,
      "Ġpriorit": 4313,
      "50": 4314,
      "Ġgift": 4315,
      "off": 4316,
      "ked": 4317,
      "Ġanyhow": 4318,
      "Ġknowing": 4319,
      "Ġqual": 4320,
      "Ġyork": 4321,
      "Ġwalking": 4322,
      "Ġmechan": 4323,
      "hic": 4324,
      "Ġdescriptive": 4325,
      "Ġspoke": 4326,
      "Ġstates": 4327,
      "Ġlaunch": 4328,
      "Ġdescribe": 4329,
      "Ġagricult": 4330,
      "Ġmoments": 4331,
      "Ġthorough": 4332,
      "Ġsto": 4333,
      "roy": 4334,
      "ĠSet": 4335,
      "Ġinvestig": 4336,
      "oe": 4337,
      "Ġnamed": 4338,
      "Ġenemy": 4339,
      "Ġyoull": 4340,
      "Ġoutput": 4341,
      "Ġcalm": 4342,
      "Ġfurn": 4343,
      "Ġsports": 4344,
      "ĠUs": 4345,
      "Ġsouth": 4346,
      "Ġfalse": 4347,
      "Ġpotatoes": 4348,
      "Ġerr": 4349,
      "Ġlack": 4350,
      "Ġsensory": 4351,
      "Ġghost": 4352,
      "Ġsite": 4353,
      "Ġsuc": 4354,
      "arest": 4355,
      "Ġfi": 4356,
      "ĠFl": 4357,
      "Ġconcerns": 4358,
      "itchen": 4359,
      "ĠĠĠĠĠĠĠĠĠĠĠ": 4360,
      "Ġtherapy": 4361,
      "Ġsolar": 4362,
      "asting": 4363,
      "Ġscreen": 4364,
      "Ġtot": 4365,
      "Ġlunch": 4366,
      "Ġevil": 4367,
      "ĠStep": 4368,
      "Ġarmy": 4369,
      "oph": 4370,
      "Ġdamage": 4371,
      "Ġmember": 4372,
      "Ġfifty": 4373,
      "imp": 4374,
      "ĠInclude": 4375,
      "ĠAfter": 4376,
      "ĠCont": 4377,
      "eter": 4378,
      "ula": 4379,
      "Ġerror": 4380,
      "Ġexploring": 4381,
      "reme": 4382,
      "tics": 4383,
      "antic": 4384,
      "Ġreco": 4385,
      "Ġstation": 4386,
      "Ġdece": 4387,
      "Ġadvertising": 4388,
      "10": 4389,
      "Ġmighty": 4390,
      "Ġstarting": 4391,
      "\",": 4392,
      "Ġconser": 4393,
      "Ġsharp": 4394,
      "ifications": 4395,
      "Ġcreature": 4396,
      "Ġresponsible": 4397,
      "aker": 4398,
      "ament": 4399,
      "eff": 4400,
      "Ġsupply": 4401,
      "ros": 4402,
      "Ġtheme": 4403,
      "Ġpock": 4404,
      "Ġawareness": 4405,
      "Ġcra": 4406,
      "Ġschools": 4407,
      "Ġviews": 4408,
      "ari": 4409,
      "Ġadvantage": 4410,
      "Ġvac": 4411,
      "Ġfab": 4412,
      "ched": 4413,
      "orary": 4414,
      "ĠDis": 4415,
      "Ġlou": 4416,
      "Ġissue": 4417,
      "Ġ|": 4418,
      "Ġrose": 4419,
      "gs": 4420,
      "Ġpainting": 4421,
      "Ġconclusion": 4422,
      "Ġrow": 4423,
      "Ġgrateful": 4424,
      "Ġspeech": 4425,
      "ĠCal": 4426,
      "ĠPe": 4427,
      "idents": 4428,
      "Ġauthent": 4429,
      "Ġcollege": 4430,
      "ĠName": 4431,
      "Ġwash": 4432,
      "Ġdescriptions": 4433,
      "known": 4434,
      "iling": 4435,
      "oken": 4436,
      "field": 4437,
      "Ġhat": 4438,
      "Ġawful": 4439,
      "itter": 4440,
      "Ġsharing": 4441,
      "Ġcalls": 4442,
      "Ġodd": 4443,
      "ĠSim": 4444,
      "Ġmountain": 4445,
      "Ġasking": 4446,
      "Ġrequirements": 4447,
      "Ġsubs": 4448,
      "Ġmedic": 4449,
      "Ġcaused": 4450,
      "Ġmiser": 4451,
      "Ġpounds": 4452,
      "Ġham": 4453,
      "Ġanalyze": 4454,
      "Ġstudent": 4455,
      "ĠBased": 4456,
      "ĠIng": 4457,
      "Ġrecommended": 4458,
      "Ġperm": 4459,
      "omb": 4460,
      "Ġcompletely": 4461,
      "Ġcourage": 4462,
      "ĠTheir": 4463,
      "Ġexperienced": 4464,
      "itish": 4465,
      "Ġrelease": 4466,
      "Ġpure": 4467,
      "ville": 4468,
      "Ġcities": 4469,
      "Ġregularly": 4470,
      "Ġacademic": 4471,
      "Ġfav": 4472,
      "Ġdisease": 4473,
      "ĠEmp": 4474,
      "Ġsustainability": 4475,
      "Ġmood": 4476,
      "oise": 4477,
      "Ġrub": 4478,
      "ĠWorld": 4479,
      "Ġstret": 4480,
      "Ġwrote": 4481,
      "Ġtong": 4482,
      "ww": 4483,
      "Ġfond": 4484,
      "Ġocean": 4485,
      "Ġinnovative": 4486,
      "Ġsucceed": 4487,
      "Ġbeans": 4488,
      "Ġalthough": 4489,
      "eless": 4490,
      "Ġboo": 4491,
      "iny": 4492,
      "Ġkindness": 4493,
      "Ġcircumstances": 4494,
      "Ġimmediately": 4495,
      "Ġencoun": 4496,
      "Ġvine": 4497,
      "Ġlift": 4498,
      "umn": 4499,
      "Ġsmaller": 4500,
      "den": 4501,
      "Ġparis": 4502,
      "ags": 4503,
      "Ġstaff": 4504,
      "la": 4505,
      "bur": 4506,
      "Ġfle": 4507,
      "Ġbuildings": 4508,
      "Ġspiritual": 4509,
      "Ġmal": 4510,
      "Ġgoodbye": 4511,
      "ĠRep": 4512,
      "Ġwealth": 4513,
      "Ġly": 4514,
      "Ġtopics": 4515,
      "Ġdocument": 4516,
      "Ġmic": 4517,
      "Ġtomatoes": 4518,
      "ously": 4519,
      "Ġlies": 4520,
      "Ġrequires": 4521,
      "Ġdecided": 4522,
      "Ġyouth": 4523,
      "Ġcontemp": 4524,
      "fit": 4525,
      "abilities": 4526,
      "ris": 4527,
      "Ġimplementing": 4528,
      "hin": 4529,
      "ada": 4530,
      "era": 4531,
      "Ġefficiency": 4532,
      "Ġclos": 4533,
      "Ġsatisfied": 4534,
      "ek": 4535,
      "Ġaid": 4536,
      "Ġsliced": 4537,
      "Ġremains": 4538,
      "Ġliber": 4539,
      "ulf": 4540,
      "Ġuns": 4541,
      "ĠDespite": 4542,
      "ĠEns": 4543,
      "Ġexch": 4544,
      "Ġdetermine": 4545,
      "Ġinvestment": 4546,
      "ĠIngredients": 4547,
      "Ġcommit": 4548,
      "Ġregions": 4549,
      "Ġreward": 4550,
      "Ġflex": 4551,
      "Ġpossibly": 4552,
      "Ġspent": 4553,
      "19": 4554,
      "Ġshowcase": 4555,
      "Ġfunny": 4556,
      "ev": 4557,
      "Ġstanding": 4558,
      "Ġcourses": 4559,
      "Ġrent": 4560,
      "Ġstorage": 4561,
      "Ġmir": 4562,
      "Ġcarried": 4563,
      "Ġframe": 4564,
      "Ġmaid": 4565,
      "Ġstage": 4566,
      "Ġcrisp": 4567,
      "Ġinnoc": 4568,
      "Ġbon": 4569,
      "Ġshop": 4570,
      "Ġoptimize": 4571,
      "enn": 4572,
      "ĠArt": 4573,
      "eral": 4574,
      "uries": 4575,
      "Ġvehic": 4576,
      "Ġhidden": 4577,
      "Ġevalu": 4578,
      "Ġnarrative": 4579,
      "Ġremote": 4580,
      "Ġphone": 4581,
      "Ġmaxim": 4582,
      "Ġmagn": 4583,
      "ĠChoose": 4584,
      "Ġshared": 4585,
      "Ġimagery": 4586,
      "Ġtechnique": 4587,
      "athers": 4588,
      "Ġvegetable": 4589,
      "Ġdressing": 4590,
      "iant": 4591,
      "Ġswear": 4592,
      "Ġath": 4593,
      "Ġshame": 4594,
      "Ġhi": 4595,
      "Ġentirely": 4596,
      "Ġgoods": 4597,
      "Ġforeign": 4598,
      "ĠKeep": 4599,
      "Ġtick": 4600,
      "Ġempty": 4601,
      "Ġtrends": 4602,
      "Ġoutdoor": 4603,
      "oved": 4604,
      "umin": 4605,
      "Ġonto": 4606,
      "Ġproblems": 4607,
      "Ġaffordable": 4608,
      "Ġsupper": 4609,
      "Ġbirth": 4610,
      "Ġtraditions": 4611,
      "Ġcompared": 4612,
      "Ġign": 4613,
      "Ġartist": 4614,
      "Ġmystery": 4615,
      "itate": 4616,
      "Ġworst": 4617,
      "Ġwitness": 4618,
      "ĠGreat": 4619,
      "Ġsha": 4620,
      "Ġappealing": 4621,
      "rid": 4622,
      "Ġstars": 4623,
      "itors": 4624,
      "Ġcere": 4625,
      "Ġgods": 4626,
      "Ġinterview": 4627,
      "Ġimproved": 4628,
      "ĠWest": 4629,
      "Ġbeast": 4630,
      "ĠPark": 4631,
      "Ġfigure": 4632,
      "Ġmart": 4633,
      "gency": 4634,
      "Ġcollaboration": 4635,
      "Ġknock": 4636,
      "ĠGu": 4637,
      "Ġdiverse": 4638,
      "Ġremark": 4639,
      "Ġconsult": 4640,
      "urance": 4641,
      "Ġvillage": 4642,
      "Â°": 4643,
      "Ġblend": 4644,
      "Ġemb": 4645,
      "Ġdriving": 4646,
      "appy": 4647,
      "Ġdough": 4648,
      "Ġaccessible": 4649,
      "Ġmoving": 4650,
      "ĠResearch": 4651,
      "Ġwi": 4652,
      "ĠHis": 4653,
      "ĠSchool": 4654,
      "Ġabilities": 4655,
      "Ġanxious": 4656,
      "Ġreput": 4657,
      "Ġscarce": 4658,
      "ĠEnsure": 4659,
      "Ġmeals": 4660,
      "Ġappl": 4661,
      "Ġcin": 4662,
      "bl": 4663,
      "Ġloves": 4664,
      "ĠX": 4665,
      "ae": 4666,
      "inese": 4667,
      "Ġpatients": 4668,
      "Ġrestaurants": 4669,
      "Ġfirm": 4670,
      "Ġfinished": 4671,
      "Ġtro": 4672,
      "Ġpsych": 4673,
      "Ġnational": 4674,
      "Ġcapture": 4675,
      "Ġchat": 4676,
      "Ġkitchen": 4677,
      "ĠHigh": 4678,
      "Ġhero": 4679,
      "Ġtells": 4680,
      "ĠReg": 4681,
      "Ġmac": 4682,
      "Ġdav": 4683,
      "ĠSouth": 4684,
      "Ġrights": 4685,
      "Ġvent": 4686,
      "Ġdial": 4687,
      "Ġharry": 4688,
      "Ġeating": 4689,
      "print": 4690,
      "Ġscientific": 4691,
      "Ġdesp": 4692,
      "ores": 4693,
      "ĠStud": 4694,
      "thern": 4695,
      "works": 4696,
      "abb": 4697,
      "ye": 4698,
      "Ġapart": 4699,
      "Ġnoise": 4700,
      "enses": 4701,
      "ĠWar": 4702,
      "Ġstorm": 4703,
      "een": 4704,
      "Ġhunt": 4705,
      "Ġsatisfaction": 4706,
      "Ġclasses": 4707,
      "Ġaccident": 4708,
      "Ġeco": 4709,
      "ĠPo": 4710,
      "Ġwouldnt": 4711,
      "Ġsolution": 4712,
      "Ġslightly": 4713,
      "Ġraise": 4714,
      "Ġqueer": 4715,
      "Ġindepend": 4716,
      "Ġcrime": 4717,
      "ĠStates": 4718,
      "Ġanywhere": 4719,
      "Ġep": 4720,
      "Ġpars": 4721,
      "Ġfeels": 4722,
      "Ġcontext": 4723,
      "Ġextreme": 4724,
      "Ġpoll": 4725,
      "Ġsuffer": 4726,
      "teen": 4727,
      "yth": 4728,
      "Ġlibrary": 4729,
      "Ġspin": 4730,
      "aper": 4731,
      "atest": 4732,
      "ĠDr": 4733,
      "Ġholy": 4734,
      "Ġgro": 4735,
      "Ġpressure": 4736,
      "Ġteams": 4737,
      "olar": 4738,
      "Ġoperations": 4739,
      "osition": 4740,
      "Ġbecoming": 4741,
      "Ġrail": 4742,
      "itage": 4743,
      "esh": 4744,
      "Ġspoken": 4745,
      "Ġwarn": 4746,
      "rooms": 4747,
      "ĠPar": 4748,
      "Ġcups": 4749,
      "Ġtesting": 4750,
      "usive": 4751,
      "olved": 4752,
      "Ġcontinued": 4753,
      "Ġsongs": 4754,
      "Ġmountains": 4755,
      "Ġsummar": 4756,
      "Ġvalid": 4757,
      "Ġbecomes": 4758,
      "Ġpictures": 4759,
      "Ġblame": 4760,
      "Ġsitting": 4761,
      "Ġexcited": 4762,
      "ĠCol": 4763,
      "Ġguidance": 4764,
      "Ġreasons": 4765,
      "Ġstatement": 4766,
      "Ġ*": 4767,
      "Ġspecifically": 4768,
      "Ġexciting": 4769,
      "Ġtall": 4770,
      "Ġinvolve": 4771,
      "Ġdescrib": 4772,
      "Ġvib": 4773,
      "Ġtwist": 4774,
      "Ġsword": 4775,
      "Ġtaught": 4776,
      "Ġast": 4777,
      "Ġproperties": 4778,
      "Ġwire": 4779,
      "Ġunex": 4780,
      "Ġnotes": 4781,
      "Ġsoldiers": 4782,
      "ference": 4783,
      "Ġdecisions": 4784,
      "Ġeffectiveness": 4785,
      "Ġsmok": 4786,
      "Ġx": 4787,
      "Ġvir": 4788,
      "Ġensuring": 4789,
      "yl": 4790,
      "Ġstrike": 4791,
      "Ġpin": 4792,
      "Ġphotos": 4793,
      "Ġclothing": 4794,
      "Ġwhats": 4795,
      "ĠOff": 4796,
      "Ġwound": 4797,
      "Ġpleased": 4798,
      "leep": 4799,
      "fu": 4800,
      "Ġinfluenc": 4801,
      "Ġnuts": 4802,
      "Ġpoems": 4803,
      "Ġangry": 4804,
      "Ġgenerally": 4805,
      "olf": 4806,
      "ava": 4807,
      "ĠInstructions": 4808,
      "Ġcoat": 4809,
      "Ġwoods": 4810,
      "athy": 4811,
      "Ġmixed": 4812,
      "Ġstruggle": 4813,
      "Ġexplanation": 4814,
      "Ġfighting": 4815,
      "Ġstunning": 4816,
      "water": 4817,
      "Ġtight": 4818,
      "Ġcoast": 4819,
      "Ġconsequences": 4820,
      "Ġswim": 4821,
      "Ġcompe": 4822,
      "Ġyonder": 4823,
      "cour": 4824,
      "Ġguests": 4825,
      "Ġarrest": 4826,
      "Ġdeeper": 4827,
      "Ġvul": 4828,
      "Ġhide": 4829,
      "Ġreb": 4830,
      "Ġnutr": 4831,
      "Ġcorner": 4832,
      "Ġclick": 4833,
      "Ġrot": 4834,
      "Ġsuccessfully": 4835,
      "Ġsides": 4836,
      "Ġmap": 4837,
      "comes": 4838,
      "Ġec": 4839,
      "Ġappearance": 4840,
      "Ġbrief": 4841,
      "Ġcarr": 4842,
      "gypt": 4843,
      "Ġchanging": 4844,
      "Ġstaying": 4845,
      "St": 4846,
      "Ġschedule": 4847,
      "Ġobtain": 4848,
      "bey": 4849,
      "Ġcake": 4850,
      "Ġactually": 4851,
      "ita": 4852,
      "Ġhill": 4853,
      "Ġplastic": 4854,
      "rie": 4855,
      "list": 4856,
      "Ġsplend": 4857,
      "Ġtransl": 4858,
      "ĠCheck": 4859,
      "Ġkid": 4860,
      "Ġrough": 4861,
      "Ġvegetarian": 4862,
      "Ġsuspic": 4863,
      "worth": 4864,
      "ĠTw": 4865,
      "Ġsilly": 4866,
      "Ġextract": 4867,
      "Ġintric": 4868,
      "Ġgrown": 4869,
      "Ġsan": 4870,
      "Ġabsolutely": 4871,
      "Ġproductivity": 4872,
      "Ġcrit": 4873,
      "Ġproof": 4874,
      "Ġsuitable": 4875,
      "Ġliterature": 4876,
      "Ġfloor": 4877,
      "Ġblind": 4878,
      "ĠPer": 4879,
      "gen": 4880,
      "Ġdru": 4881,
      "Ġfollowed": 4882,
      "Ġinstit": 4883,
      "Ġattach": 4884,
      "Ġbob": 4885,
      "Ġinformative": 4886,
      "Ġchain": 4887,
      "ĠSw": 4888,
      "Ġobjects": 4889,
      "Ġhyd": 4890,
      "ocr": 4891,
      "Ġcruel": 4892,
      "ĠVis": 4893,
      "ogue": 4894,
      "Ġunh": 4895,
      "Ġstruggles": 4896,
      "Ġobstacles": 4897,
      "here": 4898,
      "gl": 4899,
      "Ġcocon": 4900,
      "ĠFrench": 4901,
      "Ġapps": 4902,
      "Ġsuspect": 4903,
      "Ġdouble": 4904,
      "irm": 4905,
      "Ġeast": 4906,
      "Ġpersu": 4907,
      "Ġ11": 4908,
      "Ġgreatest": 4909,
      "Ġupdated": 4910,
      "ĠMix": 4911,
      "sec": 4912,
      "Ġcapital": 4913,
      "zing": 4914,
      "Ġalign": 4915,
      "Ġtracking": 4916,
      "Ġcoconut": 4917,
      "Ġemissions": 4918,
      "ĠServe": 4919,
      "resh": 4920,
      "Ġven": 4921,
      "ĠGl": 4922,
      "Ġquarter": 4923,
      "ĠUsing": 4924,
      "Ġspare": 4925,
      "ĠNe": 4926,
      "berries": 4927,
      "Ġdevice": 4928,
      "Ġpeter": 4929,
      "Ġplays": 4930,
      "bor": 4931,
      "ĠHave": 4932,
      "Ġadds": 4933,
      "Ġsilver": 4934,
      "Ġcultures": 4935,
      "Ġneighbor": 4936,
      "Ġstronger": 4937,
      "Ġcontrast": 4938,
      "Ġrefuse": 4939,
      "Ġwedding": 4940,
      "Ġlistening": 4941,
      "Ġtablespoon": 4942,
      "down": 4943,
      "ĠFace": 4944,
      "ublic": 4945,
      "encies": 4946,
      "ĠAust": 4947,
      "force": 4948,
      "ĠSarah": 4949,
      "ĠAccording": 4950,
      "ially": 4951,
      "Ġimpacted": 4952,
      "Ġcompon": 4953,
      "ĠStart": 4954,
      "Ġresil": 4955,
      "ĠNo": 4956,
      "Ġassess": 4957,
      "Ġrhy": 4958,
      "Ġforever": 4959,
      "Ġotherwise": 4960,
      "Ġroasted": 4961,
      "Ġreve": 4962,
      "Ġcastle": 4963,
      "Ġinvent": 4964,
      "Ġtwice": 4965,
      "Ġiron": 4966,
      "Ġrooms": 4967,
      "hand": 4968,
      "Ġmovements": 4969,
      "Ġmistress": 4970,
      "lla": 4971,
      "angers": 4972,
      "Ġultimately": 4973,
      "Ġfruits": 4974,
      "Ġsets": 4975,
      "ĠSocial": 4976,
      "ĠCity": 4977,
      "Ġau": 4978,
      "Ġfilling": 4979,
      "Ġadventure": 4980,
      "ĠAI": 4981,
      "Ġjournal": 4982,
      "Ġalgorithm": 4983,
      "Ġappoint": 4984,
      "Ġmagic": 4985,
      "Ġmercy": 4986,
      "Ġyellow": 4987,
      "oke": 4988,
      "Ġworksh": 4989,
      "Ġvary": 4990,
      "PI": 4991,
      "Ġrisks": 4992,
      "ĠThrough": 4993,
      "Ġedge": 4994,
      "orus": 4995,
      "Ġceremon": 4996,
      "ĠEach": 4997,
      "Ġprotection": 4998,
      "Ġdreadful": 4999,
      "Ġstores": 5000,
      "Ġdirection": 5001,
      "Ġpeppers": 5002,
      "ĠBar": 5003,
      "ĠAss": 5004,
      "alian": 5005,
      "Ġconven": 5006,
      "Ġplayer": 5007,
      "ĠGreek": 5008,
      "Ġprocesses": 5009,
      "Ġimpacts": 5010,
      "uts": 5011,
      "Ġsymp": 5012,
      "Ġideal": 5013,
      "verse": 5014,
      "ola": 5015,
      "Ġmodels": 5016,
      "Ġdreams": 5017,
      "Ġunexpected": 5018,
      "ael": 5019,
      "Ġassure": 5020,
      "ĠFe": 5021,
      "Ġgit": 5022,
      "Ġobliged": 5023,
      "Ġran": 5024,
      "fall": 5025,
      "Ġcarefully": 5026,
      "Ġfrag": 5027,
      "Ġmaintaining": 5028,
      "Ġsooner": 5029,
      "words": 5030,
      "Ġdestroy": 5031,
      "Ġcomments": 5032,
      "rial": 5033,
      "bre": 5034,
      "Ġwalls": 5035,
      "Ġwebsites": 5036,
      "Ġdiscount": 5037,
      "Ġwatching": 5038,
      "Ġtough": 5039,
      "Ġtechnical": 5040,
      "oves": 5041,
      "Ġconflict": 5042,
      "Ġlikes": 5043,
      "Ġshore": 5044,
      "Ġlux": 5045,
      "Ġamerican": 5046,
      "ĠIndia": 5047,
      "acon": 5048,
      "Ġnumer": 5049,
      "ours": 5050,
      "Ġrule": 5051,
      "Ġexpression": 5052,
      "Ġmemor": 5053,
      "Ġequal": 5054,
      "Ġhungry": 5055,
      "oration": 5056,
      "ipping": 5057,
      "Ġleads": 5058,
      "Ġstruct": 5059,
      "umph": 5060,
      "Ġgerman": 5061,
      "Ġrecy": 5062,
      "kins": 5063,
      "rase": 5064,
      "ĠTry": 5065,
      "Ġpasta": 5066,
      "Ġsituations": 5067,
      "Ġfrance": 5068,
      "hat": 5069,
      "Ġrevenue": 5070,
      "Ġroll": 5071,
      "Ġyouve": 5072,
      "Ġinspired": 5073,
      "Ġmemories": 5074,
      "Ġmerely": 5075,
      "Ġbrands": 5076,
      "Ġstatistics": 5077,
      "order": 5078,
      "Ġfoods": 5079,
      "Ġlandscape": 5080,
      "Ġcreation": 5081,
      "Ġrespond": 5082,
      "Ġcommitted": 5083,
      "Ġcontains": 5084,
      "Ġaltogether": 5085,
      "Ġpolit": 5086,
      "Ġaspects": 5087,
      "Ġlots": 5088,
      "ĠNorth": 5089,
      "Ġbath": 5090,
      "Ġinsight": 5091,
      "Ġow": 5092,
      "Ġcomplement": 5093,
      "Ġbrings": 5094,
      "Ġstream": 5095,
      "Ġtongue": 5096,
      "Ġstranger": 5097,
      "ups": 5098,
      "ommod": 5099,
      "30": 5100,
      "Ġdistur": 5101,
      "Ġcate": 5102,
      "ulations": 5103,
      "ternal": 5104,
      "ico": 5105,
      "Ġwishes": 5106,
      "Ġtitle": 5107,
      "Ġretail": 5108,
      "Ġimmers": 5109,
      "Ġfarmers": 5110,
      "ĠOut": 5111,
      "Ġbrush": 5112,
      "Ġsurprise": 5113,
      "Ġwret": 5114,
      "Ġintricate": 5115,
      "elve": 5116,
      "Ġsurprised": 5117,
      "Ġcreativity": 5118,
      "ĠVe": 5119,
      "Ġnoticed": 5120,
      "ounce": 5121,
      "can": 5122,
      "Ġthirty": 5123,
      "Ġmovie": 5124,
      "Ġlighting": 5125,
      "acity": 5126,
      "osen": 5127,
      "Ġdidn": 5128,
      "agram": 5129,
      "encing": 5130,
      "Ġ16": 5131,
      "Ġvariations": 5132,
      "Ġprofessionals": 5133,
      "Ġalb": 5134,
      "Ġfate": 5135,
      "Ġconce": 5136,
      "ĠFacebook": 5137,
      "Ġlabor": 5138,
      "Ġadmit": 5139,
      "Ġcompetition": 5140,
      "oiselle": 5141,
      "wich": 5142,
      "____": 5143,
      "Ġfriendship": 5144,
      "Ġhush": 5145,
      "ĠPart": 5146,
      "Ġfreed": 5147,
      "ĠMon": 5148,
      "Ġpages": 5149,
      "ocado": 5150,
      "Ġconsistent": 5151,
      "ibilities": 5152,
      "Ġmit": 5153,
      "Ġwet": 5154,
      "Ġwicked": 5155,
      "Ġoutcomes": 5156,
      "Ġsacrif": 5157,
      "ĠMus": 5158,
      "Ġboost": 5159,
      "jo": 5160,
      "ĠHealth": 5161,
      "Ġcovered": 5162,
      "with": 5163,
      "Ġorganic": 5164,
      "Ġmut": 5165,
      "Ġonions": 5166,
      "Ġcrack": 5167,
      "ĠIndian": 5168,
      "Ġinformed": 5169,
      "ystem": 5170,
      "Ġshr": 5171,
      "oli": 5172,
      "Ġdan": 5173,
      "Ġkeeps": 5174,
      "Ġsund": 5175,
      "Ġclient": 5176,
      "akers": 5177,
      "Ġdatab": 5178,
      "Ġcharming": 5179,
      "Ġdun": 5180,
      "Ġmenu": 5181,
      "Ġfriendly": 5182,
      "Ġsplendid": 5183,
      "Ġhomemade": 5184,
      "Ġdiced": 5185,
      "Ġolder": 5186,
      "iece": 5187,
      "Ġmistaken": 5188,
      "Ġrank": 5189,
      "Ġsnack": 5190,
      "Ġbeliefs": 5191,
      "dle": 5192,
      "Ġcreates": 5193,
      "aped": 5194,
      "alley": 5195,
      "Ġpayment": 5196,
      "Ġreviews": 5197,
      "Ġhomes": 5198,
      "father": 5199,
      "Ġdried": 5200,
      "Ġdistinct": 5201,
      "ĠSec": 5202,
      "Ġintelligence": 5203,
      "lines": 5204,
      "zzle": 5205,
      "inkle": 5206,
      "tw": 5207,
      "Ġmessages": 5208,
      "Ġfunding": 5209,
      "Ġformer": 5210,
      "Ġintend": 5211,
      "Ġhole": 5212,
      "Ġscheme": 5213,
      "Ġsummarize": 5214,
      "Ġflower": 5215,
      "Ġtang": 5216,
      "Ġscul": 5217,
      "aters": 5218,
      "iments": 5219,
      "Ġfestival": 5220,
      "Ġlake": 5221,
      "Ġbother": 5222,
      "Ġdelivery": 5223,
      "inations": 5224,
      "Ġexchange": 5225,
      "ĠGod": 5226,
      "Ġjoe": 5227,
      "Ġaccommod": 5228,
      "Ġinterface": 5229,
      "urally": 5230,
      "Ġmush": 5231,
      "Ġdra": 5232,
      "Ġreligion": 5233,
      "ython": 5234,
      "Ġquant": 5235,
      "Ġcapable": 5236,
      "Ġstruck": 5237,
      "Ġcrust": 5238,
      "Ġhearts": 5239,
      "ĠDuring": 5240,
      "Ġconnected": 5241,
      "Ġmadem": 5242,
      "Ġfetch": 5243,
      "Ġchannels": 5244,
      "Ġimpressive": 5245,
      "ancy": 5246,
      "ĠEl": 5247,
      "wr": 5248,
      "Ġeducational": 5249,
      "mal": 5250,
      "Ġcompare": 5251,
      "yes": 5252,
      "Ġreser": 5253,
      "Ġaside": 5254,
      "Ġsculpt": 5255,
      "Ġrely": 5256,
      "Ġstood": 5257,
      "Ġwrit": 5258,
      "Ġofficer": 5259,
      "Ġcleaning": 5260,
      "Ġlegs": 5261,
      "Ġcontract": 5262,
      "Ġgoodness": 5263,
      "Ġlayer": 5264,
      "Ġtotal": 5265,
      "Ġgrass": 5266,
      "poons": 5267,
      "stood": 5268,
      "Ġtransfer": 5269,
      "Ġmademoiselle": 5270,
      "anish": 5271,
      "roll": 5272,
      "elf": 5273,
      "Ġlessons": 5274,
      "Ġphilos": 5275,
      "Ġdogs": 5276,
      "going": 5277,
      "acious": 5278,
      "Ġdetermined": 5279,
      "Ġreports": 5280,
      "Ġ100": 5281,
      "Ġweap": 5282,
      "Ġembr": 5283,
      "Ġprioritize": 5284,
      "agn": 5285,
      "ĠSpe": 5286,
      "Ġpad": 5287,
      "Ġcontr": 5288,
      "Ġplaced": 5289,
      "Ġnine": 5290,
      "Ġupdates": 5291,
      "15": 5292,
      "Ġclar": 5293,
      "Ġpra": 5294,
      "Ġtopic": 5295,
      "Ġcert": 5296,
      "Ġcommer": 5297,
      "Ġnur": 5298,
      "Ġsmoke": 5299,
      "Ġpocket": 5300,
      "Ġanalytics": 5301,
      "ĠChina": 5302,
      "Ġincome": 5303,
      "Ġmile": 5304,
      "tenance": 5305,
      "Ġtalked": 5306,
      "Ġrand": 5307,
      "Ġlucky": 5308,
      "mn": 5309,
      "aled": 5310,
      "ppings": 5311,
      "iture": 5312,
      "Ġpump": 5313,
      "Ġsettle": 5314,
      "Ġcabin": 5315,
      "Ġexcite": 5316,
      "Ġvinegar": 5317,
      "Ġaint": 5318,
      "Ġaccomp": 5319,
      "Ġroyal": 5320,
      "umption": 5321,
      "Ġinspiration": 5322,
      "Ġrust": 5323,
      "Ġsuggests": 5324,
      "arily": 5325,
      "rig": 5326,
      "mm": 5327,
      "Ġtalent": 5328,
      "stone": 5329,
      "cling": 5330,
      "Ġcomputer": 5331,
      "Ġjest": 5332,
      "Ġease": 5333,
      "Ġsurrounding": 5334,
      "Ġshoes": 5335,
      "Ġloyalty": 5336,
      "ĠColl": 5337,
      "ĠLook": 5338,
      "Ġdesert": 5339,
      "Ġpi": 5340,
      "Ġdiam": 5341,
      "Ġdust": 5342,
      "Ġpod": 5343,
      "Ġflat": 5344,
      "Ġworthy": 5345,
      "Ġsomehow": 5346,
      "Ġtwelve": 5347,
      "isms": 5348,
      "Ġliked": 5349,
      "Ġdepends": 5350,
      "Ġbringing": 5351,
      "stairs": 5352,
      "Ġmotivated": 5353,
      "Ġsuppl": 5354,
      "bell": 5355,
      "Ġsettled": 5356,
      "Ġservant": 5357,
      "Ġtension": 5358,
      "Ġheritage": 5359,
      "Ġposts": 5360,
      "Ġpaul": 5361,
      "Ġparticipate": 5362,
      "aks": 5363,
      "Ġyoga": 5364,
      "Ġder": 5365,
      "aret": 5366,
      "Ġclimb": 5367,
      "Ġrealized": 5368,
      "Ġmoist": 5369,
      "ĠPract": 5370,
      "ĠEar": 5371,
      "Ġcells": 5372,
      "Ġinstant": 5373,
      "Ġfavour": 5374,
      "ream": 5375,
      "ĠWill": 5376,
      "ĠMarketing": 5377,
      "Ġsour": 5378,
      "tle": 5379,
      "ashed": 5380,
      "Ġinnovation": 5381,
      "Ġlets": 5382,
      "Ġstup": 5383,
      "icip": 5384,
      "ained": 5385,
      "oom": 5386,
      "ails": 5387,
      "Ġbranch": 5388,
      "Ġsteam": 5389,
      "Ġincent": 5390,
      "Ġstands": 5391,
      "Ġexpertise": 5392,
      "Ġshes": 5393,
      "Ġbutton": 5394,
      "Ġskillet": 5395,
      "Ġchristian": 5396,
      "Ġseeking": 5397,
      "odies": 5398,
      "Ġwaves": 5399,
      "Ġgran": 5400,
      "Ġsettings": 5401,
      "Ġfare": 5402,
      "ĠTechn": 5403,
      "che": 5404,
      "Ġshopping": 5405,
      "Ġsessions": 5406,
      "Ġmyster": 5407,
      "mark": 5408,
      "Ġ17": 5409,
      "reg": 5410,
      "ĠIntern": 5411,
      "Ġshock": 5412,
      "Ġcontemporary": 5413,
      "esus": 5414,
      "Ġmedicine": 5415,
      "Ġhappens": 5416,
      "Ġfra": 5417,
      "Ġforth": 5418,
      "Ġgluten": 5419,
      "Ġapple": 5420,
      "assion": 5421,
      "Ġdistract": 5422,
      "asty": 5423,
      "ĠGe": 5424,
      "asters": 5425,
      "Ġtsp": 5426,
      "Ġserves": 5427,
      "Ġputting": 5428,
      "iot": 5429,
      "Ġintended": 5430,
      "Ġbreathing": 5431,
      "eared": 5432,
      "Ġ/": 5433,
      "ĠEast": 5434,
      "ĠDesign": 5435,
      "Ġnotable": 5436,
      "Ġbasic": 5437,
      "Ġworkers": 5438,
      "ishing": 5439,
      "Ġoccup": 5440,
      "Ġwondering": 5441,
      "Ġcock": 5442,
      "Ġbask": 5443,
      "cho": 5444,
      "ctors": 5445,
      "Ġgal": 5446,
      "Ġchair": 5447,
      "ait": 5448,
      "Ġvoc": 5449,
      "anged": 5450,
      "making": 5451,
      "Ġfant": 5452,
      "Ġdeeply": 5453,
      "Ġdiss": 5454,
      "Ġgate": 5455,
      "Ġbreaks": 5456,
      "Ġdepart": 5457,
      "Ġprices": 5458,
      "Ġplanet": 5459,
      "low": 5460,
      "ago": 5461,
      "ĠCommun": 5462,
      "Ġmanaging": 5463,
      "Ġbuck": 5464,
      "aborate": 5465,
      "Ġstandard": 5466,
      "vous": 5467,
      "Ġinspire": 5468,
      "Ġdifficulty": 5469,
      "ĠSE": 5470,
      "Ġmonitor": 5471,
      "Ġfont": 5472,
      "acle": 5473,
      "Ġrare": 5474,
      "ĠChinese": 5475,
      "ĠIncorpor": 5476,
      "Ġnutri": 5477,
      "isco": 5478,
      "oses": 5479,
      "Ġestablished": 5480,
      "ube": 5481,
      "heat": 5482,
      "Ġwis": 5483,
      "Ġcreamy": 5484,
      "Ġperspective": 5485,
      "Ġunfortun": 5486,
      "Ġearlier": 5487,
      "Ġtroubles": 5488,
      "Ġcontributed": 5489,
      "rets": 5490,
      "Ġfortun": 5491,
      "Ġseparate": 5492,
      "Ġcitiz": 5493,
      "Ġrepl": 5494,
      "],": 5495,
      "oard": 5496,
      "Ġaffairs": 5497,
      "ĠGenerate": 5498,
      "olic": 5499,
      "\".": 5500,
      "Ġfranc": 5501,
      "Ġasleep": 5502,
      "iliar": 5503,
      "osh": 5504,
      "Ġstake": 5505,
      "Ġsyn": 5506,
      "Ġreturns": 5507,
      "Ġcas": 5508,
      "://": 5509,
      "Ġreturned": 5510,
      "ox": 5511,
      "Ġspirits": 5512,
      "Ġmuseum": 5513,
      "Ġashamed": 5514,
      "char": 5515,
      "Ġprincess": 5516,
      "Ġhandsome": 5517,
      "Ġcart": 5518,
      "Ġrap": 5519,
      "Ġmarch": 5520,
      "Ġtreasure": 5521,
      "iance": 5522,
      "Ġgrave": 5523,
      "Ġstretch": 5524,
      "Ġlying": 5525,
      "Ġinstrument": 5526,
      "Ġsufficient": 5527,
      "Ġmanaged": 5528,
      "Ġpitch": 5529,
      "Ġtact": 5530,
      "ĠCom": 5531,
      "Ġbought": 5532,
      "Ġpursu": 5533,
      "Ġmyth": 5534,
      "rees": 5535,
      "itable": 5536,
      "Ġpredict": 5537,
      "pen": 5538,
      "Ġsoldier": 5539,
      "Ġwished": 5540,
      "Ġmath": 5541,
      "Ġdifferences": 5542,
      "Ġcombine": 5543,
      "Ġreputation": 5544,
      "Ġheight": 5545,
      "Ġcommonly": 5546,
      "Ġenemies": 5547,
      "Ġtutor": 5548,
      "ĠDep": 5549,
      "Ġcheer": 5550,
      "Ġrat": 5551,
      "ĠEd": 5552,
      "Ġfaster": 5553,
      "Ġcalling": 5554,
      "Ġterm": 5555,
      "mother": 5556,
      "ĠExpl": 5557,
      "Ġvision": 5558,
      "ĠAvoid": 5559,
      "Ġawfully": 5560,
      "ishment": 5561,
      "Ġpopulation": 5562,
      "Ġpride": 5563,
      "lie": 5564,
      "ER": 5565,
      "Ġincredible": 5566,
      "Ġteaching": 5567,
      "Ġcancer": 5568,
      "Ġlegal": 5569,
      "azz": 5570,
      "Ġdecide": 5571,
      "rey": 5572,
      "Ġbridge": 5573,
      "Ġhearing": 5574,
      "Ġinnocent": 5575,
      "duc": 5576,
      "Ġvast": 5577,
      "Ġcrazy": 5578,
      "Ġhabits": 5579,
      "Ġopened": 5580,
      "urd": 5581,
      "Ġbottle": 5582,
      "Ġtoward": 5583,
      "Ġspicy": 5584,
      "Ġwake": 5585,
      "Ġreliable": 5586,
      "Ġlargest": 5587,
      "Ġkids": 5588,
      "Ġcards": 5589,
      "rive": 5590,
      "Ġprinciples": 5591,
      "osity": 5592,
      "ache": 5593,
      "hew": 5594,
      "ception": 5595,
      "Ġusual": 5596,
      "Ġurban": 5597,
      "Ġox": 5598,
      "atively": 5599,
      "Ġ14": 5600,
      "Ġtor": 5601,
      "Ġfabric": 5602,
      "Ġmusical": 5603,
      "Ġsenor": 5604,
      "Ġdrag": 5605,
      "Ġbegg": 5606,
      "Ġstraw": 5607,
      "vice": 5608,
      "Ġscent": 5609,
      "gent": 5610,
      "Ġintense": 5611,
      "ĠĠĠĠĠĠĠĠ": 5612,
      "org": 5613,
      "Ġfreedom": 5614,
      "Ġdearest": 5615,
      "Ġcontinues": 5616,
      "Ġturns": 5617,
      "Ġtrial": 5618,
      "Ġhavent": 5619,
      "Ġpattern": 5620,
      "Ġinh": 5621,
      "ĠPlace": 5622,
      "Ġears": 5623,
      "Ġhospital": 5624,
      "Ġkick": 5625,
      "Ġspaces": 5626,
      "Ġimprovement": 5627,
      "Ġstupid": 5628,
      "Ġtort": 5629,
      "Ġrealize": 5630,
      "Ġreplace": 5631,
      "ront": 5632,
      "ded": 5633,
      "Ġassign": 5634,
      "Ġicon": 5635,
      "Ġworkout": 5636,
      "Ġroot": 5637,
      "Ġlaid": 5638,
      "Ġlesson": 5639,
      "Ġprecious": 5640,
      "Ġsupporting": 5641,
      "Ġforb": 5642,
      "comm": 5643,
      "Ġregarding": 5644,
      "Ġsport": 5645,
      "aj": 5646,
      "Ġfrightened": 5647,
      "phone": 5648,
      "Ġattempt": 5649,
      "Ġdispos": 5650,
      "Ġtow": 5651,
      "Ġusage": 5652,
      "Ġforty": 5653,
      "Ġconsent": 5654,
      "Ġalgorithms": 5655,
      "Ġleader": 5656,
      "Ġfiles": 5657,
      "Ġlights": 5658,
      "Ġdisappoint": 5659,
      "Ġyogurt": 5660,
      "ĠTrans": 5661,
      "ĠJust": 5662,
      "12": 5663,
      "Ġroof": 5664,
      "Ġshowed": 5665,
      "Ġves": 5666,
      "law": 5667,
      "Ġgreatly": 5668,
      "Ġrepeat": 5669,
      "berry": 5670,
      "Ġemployee": 5671,
      "Ġmetaph": 5672,
      "Ġdying": 5673,
      "Ġenjoyed": 5674,
      "rated": 5675,
      "amm": 5676,
      "Ġexisting": 5677,
      "Ġvibrant": 5678,
      "Ġstructures": 5679,
      "Ġdialogue": 5680,
      "ushing": 5681,
      "Ġthoroughly": 5682,
      "Ġfulf": 5683,
      "Ġconvers": 5684,
      "Ġuniverse": 5685,
      "rup": 5686,
      "Ġnaturally": 5687,
      "chief": 5688,
      "Ġrecognize": 5689,
      "ĠEnglish": 5690,
      "Ġ25": 5691,
      "Ġchili": 5692,
      "Ġpil": 5693,
      "ĠJapanese": 5694,
      "Ġpor": 5695,
      "Ġheads": 5696,
      "cknow": 5697,
      "ĠInstagram": 5698,
      "Ġhunting": 5699,
      "atural": 5700,
      "sty": 5701,
      "Ġscarcely": 5702,
      "Ġpricing": 5703,
      "Ġcentral": 5704,
      "Ġvulner": 5705,
      "Ġseat": 5706,
      "Ġjewel": 5707,
      "ĠFrom": 5708,
      "Ġlod": 5709,
      "Ġappears": 5710,
      "Ġholding": 5711,
      "resp": 5712,
      "Ġachieving": 5713,
      "Ġstew": 5714,
      "Ġmaintenance": 5715,
      "Ġforced": 5716,
      "Ġresilience": 5717,
      "ĠGiven": 5718,
      "Ġheavens": 5719,
      "Ġcandid": 5720,
      "Ġcopy": 5721,
      "Ġreduced": 5722,
      "Ġstopped": 5723,
      "Ġmarkets": 5724,
      "Ġdim": 5725,
      "Ġpublished": 5726,
      "Ġaccurate": 5727,
      "col": 5728,
      "Ġleadership": 5729,
      "Ġcurrently": 5730,
      "Ġguil": 5731,
      "elt": 5732,
      "itoring": 5733,
      "ashing": 5734,
      "ĠHar": 5735,
      "Ġtomato": 5736,
      "Ġcombined": 5737,
      "itz": 5738,
      "ĠJack": 5739,
      "Ġdrawing": 5740,
      "Ġhouses": 5741,
      "Ġmetrics": 5742,
      "omas": 5743,
      "Ġunderstood": 5744,
      "Ġreached": 5745,
      "atin": 5746,
      "Ġfacts": 5747,
      "Ġdoesn": 5748,
      "ĠYork": 5749,
      "izza": 5750,
      "Ġsole": 5751,
      "Ġresolution": 5752,
      "isters": 5753,
      "person": 5754,
      "Ġnumerous": 5755,
      "Ġguided": 5756,
      "Ġimplementation": 5757,
      "Ġsheet": 5758,
      "ĠAfrican": 5759,
      "Ġhenry": 5760,
      "ĠMore": 5761,
      "olving": 5762,
      "apes": 5763,
      "Ġhighest": 5764,
      "cil": 5765,
      "whel": 5766,
      "Ġarrived": 5767,
      "inoa": 5768,
      "ero": 5769,
      "igen": 5770,
      "Ġhighlights": 5771,
      "Ġtoppings": 5772,
      ".,": 5773,
      "Ġvit": 5774,
      "Ġadap": 5775,
      "da": 5776,
      "heart": 5777,
      "uate": 5778,
      "Ġdoesnt": 5779,
      "Ġaccounts": 5780,
      "iation": 5781,
      "Ġargument": 5782,
      "Ġknife": 5783,
      "Ġhandling": 5784,
      "vin": 5785,
      "Ġnose": 5786,
      "Ġenable": 5787,
      "craft": 5788,
      "num": 5789,
      "Ġsuspense": 5790,
      "Ġarticles": 5791,
      "arrow": 5792,
      "namon": 5793,
      "Ġdatabase": 5794,
      "world": 5795,
      "Ġchem": 5796,
      "Ġagriculture": 5797,
      "Ġyo": 5798,
      "Ġteacher": 5799,
      "Ġdor": 5800,
      "Ġowe": 5801,
      "Ġdiseases": 5802,
      "Ġrepresents": 5803,
      "weet": 5804,
      "iors": 5805,
      "Ġdelay": 5806,
      "Ġincl": 5807,
      "ien": 5808,
      "Ġbreast": 5809,
      "Ġexcitement": 5810,
      "Ġguilty": 5811,
      "ĠCenter": 5812,
      "ĠMuse": 5813,
      "Ġliqu": 5814,
      "reed": 5815,
      "Ġexpenses": 5816,
      "Ġours": 5817,
      "Ġfolk": 5818,
      "Ġsupposed": 5819,
      "Ġsizes": 5820,
      "grad": 5821,
      "ĠGood": 5822,
      "Ġinstruction": 5823,
      "ker": 5824,
      "Ġconqu": 5825,
      "Ġfilter": 5826,
      "Ġchances": 5827,
      "Ġresulting": 5828,
      "Ġoverwhel": 5829,
      "cons": 5830,
      "Ġloose": 5831,
      "Ġcounsel": 5832,
      "ĠSte": 5833,
      "uting": 5834,
      "ĠState": 5835,
      "vis": 5836,
      "Ġregret": 5837,
      "asy": 5838,
      "Ġchips": 5839,
      "Ġchosen": 5840,
      "uilding": 5841,
      "Ġbay": 5842,
      "Ġpassing": 5843,
      "Ġpackaging": 5844,
      "Ġselection": 5845,
      "ĠCustom": 5846,
      "mented": 5847,
      "ĠAnaly": 5848,
      "elines": 5849,
      "Ġfuel": 5850,
      "Ġcogn": 5851,
      "Ġfaces": 5852,
      "Ġfinally": 5853,
      "udd": 5854,
      "Ġsorrow": 5855,
      "amin": 5856,
      "Ġavocado": 5857,
      "olve": 5858,
      "Ġfinds": 5859,
      "Ġsequ": 5860,
      "Ġfurniture": 5861,
      "Ġcouldnt": 5862,
      "Ġwhenever": 5863,
      "Ġruns": 5864,
      "Ġalmond": 5865,
      "Ġprisoner": 5866,
      "yer": 5867,
      "Ġfestiv": 5868,
      "Ġseasoning": 5869,
      "ĠAc": 5870,
      "Ġsignificantly": 5871,
      "Ġhumor": 5872,
      "Ġexcl": 5873,
      "Ġsoph": 5874,
      "Ġprecise": 5875,
      "Ġslowly": 5876,
      "Ġspending": 5877,
      "Ġshapes": 5878,
      "asp": 5879,
      "Ġconsumption": 5880,
      "Ġdemonstrate": 5881,
      "ĠSal": 5882,
      "Ġcrew": 5883,
      "Ġtend": 5884,
      "Ġrecover": 5885,
      "ĠSam": 5886,
      "ensity": 5887,
      "Ġresearchers": 5888,
      "Ġ13": 5889,
      "Ġpatience": 5890,
      "Ġmetal": 5891,
      "Ġtablespoons": 5892,
      "hes": 5893,
      "ĠCr": 5894,
      "Ġrocks": 5895,
      "Ġliberty": 5896,
      "Ġproduced": 5897,
      "Ġerrors": 5898,
      "Ġvessel": 5899,
      "Ġrush": 5900,
      "ĠGerman": 5901,
      "Ġdelicate": 5902,
      "case": 5903,
      "Ġorganized": 5904,
      "Ġsilence": 5905,
      "Ġconservation": 5906,
      "Ġlately": 5907,
      "erse": 5908,
      "Ġturning": 5909,
      "Ġpink": 5910,
      "Ġauthority": 5911,
      "ĠRemove": 5912,
      "Ġwashing": 5913,
      "hus": 5914,
      "Ġconfident": 5915,
      "Ġsees": 5916,
      "Ġinteger": 5917,
      "Ġjudgment": 5918,
      "Ġblank": 5919,
      "ĠFirst": 5920,
      "ĠAustral": 5921,
      "Ġends": 5922,
      "Ġcovers": 5923,
      "Ġowners": 5924,
      "Ġacquaint": 5925,
      "Ġkingdom": 5926,
      "Ġrecognition": 5927,
      "ĠMex": 5928,
      "ships": 5929,
      "Ġunto": 5930,
      "ĠOpt": 5931,
      "Ġcompar": 5932,
      "Ġillness": 5933,
      "Ġdedicated": 5934,
      "Ġresource": 5935,
      "Ġcrown": 5936,
      "Ġstatus": 5937,
      "oul": 5938,
      "ĠMich": 5939,
      "Ġaverage": 5940,
      "Ġfred": 5941,
      "Ġdegree": 5942,
      "cr": 5943,
      "Ġbond": 5944,
      "Ġestate": 5945,
      "Ġunhappy": 5946,
      "Ġacknow": 5947,
      "Ġcommitment": 5948,
      "Ġdevot": 5949,
      "ttps": 5950,
      "eem": 5951,
      "Ġrules": 5952,
      "cause": 5953,
      "ipp": 5954,
      "Ġmanufacturing": 5955,
      "Ġperformances": 5956,
      "Ġblessed": 5957,
      "Ġrelaxation": 5958,
      "Ġneighborhood": 5959,
      "Ġadmin": 5960,
      "Ġsentence": 5961,
      "Ġindic": 5962,
      "Ġhash": 5963,
      "Ġloop": 5964,
      "Ġnest": 5965,
      "pan": 5966,
      "ĠEduc": 5967,
      "Ġsandwich": 5968,
      "ĠAmerica": 5969,
      "Ġminced": 5970,
      "Ġdozen": 5971,
      "Ġtheory": 5972,
      "Ġaffects": 5973,
      "))": 5974,
      "Ġyield": 5975,
      "eding": 5976,
      "SS": 5977,
      "cles": 5978,
      "five": 5979,
      "Ġjobs": 5980,
      "Ġfollowers": 5981,
      "Ġsacrifice": 5982,
      "Ġconstantly": 5983,
      "Ġholiday": 5984,
      "Ġflavorful": 5985,
      "ingers": 5986,
      "Ġbroke": 5987,
      "Ġfishing": 5988,
      "Ġrevolution": 5989,
      "NA": 5990,
      "enger": 5991,
      "ulous": 5992,
      "Ġpropose": 5993,
      "Ġbreaking": 5994,
      "Ġpig": 5995,
      "Ġromantic": 5996,
      "ĠDay": 5997,
      "Ġcod": 5998,
      "Ġopening": 5999,
      "ĠAir": 6000,
      "Ġangel": 6001,
      "Ġkin": 6002,
      "Ġjames": 6003,
      "verty": 6004,
      "Ġnurse": 6005,
      "sole": 6006,
      "Ġcars": 6007,
      "Ġsector": 6008,
      "Ġcash": 6009,
      "edy": 6010,
      "ĠSpr": 6011,
      "Ġcharity": 6012,
      "ault": 6013,
      "ĠMin": 6014,
      "Ġliterary": 6015,
      "Ġjane": 6016,
      "tr": 6017,
      "Ġcateg": 6018,
      "Ġpodcast": 6019,
      "Ġengineering": 6020,
      "Ġdarkness": 6021,
      "Ġsimpl": 6022,
      "cue": 6023,
      "Ġtun": 6024,
      "iate": 6025,
      "ĠCount": 6026,
      "keep": 6027,
      "anging": 6028,
      "Ġsurvive": 6029,
      "Ġdisp": 6030,
      "Ġcolorful": 6031,
      "eries": 6032,
      "Ġprocessing": 6033,
      "Ġtower": 6034,
      "hen": 6035,
      "Ġparties": 6036,
      "Ġguest": 6037,
      "Ġpercent": 6038,
      "Ġlime": 6039,
      "ĠCut": 6040,
      "Ġcher": 6041,
      "Ġwilliam": 6042,
      "Ġevident": 6043,
      "Ġmitig": 6044,
      "Ġpoverty": 6045,
      "Ġaye": 6046,
      "Ġcontainer": 6047,
      "Ġdessert": 6048,
      "cipl": 6049,
      "Ġpackage": 6050,
      "mond": 6051,
      "Ġscenes": 6052,
      "Ġ500": 6053,
      "Ġeld": 6054,
      "Ġfrequently": 6055,
      "Ġsympt": 6056,
      "Ġprofessor": 6057,
      "rance": 6058,
      "Ġpracticing": 6059,
      "Ġfixed": 6060,
      "Ġpersonality": 6061,
      "Ġexcess": 6062,
      "Ġbitter": 6063,
      "Ġble": 6064,
      "ĠLoc": 6065,
      "ĠAlex": 6066,
      "Ġadvoc": 6067,
      "Ġginger": 6068,
      "Ġscore": 6069,
      "Ġbadly": 6070,
      "Ġlanguages": 6071,
      "atures": 6072,
      "Ġfold": 6073,
      "Ġgrew": 6074,
      "Ġfactor": 6075,
      "aze": 6076,
      "Ġstruggling": 6077,
      "Ġcutting": 6078,
      "Ġwings": 6079,
      "ĠAPI": 6080,
      "Ġinner": 6081,
      "mber": 6082,
      "ĠEncour": 6083,
      "spe": 6084,
      "Ġune": 6085,
      "Ġbetray": 6086,
      "Ġcarrots": 6087,
      "Ġflu": 6088,
      "Ġservants": 6089,
      "Ġstreets": 6090,
      "Ġmoved": 6091,
      "umes": 6092,
      "Ġproceed": 6093,
      "Ġcarriage": 6094,
      "ugust": 6095,
      "ĠInstead": 6096,
      "Ġmiserable": 6097,
      "Ġamerica": 6098,
      "uk": 6099,
      "Ġcham": 6100,
      "arts": 6101,
      "Ġjar": 6102,
      "Ġvisiting": 6103,
      "eline": 6104,
      "orious": 6105,
      "Ġfocusing": 6106,
      "Ġathlet": 6107,
      "Ġfamiliar": 6108,
      "Ġarts": 6109,
      "Ġclearly": 6110,
      "Ġparticipants": 6111,
      "Ġobey": 6112,
      "Ġreson": 6113,
      "Ġafterwards": 6114,
      "most": 6115,
      "Ġlone": 6116,
      "Ġforces": 6117,
      "Ġswitch": 6118,
      "osure": 6119,
      "Ġgray": 6120,
      "emy": 6121,
      "',": 6122,
      "Ġbite": 6123,
      "ads": 6124,
      "Ġtrib": 6125,
      "Ġinsult": 6126,
      "Ġsteel": 6127,
      "Ġindian": 6128,
      "Ġlon": 6129,
      "Ġtemple": 6130,
      "Ġresistance": 6131,
      "Ġconcerned": 6132,
      "25": 6133,
      "Ġlaws": 6134,
      "Ġupcoming": 6135,
      "Ġcouldn": 6136,
      "ainted": 6137,
      "Ġraised": 6138,
      "ĠLa": 6139,
      "AR": 6140,
      "Ġchristmas": 6141,
      "Ġles": 6142,
      "box": 6143,
      "Ġcoward": 6144,
      "Ġseaf": 6145,
      "Ġfigures": 6146,
      "Ġelaborate": 6147,
      "Ġfacing": 6148,
      "Ġdespite": 6149,
      "Ġshadow": 6150,
      "Ġprogramming": 6151,
      "ĠBlack": 6152,
      "Ġmonitoring": 6153,
      "à¤": 6154,
      "Ġspeaker": 6155,
      "Ġlifesty": 6156,
      "Ġresponsibility": 6157,
      "Ġworkshops": 6158,
      "Ġnewsp": 6159,
      "telling": 6160,
      "Ġpand": 6161,
      "ĠIts": 6162,
      "Ġshake": 6163,
      "Ġ50": 6164,
      "chant": 6165,
      "Ġfunctions": 6166,
      "Ġbike": 6167,
      "Ġsolid": 6168,
      "Ġenvironments": 6169,
      "Ġyounger": 6170,
      "Ġsecrets": 6171,
      "Ġcookies": 6172,
      "Ġfestivals": 6173,
      "Ġdebt": 6174,
      "ĠMind": 6175,
      "Ġduke": 6176,
      "Ġmont": 6177,
      "Ġongoing": 6178,
      "Ġshowing": 6179,
      "Ġinstruments": 6180,
      "arters": 6181,
      "Ġtours": 6182,
      "ĠProgram": 6183,
      "Ġbree": 6184,
      "Ġteachers": 6185,
      "Ġconflicts": 6186,
      "ĠMuseum": 6187,
      "backs": 6188,
      "iforn": 6189,
      "Ġcannot": 6190,
      "Ġgrandfather": 6191,
      "Ġpeaceful": 6192,
      "Ġell": 6193,
      "Ġmixing": 6194,
      "ĠFur": 6195,
      "power": 6196,
      "oured": 6197,
      "Ġads": 6198,
      "ĠGreen": 6199,
      "Ġmotor": 6200,
      "Ġundert": 6201,
      "sers": 6202,
      "Ġcultiv": 6203,
      "Ġhello": 6204,
      "Ġjul": 6205,
      "ĠAns": 6206,
      "fle": 6207,
      "abel": 6208,
      "Your": 6209,
      "Ġheavily": 6210,
      "Ġextensive": 6211,
      "Ġlocations": 6212,
      "ingu": 6213,
      "Ġalarm": 6214,
      "Ġtourism": 6215,
      "Ġmemorable": 6216,
      "Ġcler": 6217,
      "Ġharsh": 6218,
      "Ġdiscovery": 6219,
      "ĠChar": 6220,
      "Ġpermit": 6221,
      "ĠBritish": 6222,
      "Ġcalculate": 6223,
      "ĠDef": 6224,
      "Ġfiber": 6225,
      "Ġcamera": 6226,
      "Ġpour": 6227,
      "Ġbeer": 6228,
      "ĠĠĠĠĠ": 6229,
      "cel": 6230,
      "hol": 6231,
      "nel": 6232,
      "aid": 6233,
      "Ġintroduced": 6234,
      "Ġgeneration": 6235,
      "Ġseam": 6236,
      "inent": 6237,
      "Ġmans": 6238,
      "Ġremaining": 6239,
      "Ġze": 6240,
      "name": 6241,
      "Ġwriter": 6242,
      "Ġofficers": 6243,
      "ulated": 6244,
      "Ġdecre": 6245,
      "ively": 6246,
      "Ġreact": 6247,
      "Ġaims": 6248,
      "Ġrhyth": 6249,
      "Ġstudying": 6250,
      "Ġexplores": 6251,
      "Ġvanilla": 6252,
      "Ġcrispy": 6253,
      "Ġexpectations": 6254,
      "Ġsire": 6255,
      "Ġcoo": 6256,
      "Ġmagical": 6257,
      "Ġcognitive": 6258,
      "prene": 6259,
      "lessly": 6260,
      "Ġdepression": 6261,
      "Ġtreated": 6262,
      "rier": 6263,
      "Ġdining": 6264,
      "ĠTV": 6265,
      "Ġmild": 6266,
      "Ġhumans": 6267,
      "Ġpresentation": 6268,
      "Ġthousands": 6269,
      "Ġworship": 6270,
      "rypt": 6271,
      "Ġclosely": 6272,
      "Ġreported": 6273,
      "Ġmushrooms": 6274,
      "Ġbasil": 6275,
      "ĠCle": 6276,
      "Ġjoke": 6277,
      "Ġsites": 6278,
      "Ġresidents": 6279,
      "car": 6280,
      "Ġyoud": 6281,
      "ifts": 6282,
      "reprene": 6283,
      "Ġorange": 6284,
      "Ġcinnamon": 6285,
      "Ġvehicles": 6286,
      "Ġcounter": 6287,
      "oft": 6288,
      "azon": 6289,
      "Ġhint": 6290,
      "Ġhills": 6291,
      "Ġsymptoms": 6292,
      "Ġpizza": 6293,
      "pret": 6294,
      "Ġcapacity": 6295,
      "Ġattemp": 6296,
      "ĠSy": 6297,
      "Ġrichard": 6298,
      "Ġgoodnight": 6299,
      "Ġprospect": 6300,
      "Ġupper": 6301,
      "Ġnothin": 6302,
      "Ġauthentic": 6303,
      "Ġalas": 6304,
      "Ġprimary": 6305,
      "Ġdepartment": 6306,
      "emb": 6307,
      "Ġrein": 6308,
      "Ġvegg": 6309,
      "Ġgently": 6310,
      "ensions": 6311,
      "reshing": 6312,
      "Ġdrinks": 6313,
      "ĠEarth": 6314,
      "nie": 6315,
      "eness": 6316,
      "Ġwisdom": 6317,
      "Ġfeaturing": 6318,
      "usiness": 6319,
      "orders": 6320,
      "Ġconnections": 6321,
      "ĠAct": 6322,
      "Ġruss": 6323,
      "Ġtie": 6324,
      "Ġpotato": 6325,
      "Ġfed": 6326,
      "ection": 6327,
      "Ġsne": 6328,
      "Ġshift": 6329,
      "ĠGet": 6330,
      "Ġcub": 6331,
      "Ġavailability": 6332,
      "Ġsunday": 6333,
      "Ġchoosing": 6334,
      "ĠPres": 6335,
      "Ġpine": 6336,
      "ĠWater": 6337,
      "ĠPractice": 6338,
      "Ġcrimin": 6339,
      "Ġmissed": 6340,
      "Ġfem": 6341,
      "Ġdeclare": 6342,
      "Ġrum": 6343,
      "Ġinteractions": 6344,
      "Ġphotograph": 6345,
      "Ġcompetitive": 6346,
      "ĠPlan": 6347,
      "Ġdestination": 6348,
      "ĠPerson": 6349,
      "Ġsevere": 6350,
      "ĠAnswer": 6351,
      "Ġfallen": 6352,
      "riger": 6353,
      "bsp": 6354,
      "Ġnative": 6355,
      "ĠFurther": 6356,
      "Ġcontributions": 6357,
      "Ġfoster": 6358,
      "Ġknight": 6359,
      "ĠOther": 6360,
      "Ġholds": 6361,
      "Ġexperts": 6362,
      "ading": 6363,
      "ĠEgypt": 6364,
      "eath": 6365,
      "Ġhousehold": 6366,
      "Ġgy": 6367,
      "Ġisol": 6368,
      "ĠTest": 6369,
      "aration": 6370,
      "thur": 6371,
      "Ġsmile": 6372,
      "Ġsending": 6373,
      "Ġweakness": 6374,
      "Ġenab": 6375,
      "gain": 6376,
      "Ġfalling": 6377,
      "ĠRiver": 6378,
      "ĠUlt": 6379,
      "Ġchamp": 6380,
      "Ġrecovery": 6381,
      "Ġdynamic": 6382,
      "Ġjolly": 6383,
      "Ġbul": 6384,
      "edge": 6385,
      "ocus": 6386,
      "Ġignor": 6387,
      "Ġtale": 6388,
      "husi": 6389,
      "eph": 6390,
      "Ġcritic": 6391,
      "Ġpalace": 6392,
      "Ġfears": 6393,
      "Ġcoord": 6394,
      "standing": 6395,
      "lock": 6396,
      "Ġseconds": 6397,
      "ĠExam": 6398,
      "ifornia": 6399,
      "Ġflood": 6400,
      "ĠHouse": 6401,
      "Ġfailed": 6402,
      "Ġcurse": 6403,
      "andon": 6404,
      "Ġsinging": 6405,
      "Ġsigns": 6406,
      "Ġsnacks": 6407,
      "Ġmig": 6408,
      "ĠIncorporate": 6409,
      "Ġsi": 6410,
      "Ġdeny": 6411,
      "ĠItalian": 6412,
      "Ġsoy": 6413,
      "Ġpresented": 6414,
      "Ġconcer": 6415,
      "Ġjeal": 6416,
      "Ġnation": 6417,
      "ĠEmily": 6418,
      "ĠLear": 6419,
      "net": 6420,
      "Ġenthusi": 6421,
      "Ġbrothers": 6422,
      "Ġlips": 6423,
      "Ġimmersive": 6424,
      "allow": 6425,
      "itty": 6426,
      "Ġsuddenly": 6427,
      "date": 6428,
      "Ġwindows": 6429,
      "Ġeventually": 6430,
      "Ġhopes": 6431,
      "ept": 6432,
      "Ġadvancements": 6433,
      "Ġbasket": 6434,
      "Ġgraphics": 6435,
      "ĠExper": 6436,
      "ĠPol": 6437,
      "Ġpoison": 6438,
      "Ġprem": 6439,
      "reet": 6440,
      "style": 6441,
      "cription": 6442,
      "Ġdisturb": 6443,
      "Ġfifteen": 6444,
      "Ġrefreshing": 6445,
      "Ġfollows": 6446,
      "Ġentered": 6447,
      "Ġhaun": 6448,
      "Ġwalked": 6449,
      "Ġinstitutions": 6450,
      "Ġbid": 6451,
      "Ġshelter": 6452,
      "Ġgained": 6453,
      "Ġabsurd": 6454,
      "Ġroles": 6455,
      "Ġclosed": 6456,
      "Ġnearby": 6457,
      "rian": 6458,
      "Ġinfluencers": 6459,
      "Ġmissing": 6460,
      "Ġaudio": 6461,
      "Ġfans": 6462,
      "Ġspark": 6463,
      "Ġefficiently": 6464,
      "Ġevenly": 6465,
      "Ġadult": 6466,
      "Ġboss": 6467,
      "eror": 6468,
      "Ġrefused": 6469,
      "Ġflight": 6470,
      "inks": 6471,
      "Ġscratch": 6472,
      "ĠInternational": 6473,
      "Ġmarg": 6474,
      "achel": 6475,
      "rah": 6476,
      "Ġapplied": 6477,
      "Ġspect": 6478,
      "lor": 6479,
      "Ġproposed": 6480,
      "lands": 6481,
      "Ġtofu": 6482,
      "Ġske": 6483,
      "Ġrapid": 6484,
      "year": 6485,
      "Ġmarin": 6486,
      "Ġnervous": 6487,
      "Ġglory": 6488,
      "Ġphilosop": 6489,
      "Ġjealous": 6490,
      "En": 6491,
      "Ġdepict": 6492,
      "Ġnights": 6493,
      "Ġwidely": 6494,
      "Ġdefend": 6495,
      "Ġcompelling": 6496,
      "istration": 6497,
      "Ġtears": 6498,
      "Ġexistence": 6499,
      "ij": 6500,
      "Ġgrilled": 6501,
      "Ġseafood": 6502,
      "Ġecos": 6503,
      "Ġpork": 6504,
      "Ġemotion": 6505,
      "Ġvolume": 6506,
      "Ġhiking": 6507,
      "ective": 6508,
      "Ġinsist": 6509,
      "ĠSupp": 6510,
      "Ġcomplexity": 6511,
      "ID": 6512,
      "60": 6513,
      "Ġgang": 6514,
      "Ġtbsp": 6515,
      "Ġsuggested": 6516,
      "Ġuniversity": 6517,
      "Ġcharles": 6518,
      "Ġdamn": 6519,
      "Ġserver": 6520,
      "Ġmysterious": 6521,
      "Ġmulti": 6522,
      "Ġrecently": 6523,
      "Ġoccurred": 6524,
      "Ġplate": 6525,
      "Ġsuffering": 6526,
      "why": 6527,
      "Ġsolve": 6528,
      "Ġpriest": 6529,
      "urday": 6530,
      "Ġrural": 6531,
      "Ġteeth": 6532,
      "ĠSl": 6533,
      "aren": 6534,
      "Ġfacilities": 6535,
      "Ġconvenient": 6536,
      "Ġwil": 6537,
      "Ġintention": 6538,
      "while": 6539,
      "Ġrelief": 6540,
      "Ġwriters": 6541,
      "Ġconsidering": 6542,
      "Ġships": 6543,
      "Ġbegins": 6544,
      "Ġmusicians": 6545,
      "Ġetc": 6546,
      "Ġcompleted": 6547,
      "Ġunw": 6548,
      "Ġartistic": 6549,
      "ĠSalt": 6550,
      "Ġkindly": 6551,
      "Ġquarrel": 6552,
      "Ġgracious": 6553,
      "Ġfier": 6554,
      "Ġhighness": 6555,
      "Ġadmir": 6556,
      "Ġdeserve": 6557,
      "Ġencounter": 6558,
      "Ġworn": 6559,
      "Ġscholar": 6560,
      "Ġbeneath": 6561,
      "Ġbags": 6562,
      "eur": 6563,
      "Ġconvin": 6564,
      "kind": 6565,
      "sm": 6566,
      "Ġcontro": 6567,
      "Ġfootprint": 6568,
      "ollow": 6569,
      "erce": 6570,
      "ĠRoman": 6571,
      "ifying": 6572,
      "Ġpresident": 6573,
      "Ġcrops": 6574,
      "Ġextraord": 6575,
      "Ġstro": 6576,
      "Ġtoss": 6577,
      "Ġmessaging": 6578,
      "cest": 6579,
      "Ġinternal": 6580,
      "Ġadvise": 6581,
      "Ġcenturies": 6582,
      "Ġtargeted": 6583,
      "Ġdesk": 6584,
      "Ġgenerations": 6585,
      "Ġger": 6586,
      "Ġabsor": 6587,
      "Ġgenerated": 6588,
      "Ġconsumers": 6589,
      "Ġcomponents": 6590,
      "Ġrit": 6591,
      "Ġsmith": 6592,
      "Ġchest": 6593,
      "Ġcarrying": 6594,
      "AT": 6595,
      "Ġsignal": 6596,
      "Ġutter": 6597,
      "Ġmaximum": 6598,
      "Ġconcepts": 6599,
      "Ġgrav": 6600,
      "ani": 6601,
      "Ġbars": 6602,
      "imal": 6603,
      "aching": 6604,
      "ura": 6605,
      "Ġstorytelling": 6606,
      "Ġ2018": 6607,
      "ilant": 6608,
      "ĠEuropean": 6609,
      "Ġshell": 6610,
      "Ġbrow": 6611,
      "igenous": 6612,
      "Ġbeside": 6613,
      "Ġproposal": 6614,
      "Ġcausing": 6615,
      "stal": 6616,
      "Ġcot": 6617,
      "Ġdivine": 6618,
      "Ġdrown": 6619,
      "Ġrecognized": 6620,
      "ĠPri": 6621,
      "Ġinterf": 6622,
      "Ġwaters": 6623,
      "ĠSan": 6624,
      "Ġsubstitute": 6625,
      "Ġrasc": 6626,
      "Ġcustomize": 6627,
      "ĠPython": 6628,
      "Ġeth": 6629,
      "oles": 6630,
      "Ġdoors": 6631,
      "bar": 6632,
      "Ġalbum": 6633,
      "ĠAb": 6634,
      "Ġslip": 6635,
      "gue": 6636,
      "agues": 6637,
      "Ġbones": 6638,
      "Ġlouis": 6639,
      "Ġeleg": 6640,
      "Ġvariable": 6641,
      "Ġgam": 6642,
      "Ġrope": 6643,
      "Ġfinger": 6644,
      "Ġ24": 6645,
      "Ġillustrate": 6646,
      "ĠColle": 6647,
      "entially": 6648,
      "Ġpreserve": 6649,
      "Ġrobert": 6650,
      "Ġstandards": 6651,
      "olen": 6652,
      "rich": 6653,
      "Ġsyrup": 6654,
      "related": 6655,
      "Ġformal": 6656,
      "Ġsuffered": 6657,
      "Ġunknown": 6658,
      "Ġtransition": 6659,
      "Ġmeaningful": 6660,
      "Ġfingers": 6661,
      "Ġcommission": 6662,
      "ĠNet": 6663,
      "Ġâ": 6664,
      "Ġexpensive": 6665,
      "Ġhospit": 6666,
      "ĠScience": 6667,
      "Ġtrave": 6668,
      "Ġentertainment": 6669,
      "Ġlamb": 6670,
      "Ġrever": 6671,
      "Ġconstruct": 6672,
      "Ġflying": 6673,
      "Ġinvesting": 6674,
      "icks": 6675,
      "Ġlent": 6676,
      "ĠDav": 6677,
      "Ġordinary": 6678,
      "Ġsevent": 6679,
      "Ġrealistic": 6680,
      "Ġaboard": 6681,
      "Ġwilt": 6682,
      "Ġelectricity": 6683,
      "oral": 6684,
      "Ġecho": 6685,
      "Ġdistrict": 6686,
      "Ġspite": 6687,
      "Ġsupplies": 6688,
      "Ġchoices": 6689,
      "Ġreform": 6690,
      "Ġlifestyle": 6691,
      "Ġward": 6692,
      "marks": 6693,
      "Ġdefe": 6694,
      "ĠRuss": 6695,
      "Ġsacred": 6696,
      "ĠAmazon": 6697,
      "Ġlend": 6698,
      "Ġseed": 6699,
      "looking": 6700,
      "others": 6701,
      "Ġdull": 6702,
      "Ġprofile": 6703,
      "Ġgrief": 6704,
      "Ġcath": 6705,
      "flow": 6706,
      "Ġdistribution": 6707,
      "ila": 6708,
      "Ġremarkable": 6709,
      "Ġputs": 6710,
      "Ġanalyzing": 6711,
      "Ġofficial": 6712,
      "Ġaccuracy": 6713,
      "Ġcommercial": 6714,
      "Ġdavid": 6715,
      "Ġfrozen": 6716,
      "ĠKing": 6717,
      "Ġsafely": 6718,
      "iar": 6719,
      "Ġseriously": 6720,
      "ieve": 6721,
      "Ġwarning": 6722,
      "Ġriding": 6723,
      "point": 6724,
      "Ġdelightful": 6725,
      "Ġmicro": 6726,
      "Ġpossession": 6727,
      "Ġbatt": 6728,
      "ounced": 6729,
      "ĠAtt": 6730,
      "ED": 6731,
      "ĠMc": 6732,
      "Ġintroduce": 6733,
      "uch": 6734,
      "inder": 6735,
      "Ġquinoa": 6736,
      "cover": 6737,
      "Ġpartnerships": 6738,
      "Ġchildhood": 6739,
      "aul": 6740,
      "iences": 6741,
      "Ġinfl": 6742,
      "Ġsheep": 6743,
      "Ġspinach": 6744,
      "sever": 6745,
      "Ġdancing": 6746,
      "Ġfacil": 6747,
      "Ġclin": 6748,
      "Ġinspiring": 6749,
      "Ġpicked": 6750,
      "quis": 6751,
      "Ġwarrant": 6752,
      "aws": 6753,
      "Ġclaims": 6754,
      "Ġsaint": 6755,
      "ona": 6756,
      "Ġreflects": 6757,
      "Ġconducted": 6758,
      "Ġmotion": 6759,
      "Ġherr": 6760,
      "Ġretain": 6761,
      "Ġlover": 6762,
      "Ġaccomplish": 6763,
      "Ġluxury": 6764,
      "uous": 6765,
      "ĠPal": 6766,
      "win": 6767,
      "sect": 6768,
      "Ġraw": 6769,
      "ĠDid": 6770,
      "Ġflesh": 6771,
      "Ġminimal": 6772,
      "Ġdeck": 6773,
      "Ġcorpor": 6774,
      "count": 6775,
      "Ġamp": 6776,
      "ĠFurthermore": 6777,
      "agers": 6778,
      "Ġrefriger": 6779,
      "Ġintroduction": 6780,
      "ands": 6781,
      "oir": 6782,
      "Ġwearing": 6783,
      "Ġfailure": 6784,
      "Ġwheel": 6785,
      "holders": 6786,
      "Ġtactics": 6787,
      "Ġ199": 6788,
      "roup": 6789,
      "Ġguidelines": 6790,
      "Ġlosing": 6791,
      "incere": 6792,
      "va": 6793,
      "Ġdecline": 6794,
      "Ġpound": 6795,
      "Ġabroad": 6796,
      "Ġdressed": 6797,
      "Ġscot": 6798,
      "Ġentreprene": 6799,
      "Ġmistakes": 6800,
      "abeth": 6801,
      "----": 6802,
      "Ġevolved": 6803,
      "Ġselling": 6804,
      "Ġguns": 6805,
      "Ġfought": 6806,
      "Ġincorporated": 6807,
      "ĠId": 6808,
      "rika": 6809,
      "Ġinjury": 6810,
      "Ġreleased": 6811,
      "ria": 6812,
      "Ġpersons": 6813,
      "ĠApple": 6814,
      "Ġscale": 6815,
      "esth": 6816,
      "only": 6817,
      "Ġprayer": 6818,
      "Ġpollution": 6819,
      "Ġpolitics": 6820,
      "Ġdriven": 6821,
      "Ġdisgr": 6822,
      "Ġindians": 6823,
      "utenant": 6824,
      "ĠIr": 6825,
      "Ġvictory": 6826,
      "ĠSou": 6827,
      "emat": 6828,
      "Ġstones": 6829,
      "top": 6830,
      "Ġperformed": 6831,
      "Ġappreciation": 6832,
      "Ġpurpos": 6833,
      "Ġprofit": 6834,
      "Ġfocuses": 6835,
      "ĠTwitter": 6836,
      "vention": 6837,
      "Ġtheyre": 6838,
      "ios": 6839,
      "Ġexclusive": 6840,
      "ĠCO": 6841,
      "Ġnich": 6842,
      "Ġencourages": 6843,
      "ĠChorus": 6844,
      "Enter": 6845,
      "Ġdom": 6846,
      "Ġtransp": 6847,
      "Ġcloser": 6848,
      "Ġcapabilities": 6849,
      "ste": 6850,
      "Ġpill": 6851,
      "Ġsurvey": 6852,
      "Ġwider": 6853,
      "aches": 6854,
      "Ġpassword": 6855,
      "Ġdivid": 6856,
      "Ġensures": 6857,
      "Ġdecent": 6858,
      "Ġrandom": 6859,
      "Ġsteal": 6860,
      "Ġindependent": 6861,
      "ĠLike": 6862,
      "Ġruin": 6863,
      "Ġkeywords": 6864,
      "his": 6865,
      "rical": 6866,
      "Ġere": 6867,
      "Ġhighlighting": 6868,
      "ĠHome": 6869,
      "Ġsavory": 6870,
      "Ġattractions": 6871,
      "Ġmanip": 6872,
      "Ġweve": 6873,
      "Ġvisuals": 6874,
      "nin": 6875,
      "Ġsurroundings": 6876,
      "Ġabandon": 6877,
      "llo": 6878,
      "Ġboil": 6879,
      "Ġwhisk": 6880,
      "Ġwounded": 6881,
      "Ġimpression": 6882,
      "part": 6883,
      "Ġwildlife": 6884,
      "Ġnarrow": 6885,
      "Ġrestrict": 6886,
      "Ġrewards": 6887,
      "Ġgarn": 6888,
      "ĠSub": 6889,
      "Ġthief": 6890,
      "Ġ2019": 6891,
      "seless": 6892,
      "Ġscientists": 6893,
      "Ġdrunk": 6894,
      "Ġjewelry": 6895,
      "Ġaccordingly": 6896,
      "isher": 6897,
      "Ġslices": 6898,
      "ux": 6899,
      "ĠMic": 6900,
      "Ġaddressing": 6901,
      "Ġhorrible": 6902,
      "Ġlion": 6903,
      "see": 6904,
      "lyn": 6905,
      "Ġped": 6906,
      "ĠDet": 6907,
      "ĠNot": 6908,
      "Ġextraordinary": 6909,
      "Ġgovernor": 6910,
      "ĠAfrica": 6911,
      "Ġremained": 6912,
      "sed": 6913,
      "Ġbacon": 6914,
      "Ġchronic": 6915,
      "Ġdrug": 6916,
      "Ġcauses": 6917,
      "Ġken": 6918,
      "angle": 6919,
      "Ġemergency": 6920,
      "Ġcarp": 6921,
      "Ġjan": 6922,
      "anges": 6923,
      "Ġ%": 6924,
      "Ġventure": 6925,
      "Ġcater": 6926,
      "Ġinterpret": 6927,
      "Ġpandemic": 6928,
      "Ġjoint": 6929,
      "Ġletting": 6930,
      "Ġversat": 6931,
      "Ġbattery": 6932,
      "Ġembrace": 6933,
      "Ġtag": 6934,
      "Ġlonely": 6935,
      "Ġgenerous": 6936,
      "wers": 6937,
      "ĠII": 6938,
      "Ġstolen": 6939,
      "Ġalike": 6940,
      "Ġpermission": 6941,
      "Ġcoaching": 6942,
      "Ġpaying": 6943,
      "Ġagreed": 6944,
      "Ġgradually": 6945,
      "Ġmanufactur": 6946,
      "mus": 6947,
      "ĠFocus": 6948,
      "Ġshed": 6949,
      "Ġordered": 6950,
      "Ġbaron": 6951,
      "ĠSur": 6952,
      "Ġreduction": 6953,
      "hns": 6954,
      "Ġbeloved": 6955,
      "Ġsession": 6956,
      "Ġminister": 6957,
      "Ġhistoric": 6958,
      "Ġmillions": 6959,
      "Ġautomation": 6960,
      "reck": 6961,
      "Ġwasnt": 6962,
      "Ġsample": 6963,
      "Ġsenses": 6964,
      "\")": 6965,
      "Ġcul": 6966,
      "Ġfunctionality": 6967,
      "Ġdash": 6968,
      "Ġtradition": 6969,
      "Ġtent": 6970,
      "AC": 6971,
      "ĠDI": 6972,
      "aded": 6973,
      "Ġintegration": 6974,
      "Ġhanging": 6975,
      "Ġprey": 6976,
      "Ġacquaintance": 6977,
      "Ġfox": 6978,
      "izabeth": 6979,
      "asts": 6980,
      "Ġfathers": 6981,
      "Ġinternet": 6982,
      "Ġfindings": 6983,
      "Ġpool": 6984,
      "Ġbare": 6985,
      "armes": 6986,
      "ugg": 6987,
      "Ġinitial": 6988,
      "Ġmail": 6989,
      "Ġshooting": 6990,
      "airy": 6991,
      "Ġcuc": 6992,
      "Ġthunder": 6993,
      "Ġloud": 6994,
      "Ġexposure": 6995,
      "Ġpic": 6996,
      "Ġdomin": 6997,
      "ga": 6998,
      "rix": 6999,
      "Ġhaz": 7000,
      "AS": 7001,
      "Ġbelongs": 7002,
      "lay": 7003,
      "Ġstrict": 7004,
      "ĠTom": 7005,
      "Ġminds": 7006,
      "?:": 7007,
      "Ġfu": 7008,
      "Ġspeaks": 7009,
      "utter": 7010,
      "Ġcontrary": 7011,
      "Ġcompassion": 7012,
      "Ġages": 7013,
      "Ġruth": 7014,
      "ĠMount": 7015,
      "Ġta": 7016,
      "oor": 7017,
      "Ġdow": 7018,
      "istry": 7019,
      "Ġsaving": 7020,
      "Ġtack": 7021,
      "Ġtheat": 7022,
      "Ġboots": 7023,
      "Ġgrandmother": 7024,
      "Ġphoto": 7025,
      "mes": 7026,
      "ĠPlay": 7027,
      "Ġwatched": 7028,
      "lace": 7029,
      "Ġpurposes": 7030,
      "Ġcelebrate": 7031,
      "Ġweapons": 7032,
      "Ġunable": 7033,
      "Ġrul": 7034,
      "away": 7035,
      "Ġparsley": 7036,
      "Ġowner": 7037,
      "fol": 7038,
      "Ġmole": 7039,
      "ĠBusiness": 7040,
      "ĠRec": 7041,
      "ĠEmpire": 7042,
      "burg": 7043,
      "Ġsubm": 7044,
      "Ġpest": 7045,
      "Ġthro": 7046,
      "Ġfairy": 7047,
      "Ġconsideration": 7048,
      "unction": 7049,
      "aints": 7050,
      "Ġjean": 7051,
      "ĠProm": 7052,
      "Ġpurs": 7053,
      "Ġassistant": 7054,
      "Ġimagination": 7055,
      "Ġprinting": 7056,
      "Ġstability": 7057,
      "ĠMod": 7058,
      "Ġmovies": 7059,
      "ĠPreheat": 7060,
      "ĠBre": 7061,
      "ki": 7062,
      "Ġwrap": 7063,
      "ĠCreat": 7064,
      "Ġnood": 7065,
      "Ġburied": 7066,
      "Ġprofound": 7067,
      "Ġfarther": 7068,
      "ĠMor": 7069,
      "Ġsteady": 7070,
      "za": 7071,
      "Ġquit": 7072,
      "asive": 7073,
      "Ġdrawn": 7074,
      "Ġaimed": 7075,
      "ĠEncourage": 7076,
      "Ġpositively": 7077,
      "Ġcrunch": 7078,
      "Ġsilent": 7079,
      "van": 7080,
      "Ġsensitive": 7081,
      "Ġridic": 7082,
      "Ġloving": 7083,
      "Ġbuying": 7084,
      "ĠPort": 7085,
      "Ġstable": 7086,
      "Ġdesper": 7087,
      "Ġveggies": 7088,
      "Ġcommunic": 7089,
      "Ġbiggest": 7090,
      "nergy": 7091,
      "Ġformed": 7092,
      "Ġburning": 7093,
      "Ġiconic": 7094,
      "Ġopinions": 7095,
      "Ġsuns": 7096,
      "Ġmanager": 7097,
      "Ġrecon": 7098,
      "Ġrepair": 7099,
      "bot": 7100,
      "Ġsought": 7101,
      "Ġvalley": 7102,
      "Ġengines": 7103,
      "Ġdropped": 7104,
      "Ġattacks": 7105,
      "Ġsociet": 7106,
      "Ġdownload": 7107,
      "Ġchickpe": 7108,
      "Ġeurope": 7109,
      "inal": 7110,
      "Ġwitch": 7111,
      "Ġpit": 7112,
      "Ġdrinking": 7113,
      "Ġupdate": 7114,
      "ĠInter": 7115,
      "Ġsatisfying": 7116,
      "onday": 7117,
      "nic": 7118,
      "Ġpear": 7119,
      "Ġincentives": 7120,
      "Ġpier": 7121,
      "gly": 7122,
      "Ġbreeze": 7123,
      "ĠTherefore": 7124,
      "ographic": 7125,
      "Ġdistress": 7126,
      "otic": 7127,
      "Ġaward": 7128,
      "Ġhaw": 7129,
      "Ġdetermination": 7130,
      "lers": 7131,
      "Ġconsistency": 7132,
      "Ġtempl": 7133,
      "say": 7134,
      "Ġfaithful": 7135,
      "Ġstarts": 7136,
      "Ġpersever": 7137,
      "Ġestim": 7138,
      "Ġvirgin": 7139,
      "Ġpartnership": 7140,
      "umbled": 7141,
      "Ġfantastic": 7142,
      "Ġrising": 7143,
      "Ġslave": 7144,
      "Ġconsole": 7145,
      "ĠJava": 7146,
      "ĠChristian": 7147,
      "Ġconcent": 7148,
      "Ġceremony": 7149,
      "itar": 7150,
      "Ġarranged": 7151,
      "ala": 7152,
      "ES": 7153,
      "rations": 7154,
      "uh": 7155,
      "Ġlinks": 7156,
      "Ġflag": 7157,
      "Ġencountered": 7158,
      "Ġtricks": 7159,
      "Ġhook": 7160,
      "grat": 7161,
      "wide": 7162,
      "Ġvital": 7163,
      "ĠCollege": 7164,
      "cific": 7165,
      "ribly": 7166,
      "Ġflexible": 7167,
      "Ġbodies": 7168,
      "Ġbehold": 7169,
      "Ġdelighted": 7170,
      "Ġworkplace": 7171,
      "Ġimplic": 7172,
      "Ġbust": 7173,
      "isc": 7174,
      "ecd": 7175,
      "Ġarthur": 7176,
      "Ġarise": 7177,
      "Ġassured": 7178,
      "Ġsimmer": 7179,
      "ali": 7180,
      "berg": 7181,
      "Ġhousing": 7182,
      "Ġaust": 7183,
      "Ġjac": 7184,
      "Ġtracks": 7185,
      "aven": 7186,
      "Ġcuri": 7187,
      "Ġshaping": 7188,
      "Ġanecd": 7189,
      "Ġmuscle": 7190,
      "dri": 7191,
      "Ġunited": 7192,
      "()`": 7193,
      "Ġcure": 7194,
      "Ġhelen": 7195,
      "Ġinfer": 7196,
      "ĠThen": 7197,
      "Ġbarn": 7198,
      "Ġinquir": 7199,
      "Ġstirring": 7200,
      "Ġsale": 7201,
      "Ġbilly": 7202,
      "erate": 7203,
      "Ġitem": 7204,
      "Ġinsurance": 7205,
      "Ġclassical": 7206,
      "Ġcott": 7207,
      "Ġproved": 7208,
      "Ġsurf": 7209,
      "alf": 7210,
      "Ġaffection": 7211,
      "ĠOh": 7212,
      "Ġdisrupt": 7213,
      "Ġnutrients": 7214,
      "Ġinterrupt": 7215,
      "orter": 7216,
      "ĠTop": 7217,
      "Ġbun": 7218,
      "imon": 7219,
      "armesan": 7220,
      "Ġperce": 7221,
      "Ġperiods": 7222,
      "Ġoverview": 7223,
      "Ġsweetness": 7224,
      "ĠChurch": 7225,
      "Ġsurvival": 7226,
      "Ġdispl": 7227,
      "bury": 7228,
      "Ġemphasizes": 7229,
      "ĠEvery": 7230,
      "Ġbol": 7231,
      "Ġuncertain": 7232,
      "Ġaudiences": 7233,
      "Ġsupports": 7234,
      "long": 7235,
      "Ġsymbols": 7236,
      "Ġelectronic": 7237,
      "Ġhoped": 7238,
      "ĠPat": 7239,
      "Ġdescribed": 7240,
      "bal": 7241,
      "Ġobserve": 7242,
      "Ġlieutenant": 7243,
      "Ġshoulder": 7244,
      "Ġcore": 7245,
      "Ġacid": 7246,
      "Ġdip": 7247,
      "Ġpursue": 7248,
      "Ġsomewhat": 7249,
      "Ġflexibility": 7250,
      "Ġthine": 7251,
      "wing": 7252,
      "aver": 7253,
      "crib": 7254,
      "ĠPour": 7255,
      "Ġarguments": 7256,
      "Ġtextures": 7257,
      "Ġmelted": 7258,
      "Ġoperation": 7259,
      "gie": 7260,
      "Ġapples": 7261,
      "ĠIm": 7262,
      "ĠSEO": 7263,
      "icial": 7264,
      "Ġconscious": 7265,
      "natural": 7266,
      "Ġkings": 7267,
      "Ġax": 7268,
      "Ġconscience": 7269,
      "Ġfever": 7270,
      "Ġreflection": 7271,
      "Ġhealing": 7272,
      "Ġjos": 7273,
      "Ġhyp": 7274,
      "Ġearnest": 7275,
      "Ġsmoothie": 7276,
      "Ġinstruct": 7277,
      "uation": 7278,
      "Ġcha": 7279,
      "Ġeveryday": 7280,
      "Ġshrimp": 7281,
      "Ġboats": 7282,
      "Ġlaughing": 7283,
      "Ġberries": 7284,
      "Ġmud": 7285,
      "Ġoutfit": 7286,
      "Ġbake": 7287,
      "Ġprime": 7288,
      "Ġevaluate": 7289,
      "Ġsink": 7290,
      "Ġwooden": 7291,
      "tail": 7292,
      "Ġmargaret": 7293,
      "Ġborrow": 7294,
      "Ġcenters": 7295,
      "Ġdietary": 7296,
      "pir": 7297,
      "Ġproced": 7298,
      "Ġsurre": 7299,
      "21": 7300,
      "Ġprize": 7301,
      "Ġgardens": 7302,
      "Ġpaprika": 7303,
      "Ġfunds": 7304,
      "Ġwand": 7305,
      "Ġscal": 7306,
      "].": 7307,
      "uls": 7308,
      "Ġthrown": 7309,
      "zer": 7310,
      "oes": 7311,
      "iox": 7312,
      "Ġsearching": 7313,
      "Ġobjectives": 7314,
      "Ġdetective": 7315,
      "Ġdiscounts": 7316,
      "ventions": 7317,
      "Ġstayed": 7318,
      "omen": 7319,
      "Ġidentifying": 7320,
      "Ġarom": 7321,
      "Ġpairs": 7322,
      "IN": 7323,
      "ĠEnergy": 7324,
      "amps": 7325,
      "ĠTur": 7326,
      "Ġunfortunate": 7327,
      "ords": 7328,
      "Ġvolunteer": 7329,
      "Ġshred": 7330,
      "Ġleaf": 7331,
      "Ġwanting": 7332,
      "aved": 7333,
      "han": 7334,
      "Ġgrey": 7335,
      "ĠEducation": 7336,
      "inate": 7337,
      "ographics": 7338,
      "Ġsah": 7339,
      "asm": 7340,
      "icans": 7341,
      "Ġreminder": 7342,
      "Ġsurrounded": 7343,
      "ĠJames": 7344,
      "ĠHo": 7345,
      "Ġenables": 7346,
      "Ġproviders": 7347,
      "Ġhorror": 7348,
      "ller": 7349,
      "Ġaesth": 7350,
      "ittee": 7351,
      "Ġnan": 7352,
      "amel": 7353,
      "Ġleather": 7354,
      "Ġstrings": 7355,
      "press": 7356,
      "Ġupstairs": 7357,
      "Ġfairly": 7358,
      "Ġamuse": 7359,
      "Ġlimitations": 7360,
      "Ġartwork": 7361,
      "Ġencouraging": 7362,
      "Ġvend": 7363,
      "Ġtear": 7364,
      "Ġcustomized": 7365,
      "Ġtrem": 7366,
      "TM": 7367,
      "rael": 7368,
      "atically": 7369,
      "ĠUK": 7370,
      "irect": 7371,
      "Ġfalls": 7372,
      "Ġcompos": 7373,
      "Ġwellness": 7374,
      "Ġeverywhere": 7375,
      "!\"": 7376,
      "Ġpipe": 7377,
      "Ġhugh": 7378,
      "ruit": 7379,
      "Ġdepl": 7380,
      "ĠTod": 7381,
      "Ġsubjects": 7382,
      "ĠIsl": 7383,
      "Ġcorresp": 7384,
      "Ġcircle": 7385,
      "Ġapproaches": 7386,
      "Ġsuits": 7387,
      "Ġbelieves": 7388,
      "vices": 7389,
      "Ġstuck": 7390,
      "Ġfrequency": 7391,
      "Ġphr": 7392,
      "owing": 7393,
      "Ġmeets": 7394,
      "Ġexploration": 7395,
      "Ġfoundation": 7396,
      "('": 7397,
      "Ġselecting": 7398,
      "Ġdollar": 7399,
      "Ġconfig": 7400,
      "Ġcitizens": 7401,
      "Ġcig": 7402,
      "ĠUnder": 7403,
      "Ġcooper": 7404,
      "Ġjesus": 7405,
      "Ġhey": 7406,
      "Ġdiscussion": 7407,
      "Ġnutritional": 7408,
      "Ġnetworks": 7409,
      "ĠUltimately": 7410,
      "Ġcompost": 7411,
      "ificial": 7412,
      "Ġcycle": 7413,
      "Ġcollaborate": 7414,
      "Ġenjoying": 7415,
      "Ġachieved": 7416,
      "Ġrecoll": 7417,
      "Ġhesitate": 7418,
      "Ġsorts": 7419,
      "Ġscared": 7420,
      "Ġtrained": 7421,
      "Ġdiscussing": 7422,
      "Ġdisaster": 7423,
      "input": 7424,
      "Ġspoil": 7425,
      "Ġgrill": 7426,
      "Ġtied": 7427,
      "anes": 7428,
      "Ġspice": 7429,
      "ĠBest": 7430,
      "Ġstrengths": 7431,
      "Ġnutrition": 7432,
      "alid": 7433,
      "Ġinch": 7434,
      "Ġnavigation": 7435,
      "Ġlogo": 7436,
      "efficient": 7437,
      "Ġflash": 7438,
      "Ġempathy": 7439,
      "Ġmerc": 7440,
      "rome": 7441,
      "Ġinsect": 7442,
      "ĠFest": 7443,
      "Ġfert": 7444,
      "Ġna": 7445,
      "Ġsore": 7446,
      "ida": 7447,
      "Ġcomment": 7448,
      "Ġtrusted": 7449,
      "Ġlean": 7450,
      "ĠRet": 7451,
      "Ġvot": 7452,
      "Ġimprovements": 7453,
      "Ġhorrid": 7454,
      "eta": 7455,
      "Ġnotion": 7456,
      "Ġtailored": 7457,
      "Ġmarsh": 7458,
      "Ġindex": 7459,
      "Ġtreatments": 7460,
      "ucch": 7461,
      "ishop": 7462,
      "Ġskilled": 7463,
      "Ġconver": 7464,
      "Ġgenres": 7465,
      "Ġpresume": 7466,
      "ĠShare": 7467,
      "ilantro": 7468,
      "Ġadvantages": 7469,
      "Ġharder": 7470,
      "anta": 7471,
      "Ġrender": 7472,
      "ĠFind": 7473,
      "Ġrecall": 7474,
      "ĠImpro": 7475,
      "Ġbargain": 7476,
      "Ġpist": 7477,
      "ucks": 7478,
      "Ġextremely": 7479,
      "iano": 7480,
      "Ġwretched": 7481,
      "Ġexperiencing": 7482,
      "ĠFood": 7483,
      "agraph": 7484,
      "Ġlanding": 7485,
      "Ġintegrate": 7486,
      "ĠOpen": 7487,
      "weight": 7488,
      "`.": 7489,
      "ĠStir": 7490,
      "tha": 7491,
      "ĠOrgan": 7492,
      "Ġcelebrated": 7493,
      "Ġpaste": 7494,
      "Ġcumin": 7495,
      "Ġdates": 7496,
      "stic": 7497,
      "imental": 7498,
      "Ġunus": 7499,
      "Ġintellect": 7500,
      "Ġrescue": 7501,
      "found": 7502,
      "Ġhttps": 7503,
      "your": 7504,
      "Ġfemale": 7505,
      "Ġburst": 7506,
      "Ġannual": 7507,
      "umble": 7508,
      "Ġintu": 7509,
      "ĠHot": 7510,
      "Ġaddiction": 7511,
      "Ġexplaining": 7512,
      "rison": 7513,
      "gener": 7514,
      "Ġfry": 7515,
      "isy": 7516,
      "Ġyourselves": 7517,
      "Ġbat": 7518,
      "PS": 7519,
      "Ġmos": 7520,
      "Ġadapted": 7521,
      "Ġnin": 7522,
      "ethe": 7523,
      "Ġscound": 7524,
      "Ġcounty": 7525,
      "Ġscre": 7526,
      "Ġdamned": 7527,
      "iel": 7528,
      "Ġcriminal": 7529,
      "Ġhasht": 7530,
      "uary": 7531,
      "abs": 7532,
      "www": 7533,
      "jud": 7534,
      "Ġcraw": 7535,
      "there": 7536,
      "file": 7537,
      "Ġescaped": 7538,
      "Ġmoral": 7539,
      "Ġnegot": 7540,
      "Ġvisited": 7541,
      "Ġfilms": 7542,
      "Ġdot": 7543,
      "after": 7544,
      "ho": 7545,
      "lets": 7546,
      "Ġagency": 7547,
      "Ġtalks": 7548,
      "Ġsprinkle": 7549,
      "Ġcompanion": 7550,
      "Ġvillain": 7551,
      "Ġtooth": 7552,
      "Ġmatches": 7553,
      "Ġranch": 7554,
      "Ġlabel": 7555,
      "Ġcloves": 7556,
      "Ġreasonable": 7557,
      "ĠIncre": 7558,
      "Ġhither": 7559,
      "Ġlawyer": 7560,
      "Ġclock": 7561,
      "such": 7562,
      "Ġbeginners": 7563,
      "Ġpolly": 7564,
      "Ġsalmon": 7565,
      "Ġamen": 7566,
      "ĠBook": 7567,
      "Ġclouds": 7568,
      "Ġpredators": 7569,
      "Ġemphasis": 7570,
      "Ġnaught": 7571,
      "ĠWork": 7572,
      "ued": 7573,
      "aine": 7574,
      "Ġjove": 7575,
      "Ġneglect": 7576,
      "Ġpale": 7577,
      "profit": 7578,
      "Ġabsence": 7579,
      "boy": 7580,
      "Ġdoubtless": 7581,
      "rass": 7582,
      "Ġstrangers": 7583,
      "Ġcrush": 7584,
      "oving": 7585,
      "arant": 7586,
      "tin": 7587,
      "Ġliquid": 7588,
      "Ġyard": 7589,
      "Ġlocked": 7590,
      "idential": 7591,
      "Ġcherry": 7592,
      "lim": 7593,
      "Ġselfish": 7594,
      "icago": 7595,
      "atching": 7596,
      "Ġwarmth": 7597,
      "avery": 7598,
      "Ġhence": 7599,
      "lymp": 7600,
      "ĠGroup": 7601,
      "Ġconsumer": 7602,
      "Ġmeetings": 7603,
      "ĠUp": 7604,
      "80": 7605,
      "Ġdost": 7606,
      "Ġlandmarks": 7607,
      "Ġqualities": 7608,
      "ĠHind": 7609,
      "ĠPersonal": 7610,
      "Ġbills": 7611,
      "Ġimper": 7612,
      "ĠSpanish": 7613,
      "Ġstrain": 7614,
      "Ġrome": 7615,
      "des": 7616,
      "Ġslice": 7617,
      "ĠAnt": 7618,
      "uge": 7619,
      "Ġdrum": 7620,
      "Ġmechanisms": 7621,
      "Ġalongside": 7622,
      "Ġsubstit": 7623,
      "pack": 7624,
      "iger": 7625,
      "Ġcotton": 7626,
      "Ġemperor": 7627,
      "Ġcomposition": 7628,
      "Ġemployment": 7629,
      "apers": 7630,
      "Ġstim": 7631,
      "when": 7632,
      "Ġbritish": 7633,
      "Ġsilk": 7634,
      "Ġugly": 7635,
      "Ġscoundrel": 7636,
      "ĠClick": 7637,
      "Ġexternal": 7638,
      "Ġcozy": 7639,
      "ĠMoreover": 7640,
      "Ġinterfere": 7641,
      "Ġwave": 7642,
      "Ġgreens": 7643,
      "Ġpreferred": 7644,
      "Ġtemperatures": 7645,
      "ĠUsers": 7646,
      "Ġcuriosity": 7647,
      "Ġdram": 7648,
      "ĠHist": 7649,
      "Ġphilip": 7650,
      "Ġtis": 7651,
      "Ġmustard": 7652,
      "Ġfunctional": 7653,
      "Ġreaching": 7654,
      "Ġprop": 7655,
      "Ġevolution": 7656,
      "ĠIdent": 7657,
      "Ġcos": 7658,
      "Ġrhythm": 7659,
      "ĠMusic": 7660,
      "ðŁ": 7661,
      "Ġmich": 7662,
      "Ġcrop": 7663,
      "ĠAssoci": 7664,
      "Ġsubmit": 7665,
      "Ġorganize": 7666,
      "Ġaer": 7667,
      "Ġapprox": 7668,
      "Ġsisters": 7669,
      "ĠLondon": 7670,
      "Ġagent": 7671,
      "Ġ>": 7672,
      "Ġtrigg": 7673,
      "Ġretire": 7674,
      "Ġmoisture": 7675,
      "Ġregister": 7676,
      "Ġhealthier": 7677,
      "Ġacting": 7678,
      "Ġski": 7679,
      "Ġportion": 7680,
      "Ġlic": 7681,
      "ystems": 7682,
      "Ġ<<": 7683,
      "Ġconversion": 7684,
      "Ġbind": 7685,
      "ĠNow": 7686,
      "Ġencrypt": 7687,
      "Ġdocuments": 7688,
      "Ġwheat": 7689,
      "ucchini": 7690,
      "Ġcrisis": 7691,
      "agger": 7692,
      "Ġmarine": 7693,
      "veys": 7694,
      "Ġmotivation": 7695,
      "ĠAR": 7696,
      "Ġlasting": 7697,
      "ĠRead": 7698,
      "Ġintegers": 7699,
      "Ġshops": 7700,
      "ĠYe": 7701,
      "zed": 7702,
      "Ġappeared": 7703,
      "hnson": 7704,
      "Ġsunlight": 7705,
      "Ġdevelopers": 7706,
      "anut": 7707,
      "chain": 7708,
      "Ġrecords": 7709,
      "ĠSystem": 7710,
      "Ġbride": 7711,
      "yr": 7712,
      "ulating": 7713,
      "eg": 7714,
      "Ġmitigate": 7715,
      "ccoli": 7716,
      "ĠLast": 7717,
      "gged": 7718,
      "Ġthyme": 7719,
      "Ġchickpeas": 7720,
      "Ġroast": 7721,
      "Ġsymbolism": 7722,
      "esis": 7723,
      "Ġlegacy": 7724,
      "Ġalice": 7725,
      "Ġintegrated": 7726,
      "Ġfeller": 7727,
      "Ġvote": 7728,
      "Ġindul": 7729,
      "Ġvain": 7730,
      "Ġcongrat": 7731,
      "Ġaccompan": 7732,
      "ĠAut": 7733,
      "Ġhay": 7734,
      "Ġcomr": 7735,
      "ĠFound": 7736,
      "Ġaven": 7737,
      "Ġcave": 7738,
      "OS": 7739,
      "Ġmagaz": 7740,
      "Ġsleeping": 7741,
      "Ġanne": 7742,
      "enery": 7743,
      "Ġapolog": 7744,
      "Ġdele": 7745,
      "Ġbetty": 7746,
      "Ġanecdotes": 7747,
      "Ġresponsibilities": 7748,
      "Ġagreement": 7749,
      "Ġfarewell": 7750,
      "Ġdisag": 7751,
      "Ġterror": 7752,
      "Ġagricultural": 7753,
      "Ġhull": 7754,
      "Ġsupported": 7755,
      "Ġcorrespond": 7756,
      "Ġworried": 7757,
      "endar": 7758,
      "ears": 7759,
      "Ġlucy": 7760,
      "ĠBefore": 7761,
      "Ġdisplays": 7762,
      "Ġthread": 7763,
      "Ġ==": 7764,
      "Ġdirty": 7765,
      "Ġtrails": 7766,
      "Ġstakeholders": 7767,
      "Ġbigger": 7768,
      "Ġroute": 7769,
      "Ġachievements": 7770,
      "eek": 7771,
      "ON": 7772,
      "Ġwherever": 7773,
      "Ġforgiveness": 7774,
      "Ġparaph": 7775,
      "75": 7776,
      "Ġthreats": 7777,
      "Ġcav": 7778,
      "Ġcattle": 7779,
      "ĠSil": 7780,
      "Ġuseless": 7781,
      "cher": 7782,
      "Ġinstallation": 7783,
      "Ġastron": 7784,
      "Ġhiding": 7785,
      "Ġshoulders": 7786,
      "ĠMarket": 7787,
      "ĠCounty": 7788,
      "Ġmarked": 7789,
      "Ġdisgrace": 7790,
      "Ġoccasionally": 7791,
      "yard": 7792,
      "Ġhed": 7793,
      "Ġhers": 7794,
      "Ġmartin": 7795,
      "Ġthomas": 7796,
      "ĠSoph": 7797,
      "Ġmischief": 7798,
      "Ġdaddy": 7799,
      "Ġbaked": 7800,
      "Ġgodd": 7801,
      "imed": 7802,
      "omy": 7803,
      "Ġmisf": 7804,
      "Ġpreparation": 7805,
      "ĠAsia": 7806,
      "Ġanticip": 7807,
      "Ġspots": 7808,
      "Ġfeatured": 7809,
      "miss": 7810,
      "Ġjazz": 7811,
      "elp": 7812,
      "Ġlin": 7813,
      "olves": 7814,
      "Ġmarks": 7815,
      "Ġaccessories": 7816,
      "Ġsuperior": 7817,
      "Ġencouraged": 7818,
      "Ġvia": 7819,
      "theless": 7820,
      "izable": 7821,
      "Ġindu": 7822,
      "vas": 7823,
      "ĠCalifornia": 7824,
      "Ġvic": 7825,
      "Ġdynam": 7826,
      "born": 7827,
      "Ġawake": 7828,
      "anda": 7829,
      "inter": 7830,
      "Ġheap": 7831,
      "PA": 7832,
      "Ġbrid": 7833,
      "Ġexcellency": 7834,
      "Ġgenre": 7835,
      "Ġpotentially": 7836,
      "Ġturkey": 7837,
      "Ġpuzz": 7838,
      "ares": 7839,
      "ĠRev": 7840,
      "Ġtangy": 7841,
      "Ġcilantro": 7842,
      "Ġquotes": 7843,
      "Ġmuscles": 7844,
      "Ġpsychological": 7845,
      "page": 7846,
      "Ġformula": 7847,
      "Ġupset": 7848,
      "obile": 7849,
      "Ġdome": 7850,
      "Ġacts": 7851,
      "Ġdigest": 7852,
      "Ġlads": 7853,
      "string": 7854,
      "Ġdiagn": 7855,
      "uman": 7856,
      "Ġspy": 7857,
      "Ġconvinced": 7858,
      "Ġcombat": 7859,
      "bel": 7860,
      "Ġportra": 7861,
      "Ġguy": 7862,
      "zes": 7863,
      "Ġ2017": 7864,
      "Ġselected": 7865,
      "Ġtroops": 7866,
      "Ġgram": 7867,
      "Ġemails": 7868,
      "Ġwarri": 7869,
      "riers": 7870,
      "ĠVerse": 7871,
      "Ġprosper": 7872,
      "Ġdegrees": 7873,
      "ĠWind": 7874,
      "ĠCour": 7875,
      "Ġnap": 7876,
      "Ġbullet": 7877,
      "vy": 7878,
      "orse": 7879,
      "Ġba": 7880,
      "Ġancest": 7881,
      "Ġdistingu": 7882,
      "Ġmes": 7883,
      "Ġsculpture": 7884,
      "Ġshipping": 7885,
      "Ġviolence": 7886,
      "Ġcared": 7887,
      "ĠTy": 7888,
      "Ġpainted": 7889,
      "Ġmas": 7890,
      "Ġbunch": 7891,
      "Ġbeneficial": 7892,
      "Ġspecialized": 7893,
      "Ġphilosophy": 7894,
      "Ġpreparing": 7895,
      "erie": 7896,
      "Ġtrap": 7897,
      "Ġinches": 7898,
      "ĠKore": 7899,
      "Ġsons": 7900,
      "plom": 7901,
      "Ġpreference": 7902,
      "Ġfrost": 7903,
      "ella": 7904,
      "lying": 7905,
      "Ġspa": 7906,
      "apple": 7907,
      "Ġtriumph": 7908,
      "Ġholes": 7909,
      "engers": 7910,
      "Ġera": 7911,
      "Ġhoping": 7912,
      "Ġromance": 7913,
      "Ġsaut": 7914,
      "rous": 7915,
      "Ġconfer": 7916,
      "ĠTime": 7917,
      "ĠBake": 7918,
      "Ġharvest": 7919,
      "Ġlect": 7920,
      "ĠVol": 7921,
      "Ġrabb": 7922,
      "ĠSun": 7923,
      "Ġconfound": 7924,
      "Ġwolf": 7925,
      "Ġdiscipl": 7926,
      "Ġef": 7927,
      "Ġpenny": 7928,
      "Ġcorrectly": 7929,
      "ĠBudd": 7930,
      "Ġacquainted": 7931,
      "ĠGar": 7932,
      "Ġsubtle": 7933,
      "osis": 7934,
      "ĠLove": 7935,
      "Ġalter": 7936,
      "Ġbutt": 7937,
      "Ġshares": 7938,
      "Ġsavings": 7939,
      "Ġanti": 7940,
      "Ġtraum": 7941,
      "Ġhumph": 7942,
      "Ġlass": 7943,
      "Ġned": 7944,
      "Ġindustrial": 7945,
      "will": 7946,
      "Ġdifficulties": 7947,
      "Ġcustoms": 7948,
      "ĠToday": 7949,
      "ĠFrance": 7950,
      "Ġparagraph": 7951,
      "Ġdestruction": 7952,
      "don": 7953,
      "ĠDIY": 7954,
      "Ġlaunched": 7955,
      "Ġnu": 7956,
      "Ġincredibly": 7957,
      "Ġsensible": 7958,
      "ĠTru": 7959,
      "Ġpretend": 7960,
      "rete": 7961,
      "etry": 7962,
      "arios": 7963,
      "ĠDel": 7964,
      "comfort": 7965,
      "Ġweigh": 7966,
      "Ġvehicle": 7967,
      "ĠSupport": 7968,
      "Ġchannel": 7969,
      "Ġarrive": 7970,
      "Ġinvestigation": 7971,
      "Ġmode": 7972,
      "Ġfarming": 7973,
      "redient": 7974,
      "ĠCor": 7975,
      "Ġcivilization": 7976,
      "Ġashore": 7977,
      "Ġlaz": 7978,
      "Ġviewers": 7979,
      "Ġstrategic": 7980,
      "Ġstored": 7981,
      "Ġathletes": 7982,
      "itations": 7983,
      "Ġappet": 7984,
      "insp": 7985,
      "they": 7986,
      "commerce": 7987,
      "mind": 7988,
      "Ġprisoners": 7989,
      "alsa": 7990,
      "log": 7991,
      "Ġthankful": 7992,
      "Ġquietly": 7993,
      "Ġincreasingly": 7994,
      "Ġbehaviors": 7995,
      "Ġgrab": 7996,
      "Ġremoved": 7997,
      "itan": 7998,
      "Ġconvert": 7999,
      "Ġpir": 8000,
      "struction": 8001,
      "Ġchecking": 8002,
      "Ġsigned": 8003,
      "Ġlands": 8004,
      "Ġfee": 8005,
      "ĠRoasted": 8006,
      "Ġvisibility": 8007,
      "Ġtraveling": 8008,
      "Ġsoap": 8009,
      "Ġanger": 8010,
      "Ġsouls": 8011,
      "Ġfortunate": 8012,
      "Ġandand": 8013,
      "Ġcel": 8014,
      "Ġoptimization": 8015,
      "Ġmate": 8016,
      "isk": 8017,
      "ĠInf": 8018,
      "aust": 8019,
      "Ġgay": 8020,
      "alph": 8021,
      "ĠsautÃ©": 8022,
      "izer": 8023,
      "Ġauthentication": 8024,
      "Ġsentiment": 8025,
      "ucky": 8026,
      "Ġ40": 8027,
      "othy": 8028,
      "Ġoperating": 8029,
      "Ġtast": 8030,
      "Ġhuge": 8031,
      "Ġminimize": 8032,
      "Ġspons": 8033,
      "?\"": 8034,
      "Ġsex": 8035,
      "Ġmachines": 8036,
      "Ġcriter": 8037,
      "Ġgrated": 8038,
      "Ġcharm": 8039,
      "ĠLink": 8040,
      "Ġminimum": 8041,
      "ĠParis": 8042,
      "imer": 8043,
      "Ġimpl": 8044,
      "Ġblender": 8045,
      "ĠWestern": 8046,
      "Ġgifts": 8047,
      "Ġadmire": 8048,
      "Ġarrested": 8049,
      "Ġridiculous": 8050,
      "Ġshade": 8051,
      "Ġinher": 8052,
      "Ġoils": 8053,
      "Ġbone": 8054,
      "Ġnep": 8055,
      "Ġattending": 8056,
      "Ġgreenhouse": 8057,
      "Ġschedul": 8058,
      "Ġmisfortun": 8059,
      "Ġinventory": 8060,
      "tery": 8061,
      "ĠSum": 8062,
      "sters": 8063,
      "Ġpatch": 8064,
      "Ġsuspicion": 8065,
      "she": 8066,
      "Ġbalanced": 8067,
      "Ġflatter": 8068,
      "Ġcurry": 8069,
      "Ġnurs": 8070,
      "foot": 8071,
      "Ġbranches": 8072,
      "ĠAustralia": 8073,
      "Ġintr": 8074,
      "necess": 8075,
      "Ġcyber": 8076,
      "Ġplanned": 8077,
      "reland": 8078,
      "Ġdisorders": 8079,
      "Ġprompts": 8080,
      "Ġbark": 8081,
      "Ġparam": 8082,
      "Ġcompetitors": 8083,
      "lings": 8084,
      "ĠPay": 8085,
      "Ġdeploy": 8086,
      "Ġguitar": 8087,
      "Ġobserved": 8088,
      "ĠMary": 8089,
      "Ġbillion": 8090,
      "Ġcharacteristics": 8091,
      "ĠChristmas": 8092,
      "Ġasc": 8093,
      "lower": 8094,
      "Ġswimming": 8095,
      "Ġrepro": 8096,
      "ĠOffer": 8097,
      "Ġadopt": 8098,
      "Ġnig": 8099,
      "Ġdelivered": 8100,
      "Ġscan": 8101,
      "Ġanch": 8102,
      "Ġpopulations": 8103,
      "stract": 8104,
      "Ġsem": 8105,
      "Ġended": 8106,
      "ĠFollow": 8107,
      "Ġdesigners": 8108,
      "aining": 8109,
      "Ġrevenge": 8110,
      "Ġafore": 8111,
      "Ġdealing": 8112,
      "Ġcrying": 8113,
      "west": 8114,
      "ĠSomet": 8115,
      "Ġpulled": 8116,
      "Ġjer": 8117,
      "apping": 8118,
      "ĠLily": 8119,
      "rick": 8120,
      "Ġnoodles": 8121,
      "Ġartif": 8122,
      "utch": 8123,
      "inch": 8124,
      "uine": 8125,
      "ĠData": 8126,
      "Ġspell": 8127,
      "ĠFestival": 8128,
      "Ġdisagree": 8129,
      "Ġannoy": 8130,
      "wick": 8131,
      "Ġcompat": 8132,
      "Ġcursed": 8133,
      "Ġscenarios": 8134,
      "Ġvow": 8135,
      "orted": 8136,
      "Ġpersonally": 8137,
      "Ġcaptured": 8138,
      "met": 8139,
      "Ġguarant": 8140,
      "Ġduties": 8141,
      "Ġagencies": 8142,
      "Ġsau": 8143,
      "Ġshowcases": 8144,
      "Ch": 8145,
      "Ġdeals": 8146,
      "Ġserge": 8147,
      "Ġconfirm": 8148,
      "ician": 8149,
      "Ġedges": 8150,
      "=\"": 8151,
      "alls": 8152,
      "Ġpersist": 8153,
      "Ġperforming": 8154,
      "ĠMa": 8155,
      "Ġperspectives": 8156,
      "Ġversatile": 8157,
      "IT": 8158,
      "Ġdedication": 8159,
      "Ġroads": 8160,
      "Ġparaphrase": 8161,
      "ĠDavid": 8162,
      "18": 8163,
      "Ġsher": 8164,
      "Ġingredient": 8165,
      "Ġattractive": 8166,
      "Ġeleven": 8167,
      "Ġkinds": 8168,
      "Ġmerry": 8169,
      "Ġfootball": 8170,
      "elle": 8171,
      "Ġtouched": 8172,
      "Ġ:": 8173,
      "Ġbuff": 8174,
      "Ġmurdered": 8175,
      "bow": 8176,
      "Ġunion": 8177,
      "atable": 8178,
      "Ġdriver": 8179,
      "ĠSimilar": 8180,
      "urning": 8181,
      "Ġdine": 8182,
      "ĠImplement": 8183,
      "Ġextr": 8184,
      "Ġlively": 8185,
      "Ġreference": 8186,
      "four": 8187,
      "equ": 8188,
      "Ġstack": 8189,
      "Ġprayers": 8190,
      "ĠPost": 8191,
      "Ġunnecess": 8192,
      "Ġbears": 8193,
      "Ġnetworking": 8194,
      "lear": 8195,
      "Ġcolleagues": 8196,
      "Ġcouncil": 8197,
      "Ġlav": 8198,
      "ĠPot": 8199,
      "Ġgrain": 8200,
      "Ġphrases": 8201,
      "Ġprivile": 8202,
      "Ġpunishment": 8203,
      "ĠClass": 8204,
      "makers": 8205,
      "Ġlayout": 8206,
      "ĠMiddle": 8207,
      "Ġrod": 8208,
      "Ġpeel": 8209,
      "Ġboundaries": 8210,
      "Ġarrangements": 8211,
      "Ġoz": 8212,
      "Ġadoption": 8213,
      "Ġinquire": 8214,
      "Ġted": 8215,
      "Ġdurable": 8216,
      "gery": 8217,
      "Ġshredded": 8218,
      "Ġmothers": 8219,
      "Ġevidently": 8220,
      "Ġglorious": 8221,
      "Ġpraise": 8222,
      "Ġgranted": 8223,
      "Ġshaped": 8224,
      "Ġchamber": 8225,
      "udge": 8226,
      "Ġcorrupt": 8227,
      "ĠCath": 8228,
      "asures": 8229,
      "Ġinhab": 8230,
      "ĠCanada": 8231,
      "Ġfiction": 8232,
      "ĠGold": 8233,
      "Ġlyrics": 8234,
      "ĠMet": 8235,
      "Ġaccepted": 8236,
      "ifies": 8237,
      "opt": 8238,
      "Ġparks": 8239,
      "acific": 8240,
      "ĠMo": 8241,
      "Ġartificial": 8242,
      "Ġbegun": 8243,
      "Ġwaited": 8244,
      "Ġpoly": 8245,
      "Ġlightly": 8246,
      "ĠCompany": 8247,
      "ĠPower": 8248,
      "Ġspoon": 8249,
      "Ġproph": 8250,
      "ĠSeason": 8251,
      "Ġcomparison": 8252,
      "Ġphrase": 8253,
      "iances": 8254,
      "Ġchecks": 8255,
      "Ġepis": 8256,
      "Ġpromotions": 8257,
      "Ġballs": 8258,
      "iller": 8259,
      "Ġinjuries": 8260,
      "inity": 8261,
      "Ġmc": 8262,
      "Ġscru": 8263,
      "rence": 8264,
      "Ġpossibility": 8265,
      "Ġneut": 8266,
      "Ġshadows": 8267,
      "Ġelegant": 8268,
      "bour": 8269,
      "Ġimmense": 8270,
      "worthy": 8271,
      "Ġwinds": 8272,
      "Ġdespair": 8273,
      "active": 8274,
      "Ġresponsive": 8275,
      "Ġgrows": 8276,
      "Ġcottage": 8277,
      "Ġadventures": 8278,
      "Ġvacation": 8279,
      "Ġartifact": 8280,
      "ĠVR": 8281,
      "ĠProject": 8282,
      "Ġexped": 8283,
      "Ġwinning": 8284,
      "Ġauthorities": 8285,
      "Ġunif": 8286,
      "14": 8287,
      "andy": 8288,
      "Ġmanners": 8289,
      "Ġwreck": 8290,
      "Ġimmune": 8291,
      "Ġformation": 8292,
      "Ġlordship": 8293,
      "Ġhappening": 8294,
      "ieu": 8295,
      "gon": 8296,
      "Ġgenuine": 8297,
      "Ġconference": 8298,
      "Ġpul": 8299,
      "Ġmeasurements": 8300,
      "Ġnotifications": 8301,
      "Ġoverc": 8302,
      "Ġgovernments": 8303,
      "Ġcriteria": 8304,
      "Ġdestroyed": 8305,
      "Ġ2016": 8306,
      "connect": 8307,
      "Ġnob": 8308,
      "Ġpaintings": 8309,
      "Ġlists": 8310,
      "Ġconstit": 8311,
      "iders": 8312,
      "Ġnearer": 8313,
      "Ġcord": 8314,
      "IS": 8315,
      "`,": 8316,
      "Ġstiff": 8317,
      "Ġnephew": 8318,
      "Ġpinch": 8319,
      "cery": 8320,
      "ifting": 8321,
      "ĠOb": 8322,
      "ĠHy": 8323,
      "Ġbreathe": 8324,
      "Ġfierce": 8325,
      "Ġunusual": 8326,
      "Ġtid": 8327,
      "Ġtherm": 8328,
      "Ġhumanity": 8329,
      "Ġtechnological": 8330,
      "ua": 8331,
      "Ġbanks": 8332,
      "ĠRegular": 8333,
      "Ġroots": 8334,
      "Ġfourth": 8335,
      "andal": 8336,
      "cont": 8337,
      "vations": 8338,
      "Ġrestrictions": 8339,
      "Ġwing": 8340,
      "ĠBel": 8341,
      "orship": 8342,
      "Ġknees": 8343,
      "Ġfits": 8344,
      "Ġmask": 8345,
      "Ġfools": 8346,
      "ĠBlue": 8347,
      "ĠCommunity": 8348,
      "Ġradio": 8349,
      "Ġoppos": 8350,
      "Ġgenius": 8351,
      "Ġcomprom": 8352,
      "Ġwhisper": 8353,
      "Ġpresently": 8354,
      "Ġinitiative": 8355,
      "Ġreject": 8356,
      "Ġterr": 8357,
      "ĠHeat": 8358,
      "Ġwond": 8359,
      "Ġovers": 8360,
      "Ġelder": 8361,
      "Ġtargeting": 8362,
      "Ġinfluences": 8363,
      "taking": 8364,
      "Ġspray": 8365,
      "ĠWhite": 8366,
      "ĠWhich": 8367,
      "Ġshalt": 8368,
      "Ġfolly": 8369,
      "Ġenjoyable": 8370,
      "istr": 8371,
      "Ġorch": 8372,
      "Ġbrill": 8373,
      "ĠNote": 8374,
      "abet": 8375,
      "rror": 8376,
      "Ġtempt": 8377,
      "ĠList": 8378,
      "Ġaccurately": 8379,
      "ca": 8380,
      "Ġinvite": 8381,
      "Ġtip": 8382,
      "Ġcalming": 8383,
      "cip": 8384,
      "Ġthar": 8385,
      "Ġexpans": 8386,
      "Ġroutes": 8387,
      "Ġdemocr": 8388,
      "Ġwasn": 8389,
      "Ġjam": 8390,
      "ĠOlymp": 8391,
      "ĠDepartment": 8392,
      "Ġcoal": 8393,
      "issance": 8394,
      "fry": 8395,
      "Ġgoddess": 8396,
      "Ġintent": 8397,
      "Ġflakes": 8398,
      "ĠMil": 8399,
      "iffer": 8400,
      "ĠChick": 8401,
      "ĠRel": 8402,
      "Ġinfect": 8403,
      "cled": 8404,
      "Ġuniversities": 8405,
      "Ġrecycling": 8406,
      "Ġsequence": 8407,
      "ĠEnter": 8408,
      "utive": 8409,
      "Ġdoctors": 8410,
      "Ġadults": 8411,
      "Ġsincere": 8412,
      "Ġyouyou": 8413,
      "Ġray": 8414,
      "uns": 8415,
      "Ġdistractions": 8416,
      "pel": 8417,
      "eto": 8418,
      "Ġvon": 8419,
      "ĠMr": 8420,
      "Ġappointment": 8421,
      "Ġmassive": 8422,
      "Ġunlike": 8423,
      "ĠGovern": 8424,
      "Ġresulted": 8425,
      "Ġedward": 8426,
      "Ġentry": 8427,
      "solving": 8428,
      "Ġbush": 8429,
      "Ġminer": 8430,
      "Ġpromotion": 8431,
      "kay": 8432,
      "ĠMag": 8433,
      "afe": 8434,
      "Ġattrib": 8435,
      "Ġfaint": 8436,
      "oren": 8437,
      "ĠMac": 8438,
      "Ġamounts": 8439,
      "ta": 8440,
      "Ġsupportive": 8441,
      "Ġquote": 8442,
      "Ġprotest": 8443,
      "lessness": 8444,
      "class": 8445,
      "Ġsar": 8446,
      "inated": 8447,
      "Ġwhist": 8448,
      "ĠUnion": 8449,
      "Ġpanels": 8450,
      "Ġrituals": 8451,
      "Ġhotels": 8452,
      "Ġbor": 8453,
      "Ġtransformation": 8454,
      "Ġtu": 8455,
      "ishes": 8456,
      "...": 8457,
      "Ġhaste": 8458,
      "Ġdiscour": 8459,
      "Ġmale": 8460,
      "Ġcliff": 8461,
      "Ġmathemat": 8462,
      "emon": 8463,
      "++": 8464,
      "Ġintensity": 8465,
      "Ġtwists": 8466,
      "ggy": 8467,
      "Ġbrute": 8468,
      "Ġmindful": 8469,
      "Ġrefuge": 8470,
      "Ġsensors": 8471,
      "bit": 8472,
      "Ġretreat": 8473,
      "ĠRoad": 8474,
      "ĠWho": 8475,
      "ĠÂ": 8476,
      "Ġdeed": 8477,
      "Ġwore": 8478,
      "Ġstan": 8479,
      "Ġcares": 8480,
      "bby": 8481,
      "Ġdared": 8482,
      "Ġeve": 8483,
      "Ġhumble": 8484,
      "Ġmelody": 8485,
      "iana": 8486,
      "Ġbasis": 8487,
      "Ġvulnerable": 8488,
      "ĠPresident": 8489,
      "ĠChild": 8490,
      "Ġeaten": 8491,
      "Ġemphasize": 8492,
      "ĠMax": 8493,
      "Ġnevertheless": 8494,
      "Ġrack": 8495,
      "elly": 8496,
      "Ġdrama": 8497,
      "fish": 8498,
      "Ġbranding": 8499,
      "Ġincident": 8500,
      "Ġextent": 8501,
      "fess": 8502,
      "Ġsatisfy": 8503,
      "Ġinfluencer": 8504,
      "Ġjones": 8505,
      "Ġchemical": 8506,
      "Ġprecisely": 8507,
      "ĠHope": 8508,
      "11": 8509,
      "Ġattendees": 8510,
      "Ġsunset": 8511,
      "Ġclay": 8512,
      "ĠProduct": 8513,
      "Ġbattles": 8514,
      "ez": 8515,
      "Ġgiant": 8516,
      "Ġactual": 8517,
      "arks": 8518,
      "Ġkilling": 8519,
      "Ġproducing": 8520,
      "Ġsquire": 8521,
      "ĠBer": 8522,
      "ĠEven": 8523,
      "ĠMem": 8524,
      "ĠDear": 8525,
      "izers": 8526,
      "Ġsorted": 8527,
      "Ġsynth": 8528,
      "Ġofferings": 8529,
      "Ġtiny": 8530,
      "akin": 8531,
      "ĠJour": 8532,
      "bird": 8533,
      "Ġopposite": 8534,
      "Ġbible": 8535,
      "Ġelev": 8536,
      "ba": 8537,
      "Ġbirthday": 8538,
      "Ġdiplom": 8539,
      "oline": 8540,
      "Ġrecollect": 8541,
      "ĠStore": 8542,
      "Ġportray": 8543,
      "Ġterrit": 8544,
      "Ġvictim": 8545,
      "vere": 8546,
      "Ġproc": 8547,
      "Ġherb": 8548,
      "Ġreveal": 8549,
      "Ġpace": 8550,
      "ĠJan": 8551,
      "Ġdevelopments": 8552,
      "Ġsaturday": 8553,
      "Ġapproximately": 8554,
      "abil": 8555,
      "Ġgrie": 8556,
      "Ġunp": 8557,
      "Ġclo": 8558,
      "AN": 8559,
      "table": 8560,
      "Ġruined": 8561,
      "ulty": 8562,
      "Ġobjection": 8563,
      "Ġrepent": 8564,
      "Ġphotography": 8565,
      "Ġwidow": 8566,
      "fly": 8567,
      "uri": 8568,
      "Ġpumpkin": 8569,
      "Ġshades": 8570,
      "ĠPublic": 8571,
      "Ġburned": 8572,
      "Ġwashington": 8573,
      "Ġmuseums": 8574,
      "Ġaccompany": 8575,
      "Ġcamping": 8576,
      "Ġfried": 8577,
      "Ġwra": 8578,
      "________": 8579,
      "ĠLife": 8580,
      "ĠManagement": 8581,
      "ĠBen": 8582,
      "Ġframework": 8583,
      "dr": 8584,
      "Ġjail": 8585,
      "Ġrestore": 8586,
      "Ġpeas": 8587,
      "Ġimplications": 8588,
      "oria": 8589,
      "emary": 8590,
      "high": 8591,
      "Ġawe": 8592,
      "sized": 8593,
      "ya": 8594,
      "Ġpecul": 8595,
      "Ġburden": 8596,
      "ĠFire": 8597,
      "Ġautomatically": 8598,
      "Ġticket": 8599,
      "Ġjoined": 8600,
      "Ġzucchini": 8601,
      "Ġbeaten": 8602,
      "Ġtests": 8603,
      "ĠBra": 8604,
      "Ġwot": 8605,
      "Ġacted": 8606,
      "Ġpreviously": 8607,
      "ĠâĢ": 8608,
      "ĠWhether": 8609,
      "Ġcheap": 8610,
      "who": 8611,
      "Ġborder": 8612,
      "Ġweep": 8613,
      "sthe": 8614,
      "cks": 8615,
      "Ġcents": 8616,
      "ĠMont": 8617,
      "Ġinvited": 8618,
      "Ġsuspected": 8619,
      "Ġharmony": 8620,
      "Ġwhoever": 8621,
      "ĠQue": 8622,
      "ĠEngland": 8623,
      "OR": 8624,
      "ĠTechnology": 8625,
      "Ġmythology": 8626,
      "omed": 8627,
      "inlaw": 8628,
      "Ġbrace": 8629,
      "Ġmaple": 8630,
      "Ġlinked": 8631,
      "Ġalco": 8632,
      "bridge": 8633,
      "40": 8634,
      "iner": 8635,
      "ĠInvest": 8636,
      "Ġcandle": 8637,
      "good": 8638,
      "Ġpy": 8639,
      "anqu": 8640,
      "Ġstruggled": 8641,
      "Ġblessing": 8642,
      "Ġkate": 8643,
      "inson": 8644,
      "ĠBeach": 8645,
      "ĠAg": 8646,
      "Ġdistant": 8647,
      "Ġnormal": 8648,
      "actor": 8649,
      "hearted": 8650,
      "ocation": 8651,
      "Ġalternatives": 8652,
      "Ġbeings": 8653,
      "ĠVal": 8654,
      "Ġreduces": 8655,
      "Ġpeculiar": 8656,
      "ĠCoc": 8657,
      "Ġmant": 8658,
      "Ġkit": 8659,
      "cut": 8660,
      "Ġbrains": 8661,
      "comp": 8662,
      "iber": 8663,
      "Ġdefense": 8664,
      "Ġexceptional": 8665,
      "Ġcharged": 8666,
      "Ġtowns": 8667,
      "ori": 8668,
      "Ġsed": 8669,
      "ano": 8670,
      "Ġeager": 8671,
      "geon": 8672,
      "Ġadvertise": 8673,
      "Ġpossibilities": 8674,
      "Ġblo": 8675,
      "ĠBay": 8676,
      "Ġfeared": 8677,
      "Ġpopularity": 8678,
      "Ġstom": 8679,
      "Ġunre": 8680,
      "ynth": 8681,
      "ĠHindu": 8682,
      "Ġthroat": 8683,
      "Ġtrim": 8684,
      "Ġdeer": 8685,
      "usable": 8686,
      "ĠDig": 8687,
      "Ġshower": 8688,
      "Ġmum": 8689,
      "unks": 8690,
      "Ġchase": 8691,
      "Ġmodify": 8692,
      "Ġore": 8693,
      "nuts": 8694,
      "Ġacknowledge": 8695,
      "onic": 8696,
      "ĠWall": 8697,
      "ĠElect": 8698,
      "Ġdirections": 8699,
      "which": 8700,
      "umbs": 8701,
      "Ġoptimal": 8702,
      "Ġessence": 8703,
      "Ġhearty": 8704,
      "Ġsoda": 8705,
      "Ġcompliment": 8706,
      "Ġstairs": 8707,
      "Ġpurchasing": 8708,
      "Ġtin": 8709,
      "isl": 8710,
      "Ġsegment": 8711,
      "och": 8712,
      "ĠAcad": 8713,
      "Ġlayers": 8714,
      "formation": 8715,
      "lot": 8716,
      "Ġod": 8717,
      "Ġrivers": 8718,
      "lar": 8719,
      "Ġgrounds": 8720,
      "rust": 8721,
      "CT": 8722,
      "Ġinvested": 8723,
      "Ġcombinations": 8724,
      "Ġretailers": 8725,
      "Ġtech": 8726,
      "Ġunnecessary": 8727,
      "MS": 8728,
      "Ġmour": 8729,
      "Ġanswered": 8730,
      "onna": 8731,
      "ĠInstitute": 8732,
      "ĠMedia": 8733,
      "Ġrh": 8734,
      "Ġknocked": 8735,
      "add": 8736,
      "Ġimmediate": 8737,
      "Ġlibraries": 8738,
      "16": 8739,
      "Ġcoco": 8740,
      "ppy": 8741,
      "ĠFore": 8742,
      "Ġofficials": 8743,
      "ĠBu": 8744,
      "Ġweary": 8745,
      "ĠGard": 8746,
      "Ġaddressed": 8747,
      "Ġprivacy": 8748,
      "ĠLight": 8749,
      "ĠEst": 8750,
      "Ġtire": 8751,
      "ĠBring": 8752,
      "Ġcalendar": 8753,
      "Ġbroccoli": 8754,
      "ĠStar": 8755,
      "Ġprominent": 8756,
      "Ġtap": 8757,
      "yon": 8758,
      "ĠPan": 8759,
      "Ġtheater": 8760,
      "osion": 8761,
      "Ġpistol": 8762,
      "etime": 8763,
      "Ġkeen": 8764,
      "Ġcontainers": 8765,
      "Ġgear": 8766,
      "Ġcomin": 8767,
      "itle": 8768,
      "Ġfinance": 8769,
      "gage": 8770,
      "Ġgw": 8771,
      "ĠBoth": 8772,
      "Ġsteak": 8773,
      "inse": 8774,
      "Ġaston": 8775,
      "Ġmostly": 8776,
      "Ġuncover": 8777,
      "Ġmoves": 8778,
      "Ġtourists": 8779,
      "Ġseal": 8780,
      "ĠStay": 8781,
      "Ġreporting": 8782,
      "Ġhundreds": 8783,
      "Ġfraud": 8784,
      "Ġdisappointed": 8785,
      "Ġabstract": 8786,
      "ĠCoun": 8787,
      "graph": 8788,
      "ĠMichael": 8789,
      "Ġsergeant": 8790,
      "Ġvisible": 8791,
      "actions": 8792,
      "usions": 8793,
      "ifully": 8794,
      "Ġextended": 8795,
      "Ġemployed": 8796,
      "Ġrelation": 8797,
      "Ġnode": 8798,
      "ĠGrand": 8799,
      "Ġwalks": 8800,
      "Ġregional": 8801,
      "ritious": 8802,
      "Ġinclined": 8803,
      "Ġassemb": 8804,
      "Ġoak": 8805,
      "Ġapparent": 8806,
      "Ġindependence": 8807,
      "about": 8808,
      "Ġindigenous": 8809,
      "Ġdragon": 8810,
      "Ġhydro": 8811,
      "Ġfrust": 8812,
      "Ġsuggestion": 8813,
      "Ġtailor": 8814,
      "Ġmagnific": 8815,
      "liament": 8816,
      "Ġvoy": 8817,
      "Ġmidnight": 8818,
      "Ġtickets": 8819,
      "ĠTre": 8820,
      "Ġsplit": 8821,
      "ĠCap": 8822,
      "\"?": 8823,
      "vable": 8824,
      "Ġgrammar": 8825,
      "Ġsticks": 8826,
      "Ġattached": 8827,
      "Ġende": 8828,
      "Ġneighbour": 8829,
      "ober": 8830,
      "Ġbishop": 8831,
      "Ġauthors": 8832,
      "Ġdesires": 8833,
      "Ġreceiving": 8834,
      "Ġinterior": 8835,
      "eters": 8836,
      "Ġnic": 8837,
      "ĠRest": 8838,
      "Ġcolour": 8839,
      "ĠNative": 8840,
      "Ġbanana": 8841,
      "Ġgaming": 8842,
      "Ġcope": 8843,
      "Ġbonds": 8844,
      "Ġemerging": 8845,
      "rus": 8846,
      "Ġseas": 8847,
      "Ġpresents": 8848,
      "Ġpacked": 8849,
      "Ġempire": 8850,
      "Ġtheatre": 8851,
      "phones": 8852,
      "Ġrascal": 8853,
      "Ġeleph": 8854,
      "Ġrejo": 8855,
      "Ġsmoked": 8856,
      "Ġfired": 8857,
      "ĠDist": 8858,
      "Ġstrengthen": 8859,
      "Ġdemands": 8860,
      "Ġenchant": 8861,
      "break": 8862,
      "Ġcaptiv": 8863,
      "pleasant": 8864,
      "70": 8865,
      "Ġdey": 8866,
      "Ġactively": 8867,
      "Ġadopted": 8868,
      "Ġnutritious": 8869,
      "enne": 8870,
      "Ġmint": 8871,
      "ĠSk": 8872,
      "Ġcomponent": 8873,
      "cal": 8874,
      "Ġtreacher": 8875,
      "Ġintuitive": 8876,
      "Ġexpecting": 8877,
      "Ġcommittee": 8878,
      "Ġretention": 8879,
      "Ġhospitality": 8880,
      "Ġstain": 8881,
      "Ġmisunder": 8882,
      "ĠMal": 8883,
      "Ġfuss": 8884,
      "Ġgrocery": 8885,
      "Ġcaptures": 8886,
      "ĠRef": 8887,
      "ĠBro": 8888,
      "Ġoptimizing": 8889,
      "Ġkeys": 8890,
      "Ġdisasters": 8891,
      "Ġfundra": 8892,
      "Ġeternal": 8893,
      "Ġchart": 8894,
      "Ġediting": 8895,
      "anna": 8896,
      "Ġindicate": 8897,
      "Ġtelephone": 8898,
      "una": 8899,
      "Ġmindset": 8900,
      "ĠPass": 8901,
      "Ġendless": 8902,
      "Ġoath": 8903,
      "Ġvisualization": 8904,
      "Ġexpressed": 8905,
      "Ġignorant": 8906,
      "ĠYouT": 8907,
      "Ġdiamond": 8908,
      "ĠMexican": 8909,
      "Ġloan": 8910,
      "Ġnewspaper": 8911,
      "Ġdrove": 8912,
      "Ġstriking": 8913,
      "war": 8914,
      "Ġdrift": 8915,
      "Ġannounce": 8916,
      "Ġrailroad": 8917,
      "irts": 8918,
      "income": 8919,
      "Ġthrive": 8920,
      "Ġpunch": 8921,
      "Ġnations": 8922,
      "Ġmetaphors": 8923,
      "Ġvolunteers": 8924,
      "Ġpositions": 8925,
      "ikes": 8926,
      "Ġmeasuring": 8927,
      "ometric": 8928,
      "Ġidentified": 8929,
      "Ġdefine": 8930,
      "scale": 8931,
      "Ġdaylight": 8932,
      "Ġpreventing": 8933,
      "ĠEnd": 8934,
      "Ġ60": 8935,
      "Ġexhaust": 8936,
      "ĠSat": 8937,
      "ĠFresh": 8938,
      "Ġpiano": 8939,
      "ĠIdentify": 8940,
      "iams": 8941,
      "Ġhub": 8942,
      "Ġ--": 8943,
      "pur": 8944,
      "Ġhip": 8945,
      "Ġconcrete": 8946,
      "Ġdairy": 8947,
      "Ġconcerning": 8948,
      "Ġtoler": 8949,
      "ĠIslamic": 8950,
      "Ġbackgrounds": 8951,
      "Ġearned": 8952,
      "ctober": 8953,
      "Ġequally": 8954,
      "ĠBur": 8955,
      "Ġbands": 8956,
      "Ġisolation": 8957,
      "plant": 8958,
      "Ġmakeup": 8959,
      "ilton": 8960,
      "Ġjerry": 8961,
      "Ġannounced": 8962,
      "Ġmotive": 8963,
      "Ġamongst": 8964,
      "Ġsketch": 8965,
      "ĠFoundation": 8966,
      "Ġfarmer": 8967,
      "Ġmetaphor": 8968,
      "Ġstomach": 8969,
      "mental": 8970,
      "ĠParmesan": 8971,
      "Ġsections": 8972,
      "Ġcontest": 8973,
      "Ġperseverance": 8974,
      "Pro": 8975,
      "Ġmentions": 8976,
      "Ġexplained": 8977,
      "Ġpron": 8978,
      "Ġcolumn": 8979,
      "Ġmuff": 8980,
      "Ġrobber": 8981,
      "Ġstole": 8982,
      "Ġbottles": 8983,
      "ĠShow": 8984,
      "Ġtales": 8985,
      "bro": 8986,
      "Ġregards": 8987,
      "Ġslightest": 8988,
      "fred": 8989,
      "Ġtorn": 8990,
      "Ġtoast": 8991,
      "Ġprovider": 8992,
      "bing": 8993,
      "Ġstreaming": 8994,
      "Ġscatter": 8995,
      "Ġdisappear": 8996,
      "Ġshine": 8997,
      "ĠRock": 8998,
      "Ġduration": 8999,
      "Ġsuspicious": 9000,
      "cia": 9001,
      "Ġtourist": 9002,
      "pal": 9003,
      "Ġeditor": 9004,
      "Ġspecified": 9005,
      "Ġnerves": 9006,
      "ĠLinked": 9007,
      "Ġbess": 9008,
      "ravel": 9009,
      "Ġnick": 9010,
      "Ġremembered": 9011,
      "ĠCur": 9012,
      "Ġworldwide": 9013,
      "Ġcanvas": 9014,
      "Ġegypt": 9015,
      "Ġbin": 9016,
      "intage": 9017,
[...]
